/**
  ******************************************************************************
  * @file    network_data.c
  * @author  AST Embedded Analytics Research Platform
  * @date    2026-01-07T14:25:29+0000
  * @brief   AI Tool Automatic Code Generator for Embedded NN computing
  ******************************************************************************
  * Copyright (c) 2026 STMicroelectronics.
  * All rights reserved.
  *
  * This software is licensed under terms that can be found in the LICENSE file
  * in the root directory of this software component.
  * If no LICENSE file comes with this software, it is provided AS-IS.
  ******************************************************************************
  */

#include "network_data.h"
STAI_ALIGNED(8)
const uint64_t g_network_weights_array[73233] = {
  0xbdc48a3b3e822013U, 0x3de218f7be332dd8U, 0x3e08191bbd919c3dU, 0xbd83c988be90e596U,
  0x3e915dfbbe4e74c2U, 0x3dbcb382be5d0108U, 0xbce79d063d9e865cU, 0xbe233f9d3dced6b8U,
  0x3e86490c3d1512cdU, 0x3e082d1bbe8070f4U, 0x3da11d27bde44d32U, 0x3e71ecec3dc53623U,
  0xbe5d7606be558b91U, 0x3e813a44bdfe15ccU, 0xbdb5b2a2bbece9a4U, 0xbd3c1cc9be352a1fU,
  0x3d705829bdfbdce7U, 0xbe1d8dfe3dc8f79cU, 0xbda6633abe8be570U, 0xbe4d62a8be1adda5U,
  0x3e573eb33c4ab17fU, 0x3e2c44d63e4264a2U, 0x3e9dc8213dc4ec7aU, 0x3e673d5dbe60d79aU,
  0xbe01ec533e681709U, 0xbe721388be1e8b89U, 0x3ca735db3e420d44U, 0x3e961fb43e590801U,
  0xbdfe23bb3dcb67e2U, 0xbd8fa83e3bfbfbefU, 0xbbee37423e8ca28cU, 0xbd811f3b3d97a2bdU,
  0x3d394e323e71a5e1U, 0x3c6cce49bdf8965eU, 0x3e448bfdbe2af65eU, 0x3db589eb3e6b061bU,
  0xbe5da7543e06f7d9U, 0x3decf31b3d9101dcU, 0xbe40ef75bd220580U, 0x3e86df333e8feda0U,
  0x3dded3f3be05ef22U, 0x3e41bb2b3e431b28U, 0xbaa09967be42ac73U, 0xbe9e701ebdd3fd59U,
  0x3dd79403be6ce958U, 0x3c5972d73e4e3dafU, 0x3e52be79be158d2eU, 0x3d33bd323e5b1b97U,
  0x3dbab5a6bddd31b3U, 0x3e4e9790be9f14b1U, 0xbd47fe9ebe671284U, 0xbe26a31bbe95ae2cU,
  0xbe888e09bc33151fU, 0x3e71128c3d4c883eU, 0xbdc6f8213df25623U, 0x3e6aaa67bdbd03cfU,
  0xbbc774083e884740U, 0x3d8da53abe099223U, 0xbe07868ebe8b4911U, 0x3e101492be96d088U,
  0xbe586edcbdf2e494U, 0xbe970b89bd7129faU, 0x3e5eab42bded8ea2U, 0x3e894d383e2f8151U,
  0x3e18b8493db2d205U, 0x3e0606633cdd2470U, 0xbe83b9c23cfa54aaU, 0xbe2ca8a3bd479e86U,
  0xbd2045cdbd7b56c9U, 0xbca8bfe03c3fbf67U, 0xbd8e5a443d4f82d3U, 0xbe29b1953e3a0613U,
  0xbda3c76f3d984714U, 0xbe53ee7c3e808d9fU, 0x39c1b593be32d6eaU, 0xbd937893bdeb188cU,
  0x3e13693a3e8c0c02U, 0x3e9de21cbcdf636bU, 0xbbe1a82c3e74cdafU, 0xbd8c46b0bdba54d3U,
  0xbca80f573e81ead3U, 0xbc81605abe1676adU, 0xbe2555473e9251d0U, 0x3c3342d1be390839U,
  0x3e88f351be2e6920U, 0xbe7e749e3dcc5a5fU, 0x3e25ca48bd9560c0U, 0xbdc78a17bc9a725aU,
  0x3e6bf5763e4a4f08U, 0xbe67ca313e027482U, 0x3e8f24213e458201U, 0x3e966694bcf51fafU,
  0xbe7df718be4b551bU, 0x3e07761fbe958e6cU, 0xbe58b339bcfae750U, 0xbe467a913d31f8cbU,
  0x3e0695e7be92a57cU, 0xbe6c26bcbc937a46U, 0x3e7132c03e6ec99bU, 0x3d6e44bd3d55329fU,
  0xbd9ecc1bbe942717U, 0x3d680fda3e4fa2a5U, 0x3e781dc7be474e6eU, 0xbe76b5ffbe906b18U,
  0x3e5dc37b3e8a2868U, 0xbc1881ccbd9b013fU, 0xbd5422963e03743fU, 0xbe83d46a3e268159U,
  0xbd730674be0eaa66U, 0xbe8be648bd07f522U, 0xbca8346bbe76ed47U, 0xbda81c633d91b909U,
  0xbd5166563df37c2bU, 0xbd3a046cbe92e23aU, 0xbd1592b7be8a2adbU, 0xbc6096f33e6a05dbU,
  0xbc8086f2bc324834U, 0x3df32261bd98f084U, 0xbe3d7643be849b73U, 0x3e1038a6be2cc9fdU,
  0x3d1f99243e918840U, 0x3d1f93babe7c553dU, 0xbc7118dc3ba0ffddU, 0x3cd86f60bd8651e5U,
  0x3e155dae3e84f278U, 0x3e8d55333e7eee47U, 0x3e5d86ab3e226288U, 0xbe7cb18abd1ae81cU,
  0xbe96b667be20ca55U, 0x3e87877cbe3261e8U, 0xbe2fdfab3dab7c48U, 0xbe443ca7be8d1a99U,
  0x3dfe2fc0be6f961bU, 0x3c9602253e2ee3b4U, 0xbe5c4591bdc8cf27U, 0x3e515a46bd7e2cf6U,
  0xbe3011e43c15bd9bU, 0x3d6f22f83daaaf9aU, 0xbdff102c3e5cb269U, 0xbdc208b4be3d15aaU,
  0x3e49b3a03e9b01f1U, 0xbe40cb75bcff8ae8U, 0xbe9379ffbe423980U, 0x3d5b1b0fbdf906baU,
  0x3e89893dbcc1d34cU, 0xbe3d78aa3e3e50abU, 0xbe09b6e93e0067edU, 0xbd6b74edbe457224U,
  0x3e30a7f1bd84c4e4U, 0x3d187db93e5a2dfcU, 0x3e5e2f4cbd04e97aU, 0xbe4c08b9bc962fecU,
  0xbc817f943e008adeU, 0x3dde56c93dc1ae7aU, 0x3d8f65523ca5255cU, 0x3de4a6f7be2b545eU,
  0x3e628e633e8f8a61U, 0xbd3e15c33e340e68U, 0x3ea15ed53e8f906dU, 0x3e6701bc3e5a8f8bU,
  0x3c92533cbde1bdd0U, 0x3e69295dbe35e1b6U, 0xbe25fb72be1d3098U, 0x3e75f924be28f5f8U,
  0x3dc07083be379517U, 0xbd2d904bbe26570bU, 0xbe769c34be630c19U, 0x3cd7ed023e70797bU,
  0x3c31a13cbe5aa263U, 0xbd650144bd684e59U, 0x3d81f4f1bdf956daU, 0x3e41f0e0be228810U,
  0xbcf83770be281b30U, 0xbe8a70153e9cc3dfU, 0x3db39efa3e5bdd1fU, 0x3e67cdcd3da3db3dU,
  0xbc0508adbb7a21b6U, 0x3cefd2d2bc0ac512U, 0x3c69fce63c9a0b6fU, 0x3c4b895c3d0371e2U,
  0x3bc105c8bc72b946U, 0xbb9ac29ebcff57c5U, 0xbce2c0febc0cfb13U, 0xbca69d9c3c10ef68U,
  0x3ced7802bcb1ea02U, 0xbc266ec1bc84532dU, 0xb996d5a53c85871dU, 0x3ce67d3b3c85ad81U,
  0x3ccfc2783c41f084U, 0xbcef6506bc7af0b9U, 0xbcbcf839bc93bd5aU, 0xbc603c1abbf53cacU,
  0xbc9e51ec3c84aac3U, 0x3a9d7ecabced4030U, 0xbca62d623ceeefe8U, 0x3c3caa54bb41ef63U,
  0xbc7a2e82bb18af91U, 0xbc4c2ffa3caa3867U, 0x3caef2763cc04c65U, 0x3b3d72eb3c1a4cabU,
  0x3c24e9a6bc9b1d5aU, 0x3ca20d273ba87fadU, 0x3c20104f3ce44139U, 0xbc9f423ebcc7e762U,
  0x3cfdd8413b750462U, 0xbce6e8c5bc93d3c4U, 0x3c86eaccbc96768aU, 0xbcefa54abd0080c8U,
  0x3cbae3a2bcd16cbdU, 0xbcc78995bbf59686U, 0x3cc18a933c8d542fU, 0xbbd3527abc7d3ab4U,
  0x3baef4ba3c0fdbaaU, 0x3cd297913abfb79bU, 0x3cd9eb76bc83d62dU, 0xbae4c29b3a9ea43bU,
  0x3bd99eeebc3ee352U, 0x3ba5a33b3c9f6159U, 0xbc4514903b7528caU, 0xbcd92cab3cd493c8U,
  0x3c8b5ab83cc328e9U, 0xbc7438053bd6f87bU, 0x3ce13234bc7516faU, 0x3c753f183cc689faU,
  0xbc38b2763c195d9cU, 0x3cc60cad3c110a5bU, 0x3bcad5613aa6a3e1U, 0xbd01fe83bc9f9781U,
  0xbcbd9d24bba5822eU, 0x3cbefd57bc3e1110U, 0x3c28b3c0bceb0003U, 0xbc1b80afbc0b8248U,
  0xbce556863ce50de7U, 0xbc1a86063cfaec8fU, 0xbcabb291bcabeb32U, 0x3b418776bcd55683U,
  0x3cd92dafbca8604cU, 0xbb9eab453ca0224dU, 0x3c7b2fcebcfaa2e4U, 0xbc510e90bc92d051U,
  0xbb8739803c8c7afbU, 0x3be606d7bc14fc55U, 0xbb50d204bd00941aU, 0xbccf7bdcbbcd7291U,
  0xbb5503febc598234U, 0x3ccbceca3cbf356fU, 0x3cb4e197bb83aacdU, 0xbcf52429bbe5bf28U,
  0xbc862dcabbdd0dceU, 0xbcef4f2c3aad107aU, 0xbcfa5767bc5eb027U, 0xbca29f52bca2f491U,
  0x3ccd1af83cc12cb4U, 0xbbf423b83a0da995U, 0x3ad8d8a23cefd6aaU, 0x3cb94f5e3b780b5eU,
  0xbbd51052bad29c51U, 0xbcf16a9b3aed3a72U, 0x3c5f9c323c66758bU, 0xbc2b250f3c91aeb5U,
  0xbc374fa63c977d5aU, 0x3cd468f0bc4a2ca5U, 0xbca2065cbc912090U, 0x3cf4bcb03c7b6da9U,
  0xbbc9edc6bbadb714U, 0xbcabc2943c472477U, 0x3ac684a43c615164U, 0x39d85936bbccdff9U,
  0x3c5fd2ffbca3491eU, 0xbce58737bc8736e9U, 0x3c6b71ffbc9fc3aaU, 0xbb2e18f03c257d94U,
  0x3c562318bc662463U, 0x3c1f1f2bbccf14dfU, 0x394b4eb33c04d69aU, 0xbcb743ff3c35699fU,
  0x3ca6fcff3a45ddb7U, 0xbc10d769bc7fe6bdU, 0x3be26421bcd22a61U, 0x3ce309223c987057U,
  0x3c39ff01bc6f731cU, 0x3c83a542bca68cd3U, 0x3ccd46cdbcd01996U, 0x3c40626cbc187616U,
  0xbceb7f833bcc968cU, 0x3cf9d07c3c8cc8b9U, 0xbcd48836bcbf650aU, 0xbca26ccf3cf71eb5U,
  0x3be1b05c3bf24104U, 0x3ccd2e5ebc9fe3fbU, 0xbb84878f3ceff819U, 0xbc5b29b3bcbd4a9bU,
  0xbc60b93fbcd675a1U, 0x3cddf692ba8a5945U, 0x3972fb363c22a350U, 0x3bcd4a93ba11f059U,
  0xbbe78c1b3ca6bb5aU, 0x3cfeb575bc4739acU, 0x3c62dd313cc6f87eU, 0xba2048b53c4dcdf3U,
  0x3cef9db93c9328cfU, 0xbb4ff9423cb873c9U, 0xbbfae1e8bbc16361U, 0xbcff0233bca90a56U,
  0x3c475369bc8088e0U, 0x3c4fbfcf3c3d643bU, 0xbcfcfd91bc86c9a0U, 0x3c3a78b7b9cb4fbbU,
  0xbb883eb33c9a76fbU, 0xbcb34d0dbc8f03efU, 0xbcde4ae63c1e5646U, 0x3cb599573cdd7979U,
  0x3c59ae703cfb40ceU, 0x3ca787373c8b3c42U, 0xbcccd408bb69ee01U, 0x3c6b82a2bbdbefdaU,
  0x3c789e9f3ce2344aU, 0x3cf70d223ced1a93U, 0x3c969b29bc37da38U, 0x3c907311bcbf3c72U,
  0xbc8cd0913cc2be9fU, 0xbcac70883cde95faU, 0x3cf6be74bcaee30bU, 0x3cee1b83bc7e9b15U,
  0xbb241b7abcb65e31U, 0x3cc4a708bceeeb72U, 0x3d02eae53ce0a613U, 0xbc324a13bc65f2ccU,
  0x3c297eb23ad1c455U, 0x3c63eedebc8a5a47U, 0x3c5334e13cc07a69U, 0x3bd8bc6c3b403918U,
  0xbc8e915d3b983a8aU, 0x3c7760af394aff2cU, 0xbc5e0ddcbbca347dU, 0x3c2d924dbbc7fa94U,
  0x3c2b79afbc8f9d56U, 0x3c8efe413c8f242bU, 0xbc241b1bbc595847U, 0x3c3f5d07bc5214e4U,
  0xbc43875bb9f37ee4U, 0xbc8911f03c4a43c1U, 0x3b28b0ccbcac9423U, 0xbc664c683a5be5d0U,
  0x3c4798413a826791U, 0x3cd1e67bbcd9529fU, 0x3c303a033bfee21eU, 0x3cf51b573cc2371cU,
  0x3cad30c2bcff0edaU, 0x3caf52643cd21f74U, 0xbb77c47ebbc94ffbU, 0x3c096a4bbcaee745U,
  0xbc8cc117bcffa236U, 0xbcccf514bc998772U, 0xbc01adbabc967509U, 0x3c9423a6bc8a3be2U,
  0xbbd75fa9bc1fddabU, 0x3c954e54bc4734afU, 0x3cced5eb3c614518U, 0x3c95ba5cbca20b7aU,
  0xbcf0300c3cd1039dU, 0xbbaddc7c3cb15b61U, 0xbc952179bc954529U, 0xbc51003bbcdbcf36U,
  0x3caf7a0abaab1cfeU, 0xbbf3810ebcebccb7U, 0x3cac237d3b88ce3aU, 0x3b8397eb3b3f7d41U,
  0x3c3821253b92405bU, 0x3c9acee03ca6c116U, 0xbce2c89cbc604deaU, 0xbc7b4ede3c75f43cU,
  0xb948b1733ce6e2eeU, 0x3cb9762bbce87670U, 0x3cdd7ecfbac9f34bU, 0x3cdd2dd7bcba5787U,
  0xbcdf1ce3bb71b31bU, 0x3c33e7d73ca635f7U, 0xbc0f2ffb3cb5a61fU, 0x3ce5f97ebcb5f506U,
  0x3be1a20f3cf557e3U, 0x3cbdf8d1bcd92ff1U, 0x3cecde46baa2b108U, 0x3c6ea6893ced7706U,
  0xbcca32ae3ca3dc3eU, 0x3cf257d43bbbac43U, 0x3b8df7c9bc163e74U, 0x3c819ad73ce071ddU,
  0x3cc298353cd8c32fU, 0xbca95e463ce25c6cU, 0xbc9ca3a23bdf6da3U, 0xbc1ac7553c6dcb68U,
  0x3cd211b03bf87d34U, 0xbcecfab33b3e109dU, 0xbcb88c9fbca1fc6bU, 0xbcd1b0253c293eebU,
  0x3cf6abc4bce20855U, 0xbbf3ef56bbc58469U, 0x3d017ec13ccd3f06U, 0x3a2273523c729c42U,
  0x3bf02cefbc098373U, 0xbc3658363bb2e127U, 0xbc63cb8bbc9ab25eU, 0x3c2071af3cc5a985U,
  0x3ceb13e23d03ee2cU, 0xbc1157613caab4e9U, 0x3cb6fd99bc140807U, 0xbc96509fbc5f0078U,
  0xbc109f7ebcc11bcfU, 0xbc5a8c01bb47cf12U, 0xbb78b5b7bbca501dU, 0xbcf9e5f4bcecb387U,
  0x3cbde0883c5837f4U, 0x3cffda5c3c7e303cU, 0xbca1168f3c965f53U, 0xbc92a3793c50342cU,
  0xbc34f8313c8d1f95U, 0xbcaac0713aad3f78U, 0x3789af3f3cf19167U, 0xbccd4907bccbd0cdU,
  0xbbfdd24dbcf51e5eU, 0xbb397d6c3d0387e7U, 0x3cea5eadbbe4cf3aU, 0xbcddfe8d3cd59c33U,
  0xbceabc40bcd8f5b8U, 0xbd028d65bcedb80fU, 0xbccec58abc9fb38bU, 0xbaa767fbbbf16700U,
  0xbcc11205bcc1ad33U, 0x3c764ae9bcd316b4U, 0xbc250678bcea465dU, 0xbc210080bca9a143U,
  0xbd01a733bc766a0eU, 0x3b19ff5bbbbb24bdU, 0x3ce36c293c57290dU, 0xbd031bebbb1b9699U,
  0x3c854caebc5afbebU, 0xbc94ef74bc083b4bU, 0xbc128a333c1b5fafU, 0x3cc05409bc0e9556U,
  0xba27e345b9d75b25U, 0xbca01706bb168a82U, 0x3c7b9ca7bbc90a45U, 0xbb6cc3283c41d346U,
  0x3c4c51c93c1b2dc1U, 0xbb66ebfe3d0411a0U, 0xbc209160bc648b6fU, 0x3cd329453bf31ea6U,
  0xbc6bee7fbbf467d2U, 0xba69be5ebcee0687U, 0x3bc03d293b4a00c8U, 0xbc3553413cf9e084U,
  0x3cf0fa17bc92f216U, 0xbc85a7653cfef621U, 0xbb91f159bcb88a26U, 0x3c25f7cebc81a848U,
  0x3bf0e8293a6b070eU, 0xbc5bb0763cc5dae4U, 0xbc4394ab3c1df29bU, 0xbb6c99f9bcb42ee9U,
  0xbba4d1c43cbf7ddcU, 0x3c597996bc2ab32dU, 0x3c0dc346bca8d4c4U, 0x3bcb1893bd000476U,
  0xbc0b2eeabbc7b830U, 0xbaca0c143c518613U, 0xbc8e96623c083509U, 0x3cd4649cbc8a38cfU,
  0x3c021fe2bc5339bdU, 0xbcf615b2bce11656U, 0x3c90c179bc5ee270U, 0xbc9902b53b61f89fU,
  0x3be59465bc024d8eU, 0x3c1ef1df3c09a0c5U, 0xbbcc51413c995cb1U, 0x3acd8c293a5a9182U,
  0xbc98f99d3c9bba83U, 0xbca33517bc5c9bbfU, 0xbc8d99f43cc98c6dU, 0x3c140ea53cedfd05U,
  0x3c7c5547ba1dced5U, 0x3be2ff67bbc91d4fU, 0x3c5d6badbb0c92dbU, 0x3c45e3bc3d00cb55U,
  0xbcf18c913b50d53eU, 0x3d015286bc202d4fU, 0xbb4d2b773cd60eacU, 0xbc9f0dd2bbbd1b11U,
  0x3cba0b14bcd6779dU, 0x3ccea0853c308981U, 0xbb85d4483ce899d0U, 0xbc90f66bbccf5f5aU,
  0xbb7af6043c8eda6fU, 0xbb974161bc112c4fU, 0x3be737203cc1b8b0U, 0x3ce7b893bcdf0807U,
  0x3be488c5bc1c5a97U, 0xbc87c3b9bd027c51U, 0xbcecc5093cb241a1U, 0xbcef49913cc43a0cU,
  0x3cc6c72dbcbb91bdU, 0xbc8cb884bbe80ca0U, 0xbc3c24babd030406U, 0x3c77d5c33c030a96U,
  0x3cc8611d3c40eb34U, 0xbc18e42dbcb0a8c5U, 0x3ce14c103cdc9d07U, 0xbc5626423c913c70U,
  0xbc9cd0d4bc054edbU, 0x3bc09456bc730cf6U, 0x3c95a4a73ce4847eU, 0xbccafb533bd0bd01U,
  0xbc97befa3b6372d1U, 0x3c99eaccbc4c1bc2U, 0xbca4053f3cef12d8U, 0xb7bc31d93cb57694U,
  0x3cdb2683bc8881a5U, 0x3b341830bc17ee1dU, 0x3ccdaee7bbb65419U, 0x3c0bbfb73cb17ccbU,
  0xbc67d141bc8af5a4U, 0xbba96cfe3cddc1f9U, 0x3ce00a9dbc9a313cU, 0xbc0e4f23bc3a304aU,
  0xbc7067eabd012bbcU, 0xbc9b7308bcb57122U, 0x3ce226df3ce39147U, 0xbd02e6adbccaa2cbU,
  0x3d041c7fbcedbf43U, 0xbcacd847bacc2de9U, 0xbbb0a52ebc09e657U, 0xbc646bdebc936a7aU,
  0xbb42c94e3c780459U, 0x3b9ebe60bca2924aU, 0xbce23377bc56b369U, 0xbcdc59743bdd00f6U,
  0xbcce229e3ca70327U, 0x3c0abf8dbc8a6ffcU, 0x3cc89b61bce8aa83U, 0xbc7a7bebbce534daU,
  0xbc69fa493cdd777fU, 0x3c9ab6653c6e5038U, 0xbcb5998fbc3f1db4U, 0xbced4bb03b8441d9U,
  0xbc9a2598bc676feeU, 0x3bbb87c2bb8554e4U, 0xbc8b259c3c53eed1U, 0xbc44202dbcd79d04U,
  0x3ce0185fbad48bacU, 0x3b0f78153c3babd3U, 0xbc3eb69ebc54d5fcU, 0xbc6107a0bc52be1cU,
  0x3ccedafebc9b56c3U, 0xbc8f5071bcd9825bU, 0x3cc7bd8cbc061693U, 0xbc975da23cca9765U,
  0xbc65b11e3cbd8ed0U, 0x3c814078bc6be3f1U, 0x3a263c153cfb9440U, 0x3cf221a13ce6c5dcU,
  0x3cfaf2d23cfb3a13U, 0x3ce73f0fbcae69ffU, 0x3cef951d3c5f29b3U, 0xbc8b7bc5bce37816U,
  0x3c4d09173caa00b7U, 0xbc259b4a3cb21129U, 0xbc22db4bbbe2985aU, 0x3a1be0e5bc90fc3aU,
  0x398d6a95bcbe8defU, 0x3caf56f1bc5f9904U, 0x3c17b93f3cc6052eU, 0xbcaa8fbbbc66e78eU,
  0xbcaca8da3c9c79b6U, 0x3c005b6cbc0abaa1U, 0xbcb6bb10bac03fceU, 0xbcbbd493bcc42bceU,
  0x3ce54871baa6dd54U, 0x3c14b7c0bcb1f3f5U, 0xbbb95f573d03e6a6U, 0xbc2a40603b69ccd3U,
  0x3c9b54483cf28f06U, 0x3cbf26c83c884717U, 0x3ccd0a32bbc3fab9U, 0xbca6cbdebd008e84U,
  0x3c977820bc587d58U, 0xbc9c52dabd031acdU, 0x3cc0221f3c4fbe29U, 0x3b44310b3c821094U,
  0x3bf9e4433a99b920U, 0xbcecbe04bbdcee2dU, 0xbc316a71bc9676b1U, 0x3cd586a23c9e6d0dU,
  0x3c2a7a89bc50821aU, 0x3bed8500bc8d2f7fU, 0xbb8d0dcbbc36e74eU, 0x3c17454c3c162b75U,
  0x3c14cc4fbc93fabbU, 0xbcc7b82cbcf3c947U, 0xbcaf22913cb96107U, 0xbc9a45243c71008fU,
  0x3ca022a43c028db7U, 0x3cbfe628bc403affU, 0xbcd68d3b3a130ffbU, 0xbcc0c790bce9fe8eU,
  0xbcb4309c3ca6fd4cU, 0xbc841d1cbcd8168aU, 0xbcd0fb873c55c4c9U, 0x3c0cbdb43cfece1eU,
  0x3af7734a3c27f095U, 0xbc19685bbbb28676U, 0x3c8ee1e0bba886a5U, 0xbcb6fcb8b9d1352aU,
  0x3bb92a8a3a52f20aU, 0xbcf7b2f43cb10bafU, 0xbb298c02bb32bf2bU, 0xbc8226363a31d7f4U,
  0xbc41b388bcec6eabU, 0xbc224c493cef237dU, 0x3b84a7723ccecaf0U, 0x3bf848a93cd7d6e5U,
  0x3d0052493cc4e529U, 0x3b159159bcb02beaU, 0x3d03dc693b545b95U, 0x3c98c5713c2fe47bU,
  0xb9f8ba6dbcb01de6U, 0x3c9099f73c7b32c6U, 0xbc23746cbc3afcc0U, 0x3b116e793c016929U,
  0x3c95b9e8bca7646cU, 0x3c75ef653cb88f42U, 0xbbe252d4bc150d8dU, 0x3cb47db33b94a66bU,
  0xbb6e33ee3c4b5402U, 0x3cd7deeebc9a547bU, 0xbc3575c2bccf1599U, 0xbce7b75fbbcb99e6U,
  0xbca26fd63cf78382U, 0xbc31d3943c3d6dc1U, 0x3c697d13bc0472c6U, 0xbcbca2e0bce74771U,
  0x3c2b91bfbca7c1f2U, 0x3cc6f068bcd964f4U, 0xbc357594bc25074fU, 0x3c91bd583cfb1071U,
  0xbc15e4853cbcaa27U, 0xbcb8f7a9bc862b68U, 0x3caf4ee3bba69c53U, 0x3cf14af6bc970188U,
  0xbbb93ba5bcecda96U, 0x3ca7a32c3cd0ec58U, 0xbbda91edbca27f4bU, 0x3c9723febc72e99fU,
  0xbcba92423b7b3a70U, 0x3c9faff0bccc8eb0U, 0x3cec14303cda578aU, 0xbcc75f0cbc97fc58U,
  0xbcd6b363bcca8420U, 0xbaed7a383cf372d4U, 0x3d01bfb0bd014b8aU, 0x3c47a367bad33e14U,
  0xbc7ffef63cbd499dU, 0xbbc980afbcb2120aU, 0xbc168b763b278051U, 0xbc4a18e93b9ff170U,
  0x3c9d58da3cacb096U, 0xbd038565bca4ebf1U, 0x3be16b10bbaf2d78U, 0xbca05cb8babec77bU,
  0xbc8057e43ccbba12U, 0xbae6e9793ca07d34U, 0xbcef7ba8bc895fecU, 0x3cdc2cd7bc196c79U,
  0xbcd2b913bcbfa071U, 0xbcd3ea23bc68acb1U, 0xbcae0e9a3cc9d080U, 0xbc044fcabcdd9d95U,
  0x3c1ed96c3cbc541fU, 0x3bf46e4fbcba990eU, 0xbcb986803cf79c12U, 0x3cdfb5b1bc8e2071U,
  0xbc23d42ebca20f22U, 0xbca17ba7bc151016U, 0x3c0dad2a3cfb9063U, 0xbb79fdd2bc8e2715U,
  0x3ca59ed7bcd0b54eU, 0x3c8b81583c02b1c4U, 0xbbff18043c83f82eU, 0xbca1d57dbc2694c6U,
  0x3c6e87cbbcc83ac0U, 0x3cb328e33c758346U, 0x3c8a78f7bcbf72d8U, 0xbcbf99193ccb2ccfU,
  0x3c909aa1bc5d62cdU, 0x3c598e6bbc91612fU, 0x3bbfe025bce137d8U, 0xbcf780e93b3a9f0eU,
  0x3ce073abbcb06ac1U, 0x3c0135643c36fc82U, 0xbc53fb193cc6147fU, 0x3cfa517f3cf869dfU,
  0xbd0278d1bcb42aa0U, 0xbc9ebecb3cd76a4aU, 0x3c5d3a223c548fe2U, 0x3cb4cd103cd013ecU,
  0x3c9f20b7bc80c998U, 0x3c998b7b3c53f3eaU, 0x3cddd90abcb8b916U, 0x3d0170193b8503eaU,
  0x3c82bdbabc94f3dcU, 0x3c992a03bcb3340bU, 0xbcb3981d3b9ca932U, 0x3ca9d5a03c3e86eaU,
  0xbc3e18bfbcc4de2eU, 0xbc6cb89a3b2e5a53U, 0xbcdb65203c9b8b14U, 0xbcb184643cffda6bU,
  0xbb00ca203c075698U, 0xbc9bb289bcdcee1fU, 0xbc549df53c895ccfU, 0xbc4745ca3c3f5f56U,
  0xbcff9aedbc87a59dU, 0x3c61d93cbbbf4ca6U, 0x3c00d55cbcd1f86fU, 0x3cea58343ad0da68U,
  0xbcb12ec2bbb4ef8fU, 0x396beeebbc057e97U, 0x3caa59763c1bde65U, 0xbc9686863ce693c9U,
  0x3d0230cebcf578ecU, 0xbcebc9973ced548cU, 0xbc85685bbc203d93U, 0xbcf84db4bca49563U,
  0x3be421653a631aa5U, 0x3ca65a0b3cf2d485U, 0xbc3100b6bcd9be95U, 0x3c85bcdcbc75bf25U,
  0xbc7c917d3ce7ff4eU, 0x3cf6daa1bc6bd5a9U, 0xbc8f64d4bcfdb8d8U, 0xbd03cffd3cc5260cU,
  0xbc42506c3c653727U, 0x3cada0e63cc564ccU, 0xbc6a7c39b9bc8605U, 0xbc38dfc23b6e0b54U,
  0xbc85cc8dbce83cd8U, 0xbc274713bc1cb57eU, 0xbbfd8c1abce6a657U, 0x3ba6c2b33ca973e4U,
  0xbcb59ae1bc3c043eU, 0xbcecb679bcb00d3bU, 0xbc9f113e3bc830ddU, 0xbaaae02f3c073808U,
  0xbcbccf763b27fbacU, 0x3c7a26053c997fe5U, 0x3ccd8c62bb0dc43eU, 0xbc81b360bb933508U,
  0xbcc6ae7a3c89e338U, 0x3cc758ba3c40c5d8U, 0xbc8244e13c55abdbU, 0xbceaf17c3c8bc7faU,
  0x3bd1d9bb3c02dd94U, 0x3c9ba709bc22c8c0U, 0x3ce3f78cbc02e6d0U, 0x3ce336683d03f1deU,
  0x3ce4512bbc2e3836U, 0xbc54379d3cb9f90bU, 0xbba4f9a03d02e62fU, 0xbc67155a3cb3444dU,
  0xbbbdee773b94231fU, 0x3cbbff52bccb10caU, 0x3b47a1c23cceba8dU, 0xbc1c5211bcb1a151U,
  0xbc7cccbabc7edac3U, 0x3c9cd13dbce70eb2U, 0xbc8363393bddd5f1U, 0x3caa51a2bc9ecfc3U,
  0x39d70801bd000e28U, 0x3ce2ff53bc49920cU, 0x3c205f623c1aad24U, 0xbcc16f5e3bd0b93aU,
  0xbc04872cbb9f5574U, 0x3cdb03893b8ed5ceU, 0xbccc61cbbb460dadU, 0x3c5e44adbc2020eaU,
  0xbc5195bbbca1ea14U, 0xbcdb69abbc054449U, 0xbba95ef43b3c7244U, 0x3894b0b6bd03d7dcU,
  0xbcbc6ff43cb78de2U, 0x3ce832573cf1b6e8U, 0x3c82d8bb3cabc2e8U, 0x3c68dda33cd4f4e7U,
  0x3c9a8765bbe6eb48U, 0xbc7f21cc3cfbfb6dU, 0x3c7a1914bb1304d0U, 0x3ba6bbb2bcf2581aU,
  0xbc9eba403cd68a5fU, 0x3af02738ba999d5eU, 0x3c1537d9bcf7f432U, 0xbcb23e663c236eceU,
  0xbcb3662d3cf0346eU, 0xbced2394bcfc2fb0U, 0x3c2d42f83ce5a196U, 0xbce5eb3c3cb2a123U,
  0x3b4597e03ccf6d2dU, 0x3cd03f133bdb528bU, 0x3940a0e43bd177f0U, 0xbcf5aec1bca60671U,
  0xbcbd28c4bc9ddaa9U, 0xbad8d0c23ce96982U, 0xbcee8cf1bb124ac8U, 0xbcd5bfe63b85b834U,
  0xbcf9286a3cd2ec73U, 0x3cebfd37bcab6311U, 0x3b926ce5bcd965d3U, 0xbc8d9bffbc298291U,
  0xbb8af894bc37c9baU, 0x3c41dc7dbc96e8a7U, 0xbcf90a85bcccb0ffU, 0x3c8a7e2bbc8702f4U,
  0x3a9031673cd32855U, 0xbc47c54bbbe8f7f1U, 0xbca5de44bcfa198cU, 0xbc81ca19bc89c1fbU,
  0x3ca07120bb8f5ee8U, 0x3c5d062c3cb651c8U, 0xbd03dfcf3badb2fbU, 0x3cc3a6a3bc9496e0U,
  0x3c1e72b5bc4beda3U, 0x3ab8c0bebc7311f3U, 0xbc9420cd3ca8a4f0U, 0x3aa729a03c964a44U,
  0xbcf18613bbb1c644U, 0xbb1f810fbcae2358U, 0xbc30b6debc06e0cfU, 0x3c9063de3d0269e0U,
  0xbb671803bc38b58fU, 0xbc996b2c3c87f450U, 0xbd006b25bccad75bU, 0x3a0f8a17bcc91fa0U,
  0xbc511bcbbcce2bd0U, 0x3c089b3f3ce27f42U, 0x3b4543b3bd02ef3cU, 0x3caa9f71bcfdf409U,
  0x3c9cd70abbb23f2bU, 0xbc8a0b5abc93eeccU, 0xbb78f4b7bc1d29aeU, 0x3c8768e5bc4fdbb5U,
  0x3bb3806e3b016b0cU, 0xbc9b9fa5bbd8c144U, 0xbc40d26ebc95027bU, 0x3cac8fab3bd5f8bcU,
  0x3caa433f3cca6034U, 0x3bed7079bc98d9d1U, 0xbc341d183cdaab6aU, 0xbc3786c23d006b37U,
  0xbc92fe55bc60b319U, 0xbc6b516a3cb80b20U, 0xbc66768737980c00U, 0x3cf424a63ce1d7f1U,
  0xbcb65e863cd125cdU, 0xbbb4cb713b13eb94U, 0x3c082323bca26247U, 0xbccffddbbce7cfb9U,
  0xbcace2c8bcfda6d5U, 0x3cebaae23c75a764U, 0x3ca38b233cbe2ee1U, 0x3cbeb8a9bc327b3bU,
  0xbc392997bcd52c96U, 0xbcbb0f533aabd21eU, 0x3cf0b4c9bcf90243U, 0x3cd6bbeebb350ea3U,
  0x3d0268a13d04291bU, 0xbcf118b33cd0eeceU, 0x39ba039fbc7a77b1U, 0x3c6e8cc8bced0291U,
  0xbc501f7c3cd8290aU, 0x3cf4d4753cbe56daU, 0xbae61c983c1246f1U, 0xbc16a52fbb78c1daU,
  0xbcff3dc5bc3b8a11U, 0xbbf148fc3c576391U, 0x3b78a87c3b5b8068U, 0x3c57b741bbc9762aU,
  0xbce0488dbceb304fU, 0xbcc3032d3c922bfbU, 0x3b368d7b3c6914b3U, 0xbc4bca583c9b516dU,
  0x3cff5a09bd00169aU, 0xbc11711ebcfe4616U, 0xbc396e07bcbbe438U, 0xbc0169463c6a2484U,
  0xbbfcdc1bbd007adaU, 0x38960378bb5e6edcU, 0xbc939e923c529972U, 0xbca973a83bcf36a3U,
  0x3cab9cd33c260923U, 0x3b80d153bccdf888U, 0xbcc9be443c9afdb5U, 0xbbeae8bf3c84f952U,
  0x3b7e9b893ce61f81U, 0xbc13fc96bbf88a90U, 0x3c8b55f93cd106c9U, 0x3abf55c0bbd068edU,
  0x3cb6848f3c7c1e06U, 0x3c10393fbc557c54U, 0xba2bea423cd71399U, 0x3cf49f6cbc7a965eU,
  0xbb38271dbc88e8efU, 0x3c8d0971bcbe34cdU, 0xbbc68884bcf8bdb8U, 0x3b91c018bbd4fbbbU,
  0x3ca57907baac79f2U, 0x3cd051d43c5a6dfdU, 0xbc1d078dbc3c1b56U, 0xbb96e4f93c8592b1U,
  0x3abcee343cbbce96U, 0x3cd95e02bc9458fdU, 0x3b4edac93c6ceb29U, 0xbc9ebec7bbd10c90U,
  0xbc3b7d873a94a5ffU, 0x3affdf40bc2dcaeeU, 0x3cae410abb749bd0U, 0xbc8bcd52bcc29bdfU,
  0xbbde98d1bc86ddc0U, 0x3b8e678dbcb626d7U, 0xbba465adbcf4018eU, 0xbcc950ebbc0851b2U,
  0xbc23ec78bcc85935U, 0xbcbba350bcec41d9U, 0x3be280773cad6c46U, 0xbba207653cf1bdb9U,
  0x3cec766ebb143211U, 0xbc82fada3cc29bb8U, 0xb9aba65a3baa784bU, 0x3b1d89d4bc8be182U,
  0xbca1e4f73b99af50U, 0xbcc93dcdbbffa9b5U, 0x3c7b7ec4bcb91dcdU, 0xbc83a4293c443794U,
  0xbb61201f3c94b41cU, 0xba2bfd5dbcc6fcdeU, 0x3b1cc9fcbc231960U, 0xbcb4cb543cbd65baU,
  0xbce45b2cbc17915bU, 0xbab7c9e8bc98a454U, 0x3caf97e5bc7a683bU, 0xbc25346abbb87d4aU,
  0xbc4b681e3ccc3389U, 0x3cb1434fbcf71a34U, 0x3b4f3f4a3af3312dU, 0xbc89616238e5bd93U,
  0x3a5953ec3c89dbbdU, 0x3c33cfa63cf1176fU, 0xbcbd7020ba15fc80U, 0xbbef0dc03c197b66U,
  0x3c56483abcadd001U, 0xbc3655533c5eae0eU, 0xbcd263a7bbf47b69U, 0xbc8efff9bc012dbeU,
  0x3d001d01bc866bf1U, 0xbcbc280f3b634668U, 0xbcc39f7bbc720e3bU, 0x3ce7ca533c8a2ee7U,
  0xbcbdf1863b809163U, 0xb920e3e33c39b139U, 0x3b905933bbd65976U, 0x3cc2032e3ce60c51U,
  0x3b447d153cf057aaU, 0xbcc7598d3cdc2525U, 0xbcf4f5f33a904907U, 0xbcccb6dd3d008083U,
  0xbcc32fcf3c28c478U, 0xbca077f43b49094dU, 0xbbb594b53c84be9fU, 0x3ca7caafbc9bd63fU,
  0x3c78d51a3cbb97c4U, 0x3c1b5c9abcf59ae6U, 0xbcc7ac5cbcc61332U, 0xbb8aa605bc1e6906U,
  0x3be48f5abcb88f0eU, 0x3a81d5af3b316bb4U, 0x3a789479bc809421U, 0xbc70a8debba53097U,
  0x3a764e7ebcadf500U, 0x3c69d8613999cc3bU, 0x3c89214b3a86a6b7U, 0x3ce848d53bc7749bU,
  0xbcd7a7183ca54ce3U, 0xbc3215c63cb9715cU, 0x3c1b413cbce2111cU, 0xbcb6d9d83bb125d4U,
  0x3ca558c33c9b0786U, 0xbc347dd63ae19e0fU, 0xbcc735b43c24d7e2U, 0x3c3d987c3c393dd7U,
  0x3a804e203cc6e475U, 0xbc1f2ead3b120374U, 0xbc13429a3958661fU, 0xbcdeeca3bca9e237U,
  0xbcecba4a3c5c9f37U, 0xbc4c9c263cb166ffU, 0xbc65723fbcde6a5eU, 0xbc8e1f103ca50f04U,
  0xbc9164e53c714e89U, 0x3bd04a3cbca51bbbU, 0x3cec935dbc92c688U, 0x3cd46797bc1d01ebU,
  0xbc9620f83ca3814dU, 0x3bf9fcdabc625fb1U, 0xbcc0a526bc688f6bU, 0x3c9bbaa4bc055189U,
  0x3c93a6b6bcd63212U, 0xbcd7ec97bc3e61d9U, 0x3a6961ee3cc4b8c6U, 0x3b913f18bc960e42U,
  0xbce52b333c92991fU, 0xbcc44a103cd20ab3U, 0x3c24da49bc70fd13U, 0xbcca9f70bc84b5e6U,
  0x3cbeea50bcab8e2cU, 0x3bf2cd0fbcd7d867U, 0xbc1b0144bcb69178U, 0xbb8a2035bce50cceU,
  0xbb32ccebbc09a28cU, 0xbba639463cd7c81cU, 0x3c4d77d33c9f4bffU, 0xbba3ca4e3be322a6U,
  0xbca2c7b83bb6939dU, 0xbc5af5ddbcdc5269U, 0x3cb47432bcb93ca1U, 0xbbadc6163ceb7908U,
  0x3cf8bbb43beaa58dU, 0xbc9adba8bcfd6fabU, 0x3c5f145eba3c6474U, 0x3b619c51bcacd008U,
  0x3c45c734bc9b95e0U, 0x3ce4b9e4bc691ab8U, 0x3c29813e3ca86be2U, 0x3cb29f9f3ca667d7U,
  0x3cc3e3173c46c3ceU, 0x3c5949b93c60b7f9U, 0xbae6ba7bbc9f8a07U, 0x3cf09ff03cc36815U,
  0xbcfb179b3ae9322aU, 0x3ca54b6fbcac6e5eU, 0x3c5e320ebcc1df2dU, 0xbb82e6e43c30845bU,
  0xbcf05553bcb22797U, 0xbaac87803ccfde0aU, 0x3cbff35b3c8407feU, 0xbca950953ca9967fU,
  0xbb9cb49fbc0ae916U, 0xbc9202db3cbc0f33U, 0x3acd51083be54c7cU, 0x3c6f495d3c7d4525U,
  0xbc036e383b505b1dU, 0x3cda6661bbd9e96bU, 0xbcc26397bcb0b20fU, 0xbc9a52b9bc0a3918U,
  0x3c5626f73ce2263aU, 0x3ca92bd0bc903cc2U, 0xbb88f4a2bccd1356U, 0xbc5d8fd33ca7c1f2U,
  0x3cac52733cd89fceU, 0x3c1df687bb9870ecU, 0x3c28a308bba78b94U, 0x3c3a7e2bbc908f02U,
  0xbbe9590e3c5801fdU, 0xbca333c93b8824b0U, 0x3cb918633d0408dbU, 0x3cb03c81bca68642U,
  0xbc55a710bc554a66U, 0xbc6cd3b23c6e0901U, 0xbcbb4e20bca32d2bU, 0x3c1a8ae53c5d9feeU,
  0x3c9600a9bc89c974U, 0xbce01414bcd6ff35U, 0xbba63f37bccb971eU, 0xbcdc8d923b795b9cU,
  0x3a9d3d773cd6ba6cU, 0x3c4073c9bc85c292U, 0x3cefe99a3cf5140aU, 0xbc55a9d23c73493cU,
  0xbca6b8953cb190d5U, 0x3b91848c3cdd10c2U, 0x3c6f086dbbf5cc7dU, 0x3cff9097bc7d9d88U,
  0xbcb4684fbcaac44dU, 0x3c3f885f3bc159baU, 0x3c6398e33c8b8db2U, 0xbc378fcfbae31faeU,
  0x3c8eb91a3c457325U, 0xbcf97cf5bc1fd801U, 0x3a3423dfbc943637U, 0x3ce36c4f3b5ad8c5U,
  0x3c9ba3fa3ca29cfdU, 0x3ca68cdc3b962422U, 0xbc5d28ffbb5e6046U, 0x3aa7b8abbc5dabdfU,
  0x3af0c2243c7a6aafU, 0xbc6b43ccbc2cc4baU, 0xbc77c95a3c81c859U, 0x3a67a1b3bcbe53e4U,
  0xbbd865503c3e8d5bU, 0x3ccc93bb3becf01dU, 0xbcfa4a2bbc82abebU, 0x3c38f566b93e88deU,
  0xbcc21ba93cae2d43U, 0xbbf51623bc02453eU, 0xbc5b75cdbcd0983cU, 0x3c8aa1953cddd471U,
  0x3c1579da3ca0426cU, 0x3c85ee09bc977be4U, 0xbb59b9d8bccddcb1U, 0x3c5b6fc83cf02599U,
  0x3cbc53e1bca1f9fcU, 0x3ad87e223cb11b35U, 0xbc555bd0bca185e8U, 0xbc11bbc53cd18e14U,
  0xbc3602edbca07b5bU, 0xbd032a46bb24f9daU, 0xbc81b83c3cfa2d27U, 0x3cecba63bbefabd5U,
  0xbc510f5ebcf0d79eU, 0x3c4283d5bcdf5ad2U, 0x3d000ebbbc2778a6U, 0x3b01cac73cea0154U,
  0x3ba1c332bb39e4a3U, 0x3cfc98babcec4b83U, 0x3c5638443caf42d7U, 0xbca3e70e3cd38f2fU,
  0x3c280bbabccb3388U, 0xbcee2b9c3ba3208aU, 0xbd00effbbc1ecaa4U, 0x3bde09bebc96f684U,
  0x3c783d973cc42078U, 0xbb08f05f3c807b10U, 0x3ca3576cbab7502aU, 0xbc228f3d3ba9a170U,
  0xbb5b2f76bd036178U, 0xbc87a4febaccd9dfU, 0xbbb9650e3c92e8ccU, 0x3cfcbafabb9c1d59U,
  0xbb8d117039d25026U, 0x3cdd87a5bc082838U, 0x3b0c29c5bcc64714U, 0x3cfe6cfebc9f8008U,
  0xbadd6e25bcbe24ecU, 0xbca537ecbd02c4a8U, 0xbc9cf54e3ced592bU, 0xbc9c407abce0808eU,
  0xbce9f3f3bc291d1cU, 0xbd002d18bc96449cU, 0xbc46dc723c128b12U, 0x3b07b9c23d031bb6U,
  0x3c1e765fbcc0b2aeU, 0xbcb078babcbe982dU, 0xbcea50483bc0de91U, 0x3c9403233cd80064U,
  0xbcf2fd1d3d02244eU, 0x3cf5cd20bccf3f27U, 0xbcc88f383c90f58eU, 0xbca2d94fbcd9e914U,
  0x3cd1882e3cb11de7U, 0xbc9bb4cb3c928b86U, 0x3bd902973ce053e5U, 0xbc74054d3c038a82U,
  0xbbad48fd3a5ef530U, 0xbca45bf03ba4dbdeU, 0xbcbda3febc131c85U, 0x3cf687d43cdc4175U,
  0xbcf52f11bcafd6ebU, 0x3cea61313d003bebU, 0xbc159c623bbc5ff8U, 0x3c8a2b7fbb8698a4U,
  0x3cd17befbc6926f3U, 0x3bf008ea3b2d79a1U, 0x3c0fe9723abe34f4U, 0xbc87115c3ce8ae4eU,
  0xbca365723cafbebfU, 0x3c608d3dbc6c005cU, 0xbbfa64543a961b39U, 0xbbe6b6f7bb4e4f19U,
  0x3cb69af7bcd84e2cU, 0xb835f3143c1241c7U, 0x3cd2e26b3c9cd9d7U, 0xbbb3dd493c460c10U,
  0xbcdd3b23bcd0d4b5U, 0x3c4d17a53cbf0775U, 0x3c373364bcfd8aafU, 0x3c80390f3ae9483eU,
  0xbcb247ee3ce17bcaU, 0xbb75858cbc6d3865U, 0x3c40b02cbb8928baU, 0xbc085004bc8177e7U,
  0xbc85cf053cbe75c3U, 0x3bf76348bbc554efU, 0xbcd12ac13baaecbdU, 0x3c401259bcc3a0e5U,
  0xbccb6521bc744794U, 0x3c5235b33bf81da3U, 0xbc6fc55dbc2a3815U, 0x3be9411cbb721282U,
  0xbc05c7bebca3d8c4U, 0x3b351128bcda1a38U, 0xbd040a04bc9ca2e6U, 0x3c9539e63be9910eU,
  0x3ca970ddbc97e04cU, 0xbc968da8bbcd55a5U, 0xbcafc942bcc6d003U, 0x3cbca14b3b549ea6U,
  0x3af42e78bbf131afU, 0x3c91dcd83b0c74b6U, 0xba9839d4bc87f467U, 0xbbba3c2bbbe70b8eU,
  0x3b79cd8abc881630U, 0x3c6bdc533c23ec80U, 0xbc7a19673c63f2d2U, 0x3ce2130ebb43398fU,
  0x3b11d3b03cd3f6d8U, 0x3ce83728bc32bcc4U, 0xbaffc75e3b9eccd5U, 0xbc5a064ebc8853fcU,
  0x3cdcbb9e3d0044beU, 0x3c1cf454bca25c42U, 0x3c80d5cfbc4a5ba3U, 0xbaf84b67bca72d35U,
  0x3b32a3cdbc808947U, 0xbbce51533ca976b9U, 0x3c6c3a1abc501fa6U, 0xbc22224fbc384e96U,
  0xbcf7367ebc91ff4eU, 0x3cb674763cd95ad8U, 0xbcebef9e3cd93d61U, 0xbc488850bcae3421U,
  0xbb0e852ebc85df9eU, 0xbcb79448b9ede668U, 0x3cdee6f93c98ddecU, 0xbc89122eba1d9962U,
  0x3cae60943c785701U, 0xbcf32320bca729f9U, 0xbc1ff33bbc33c3fbU, 0x3b07098abcd2d01cU,
  0xbcaf8c23bcad5ae3U, 0xbbca7896bc644cc5U, 0xbc1b67fa3bad2195U, 0xbd007c71bbe9182fU,
  0x3ceaa2303cd7f56bU, 0xbc900be9bc67f1d2U, 0xbcc997973cb94c55U, 0x39a22cd5bcc6d381U,
  0xbc07e261bcff3e29U, 0x3c2af9963ccff18fU, 0xbb29875cbd011269U, 0xbc913acdbc9ed075U,
  0xbc43ac47bc9db8b7U, 0xbaa07da43c465057U, 0xbc5460473c98aaa7U, 0xba30a7cbbc3db42dU,
  0xbc6d0c0c3cfdfb4eU, 0x3bc998aabb3b3f66U, 0x3caa8273bc5b6cfeU, 0xbc47c295bcfb96ddU,
  0xbcea9dadbc0e9e00U, 0xbc295badbcf0b9f3U, 0xbd00f93fbc2ad388U, 0xbce38a65bc9546e3U,
  0x3b38e4b2bcc140b7U, 0x3c83e6483c7d1b59U, 0xb9430345bcc8a6c2U, 0x3ca62af0bc90b94eU,
  0xbc9620823c788ec2U, 0xbc691289bc3ab526U, 0x3c894429bcf205aaU, 0x3cd33a9c3cad5eb0U,
  0x3c8d10a4bcc17c36U, 0x3cb0952abc46eb57U, 0xbc84ded33c83223fU, 0xbca2c3353bf92ac7U,
  0x3bbbac4bbcbbf600U, 0xbbee31713c0095b6U, 0xbc8f1a1dbcd9b230U, 0xbce6a4683bdee0dbU,
  0xbc00f1dfbcfdc09fU, 0x3c8520a03cb45f18U, 0x3c8547e9ba9d8036U, 0x3bd1fc7e3c43b7f2U,
  0x3c96ac44bc80cfc0U, 0xbc3a8bd23cf70f20U, 0xbc6a3deb3c92aec9U, 0x3cac7f903c32956cU,
  0xbcbbe595bc8980b7U, 0xbc7da4cb3bbc5730U, 0x3bfe5d80bca1bb5fU, 0xbcf821aebb98cbdfU,
  0xbc9883b7bcc9d238U, 0x3ce6492ebb4aaf64U, 0x3cc828fbbbfae5b7U, 0x3c96b483bc737ebfU,
  0x3b883a89398187f7U, 0x3c5798eb3cee7547U, 0xbc916110bccf2e3dU, 0x37d2454ebc8886eaU,
  0x3d0004933c5207a9U, 0xbc2d405bbce9186bU, 0xbaa8cfa73cddf9dfU, 0x3cc5199f3c877b80U,
  0xbb30aa2eba975700U, 0xbc737e09bc8c9345U, 0xbca0df62bcac315aU, 0x3d009e40bcd5d64cU,
  0xbb995d6f3b4a2808U, 0xbc194778bc06b44dU, 0xbc5d03d1b9126405U, 0xbb984984bb4cd9cfU,
  0x3d0237553ca07073U, 0xbc8abef2bc909f7cU, 0xbcf422533c6d0ed3U, 0x3c020584bc565396U,
  0xbb770de23beba2d0U, 0xbc8f66f83c40e281U, 0x3d00a9c4bc651a27U, 0xbce99f68bc498759U,
  0xbc065e3d3cc91fc7U, 0xbcd3c4b73c184b8cU, 0x3c8beef73c29eb86U, 0xbc33e4ef3c1d98a8U,
  0x3bc1e9bdbaff7184U, 0xbca4fe96bcc350a4U, 0xbc3ef2ecbc44e1f1U, 0x3ce37dc43c9ad71bU,
  0xba8886d6bb524adbU, 0xbd00e9fc3c7daa09U, 0x3ccab2d03bd1389eU, 0x3c00a438bce9d0efU,
  0x3c5845163d03c7b4U, 0xbc6bcc6e3c88d9adU, 0x3a06eee1bc88be23U, 0x3cc27d32bb8cbf9fU,
  0xbce79aaabccd71baU, 0x3c24a02dbd01b519U, 0xbc8210a23c148c57U, 0x3c07273b3c45fb7dU,
  0xbc00bf8abc28d0f1U, 0xbc05815ebc3ad7a7U, 0x3cd50229bc6d5e45U, 0xbc97e8203d04307cU,
  0x3c44019dbca74e99U, 0x3c827ce03c9d1f18U, 0x3ca0185abb36fcf6U, 0x3cc86370bca82e43U,
  0xbc7a7da1bc846d06U, 0x3abbf6b8bbf3676eU, 0x3ca1e46abcb5c56dU, 0x3baf0462bbee12c8U,
  0xbcdbdf1ebc09a331U, 0x3c50cdb03c67b9c6U, 0xbb99eb503cf8c929U, 0x3c58572dbca25a00U,
  0xb7f2bd3ebc7512a6U, 0x3b87e65dbc44d5bdU, 0xbcf1708cbc2710fcU, 0x3ba679d33cdfaee0U,
  0xbb9f19cfbbfc25eaU, 0xbc9b3035bcfe3456U, 0xbcb6ef673c58d4f8U, 0xbbc7ac603c83ade2U,
  0xbce30f34bb9b85faU, 0x3c9e54cc3cefc01cU, 0xbcc1baf7bcbc2a9eU, 0x3cb0f724bc1e1dc6U,
  0xbccde4c93c8ec69eU, 0x3cb44077bc1d7b9cU, 0xbb6f0a1bbb96330bU, 0x3cc9c3403cbbf3e9U,
  0x3c9b9ae0bcb6cbe5U, 0x3c4568c53a712719U, 0x3a8d04dabb9618ffU, 0xbc83d126bcfb553eU,
  0xbca1d4873caafc5eU, 0xbbdc11e6bc125355U, 0x3b843a2abbb44689U, 0x3cb8fa69bcc8947fU,
  0x3b933df9ba67d8b2U, 0x3cf5bebf3c66ccc0U, 0xbcca40d1bc7ddbc6U, 0x3ca2b0713cf424aeU,
  0x3c5334c0bc127eaaU, 0xbbe5c54abc78866bU, 0xbc2f82e6bc329a64U, 0xbc419b813cd07c4dU,
  0x3bae6e983ad05ba1U, 0x3ca5d0383c4a9057U, 0x3ca2ce433b91bfadU, 0xbccbf60bbcca8120U,
  0x3cd132f23bd1397dU, 0xbcdc386e3cd97117U, 0xbbf6fb53bb881210U, 0x3b944266bd033c36U,
  0x3c1a6d403cb22a09U, 0xbcde63ad3b95fc98U, 0x3ae2b31b3cc8a8d2U, 0x3cff1c64bbf47105U,
  0xbc32febcbc66404eU, 0x3be2f03c3b1fe7c1U, 0xbcb48e06bcfd8da0U, 0x3c5f8c1fba8ed708U,
  0xbcb4b7d6baf66b27U, 0x3ce901453c4c5d08U, 0x3cca6a46bc47f223U, 0xbcfeb7f83ca0c079U,
  0xbc906ec43b9fa9a0U, 0xbc3365d23c9d9c4cU, 0xbcfb06ccbc5d3285U, 0x3c911b89bd001235U,
  0xbce1a31cbc926ec0U, 0xbc8e5f133c0a6df5U, 0x3ca2331c3c6bd3c2U, 0xbae7c154bce1f103U,
  0xbcc3a4a93c9cce6aU, 0xbcb24d4b3c3894a4U, 0xbc108bbebc9a70b4U, 0xbcb338563cc0004eU,
  0xbcab88a9bc1dc019U, 0xbcc429bbbcece185U, 0x3cb702363cc41e04U, 0xbcefd3a53c9cb531U,
  0xbcbd02473c37c273U, 0x3cc709293cdc5ce4U, 0x3c90bf073c960e33U, 0xbaafd0d83a845cbbU,
  0xbc0f16bebc27d005U, 0x3ca762213d02e5bbU, 0x3cfde1893c680c6aU, 0xbc41771dbc40dd1dU,
  0xbc2006dabaea38e2U, 0x3bee5df3bc702c62U, 0xbc979e5c3c64b046U, 0xbceec1223b180a10U,
  0xbc6eac1b3cc54a99U, 0x3c09cfb73c99f3b2U, 0xbbbc299e3c7dcbabU, 0x3c9e8f5c3ae3bfc3U,
  0xbc7ba9353bca65c5U, 0x3c6f355e3cdc0d68U, 0x3c94bcf8bc475af2U, 0x3cf9ee233c7a7dfcU,
  0xbc8de54b3ced28efU, 0xbce41cc7bcc858e7U, 0x3c3138efbc399f33U, 0xbca99cd73cb85885U,
  0x3cd3ca79bc9a837bU, 0xb98a4374bc4a25c9U, 0x3b84dcbc3cbbf6aaU, 0x3cb5d0353cb6bf36U,
  0xbcdfca803ca44b15U, 0x3c1b79f9bcfa80c1U, 0x3b6c06063c05b671U, 0x3bdc08a3bc06f649U,
  0x3c2e23e5bc5ed86aU, 0x3cbc7fa3bb9e78caU, 0xbc4304ff3c939d4cU, 0x3c999fc23ca54b73U,
  0xbbff2e83bc54fe50U, 0x3c96caa73c84ff4bU, 0xbc0b61edbc4ccc30U, 0xbb9f2a243caa94edU,
  0x3bc88e9fbc2d12ddU, 0x3cd40df8bc840d12U, 0x3c65ca47bc5efb24U, 0xbbc450933ca28c28U,
  0x3ca530cc3c06ec7eU, 0xbbeb91393aea5f18U, 0x3bd9deacbb82fddfU, 0xbbce934c3c3e2ed2U,
  0x3bd284d2bba5dce7U, 0xbc5aaeccbc5a856bU, 0xbcdd57603cbc3abdU, 0x3b5f30f63c88b272U,
  0x3b878147bc78a2d6U, 0xbc5317ddbcc7c849U, 0xbce703d3ba50fc1aU, 0x3a4a74433ce68e1cU,
  0x3c03bf4fbcec7bf5U, 0x3bf7123d3c634a82U, 0x3c6f82823ceb5ebbU, 0x3c199ae6bb361719U,
  0xbc8604743c85f4c2U, 0xbcf356273c9ed25cU, 0xbca78f65bcd9b1a2U, 0xbcf54abe3c63bbfcU,
  0xbc1b6d31bcaafa09U, 0x3c2119243cecd151U, 0xbc04f8fdbc8cadedU, 0x3c86bf863cd521ddU,
  0xbce31631baf91782U, 0xba54ec1cbc9dfdd9U, 0x3c0318883cc07b0eU, 0xbbce1d1bbbb68e94U,
  0x3ca3c6393ca6739aU, 0xbc4ee1e3bca04810U, 0x3d03a078bc897079U, 0xbbe6fdf0bb0fb789U,
  0x3c4b6511ba528e60U, 0x3cd78ffa3c94a21eU, 0x3cfec9233c884ed6U, 0xbc86404c3c6f6cb8U,
  0x399bbd02bcc463bfU, 0x3cc164273c1adc0dU, 0xbc719851bc61a3bdU, 0xbc3afcfe3cc4a8dbU,
  0x3cf490b6bcabae7eU, 0xbc25ffc33c957f2bU, 0xbcafd4d6bca60481U, 0xbbcbe485bc2c24e7U,
  0x3ca10c0dbc0601a1U, 0xb9ec3b583c8be84fU, 0xbcc145d03bfb996cU, 0x3badef983cc3a0b9U,
  0x3cd1d5983cb1a63bU, 0x3c98e2183ce64bf3U, 0x3c1ed162bb5b0436U, 0xbbcd9be9bbbf9175U,
  0xbd011f363c2a98c3U, 0xbc58428abc8ecd93U, 0xbb8b2c1f3caa1d0fU, 0x3c5603873bb253ebU,
  0x3cc796323c932870U, 0xbbfcf03fbb40064bU, 0xbba8b37a3d033773U, 0xbca14e2dbccbf0c0U,
  0xbcd965033cae1fc3U, 0xbbb6aa5e3ce33fc7U, 0xbcc6d7043bade3a7U, 0x3ceaf1e6bcc67614U,
  0xbcb7c3d83c6f9afdU, 0xbbcd164a3c97326fU, 0x3c989910bcbb7523U, 0x3ca24fb2bc160a58U,
  0xbc15d8debceaa276U, 0xbc5d25623ce6782eU, 0x3c77d63fbc833590U, 0xbc5200cd3c715de2U,
  0x3c857c8d3ce4ca85U, 0xbcf970503ac8c3e9U, 0xbbf855dc3c8057beU, 0xbced63e5bd01d7aaU,
  0x3d01d2debc8de5acU, 0xbc60510cbc87801eU, 0xbb1619de3c67ec17U, 0x3cd9c996bc924fdbU,
  0x3cbd0c9dbc92ce49U, 0xbcc60f293cc5ea8cU, 0x3bfb1884bcf781d8U, 0x3bff608abca58d14U,
  0x3ac03bce3cdc6900U, 0xbcd726d33c201b82U, 0xbb614698bc9db3d9U, 0xbbe7ffbf3c83a8b6U,
  0x3cd9389a3cf7bb6aU, 0xbbd89926bc2e11a9U, 0xbce374603d01b5f6U, 0xbc3f7f10bb03f46bU,
  0x3d0203f3bd00e7acU, 0x3cb787a33caa0df0U, 0x3c8193e4ba1ba9a4U, 0xbbc21bedbc93bdb5U,
  0xbc3c3914bc834935U, 0x3ac79ba03986fa3eU, 0xbca51f50ba825f4eU, 0x3c8574503ce669bfU,
  0x3cddda343cd835feU, 0xbbd8221ebcd8dcb3U, 0x3cb1719cbcc0ee2eU, 0x3ca1ffa83c8e60c2U,
  0xbc3b5d2c3b1cac2aU, 0xbc46a6183c20d71bU, 0x3cf03071bc7b505eU, 0x3d015253bcacf2cbU,
  0x3cf6f87cbc846ce7U, 0xbccfdf08bc504892U, 0x3bb025eb3c1339cbU, 0xbc8bc1f53cf2d0e2U,
  0x3c35d7f03c4c1428U, 0x3c843b01bc4ecbe0U, 0x3c8a5293bcd867dbU, 0xbc89d46b3c87f12bU,
  0x3c8b23413ccc83a0U, 0x3ca6cd4cbaf54510U, 0x3cdcc5a1bc117e6aU, 0xbb08cc3a3bd104faU,
  0xbbf7f042bcc29d44U, 0xbc7beff8bb6ac291U, 0xbc74d86d3c5960e5U, 0x3b081319bac16a8bU,
  0xbd03d50abca852f5U, 0x3cb3c6edbcd7089cU, 0xbccb74ba3c5d9efaU, 0x3b3ee990bcef6396U,
  0x3c852aa53b093782U, 0x3cedda0b3bed0994U, 0xbc7ed919bd02e768U, 0xbc852a38bb15725dU,
  0xbb1f3979bcdc6d92U, 0x3cb0c330bb34eb75U, 0xbb154390bc839be6U, 0x3c7916fabbac8e48U,
  0x3cf98fce3bc65996U, 0x3bc00219bcfcca08U, 0x3c008ca43c069aceU, 0x3cf2dc27bce353f3U,
  0xbbcb853ebc692017U, 0x3b637b363b8f4927U, 0xbd016d5f3cb6651fU, 0xbc4f23213cefd92aU,
  0xbbc427d03cfc213cU, 0x3ce753963cfd00dcU, 0xbc87e6fcbc4709fcU, 0xbc82eccebb8dabf9U,
  0xbc7f452c3c0c61d9U, 0x3ca163d53a4ef28aU, 0xbc26df9ebc23afdbU, 0xbce949e1bc4d8638U,
  0x3cbc78b3bcc77d5cU, 0x3bb68638ba283079U, 0xbcf41647bc84af6bU, 0xbcec55b23cae2b13U,
  0xbcbc7a8abcb9c751U, 0x3cde1de43cdcbdfdU, 0x3bbf6cfdbc86976eU, 0xbbee8f653cef43d0U,
  0xbcb9074abc174292U, 0x3caa8686bb8f62f1U, 0x3c1adb643c490233U, 0x3cffb39f3c46bb5dU,
  0x3ca714d9bca2c0e9U, 0x3cd481fbbc106d7cU, 0x3c0a85aabc10f170U, 0x3bddf871bbfa82d4U,
  0x3cf25dd73b73643cU, 0xbd01e172bcd29a07U, 0x3c387f9dbbc7e436U, 0xbc9814b63cb012f7U,
  0xbb9628e9bd014686U, 0xbcf339423ce633e3U, 0xbc4188acbbb77993U, 0xbc8970773c84044eU,
  0x3a985c4c3cd45f72U, 0xbca03844bc4a56d4U, 0x3c80d67dbb0b443bU, 0x3cf548533c3bfb7bU,
  0x3ca90c58bcc9d85aU, 0xbcd2d210bc6c50fcU, 0x3cbf3352bc941151U, 0xbc64bc60bcde0471U,
  0xbcd5ad42bcd092abU, 0xbc4c61f43cbd3629U, 0xbccfa1e7bcea888dU, 0xbcfc7ffa3cbaa831U,
  0xbc91e61d3cb6bd5fU, 0x3c80b52a3c03f608U, 0xbc93a5b43a21a0a1U, 0xbc167d083bf4db86U,
  0xbc1919ddbc11368aU, 0x3c5c6655bc627cadU, 0x3c8cd8ddbbd0e3ddU, 0x3c7100343ce46052U,
  0x3ba5ee34bc513225U, 0x3c3f0ad33cce83a6U, 0xbc0f275dbc024991U, 0xbca2c41d3ad7ac17U,
  0x3ccae0c13ccacd22U, 0x3b0bd26fbcec43f4U, 0xbbbda5343c42f8ccU, 0xbcf249fd3c0facd2U,
  0xbce4f47fbc716177U, 0xb956154cbcc529f4U, 0x3c51916c3cf33675U, 0xbcc0d0d9bc4228f3U,
  0xbc655170bc207ac9U, 0x3ce25be0bd0108e8U, 0x3ceaf401bbce2f91U, 0x3cc748d93c5fbb84U,
  0x39442baf3cfae212U, 0xbc217151bcfc07deU, 0x3b9268713ca64e7bU, 0x3c81d7b63ce6c8e6U,
  0x3ce47525bcd6d035U, 0xbc644482bc155df3U, 0xbb4ef216bd01f196U, 0xbd01fee9bc84aed2U,
  0x3b8a85433cf78dc3U, 0x3c1ee31fbca1ff68U, 0x3c5c4ca03a5ec253U, 0x3cbf710c3d00e139U,
  0xbcef1c4fb9927abeU, 0xbbbd06503cc566e3U, 0xbbe3a612bc25dc95U, 0x3ce8c76f3b21886cU,
  0x3c546ef23ce18a15U, 0x3bec6edbbc967969U, 0xbce9bb783b4c207cU, 0xbb35e512bca04ba5U,
  0x3cbe4c373c80d958U, 0x3cdc03cebc9f680fU, 0xbbcdffd53c6ef86bU, 0xbc58c096bcf016dbU,
  0x3c7fcde73ade1f87U, 0xbcc7b02bbcce97f8U, 0xbc85884e3c1532dcU, 0xbc41a849bc83be1aU,
  0xbcc981633c407b1cU, 0xbce15f2cbc000c62U, 0x3ce35d1dba60b0c6U, 0xbc92c3143c2c0ecbU,
  0xbcaad937bbd85caaU, 0x3cf86520bc463c92U, 0xbcad52173b9bcf3eU, 0x3c08bbb33c6eeb7aU,
  0xbcb8d30d3ca47ac3U, 0x3aaa387c3c9d016dU, 0x3ca77f423c9dcb08U, 0xbcdc3e1abc94e17dU,
  0xbccf46383c6193a6U, 0xbc668d6dbb7c4c32U, 0x3c2d3b773cd3b6efU, 0xbc5412a83cfaaef2U,
  0x3c8e7fd93cd318aeU, 0xbbfc9fc93cfa10faU, 0xbcb09636bd02eadeU, 0x3cd00db239f731f7U,
  0x3bcb21183ce43169U, 0x3c267bd7bcd68ee0U, 0x3cc21751bc3cc8d8U, 0xbcf754713cae76aaU,
  0x3c5f16c1bcffbc82U, 0xbaa54c163cad81d1U, 0xbce268fa3c041c2aU, 0x3ca8f791bca82ce6U,
  0x3ba18f863b045d71U, 0xba1cf8c93cb13ec6U, 0xbb4816b9bbd9e973U, 0x3a216e06b9f10bfcU,
  0x3cfb4bcf3cdffa99U, 0x3cb07306bc4a20b8U, 0x3cdafcb9bcd03201U, 0xbb8056113ce42fafU,
  0x3bd263203c8dc3caU, 0xbc5e3a9f3c9b0300U, 0x3c3582e4bc1b5c9aU, 0xbc9ff5b73c701da3U,
  0x3b7357e73c672d61U, 0x3c8709d83c99e8afU, 0xbcb346333c8f34afU, 0xbcb27b433b3292f4U,
  0x3ba8e1b13c69056aU, 0x3d02cdc63c628052U, 0xbcbbfe7fbcf5226bU, 0xbc338518bced37f5U,
  0x3c3e9ef6bcd2fbe2U, 0xbc8abf17bd02c187U, 0xbca6c1e7bc25bb25U, 0x3cc26a143bc20debU,
  0xbcb8a8223ccfcd84U, 0x3b82e40d3aa1d888U, 0xbcad8e87bc0d74c8U, 0x3c0f8ab4bc709136U,
  0x3bd04512bcc18473U, 0xbce3a936bc398d0fU, 0xbca8e62a3cb77561U, 0x3c60091b3c05c1d6U,
  0x3c96da703cb65879U, 0x3d040c383b33f386U, 0xbc43c094bcd967a0U, 0x3cd73fdfbccd705bU,
  0x3c26d591bcf0e8ebU, 0x3c0e51b0bcf36f12U, 0x3baefd823c01efaaU, 0x3c9d840d3b988caeU,
  0x3c8b4faa3cd00589U, 0xbbe2b0d9bc4f0e1aU, 0x3c4db8093c31404fU, 0x3c62e6703cda0c70U,
  0x3c80878f3c279fddU, 0xbc94045bbbd3708eU, 0x3c841310bce31c10U, 0x3ca01f0bbabf8acfU,
  0xbc5701df3cb4ba6dU, 0xbc9d8cadbc436b7dU, 0xbc5253333c931a38U, 0xbcdced463c36e70bU,
  0x3b95c0f4bc2f1854U, 0x3cbf0b67bc6a5d56U, 0x3c472a9dbca5623aU, 0xbc93ec98bc3dae94U,
  0xbcf3d9223cc5d2d7U, 0x3ce63e1e3ca1770fU, 0xbc08729dbc968d21U, 0xbcdd0e92bc7a9e05U,
  0xbc208c09bcebb59bU, 0x3cd744e83cc591caU, 0x3ca9890ebbf6a3e4U, 0xbc1c4fec3c135f92U,
  0x3c0d2c993c8eef45U, 0x3bd49484bc654f0dU, 0x3b2dd895bc51b526U, 0xbc901e163b3d7d81U,
  0xbc398944bc9ae246U, 0x3b40d9b1bc558e63U, 0x3cff3ead3cf3aae6U, 0xbcd83d7abc2ea165U,
  0xbc846155bd002c65U, 0xbd00180fbcffdbedU, 0x3c21efeebc2a0ae5U, 0x3cde35ba3cb8ae74U,
  0x3bab6d193c1a68edU, 0x3ca1396cbb43dfd6U, 0xbc61428f3cadf6bcU, 0x39947343bce169faU,
  0xbbc4623a3c8f5a15U, 0x3d0062af3ca0fe12U, 0xbce5b5043c120ff1U, 0xbcbcd535bc09a815U,
  0x3a682c9c3ccbf877U, 0x3cd065943c02af1fU, 0x3c681c1abc38ae3cU, 0x3cecc17cbc3c51d9U,
  0xbcac6a453af7a4bcU, 0xbb5d3f7a3c2913c4U, 0xbcc2ce453c6ee215U, 0x3a1e68fabce5272fU,
  0xbce4fb42bcd89b09U, 0x3bf91316bc5a4145U, 0x3ce2bf7cbc8f61fbU, 0xbc95110c3c742055U,
  0xbb322538bcc3fe00U, 0x3c9b083abc137118U, 0x3b71dcde3c12000cU, 0x3ca30af9bc40943dU,
  0x3c7773523b9af510U, 0x3c9eb214bbc21be5U, 0x3c5f0e3cbc8fe3c2U, 0xbcdc190cbce94be5U,
  0x3cedb181bbfdd7c9U, 0x3c9987dc3bc63eb4U, 0xbc3ff81cbcc10e8fU, 0xbcbf435e3ab9e060U,
  0x3cf6e1ea3bbbb0e9U, 0xbcce766bbcfd1a70U, 0xbc34aaf13d02bdccU, 0x3c614df83cd37630U,
  0xbc65aecb3cd4886bU, 0xbc51a924bcc6348fU, 0x3c05bd34bceef15aU, 0xbc3613883bc9b253U,
  0x3cc5d7133cdcd073U, 0xbba419d5bc05d37eU, 0xbb8cfc86bc83605eU, 0xbc704da5ba2ebc2fU,
  0x3b92922cbcf9bbceU, 0x3c44c72f3c83f8b2U, 0xbc531cd63c1d1efbU, 0xbc771231bcd64e78U,
  0xbc02b68fbcb8c16aU, 0xbc20b07dbcdd409dU, 0xbc8b1d6a3cb72a12U, 0x3a8c09c13be13e13U,
  0xbc91b43aba80227eU, 0xbcbf56d53c34e3baU, 0xbce3b5f7bb2c444eU, 0xbc952d47bca46d4fU,
  0x3cb0d89e3cf9e89eU, 0xbc8fa2803bea9428U, 0x3cfee012bc747cddU, 0x3cbc388d3c1f8cceU,
  0xbcb66973bcc6188eU, 0x3cd2adb23c597927U, 0x3d0156acbc584226U, 0x3bfa52a4bbc78010U,
  0x3cf624d53c7134fdU, 0xbb87bbd33cad9eaaU, 0xbca83105bcf257deU, 0x39855b933c78ba5dU,
  0xbcb37485bc846e44U, 0xbc7600cabc75542fU, 0x3ab83238bcda0b89U, 0xbc94c57bbbbcd17aU,
  0xbc05aa7c3c528d1eU, 0xbcfcad83bbdc0e17U, 0x3c109153bccaeadbU, 0x3cb6d44fbcb11b9fU,
  0x3c90c85a3cab1df7U, 0x3cc5cd903cdc8c05U, 0xbc2628e9bd012519U, 0x3cb6aa543c94a54aU,
  0x3abdb335bc37d88fU, 0x3b843a9ebc7767d5U, 0xbc223a5b3c00efbeU, 0x3c1299f3bc6fc893U,
  0xbb2a9caa3cdf9d74U, 0xbcaf312c3c3f6819U, 0xbcd0734e3c188788U, 0x3bb59cf8bc95784fU,
  0xbcc35e62bc2b9c38U, 0x3c153c933cd854d6U, 0xbc1574a3bc8df035U, 0xbcbd50703a5dc79dU,
  0xbb00d274bbc50cc5U, 0xbc8342433caef7b9U, 0x3c8994c83c821f3dU, 0xbcc86998bce99bc7U,
  0x3c75b012bcbc2075U, 0xbce5267f3cdd8a56U, 0xba8db44c3cd7ecfcU, 0x3c0100c0bcba7ed4U,
  0xbc8e1f67bcab3f4cU, 0x3c48985bbc053a1bU, 0xbaa6dfa7bce45b2cU, 0xbc9e6081bb82ef17U,
  0xbcaf4115bce1f795U, 0x3c145d483cdc26afU, 0x3bd80d023b969629U, 0xbb06e9c83c2a70b9U,
  0x3c0f6fb1bce571cdU, 0xbb2ac7033c564145U, 0xbc9d5960bcabb0ecU, 0x3cca0960ba1959daU,
  0x3c1554e5bc62f06eU, 0x3ca238f1bce527bbU, 0xbb084c7b3c6a77bdU, 0xba9c9bd53c19acccU,
  0xbc122c4c3cb7fa7bU, 0x3b989dc0bcacd595U, 0xbca797433c422a88U, 0xbc9bbe67bccbdfdbU,
  0x3caf8a233c2addd4U, 0x3b842371bca0b09cU, 0xbc0749c0bd03d93fU, 0xbcf02eb3bc652e11U,
  0x3cdd84eabb3d949dU, 0xbcbe4ee5bb84e0acU, 0x3c875a21bb714066U, 0x3bbc1e5a3cb0e1eaU,
  0x3cb737cabcc0537cU, 0xbb8854dfb9d8a730U, 0x3c9f344f3be68ab7U, 0x3c42d9f6bc9b8f94U,
  0x3cefb4c43bfc5cfaU, 0x3cecd9c43bc66187U, 0xbcdda0f03ccfa591U, 0x3cb0c7133cf95321U,
  0x3c674f493d0188c4U, 0xbc1c1cab3cdc508cU, 0x3c97c63dbcf90d17U, 0xbc9dcb12baa5119bU,
  0xbc2deccd3cdd837fU, 0xbcea55f0bcb79976U, 0xbcc5420a3cf2f371U, 0x3beb97e7bcaf1f51U,
  0x3cb9375abc495b0dU, 0xbaa8aa57bc802248U, 0x3d02e1da3caf71c7U, 0x3ce109e2bb9ac7c0U,
  0xbcb82d1abb26ab8fU, 0x3cb1e04bbc8f8e47U, 0x3c468c15bc2e4f6fU, 0x3bdc07593cab29fdU,
  0x3cf08b1fbcf6ecfeU, 0x3cb6dfee3ce7b61dU, 0x3ccf9ef8bc0129b5U, 0xbc99dd9fbcc14254U,
  0x3ce45d1a3c3e91a1U, 0x3c707e8ebcb618feU, 0x3cd2aec5bb80a197U, 0xbcb34307bd02ccbaU,
  0x3cb4eeddbcec1effU, 0x3cb00a9bbcf52369U, 0xbbf57d62bc9bf276U, 0x3c9cf9ddbc9d1b77U,
  0x3cb415a3bcec0cffU, 0xbcf752d0bcad5e57U, 0xbc95050abca53413U, 0x3ccea2223cbb960cU,
  0x3cc97c0bbc901c9aU, 0xbce6c8e03b7053d3U, 0x3ce02aae3c988737U, 0x3c4078c53ccea386U,
  0xbc70c2bdbb7702c8U, 0x3c59fca8baa1bd8cU, 0x3c108d783c854001U, 0x3c80dece3c9778a2U,
  0xbcd125633c55c752U, 0x3bfb956cbce85920U, 0xbc708ce3bc811929U, 0x3c19930a3bdd9db0U,
  0x3c33ed2ebc4309cfU, 0x3c9ad41cbbbac7fbU, 0x3c23069b3cc7a5f4U, 0xbcb7eeff3c3ea963U,
  0x3b27bf613be009d9U, 0x3c617e823c2b6d63U, 0x3cf409923b8dd0a3U, 0xbb59eb5b3b6eb6a4U,
  0xbc2a9373bca65f6eU, 0x3ca163933ba3f3a6U, 0xbb0e25853c97ef46U, 0xbb4eed4f3c3df304U,
  0xbc08b0aa3c05c900U, 0xbcdd3d9bbca347c9U, 0xbc0df7203bc6d886U, 0xbcf1b008bc7e7decU,
  0x3bb8d9eb3c10eacaU, 0xbca1c3e03c5a36ddU, 0xbc86fa0c3cc2a975U, 0xbc1af21cbcc1a004U,
  0x3ce288bf3cfc30a1U, 0xbc412765bd03bb86U, 0xbcde21e7bcf230edU, 0xbcfe4aed3a849dccU,
  0xbc1666333ce9a974U, 0x3bf6b9b6bcfb1273U, 0xbc3405dbbcc50f05U, 0xbc24571fbcc02fb1U,
  0xbb971abe3b922ba3U, 0xbcb2b6ee3cf6a7d6U, 0x3ce827c5bc411f4bU, 0x3cd11f65bcebd3adU,
  0x3d00d45fbc97d004U, 0xbbd95792bd010a53U, 0x3bd6b751bb1f6ea9U, 0xbca7df113ca2b9e2U,
  0xbc977cd63b852ff8U, 0xbcb03cd1bced5c68U, 0xbca5ae043d005f93U, 0x3b439c733cb67097U,
  0x3c8250b7bc36bb50U, 0xbcbe846ebc98b9f8U, 0x3c1d1afbbd021285U, 0x3cbf7192bc2ca72eU,
  0x3b3af98e3b9172ddU, 0xbcd4146f3c385413U, 0xbc4f4073bcf1823bU, 0x3ba9862a3c1be96fU,
  0xbc6d58553aa3d0ecU, 0xbcc89e17bc894e19U, 0x3c92d15c3d0293c4U, 0x3c96ecf43bf054b2U,
  0x3c2fdbfa3c8f5c24U, 0x3ce034bc3ceff851U, 0xbc8dc5863c4c2411U, 0xbbbb07ebbcc70201U,
  0xbca2cde8bba9afc5U, 0xbca42f66bc39e31fU, 0x3ca3a9b73cd5b2c3U, 0x3c3dcf5abc940411U,
  0xbca4e2e13c95b34fU, 0xbcf134b13cbd4db8U, 0xbcf8e4a3bbe98b5fU, 0xbc146acebcf4f5fdU,
  0x3cd3ea313cfc30e6U, 0x3b683fc8ba1e1b42U, 0xbc72c5543cb0f403U, 0x3be978e93c6e5d31U,
  0xbca00ab3bcc8bd4bU, 0x3cece8523ca613c3U, 0xbab12ffebc18feacU, 0x3cdb828dbcd5baa1U,
  0xbcc1a03f3c8c67fbU, 0x3cb858b2bc4ac320U, 0x3ca7e6333ca36866U, 0x3c82b655bc0848a0U,
  0xbce9677cbd027974U, 0x3c50ee7b3c9614f6U, 0x3cec00a1bb3b19f6U, 0xbc6351e63c65b565U,
  0x3c9c3be13c2c0c43U, 0x3c8050213cd8e593U, 0xbd01d7efbcd9bbbaU, 0x3cdf2dd03ccac9caU,
  0x3c835edf388b5290U, 0xbc88eef2bc6ab36aU, 0x3c0dcbf53cfa0ab7U, 0x3c1714633c866bd4U,
  0xbbb0c753bcd7a710U, 0xbbbc4858bc19f27eU, 0xbcd6d5633cd4e709U, 0xbc157f77bca75acaU,
  0xbb6ebdf03c81c9ddU, 0x3ca726783cf48dc0U, 0xbcb3e91f3ba35499U, 0x3bf1da0f3ca915a0U,
  0x3cc58d053c36a7f7U, 0xb9a7fb8b3c2217c6U, 0xbcce51323c99b737U, 0x3ce8e5b3baa97d4aU,
  0xbafbcfbebbaa1c81U, 0x3c130f513b88cdd7U, 0xbcab411bbcb0cdebU, 0xbc001baabcc63f13U,
  0x3ab9dfdcbcb68dccU, 0xbce3629cbc22584aU, 0xbcde7e64bc277d6dU, 0x3a333e55bcb51475U,
  0x3cfbfb4c3b9ee144U, 0x3cf8a4f5bc5461c7U, 0x3c8dd80fbc731a4fU, 0xba7072dfbcf1ddf1U,
  0x3c79e453bcc4b65cU, 0x3be5617fbb888217U, 0x3cc120c33cafb9d5U, 0x3cc8f5563cbc6987U,
  0xbba3a6c53ca0a52dU, 0xbba228923c14294eU, 0x3c8caea1bce845fcU, 0xbb56cdd8bc72c409U,
  0x3cef6e53bc5e44baU, 0x3cbc5069bcbe052aU, 0xbc7ec0223c615185U, 0x3cc914633ceb549eU,
  0x3ca9e70839aede02U, 0xbcee4e143ce03469U, 0x3c77bb60bcf07e59U, 0xbcf46b1f3aefa40eU,
  0x3c8a1645bc1bba33U, 0xbcdd0f5f3c8ee7a5U, 0xbcfcbd74bc93cde5U, 0xbc03fae03ce07be0U,
  0xbbe6e3e43c6e1212U, 0x3c009815ba996c2fU, 0xbc0f6af6bc789737U, 0xbcf087ef3b9740abU,
  0xbcb6c6dcbccb9b14U, 0x3cc28d93bc94de15U, 0xb9bf924c3cb1e2ccU, 0x3cffc6bfbc47109aU,
  0xbc46e47bbc860fd2U, 0xbc02120ebd023b74U, 0xbb36fb593c96e0d8U, 0x3c5e7bd63cf15dbfU,
  0x3a9d928bbc69968eU, 0xbc98f47ebb9bc534U, 0xbb20bb38bad26a19U, 0x3bebe8b038e82941U,
  0xbcf89d78ba7edc47U, 0x3b4ba2193d01964eU, 0xbd02b4dd3cd9cf2aU, 0xbccf609b3aab13d3U,
  0x3cdf00d3bbfe9414U, 0x3b1890f93cde4d3bU, 0xbcc1416bbcc8e886U, 0x3cd9bf643cc0c28dU,
  0xbd001a15bbba5accU, 0xbc932eea3cc5ae5cU, 0x3b4f7fb5baa5eee2U, 0x3cd571a1bc32e1ddU,
  0xbba4dfad38dd5d7eU, 0x3c7e3441bbd25948U, 0xbca3f7b93c3ba1a9U, 0xbccc71c93cf35538U,
  0x3cd9da1bbc2a0cb0U, 0xbd01cbf0bc5ac5a5U, 0xbb32cde33cb888bbU, 0x3c8b2a173ac767fcU,
  0x3c314f4d3cde75f4U, 0xbcdf05a63bf2b9c2U, 0x3b8f2ea0bca2abbdU, 0xba1b3d753b7fe151U,
  0xba57a015bb98c8f0U, 0xbaedde66ba9f72cbU, 0x3c44f800bcb7a4beU, 0x3c53b7183cca0266U,
  0x3ccf3a39bceddea2U, 0xbc675faabbdd35dcU, 0x3cc8a4e43c2c2a57U, 0xbbe957503b24239cU,
  0x3c9299bcbc2b29bdU, 0x3cd91ab33cad6e55U, 0xbcd41bfcbc9d91e7U, 0x3bb2042b3c929720U,
  0xbcc018203d00da13U, 0xbaca95f5bcff6879U, 0x3b95be673cbb1e0dU, 0xbc51cd003a0ecd17U,
  0x3cc709063ce4ea5cU, 0xbc37d961bce852c4U, 0x3c39ac133cc7d008U, 0x3cb53e74bc6b11f2U,
  0xbc9f6bfd3b25c0fcU, 0x3cd8d527bbe384f5U, 0xbcf440d73c86fae9U, 0xbca8aea9bc97f2a8U,
  0xbbd55532bc34d65eU, 0x3cc749853cf47ee7U, 0x3d0164e2bb81816aU, 0xbc7ff21d3c2f3174U,
  0xbcd3afddbbf59265U, 0xbcc50855bc0d0e43U, 0xbb370fcf3c970cffU, 0x3cc80f55370f3c60U,
  0x3b200e4b3c3586e1U, 0x3b42f3753c39abd9U, 0x3c27116f3c63c944U, 0xbc1520203c2cb240U,
  0xbcb0a3c83d018930U, 0x3ce091a3bba0a7f4U, 0x3cfac47bbc130292U, 0x3cdfd876bcf96133U,
  0x39eae1e03ccd0686U, 0x3c4bc43e3c973fefU, 0xbcef97e5bc527e5aU, 0xbab355d43b8e84cbU,
  0xbc8eb44dbcbe34bcU, 0x3c612941bcfc6197U, 0x3c50d208bcc040c4U, 0x3cda4c30bc69ec01U,
  0xbc0cda023c44b684U, 0xbc865ab53b1505dbU, 0x3c8a7a7fbc6a4a22U, 0x3ca67ae63cc156e9U,
  0x3c4d0b283bcfb952U, 0xbcffcdca3cf8e02cU, 0x3c95d36cbc42447fU, 0x3b8bd5e33c890627U,
  0x3afc6c78bcb2e1c4U, 0x3c54f0293cc989eeU, 0x3cd7e9c2bcceb897U, 0x3cc5eb1e3cdee99aU,
  0x3ccee46f3c84e097U, 0x3c65bde2bcfe2345U, 0x3becc6b53ccbf9edU, 0x3b538bbb3c1c0677U,
  0xbc72cd82bc9539b8U, 0x3d00af9ebb4b033eU, 0xbbd036ffbd03042dU, 0x3cbd0cf4bbd00a02U,
  0xba653099bba43e3dU, 0x3cffd186bcc91e94U, 0xbb0fdbf13cbb9467U, 0x3c9af5abbc833354U,
  0x3b5c54c63c7284aeU, 0x3c93cb89bacec5dfU, 0xbcb75b023cdd44e8U, 0x3c8a5a8cbc99c376U,
  0xbcd6a4633c61ea78U, 0x3bc0ce34bc498c90U, 0xbc980f6e3cbdfcf7U, 0xbcc6bc0fbcb318f7U,
  0xbcb982d2bccd13fcU, 0x3d004acfbc760860U, 0xbbcfddfc3c0ede95U, 0x3cbd07b93c49549dU,
  0x3c10f1963bc52d03U, 0xbc1527083c1ceadbU, 0x3c92f02c3cb3927dU, 0xbc4b4ccbbc629240U,
  0xbbaf65b93c31c7bcU, 0xbb05840c3c9808d6U, 0x3a9df9b13c176ab4U, 0x3ca7507abc8ce742U,
  0xbcecefa6bcab7f5fU, 0x3be88ebabd02a238U, 0x3c9d556cbbebca8bU, 0xbc0c666a3d0420ddU,
  0xbc19e2f8bbf5fef7U, 0x3c8147c4bc8a2ea1U, 0x3ce94fb83cd8d697U, 0x3c70914fbc565d45U,
  0x3cffc4513c8e1647U, 0xb950c412bb1311a8U, 0xbc820ef1bcaf7b4eU, 0x3c4a4790bcfed85dU,
  0xbcd4814e3b90f682U, 0xbc3ef91f3bfa0004U, 0xbb0e384dbd01b7bcU, 0xbc558069bcbff142U,
  0x3ceaa2acbd0008c5U, 0x3c5f9d743c939e8eU, 0x3c327c01bc00c4ddU, 0x3c8bc9c5bb5cfc69U,
  0xbc948610bb703d0aU, 0x3cc627a43b5431f3U, 0xbc1d10c4bc4081a6U, 0x3cc7a691bc35f8f0U,
  0xbb737a1dbceab24fU, 0xbc5538743ba6e31bU, 0x3cd44deabbf885d2U, 0xbbe282b23cc4b172U,
  0x3c071cdf3c9e8d1bU, 0xbcd17132bc01be2cU, 0x3bd495cebc8f6c43U, 0xbc5a325c39e66f37U,
  0x3c93c6d13c9f18e4U, 0xba6fe079bb80ec0cU, 0xbc2dba883bae5431U, 0x3ce918b93cffd111U,
  0xbc065fbebbfa99b6U, 0x3bf3555bbc444b58U, 0xbcbf9b283d015b54U, 0x3baaadd6bc97e9a8U,
  0xbc47af2b3cfb0bf2U, 0xbc933c34bc9e10f6U, 0xbae07aae3ccab4ccU, 0x3b44d47bbcc10f95U,
  0x3c46356cbcc12333U, 0x3cef83f93c3ca2cbU, 0x3d02e4313cdab9fdU, 0xbcd0b5d0bcd0d039U,
  0xba874627bcf8fcd3U, 0xbcfbaa5cbbaa9c89U, 0xbcd29774bcf2a5f1U, 0x3ce6060a3ca97ebaU,
  0xbc33bc303c9263cfU, 0xbc8d23bb3b2be441U, 0xbb42c7803af90425U, 0x3c3a1fbbbc4f2595U,
  0x3cbedcb8bc2c8031U, 0x3cd34ee73cf52ba6U, 0xbcde6c6a3b156974U, 0x3a5b84fd3c8dc43aU,
  0x3bf01efe3bebcc83U, 0x3acf181bbc631bdfU, 0x3b700f563a8597bcU, 0x3c650249bc6c2aa4U,
  0xbcc0a1a23d0263aaU, 0xbcd873c2bb312d7aU, 0x3c0b0471bc3a957dU, 0xbc85dbac3ca15edbU,
  0x3b066229bb32b6a6U, 0xbd0092e93c8fcbaeU, 0xbd02a26d3b154cecU, 0x3c3bf6d1bc16ac2cU,
  0xbc0d06f73d03dcfcU, 0xbcc08dafbce1bfdeU, 0xbc2595733c3c7bd6U, 0xbcc19263bc4fa1e3U,
  0xbc9e79913cd2d83cU, 0xb850b073bc0192c3U, 0xbc9ecce0bb2e480fU, 0x3c876a84bcd66d8dU,
  0xbcd9d967bcb4d330U, 0x3c2082563c02a88dU, 0x3bb3c077bb8fc49bU, 0xbc917dcb3c8627acU,
  0xbcc21a41bc662d12U, 0x3c1bcb4a3bf918cdU, 0xbcd10ed0bc7718f0U, 0x3c3cb1c93d01b9fdU,
  0xbcb534523ceea5dcU, 0xbc820e89bc8de9a6U, 0x3c834520bbb129abU, 0x3c64d864bc19157eU,
  0xbcf00e6fbc8def0eU, 0xbbdce1c83ccfd49cU, 0xbcab73e0bb9b27feU, 0xbbe142763cea5da1U,
  0x3cb6ccccbc91e776U, 0xbce7088a3cfb2db1U, 0x3ce59d76bcfaa49aU, 0x3bf2f9043b08784fU,
  0x3c1ed670bbc19f71U, 0xbc8d569dbc572b2bU, 0x3cfcbe9a3cbcaebcU, 0x3d026cc8bc71382bU,
  0x3cd8e730bacf360fU, 0x3c925e9d3a4598c7U, 0x3ca092583a6e804aU, 0x3cb068f8bb18097bU,
  0xbcd88361bccc98b6U, 0xbce7fc6cbb16c237U, 0x3b1331cebc232269U, 0xbcd4645cbceba949U,
  0x3c893dc7bcbe5443U, 0x3c246cd33cf0b3aeU, 0xbc9d2d4c3cda2c4fU, 0xbcceefd23c323c7dU,
  0x3ce05384baa6efebU, 0x3c9951863d038747U, 0xbb76f410bc6b1e4fU, 0xbb21823abc3fa4d3U,
  0x390980c53cfb04beU, 0xbcd393323bd8aa28U, 0x3c9b4286bc586f7bU, 0x3ca6fb05bc87bd2aU,
  0xbcc812053ab36362U, 0xbce8a0533cbe185cU, 0x3c99d87fbcb38b29U, 0x3c8b012cbcc9ea96U,
  0x3b151e62bbc51329U, 0x3cb82b18bb84a58bU, 0x3b273b3f3c81ff7dU, 0x3caf5589bc3593e2U,
  0x3b83d21cbc2c9e52U, 0x3c4e89cf3a07ba99U, 0x3a9641f4bce15a37U, 0xbc864a7dbcde43b3U,
  0x3bdf33413cb0d464U, 0xbcce85d03c977b37U, 0x3c8305243cc31f4dU, 0x3be336f33c56f4b0U,
  0xbcdd823b3c9065f9U, 0xbcc94b9a3c0284f0U, 0xbca829f23cc79c85U, 0x3c390bd53c633eecU,
  0xbc8a78473d03f7c0U, 0xbce2a86abcbec8a9U, 0x39c342463c1cd676U, 0xbcd9d1d83c99fb5cU,
  0xbc9216223c862212U, 0xbc7412babc2bd322U, 0x3aafc7efbce90ed3U, 0xbb9c2f953cebea57U,
  0x3a987bee3c52233dU, 0x3c35b20c3bcad137U, 0xbcbd8c19bcf4d569U, 0xba0b8a553cbc37a0U,
  0xbad059b1bcec5284U, 0xbca36698bb15db94U, 0xbc9b3cf73cdf85dcU, 0x3cea28f8bc053658U,
  0x3aa97317bc61307cU, 0xbc2d36663cb58456U, 0x3c9b4a34bc705411U, 0xbca7fccf3b2d0478U,
  0xbcd7998a3c2b9cb4U, 0xbc2d55eebc9554f4U, 0xbbae0e5a3c8ffa83U, 0xbc84d3cdbca1e4b7U,
  0x3a090c95bc9462b4U, 0x3c05fc773c08b195U, 0x3c0c8230bb8af894U, 0xbc5844123ce423b1U,
  0x3c5403603cc9eb2bU, 0xbcc4b55e3bb66c77U, 0xbd03a3413cb95cbeU, 0x3c82fd083c1985cfU,
  0xbc13a7ac3cb8ec04U, 0x3ca445dabc478721U, 0xbc569ca8babaa66aU, 0x3c10a6efbc9bcc69U,
  0x3b998c123c44b94eU, 0xbcbe7905bc7dbe99U, 0x3b159def3d01be05U, 0xbcd647b3bc9fa519U,
  0xbc7b8eb5bcade7c0U, 0xbca8bcbdbceeddb4U, 0x3c1bb111bc7aa927U, 0x3ccda3383cebe18aU,
  0x3c6585103a631a21U, 0x3cdb3bb73d042925U, 0xbce187c43c9c1658U, 0xbc8727c0bca4af18U,
  0x3bf008d1bb876b7eU, 0xbc8b8060bcfb4636U, 0x3caf3cdbbbda58b4U, 0x3ccd82bebc5390c0U,
  0xbca8163e3ab5897aU, 0x3aa9b3a43c59fccdU, 0x3c9734b1bcf66b04U, 0x3ca19962bcad59f1U,
  0x3ca60093bbee4fa7U, 0xbb7ba62c3c5ea0c2U, 0x3b94a29cbca854feU, 0x3cf321d43a37c6f0U,
  0x3c164bc83b7d120aU, 0x3cbb7697bd00d38eU, 0xbce6a83dbbe0b018U, 0xbc63e45c3c58c065U,
  0xbb3a915f3b584354U, 0xbd025f753ccd8979U, 0x3ce794793b9307c0U, 0x3cb078ac3cc06251U,
  0x3ca487973bf2420dU, 0xbd018c093bb2cae2U, 0xbcd9b281bc4f31b3U, 0x3ba3b4963cb98969U,
  0x3cb6d67fbb296b16U, 0x3cc23775bc63a9b8U, 0x3c3d35633cf2bbb6U, 0x3b1c23c5b96d04bdU,
  0xbb6a2a3bbc32e338U, 0x3cef4fbb3cba6125U, 0xbcba15253c1c2c5fU, 0x3ce4e36cbcd4ea70U,
  0x3b85052cbb91ca96U, 0x3ce5334bbcba4500U, 0x3ce1e4c8bc88afdbU, 0x3abc15b4bcadaa99U,
  0xba07624bbc62bb31U, 0xbca74cb33b98b838U, 0x3c93683c3cfae03dU, 0x3cad23ae3c98a9b8U,
  0x3c8c5ffe3c03698eU, 0xbcf2fe7c3cfefe35U, 0x3cdc2957bbd5d085U, 0x3bda0567bce00840U,
  0xbce592c13cf4a8a1U, 0x3b929c803cc9949fU, 0x3cf184353cf8962fU, 0xbcb649a23bcc26a6U,
  0x3cdfd9ad3c2c1759U, 0x3c85a327bb3977adU, 0xbc59c65e3b46d2afU, 0x3cad35fd3b3e7c8aU,
  0x3b6ac41e3c3ba05aU, 0x3c62a0003bf1e319U, 0x3cf4f028bc9c3865U, 0xbcc838183ce33b8eU,
  0x3cd33042bcbb4a5bU, 0x3d028ffc3ca9b792U, 0x3cf0c3433c01ad81U, 0x3c28855f3d009db3U,
  0x3b0198afbc443ba5U, 0x3c150ef0ba4d2397U, 0x3c48e533bce7735eU, 0xbd03d3a2bc1ec58aU,
  0x3cafe7abbc033b53U, 0x3ccea99bbce7730bU, 0x3c8930873bb3a5d6U, 0xbcc87c27bbd1fc44U,
  0x3cdc20d6bac1d50dU, 0xbcc985f4bc46dcacU, 0xbc94b47b3c823058U, 0x3cf900983c6bba36U,
  0x3cd9f8803cbc37b9U, 0xbc9dcc80bb8f7e79U, 0x3c80e8f1bbceb150U, 0x3cc0cc593b116b81U,
  0x3b551e233c69ecc7U, 0x3cda35903c62b2c4U, 0x3c248a9d3cd0a258U, 0x3c3258f4bbd9d11eU,
  0x3c05c27bbcdb190dU, 0xbcbb4b89bc2c4d2aU, 0xbbca744bbcfc7dbeU, 0xbcb071c03aca0a25U,
  0x3bb30e70bc8c8a31U, 0x3c55bdc83c60c1e9U, 0x3c06a2aebb978659U, 0x3ca7fbd1bc0b45d0U,
  0x3bd8d5b23b858eaaU, 0xba6a49cbbca761d7U, 0x3cdeb0fc3cb0f703U, 0x3cd045bbbcd9f047U,
  0x3cee2bef3b5d2bb9U, 0xbc1db777bc16a0dcU, 0xbcc5bb5cbab9467dU, 0x3c16dc00bbfbb9b3U,
  0xbcf0e5b33bd87ebfU, 0x3b5a5b7a3cce65e5U, 0x38c977bebb5144a7U, 0xbcdc18b63c4216f0U,
  0xbc74495ebca2b95fU, 0xbc93c9ea3c845b89U, 0xbccf731d3c7af156U, 0x3c8a5deb3c04c67fU,
  0x3c60d5cb3c249586U, 0x3abb08cabc664609U, 0x3c1c117cbc877fc3U, 0xbc22064c3c944ab7U,
  0xbc166c69bb8ad20bU, 0xbc81ef9e3c439fa5U, 0xbbe9a431bcbfaa32U, 0x3c48295839835d5fU,
  0xbb775d9a3c87fb37U, 0xbc2ab0ce3c921ee7U, 0xbaf9a66cbc9ea7adU, 0x3c66c958bc9042b2U,
  0xbc7fde6dbc45c5faU, 0xbc8363f33cf62206U, 0xbaaea7033cf33b45U, 0x3b46b057bcacec56U,
  0xba8e424f3cb016d1U, 0xbc93b956bc4c3798U, 0x3c5cc934bbb76b70U, 0xbcb640693cd954f6U,
  0x3d03e3c3bcee553cU, 0x3cd9cef43c6eb925U, 0x3cefff143c03517bU, 0x3d020b81bce29732U,
  0xbaf884143ce7a1b3U, 0xbc16cbd53c5b41a1U, 0xbbcc60193ca48fdaU, 0x3c8359803be3ec34U,
  0xbc63908b3aa78230U, 0x3c6009ac3c940efcU, 0x3cf96b813c8760a8U, 0x3ad7a7f53c5c1784U,
  0x3c8f4d7f3c0470f8U, 0x3b882e1c3b245c07U, 0xbae50f6cbcbe36d3U, 0xbcc8135bbbd0854cU,
  0xbbdeee503b405c98U, 0x3ceca6353c9cad0dU, 0xbc37685bbc713f30U, 0x3c1e6a3c3c6d3706U,
  0x3c5cb0e33cc9b528U, 0x3c784d883acf8fa7U, 0xbc289c283bdb395eU, 0x3cc10f6c3ce7cf73U,
  0x3bf679adbb595136U, 0xbcede1a9bc5e59e6U, 0x3ccad51dbd036af7U, 0x3b4071303cfe10baU,
  0x3c6e3f943bd43f15U, 0x3c57da993cb5645eU, 0xbcdae4613bce6b91U, 0x3c372072bcda0f15U,
  0x3cdaadfb3cfe17e4U, 0xbc9b7ce9bcb18028U, 0xbc79119ebc778d18U, 0xbc9ea90dbbb7504bU,
  0x3c2265f53c2bd665U, 0x3c2c7c8b3c664ad4U, 0xbc7ffe2bbc9d9376U, 0xbbb01955bcdec9cfU,
  0xbc5e4b4f3c17b6a6U, 0x3c37997ebce4b0b4U, 0xbcd9efb03cce9a95U, 0xbba87369bc97f324U,
  0xbcfe2baf3c06a16cU, 0xbc0d04da3c8385e3U, 0x3cc55d1e3c90beb6U, 0xbcbf674a3d017623U,
  0xbcf64b35bbf40206U, 0xbc204fd33cc7cf10U, 0x3c7a56ef3cd271edU, 0x3bce5a8e3d005ceaU,
  0x3ca211e03c67d47cU, 0xbca9e89dbc693b2fU, 0x3aaeaaa0bca28f1aU, 0x3cf7e8ae3cc32492U,
  0xbcde050e3cf76be0U, 0xbbec4169bc41f879U, 0xbcb3da2e3bddc9f8U, 0xbd010a10bc9b986cU,
  0xbcb6be46bcf75c20U, 0xbbfeba11bccff289U, 0xbabfcd09bc1643a6U, 0xbc9e97443ceb95a5U,
  0x3cb9227f3c82b3f6U, 0xbcd97639bcc56736U, 0x3c58d5be3cf4c339U, 0xbc9bea73bcd70e6bU,
  0x3ac2a9adbc31c6ddU, 0x3c817daa3c39079eU, 0xbb943a863cec274fU, 0xbcd4e511bbfdee48U,
  0xbc262c5d3c9d5fdbU, 0xbc2d77563d0198ceU, 0x3c2391953cb4b764U, 0x3c2c2ed43c10d2c7U,
  0x3c0a180b3c3b0a0cU, 0xbd02e1bbbc83a563U, 0xbcbe38ea3cef8f1eU, 0xbc482d71bcc8671aU,
  0xbc89a6a73c2c50e4U, 0xba1f9bb73c7a21f4U, 0x3c38c4ec3c123562U, 0x3b7b289fbba10c01U,
  0xbce25beabce3039eU, 0x3cdc58063cbd9f66U, 0xbc8a78d0bc03398cU, 0x3cc07c80bc8e4664U,
  0xbca2b9f0bc1c64fbU, 0xbb9186743c7e1a35U, 0x3c9d18d7bcc37123U, 0x3ca0b05c3cee78e0U,
  0x3c22654cbb93622fU, 0x3cab5a353bc1036dU, 0x3b9cadae3c64e977U, 0x3cfc8721bc95fc39U,
  0xbcbc68a43c708fc2U, 0x3c644fb9bc551b50U, 0x3cb4602dbc882380U, 0x3c40d1debc0d075aU,
  0xbca1a8afbc34c021U, 0x3c9a3c9d3b88cf53U, 0x3bb908753b5c5ee8U, 0x3d00d6b9bc6e49bbU,
  0xbcdd16d13c3dd2a5U, 0x3cc69929bb2f34a2U, 0xbb9e003ebc33257bU, 0xb8c353d4bc8d0980U,
  0x3cf50c1d3c78aa21U, 0xbce2b186bb546101U, 0xbcc63b773cced192U, 0xbd00560f3c933335U,
  0xbcec5abbbaa1a505U, 0xbba34fdbbccb8c22U, 0x3bce4e643c3a68cdU, 0x3b8285093b0f52b5U,
  0xbcfae8403cc98102U, 0x3c32496ebc4c8bcdU, 0x3c2b333ebc59830fU, 0x3c2262093c4f005aU,
  0x3c5c1239bbbe41abU, 0xbcfdeba5bcdaef71U, 0xbc0feccebb04d236U, 0xbce49febbb0420e5U,
  0x3cf65fcbbcde8ff7U, 0x3c4bc8bfbca01c4fU, 0x3cfa9dd13cb3fef5U, 0xbb1e6464bce3369cU,
  0xbcea17683c8a06cbU, 0x3c66082e3c3fc780U, 0x3c9de015bcde6b07U, 0x3d036b65bc0a674fU,
  0x3c4ce5ab3b170cb4U, 0x3c7ea4793b73078aU, 0x3bcebc6a3b249a51U, 0x3bc477a93c83ce05U,
  0x3cef6103bcc3b957U, 0x3ca055c43d02a50cU, 0xbcf298273c9f20ccU, 0x3cdf638dbce418dfU,
  0xbceab3e43c1352c6U, 0xbb5351403c5140a3U, 0x3cf965c43c14ec53U, 0x3cb740553cde4a28U,
  0xbcb189083cdd1c40U, 0x3c60c8a83ca3e87bU, 0xbc37cdf9bcd89f9eU, 0x3bd6751f3c36f2baU,
  0x3c9616703cc9fc0aU, 0x3b6cf416bbe1afcfU, 0xbc9de47d3cf86b7cU, 0x3c92f4a9bc761b8cU,
  0x3ce25369bce41cdaU, 0x3cd9843f3c26f480U, 0x3be9dade3cb21a70U, 0xbc5db19ebc6d6eb2U,
  0xbcfdcd5f3cc21413U, 0xbc8a4e523b0ac512U, 0xbcafb6b13ba6a02bU, 0xbcb7762f3c9f166eU,
  0x3cb3d35e3c5c3ef0U, 0x3c2478fa3c51a0d9U, 0xbcfe12553b98d22bU, 0xbcad025f3c9d84bcU,
  0x3c4289c6bce7e1b5U, 0x3cab0159bca8411aU, 0x3cb74facbb60d015U, 0x3cd251583c321515U,
  0xbc84e1283c3ec439U, 0x3c4b9f213cd306a6U, 0x3c408ac03ceb1d6aU, 0x3ce118d23cafc2b7U,
  0x3b6507ffbc0c0c5eU, 0x3aeafa25bca5a3f9U, 0xbc040ed23c8f799fU, 0xbb246384bc5128b8U,
  0x3c1e17ff3bc115caU, 0x3c9ccabc3ac76926U, 0xbce227c23c6c3af1U, 0x3c677314bb656103U,
  0x3bf1394cbc00b653U, 0x3ba4ffa93cd1c0b2U, 0xbcb20f3dbbc5f13eU, 0x3c70da1f3c2aebebU,
  0xbc6b6993bc7c73cbU, 0x3cc6653f3c9a382fU, 0x3ca601d1bcc56020U, 0xbc393ad33c80c5b2U,
  0xbce20d9cbc75eb75U, 0xbcbe80803c1a5af8U, 0xbce482593b69e2e7U, 0x3c844ca43ce1f00bU,
  0x3ccf1b223b8a5d6fU, 0xbc37d5edbcb028dbU, 0x3c7113d03a674501U, 0xbbdc2e033c158ebbU,
  0xbca70df9bc45cf88U, 0x3bebd8b6bc98d098U, 0x3bd649cf3c36dda3U, 0xbbec75a23cc923f1U,
  0xbb6e6f0e3c8e1bf9U, 0x3c9a00003c9b7ac7U, 0xbcf8eee4bc8db361U, 0xbcc08df4bc897343U,
  0x3c968fd1bc374ea2U, 0xbcb972cebcac44beU, 0xbcb9c342bc6db48eU, 0x3cb5c3e53c6ce673U,
  0x3c4fd21fbc3c61a1U, 0x3a81c2103cd18bf9U, 0xbcb45b0b3c8d73a1U, 0x3ceb391bbcc9a2a1U,
  0x3c9a55413cd251b3U, 0x3ceff01f3a93d6ecU, 0x39022e3fbc6bf870U, 0x3cc4f927bacb4fbbU,
  0xbcfdda9ebcb307c9U, 0x3ce2c7243be0ef19U, 0x3c9230fc3bc0f0f7U, 0xbba75a75bce9a69bU,
  0xbcb7273fbb49e251U, 0xbab285fabcc6c9d3U, 0xbc8315aaba5633c3U, 0x3c9f77493c80958fU,
  0xbc9b6b1ebc367971U, 0xbbe6b3ee3cb09724U, 0x3cce7acfbca9004cU, 0xbb9580b13c658d5fU,
  0x3a476104bc0a1534U, 0x3bcc5e093c07b398U, 0x3a91fe4a3c6eb0f6U, 0x3c7985ba3c89b419U,
  0xbcf60c143cc9cb75U, 0x3c922399bcad2a46U, 0x3cd928813cc08a06U, 0xbce94bbebcfd413eU,
  0xbab0045a3c668a7dU, 0xbbbdc4c4bcd330b1U, 0x3b884851bcb9219eU, 0xbacebd38bba31a47U,
  0x3c776ffb3c50499bU, 0x3d013f8b3bc63bd4U, 0xbb6e62893cbddd43U, 0xbc0ee2b3b99e2a3cU,
  0xbbcb7a2c3d0031cfU, 0xbc0fd2803c30e0f4U, 0xbc9701163c380ca2U, 0xbc7b51ef3b9d27beU,
  0x3c8a84643c547b09U, 0x3c2e44fe3c110704U, 0xbce27c6abc56ad3fU, 0xbcff2010bd01263fU,
  0xbcd919543d03c5a4U, 0xbd02d22ebc9d8aa2U, 0x3ca694943c6658bdU, 0xbb522eb63b478f6dU,
  0x3a94514fbce7af4dU, 0x3cee69f5bb6b6edaU, 0xbc941a48bbe4577cU, 0xbca149323c2aaff7U,
  0xbaae633c3d0220e8U, 0x3cda1b9b3ba9a00dU, 0x3b05fa3d3c2a0096U, 0x3d02484b3c99d0d1U,
  0xbc71911a3c881d01U, 0x3c9dbd08bc288bbfU, 0x3a38d0e1bb43a474U, 0xbb95761b3c59d9f6U,
  0xbcc20557bb3fad16U, 0x3c222fde3cab2711U, 0x3c1d4e0ebc1632cdU, 0x3c01bf5abc8fc751U,
  0xbc44bf95bbe5c83aU, 0xbc09f1d43cadaf8dU, 0xbc8fc43c3cadc8ddU, 0xbceecced3c838d17U,
  0xbcee903a3bdd8d00U, 0xbca8fc5abd02a853U, 0x3cc1f6b23ce623ceU, 0x3ca1d98cbc33f3d4U,
  0xbc8f72983bb8701fU, 0xbbff4aeabcffb713U, 0x3c745199bc709f8fU, 0xbc875dfabc973e98U,
  0xbcf6ac0abc4b283aU, 0x3cc5162bbcd4003fU, 0x3cfdf4f03ca44ceaU, 0xbcbe21d33bfa959cU,
  0xbcd6ab81bad7edcdU, 0xbc77bd433c80e6e6U, 0xbcca0593bb0ee622U, 0xbcb1b86b3bcbef55U,
  0x3b94a863bc911fe8U, 0x3a780be33c7dc3d7U, 0x3cc7e8b73c76e105U, 0x3c8a380d3cf795aaU,
  0x3ce22661bb337c4dU, 0xbcf814c93ca6a7aaU, 0xbc4a338d3a3a1ba2U, 0x3cb82d9e3ca52ddcU,
  0xbce96b233cdc240cU, 0xbb28e0c23cbfdc6dU, 0x3ccd5c5a3cba3a8bU, 0xbb5faab43ca73fe1U,
  0xbca5a45ebc56e604U, 0x3badd7843cf3aaacU, 0xbca44d4d3ccc318dU, 0x3cb4816bbceecc42U,
  0xbc527da43ccd60c2U, 0x3ca7a86bbbc7485bU, 0x3c39a5823bdc2012U, 0xbc802af2bcc38438U,
  0x3b3d9f22bc76d61cU, 0x3c63e872b84f556eU, 0xbc9ee7423bb19224U, 0x3cde80e13cae7052U,
  0x3c6afe153c9dc598U, 0x3c5a5412bbb2cefcU, 0x3c7b8dce3cf9aaefU, 0x3c0325f13c6b5684U,
  0xbba5a7b7bcc8bcf8U, 0x3c371dbcbcdc22adU, 0xbd0196edbc7dc2f8U, 0xbc1f8a033bc41ac6U,
  0x3ca493253b6f3884U, 0x3cec44193cd55e65U, 0xbc969db43b221d78U, 0xbcd64e763c72bff0U,
  0xbc8ece7c3bb8816bU, 0x3d006f913c80c75cU, 0x3c1b1e6dbceced21U, 0x3bc39eb53ccf91dfU,
  0xbc9034153be2ca47U, 0x3d04228b3cebaeaaU, 0xbc9c7b343cac4418U, 0xbc94cec93c16ee24U,
  0xbc9cb463bcd87ec7U, 0xbcea0c8d3c5de921U, 0x3c94e1a83b487051U, 0xbc6159f93cbb5546U,
  0x3ccd1cfd3c596cdbU, 0x3b0683babc1ae037U, 0xbcceb0923b1be451U, 0x3c2f5982bc1a0eabU,
  0x3b656ae33c403a1cU, 0x3cef3d0fbc8eb8b9U, 0xbc77ce21bca8d0c8U, 0x3cbe3a22bcb6a148U,
  0x3c9849fe3b98ac26U, 0x3c8942c9bcb4d5b7U, 0xbc8ecb253ccbde00U, 0x3c11f1b43cbf1160U,
  0xbccad7febce81941U, 0xbc8c5bfb3ce267cdU, 0xbd04280dbb71ac85U, 0x3b9117c8bc1df9c6U,
  0x3ccc31eabc8df5dfU, 0xbcfe24f9bc91b687U, 0x3c3f799b3c3bebe8U, 0x38013ea33aaa015cU,
  0xbd00180338aed95cU, 0x3b6d2c5fbc707e69U, 0x3cef1d00bcd60639U, 0x3b98dbfabbaef8f5U,
  0x3b398f2cbc0fdac3U, 0xbaeff500bcdc21b3U, 0xbc6c8d3ebcfa2f55U, 0xbc32962ebc930a02U,
  0x3c7be3173c87b6d7U, 0xbceaca613ce6f505U, 0x3c502facbc10b723U, 0xbc44148fbc300b01U,
  0xbb1ffcfe3c4db7d4U, 0x3d01fc13bca43c30U, 0x3d037fc3bcd9e0c7U, 0x3c3a42c4bc8cba23U,
  0xbd0363373cf41e2fU, 0x3c819c2abbcb0a99U, 0x3cfa8f243b9838e5U, 0x3c3b7b34bbdb3cc2U,
  0xbc9f5046bcb930f2U, 0xbd031162bcfb324cU, 0x3bfdf6bd3c44cc02U, 0xbcd1825b3ceb8a13U,
  0xbc635bd7bc04d933U, 0xbb101c3bbc06c564U, 0xbcd66aa8bac1fdd8U, 0x3ba5713c3ce2c2c6U,
  0x3cf00e1cbcd63068U, 0xbc2b1c50bc0b2f72U, 0xbc9968a83bf627d4U, 0xbc6f28f6bc5bc2dcU,
  0x3bc923c4bce7b35aU, 0xbcc49283bc192194U, 0xbb5ca20a3c85bac5U, 0x3b5319cd3c45ac49U,
  0x3c24e8fdbb9494edU, 0x3cdfb6cc3ca67540U, 0xbc9fe351bc8fc957U, 0xbb5c0406bcf1149cU,
  0xbc82c58dbc64c651U, 0xbc3c7ba53cbc9eb0U, 0xbc7e0f7abcf1abc1U, 0xbcc89eaa3b8339dfU,
  0x3c8aa46e3bb3770aU, 0xbc4b73e53bc2a441U, 0x3c8934b9bc1315d2U, 0xbc820b873b6919d4U,
  0xbc6826acbbbd86a3U, 0xbc13270ebceeff05U, 0xbc8feb62bc03b974U, 0x3bec1208bc38ddf8U,
  0xbc2e58a13c72e9d9U, 0xbc24c3e3bbc53356U, 0xbb9db0763c7b0c07U, 0xbabd0ebcbcbf500bU,
  0xbc869fd13c739380U, 0xbc777ee93d00e6baU, 0xbd02d5c93c86c253U, 0xbcccd162ba79b20aU,
  0xbbdaa008bced516eU, 0x3cdbfe55bc6e5fcaU, 0x3cd3bcbe3ce2f372U, 0xbc6949a93ae74e0bU,
  0x3c6c7ffe3c330752U, 0xbcc1567c3c922102U, 0xbcd71920bb252242U, 0xbbbda7b0bc9ff8ebU,
  0xbc836999bc361135U, 0xbc59b31e3cde1567U, 0xbd03ece4bc5f31c9U, 0xbbb52ed93ccbecebU,
  0xbc15161bbbbb902fU, 0x3bd5d04bb8ec4ad6U, 0xbcf31f09bb017d30U, 0x3cb91fba3ceb83a7U,
  0x3cfe0a693cda6254U, 0x3d03962ebaf065f7U, 0x3bc86178bc523354U, 0x3a46522a3c5d53f8U,
  0xbc88e2bbbc40da7cU, 0xbbf03aaf3c80d8edU, 0x3b5f803abb8d502eU, 0x3b9ba741bc3747ebU,
  0x3b6d39ddbc8bd415U, 0x3b15dcbd3d03a00fU, 0xbc61ddd13c9101deU, 0x3bf46c0c3cc91271U,
  0xbc4f8e9f3b7bf31dU, 0x3cbb2b2bbc3811afU, 0x3c2209ab3cda5d49U, 0xbccabd203c996e48U,
  0xbb6e0b963cb3c3fdU, 0x3c5d583bbc7f4196U, 0x3c01a5423ba8abcbU, 0x3cfe06873cf041a5U,
  0x3ce08bbd3c9d257aU, 0x3cdedbc13cde5f7bU, 0x3ce47aee3c3d3fb2U, 0x3cf04ebcbc4ffa84U,
  0x3cf81f6b3bf345edU, 0xbca23850bcce2045U, 0x3b12164dbc7f51efU, 0xbc9d16febb3ddad8U,
  0x3cfcaa823c17ce18U, 0x3cf3b47e3c5cb2adU, 0xbcd49ca23d00f4b8U, 0x3c4b76e23c21e2f9U,
  0xbc357c2e3cb27fa1U, 0x3cab56a6bc2b18afU, 0xbcdb9541bc87f9eeU, 0x3beecbfa3b17958dU,
  0x3ccd83febd00873cU, 0x3cc0f1f03ad7a982U, 0xbc0223babcc04455U, 0x3c2e20e43c8ae3aeU,
  0xb9e0bc643b735fc7U, 0xbcacbf46bd02a107U, 0x3b873decba20e35fU, 0x3cd913c23aa28af2U,
  0xbc9bf96f3c81634bU, 0xbc455cecbcfe4bcaU, 0x3be556f9bcfd6d20U, 0x3cfcd36fbbdf580cU,
  0x3c782a18bc53622eU, 0xbcd37e293c740745U, 0xbcf663e4baa2b6b6U, 0x3c00b4b23c968673U,
  0xbb8005c43c8e1061U, 0xbcc7ade3bcce9314U, 0x3c5290f9bc25c370U, 0x3ce10bbdbb7ab2f3U,
  0xbcc7cbe23ce7c855U, 0x3bc440b2bc81fd5aU, 0xbbc6c919bc4c538fU, 0xbbfd044a3ccdd5eaU,
  0x3c631f84bc0cab18U, 0x3cb8c424bb9316fcU, 0x3baff3063ce29c5eU, 0xba6ff5a53bd6f90fU,
  0xbca90409bc310157U, 0xbc119eb1bd02ae8dU, 0x3c857eb43cbb8286U, 0xbc3eba2b3cc6d8a9U,
  0xbcb78d24bced1c21U, 0x3ca28cf0bcd7a925U, 0x3cd27c223c069e63U, 0xbd01402dbb61c9a1U,
  0x3c9c1ca9bbdc85ddU, 0xbcfa47dcbc8854c9U, 0x3cf667ebbba63ad3U, 0x3cffd54fbc891505U,
  0xbcb2bb033ce49148U, 0x3ca891b5bb28dd35U, 0xbc4abc343b8b0de1U, 0xbb34339f3c2b0ba0U,
  0x3c4f7f7c3bebdb6cU, 0x3c392cb8bcd1637cU, 0x3cd6622b3d03f21dU, 0xbcbc9c84bc900630U,
  0x3c34db98bc207c7aU, 0xbcdcd5c33cbcc649U, 0xbb7c26f3bb92cf55U, 0x3c811dd3bc451825U,
  0xbd02f4e9bc4e4bdbU, 0xbc0be47ebcbabb42U, 0x3c358cc5bcee8520U, 0xbc258268bc7be58fU,
  0x3cc28d86bc420bfbU, 0xbb6bcb07bc974966U, 0xbd0071f43c5f4bf5U, 0x3c977ebd3c95dd23U,
  0x3ce46d69bc0bdd22U, 0xbcc76bcd3c2aa472U, 0x3cee8e693be1eb9dU, 0xbcafa7123ca3df42U,
  0x3cb3e363bc41cfb9U, 0x3c5778833bb06390U, 0x3c4ab50a3cb339caU, 0x3ca4f43abc6771cdU,
  0xbca4f2783ce6be8eU, 0x3cb9702a3be28fe5U, 0x3bae1684bce603a1U, 0xb9f045b0bcb2c5bfU,
  0x3ce8c8d43c736d94U, 0xbcfb81e73c3929d4U, 0xbca0ac72bcb04020U, 0xbb17cd103b177c2fU,
  0xbb5fd7d23cd56c18U, 0xbcbb0c843beb5895U, 0xbb566f583ce1e592U, 0xba59ea743cc085cbU,
  0xbb91f3f6bc33218fU, 0xbc7c9f7fbcb421d4U, 0xbcdd45913c5cc265U, 0x3cd7dd743c4d7c0aU,
  0x3c657b38bcf2697dU, 0x3cf1f56ebc81f480U, 0x3cc383f1bcf71f89U, 0x3c0fbff9bca03c04U,
  0x3c8047423c635d5fU, 0x3c8a6ae03cb65915U, 0xbccbee1b3c80ec29U, 0xbb417f54bc8d2677U,
  0x3cff2f413c994f39U, 0xbbbbb5d93ca907d5U, 0x3c6ff3003c436eafU, 0x3bf97efb3c9cb91dU,
  0x3d03b9efbb86edfaU, 0xbc9336d73c0e6d1fU, 0xbbb40bb2bd0103d8U, 0x3adee046bc49606dU,
  0xbd040c7fbbb172acU, 0xbc8cca7abb870ae5U, 0xbcff0548bcaa099dU, 0xbc8fb881bca41c19U,
  0x3cefd3efbc729673U, 0x3caf7ecf3ca87f18U, 0x3be8c2f23cb2bf06U, 0x3cebe079bcb0d215U,
  0xbc1f8b4a3cd9566aU, 0x3cd966cfbb804c28U, 0x3c0386afbcd6c5ddU, 0xbaa9389cbc2c95c4U,
  0x3c7fea63bb3c9027U, 0xbb6f6068bcea50b5U, 0xba900d20bbef33ceU, 0xbcbc53f43d03d9e1U,
  0x3ce5e0debccec5e3U, 0xbb987005ba88ac25U, 0xbcd03e21bd008c45U, 0x3cdf7f32bc367a81U,
  0x3cc4bb76bc2c2124U, 0xbaa8e4f43cc3fffaU, 0xbcfdd3d93c21fd25U, 0xbbdae9113d00fd11U,
  0x3b7a4892bcf69e0fU, 0x3c801ceabc2bbe13U, 0x3c9262d93b3ebb27U, 0xbc9870ee3ca60531U,
  0x38cdd53b3cf762feU, 0x3d0275fe3c29cd8bU, 0xbcd0feb7bc4cfeaaU, 0x3c689879bb8bef31U,
  0xbcc583c4bcdf5e0aU, 0xbb555d963c880c50U, 0x3a5f41193c50c5f1U, 0x3caa24613c6cedb2U,
  0x3b1fd2223b259c63U, 0x3cdd358fbc2abff5U, 0xbcc8f089bc95ccf9U, 0xbc08d7263ac4f135U,
  0xbb9e57b53b66b006U, 0x3aff65e63cc28833U, 0xbcaa8288bca9b8c4U, 0xbbf3919cbb17cc39U,
  0x3cd2cbb6bc20b3bbU, 0x3bea8e9bbbc592d7U, 0xbc23a038bcb1ebcfU, 0x3ca09a973c942805U,
  0x3cd85951bcb6b935U, 0x3ceb7988bcd8aa4fU, 0x3ccd44e73c884359U, 0xbc3095bc3beadc84U,
  0x3cdd23133c7ad404U, 0xbcaa24e1bcaa97acU, 0xbbb6d8af3c53ec4cU, 0xbc6dd60abc353d32U,
  0x3c0ac7b3bc820edeU, 0x3ccd2d5a3b804de6U, 0x3b1416b2bc7a48b3U, 0x3aea66533c076586U,
  0x3c0b4c4d3c740113U, 0x3cf38b453ccbc807U, 0x3c52b9553c6ec2e4U, 0xbcb927e7bc28fb49U,
  0x3c822da8bcc6b2d2U, 0xbc9797d9bb2d1828U, 0xbc498f46bd009e8eU, 0x3c72a2a2b97ae8a7U,
  0x3cb739d43a891665U, 0xbc3373163cdda9e1U, 0xbce146c53c0c0ad2U, 0x3cebfcff3c82b1d7U,
  0x3c1b7b85bbc1ca98U, 0x3ce7e93cbc60153eU, 0xbcdbf582ba978c52U, 0x3b00cbde3c6da490U,
  0xbcd1d798bb7bd4b6U, 0x3c6e5fdfbca2d4e3U, 0xbb62b1e1bcbc378dU, 0xbc8c64ff3c82a4c9U,
  0xba8e52513c03fa53U, 0x3cf96d54bb7b1039U, 0xbd00a5693cece403U, 0xbc2120563cba6015U,
  0x3cebfc333caebbb5U, 0xbc8183963cf69902U, 0xbc217c043c31076cU, 0x3c42c117bc4875b1U,
  0x3bb7be94b9358ee6U, 0x3c0259513d031940U, 0xbbda5279bca02c4aU, 0x3cbadfa63d004ea8U,
  0x3abc62e83b98f21eU, 0xbc4acb703b93a4f6U, 0xbca38ff4bcde9926U, 0x3ce70e5db9aad114U,
  0x3c6bee313ca1b5b9U, 0x3cf3002abc94eb15U, 0x3d01be7abc3ff154U, 0xbcbf469b3c4285e2U,
  0xbcdb62363ca14302U, 0xb9b7a8783cfeadb8U, 0x3c4fcf59bcb4d6cdU, 0x3c88d7de3c2de644U,
  0xbc2d8dea3c605e26U, 0x3ce5d3e5bceabf6eU, 0x3c0475d33ccb7104U, 0x3bdcd0943ceccd23U,
  0xbcc8c2a03c90788eU, 0x3c72a83b3cac323bU, 0x3a978a623badc40eU, 0xbc854dcbbcc30becU,
  0xbcf2e6fb3c9908d5U, 0x3c3fb7553c3f599bU, 0xbca4963cbd023381U, 0x3addbbbcbcf26b56U,
  0x3cf84d6b3b3228d5U, 0xbc6ed9183c9fc063U, 0x39f46dfcbcc6ac08U, 0xbcf2243ebca01cb0U,
  0x3c27cd19bc4a1553U, 0x3a11e70d3d03f32cU, 0xbbc17be03cd0cbb4U, 0x3c562072bca41588U,
  0xbc81ae113cbe2466U, 0x3aa7bb1fbc61c1b1U, 0x3cb80e5cbc1e4c9bU, 0x3c5f2f063cb041abU,
  0xbca0e216bcd586bbU, 0xbc2da9d03cd57f80U, 0xbc6f52cebc553aafU, 0xbc53bca5bc6ed034U,
  0x3cc853eabc2a843cU, 0x3c963017bbc72f16U, 0xbc3bf033bbaed1b6U, 0xbb38119fba80713eU,
  0xbc9abb8d3c648820U, 0xbc0963b5bd029960U, 0xbab6173a3cd6083eU, 0x3c66ebabbcf7f6d8U,
  0x3cac5d37baa85776U, 0x3cf0c5d03cba28d3U, 0x3bc795c9bbef540cU, 0x3c171e5c3b3e4907U,
  0x3c3c7e6bbcedce83U, 0xbcb4d2553c6de421U, 0xbc88def63b9177b4U, 0x3cba44b6bc9b2f20U,
  0x3be603c63b53d30fU, 0x3c8a7a603ce99133U, 0x3d03a7bb3b511e92U, 0xbcd1d447bb6f67b4U,
  0x3bdc33a13c3936d6U, 0xbc9b70163c26ebeaU, 0xbcb95c6e3c0289c7U, 0x3a6253503cadff16U,
  0x3cdbcd84bca52996U, 0xbc41dc37bc325822U, 0xbc4f318a3ccca6ddU, 0xbcd5e2f0bb959282U,
  0xbcf2c47dbcf3687eU, 0xbc3699e43c3edb59U, 0x3c830a5c3cc20fc4U, 0x3ba0fcffbc237464U,
  0x3c0ddfb5bca8b73aU, 0xbc1a9120bc9752bcU, 0x3bdced353c7a9028U, 0xbcb76f36bb0f0026U,
  0x3c94fcc1bb890810U, 0xbccbe8f13c752431U, 0x3cbc7499bc0b9678U, 0xbc9575b8bcec1517U,
  0xbccebd1e3c9f85a0U, 0xbc931bdf3cff218aU, 0xbbf0ee3a3cc8dbaaU, 0x3c18b68abc73440aU,
  0x3cde2e1ebb02e9b3U, 0xbc9b72c2bc8b37ebU, 0x3c90897dbc33f3feU, 0x3c9556a7bbcf4d5cU,
  0xbce442863ce18e61U, 0xbce02fedbd0314ecU, 0xbc9f3b793c5ab797U, 0x3c945a3bbc6f35e3U,
  0x3cff4b73bb58dce4U, 0x3bfd5534bb17e576U, 0x3c1ce04a3cbf9a2cU, 0x3ca660fdbc758ce0U,
  0xbcb4929dbae8328cU, 0xbc80216f3b7e4a65U, 0xbca255613c8e13d5U, 0x3ca70d2b3ab99899U,
  0xbb937d643cbd1b72U, 0xbb9151b7bcbebd38U, 0xbb853b553b8090e7U, 0xbcd145ddbbf9a52aU,
  0xbccc393b3c8f3b68U, 0x3b442909bc5b8147U, 0x3cf7ef233d042c93U, 0x3cbbad0b3bfab42dU,
  0x3c7acc1bbc396e55U, 0x3ce0b1903a262201U, 0x3cc2b5d23b551fd0U, 0xbbfe56883b8a4b3bU,
  0xbb1a2afe3c94c857U, 0x3c858429bbf89036U, 0x3c5b002d3c80de4cU, 0xbbff68cdbb779cbbU,
  0x3c526477bcc63e5bU, 0x3c856e2abc57ffb6U, 0xbcbd07a1bccc72f9U, 0xbc6a96bdbc394950U,
  0xbcd389313c2b5399U, 0xbc8c641bbcaa2b8dU, 0xbc7292e2bcdc86c2U, 0x3cb6a4833ca98d93U,
  0x3bf57be63d00b705U, 0xbce777dfbd008f4bU, 0x3cc853053c7cdd55U, 0x3c31db6cbc5527daU,
  0x3c81d318bb489c57U, 0x3c5dcc633b5a5260U, 0x3cbc8bd0bce1305bU, 0x3b8ab006bc9becd2U,
  0x3cd5b0a8bcd604dcU, 0x3c0210e03c06b9e7U, 0x3be8cb983cc0c6d2U, 0x3cd9504f3c2e4427U,
  0x3c7a051abb0a01adU, 0x3c82ea0ebc464417U, 0xbbb70f63bc8c17eaU, 0x3cc597b2bc8d1b53U,
  0x3bf64b4c3c1947baU, 0x3ce2da14bcd6d847U, 0x3b5c29c9ba50d1c1U, 0xbc4244513c5c37fcU,
  0x3b5087233c9deeb4U, 0x3ba23dc73c008566U, 0x3cd97e8c3cf878b7U, 0x3be45aaebc525c40U,
  0xbc5a1e8f3c632982U, 0xbb64f9373cbd625aU, 0xbca20b9d3acdbdddU, 0x3a72b097bc3467a6U,
  0xbbf8b8fabcae30afU, 0xbccb456bbcbff346U, 0x3c8a6fe33ceb3498U, 0x3c88686c3c12fc5fU,
  0xbb0097013c476a9aU, 0xbca5f7c2bba684a3U, 0xbc913ecfbcd4c555U, 0xbcf4330f3cb6a3f0U,
  0x39ea034e3ca39a92U, 0x3b837ac6bc9d51c6U, 0x3cc56ab23ced4f85U, 0x3c9a45903ceaef63U,
  0x3bf9299d3c53b4fbU, 0x3c6475b23d00fc1bU, 0x3cabbee4bcc7d3a3U, 0x3cec61f43c6499ecU,
  0x3c1272ff3c2cc922U, 0xbcd2ac2ebce9e5c0U, 0xbcb99567bd021eb9U, 0x3cf83b8c3ce24ec3U,
  0xbc6b72f33cb3af7bU, 0xbc7c6f913cd4a584U, 0xbcd233ad3c707f44U, 0xbc9a39a93ce68054U,
  0xbcc347883ce03957U, 0x3c87df41bcd31b8bU, 0x3cfd9f3cbc863972U, 0x3c0a9144bb36258fU,
  0x3c4862aabbcff549U, 0xbc533bf73c7f6058U, 0xbc8c4781bcc32769U, 0x3b4ba722bca2b634U,
  0x3c974ee23ce40c79U, 0xbb8d03a0bb7edc99U, 0xbcf112f13c51a0d1U, 0xbd012e64bca9ff5aU,
  0x3cb468b9bab648eeU, 0x3c1776783b4d4fdfU, 0x3cd2862f3cc2b0deU, 0x3b9fab0c3b821a03U,
  0xbd0045b5bcc96c66U, 0xbcb2aa3bba07e365U, 0x3ca8cf7dbc11a152U, 0xbc4cec413cf2c969U,
  0x3c20c4083c9127adU, 0xbcca916a3cad5dc0U, 0xbc3a7bf93cb540d7U, 0xbc84dee3bbabf9faU,
  0xbcf6fe2cbcb74d30U, 0x3c137f5c3c162f76U, 0x3ccbdb63bcdcb171U, 0xbbf02b8c3ca8ccccU,
  0x3ca5b916bad522faU, 0x3c4463f9bcd07479U, 0xbbd6e2253be956b3U, 0x3c93af0ebceb635eU,
  0x3c66933c3c819098U, 0x3aeae99f3cec7472U, 0x3ac2e5d63ca963a2U, 0x3c35ebf63c43a88dU,
  0x3b0baacd3bcd0bb4U, 0xbc4e7cf23cd63cf0U, 0xbcbf81123c8f6b60U, 0x3cee2530bcbe2b37U,
  0xbc9550b3bd0420f9U, 0xbc25f4a8b9f4b2aaU, 0xbcdb2990bc5937fdU, 0x3cab41b0bc141a8eU,
  0xbc43b27e3cf06276U, 0x3c2b8614bbe3449aU, 0x3ce2eabb3ccb0fe8U, 0xbcedd1713c080aeeU,
  0x3ca25ea4bc06378bU, 0x3c929765bcf317c6U, 0xbc45dcf5bcf6d846U, 0xbcfb2cb9bbab10caU,
  0x3c84a6ac3c5a7a13U, 0xbc400b9abab51528U, 0xbc4bbe213bb768fcU, 0x3ceb81d63c59decdU,
  0xbbc05ff43cf43bb7U, 0xbc6de4213ceda4beU, 0xbc13b6aabce6e87fU, 0xbcbc6e7cbcfa3d9bU,
  0x3ca50dffbc9dc322U, 0xb89bab733c761259U, 0x3c3373b33cfe0664U, 0x3cd65a44bccf929fU,
  0xbcaf7ca5bcae18b6U, 0x3bbf34503cac32bbU, 0x3d02936e3c524294U, 0x3b99056bbc479a87U,
  0x3d019d70bc380242U, 0xbc65cb953bfae85dU, 0xbc1f74a1ba9dd106U, 0x3c5a2467bb1254fbU,
  0xbca4c67c3b8bfe7dU, 0x3b8a94e23ce1cbc7U, 0xba79deb5bc4489ddU, 0xbccf0e4c3bebe70bU,
  0xbc9859d2bc1999ffU, 0xbb090a42bc88a272U, 0xbce074a7bb687263U, 0xbcda491d3b7806a8U,
  0x3c479a073ce556fdU, 0xbd02b0a03bbada37U, 0x3c0de5f83cb0a302U, 0x3cec26873c48cfcdU,
  0x3c18e580bc030a50U, 0xbaa9405b3c1235e2U, 0xbb89e0563c8e5176U, 0xbbd7a5a2bba3c2c1U,
  0xbca86c62bc89665bU, 0xbc8e9f21bca1c4ecU, 0x3aa9370f3cfa59a5U, 0xbbc0427c3c4e7fc1U,
  0x3c3787e7bc7e94a0U, 0xbb1e1edfbc8732eaU, 0xbc9e3311bce6c2ecU, 0x3b08647e3cc896ceU,
  0xbc2b22bc3b6cebe3U, 0xbce96c7cbc99040aU, 0xbc5e9abdbc8c06e4U, 0x3cd215dc3cc58917U,
  0xbbfea9abbbbec339U, 0xbca6dc793c927bb1U, 0xbce60d0bbb18ec1eU, 0xbc551e0e3b9512dcU,
  0xbc7328403c40e247U, 0x3cab7b253caa7410U, 0xbcc239453c61bc66U, 0x3c9c1a3e3c87c91bU,
  0x3c174c20bc691205U, 0xbc00fe0a3c782935U, 0x3cb416a1bc02de25U, 0xbc70d8c43c03e655U,
  0xbce2f3383b0d3a7eU, 0x3cfce911bb82d656U, 0xbce251733d02eddeU, 0xbbbbc44ebc9c687aU,
  0x3d02d1473cd943eaU, 0x3c2a1b213ad96b6bU, 0xbcad8b4abc46cf3fU, 0xbc6914a63cdfb84aU,
  0x3be622d2bc50eae6U, 0x3cd3cd86bbf0c598U, 0x3c1e1bc63ba46fd8U, 0x3c91cf5a3b5c732dU,
  0x3cf96f5a3cc959b2U, 0x3a7761793b566fbbU, 0x3d007d8abc3e8d9dU, 0x3c7f2acdbccbd3d3U,
  0xbd035835bb309ad2U, 0x3cce54b33cc04d7aU, 0xba9883073cb1eeb9U, 0xbcd9b356bb84b7c7U,
  0x3b09adb3bc91f4d7U, 0x3ba3be9fbc4e7a55U, 0xbcfdd2c23c4ed369U, 0x3ceeec7abcc39d73U,
  0xbcc920f9bcdca039U, 0xbaf6152c3bd75e78U, 0xbd00b5af3c4c9049U, 0x3cbf76f23bfeac9bU,
  0xbd0053a33c0a4d8eU, 0xbcfae740bba4cc05U, 0xbbd91d713bae2f7fU, 0xbcb21f28bcf911fdU,
  0x3cda2d783c545d78U, 0xbbcc4c8abce0da2dU, 0x3c86295ebcbaad6dU, 0x3c0a8bbb3c34dff4U,
  0x3ccfe34b3c88074fU, 0xbc01651c3cb34c8fU, 0x3bed3b513bc2fc6eU, 0xbc6784c839fcc231U,
  0x3ca83d7d3ba65594U, 0xbc2e1490bcb4bd0cU, 0x3ce156923ce1b878U, 0x3bece7fb3c030c0aU,
  0x3b94bae9bce1b5c4U, 0x3cc3db413c82b9deU, 0xbb27bf72bca0a1b1U, 0xbbb08b013c105670U,
  0xbcc1ec96bc89ba78U, 0xbb2268ccbceb5cd9U, 0x3c0c4061bc61be7aU, 0x3c02d85abb0b1b1dU,
  0x3b48916ebcdaf0d4U, 0x3bf88ee4bc264365U, 0xbc1e47753d039f9bU, 0xbc99ab033c96c4a0U,
  0x3cc9bab53c592845U, 0xbc1792103b023071U, 0x3caa3d57bbb8d03cU, 0x3ceef3e83c1ca420U,
  0x3959d0a23c7b1c47U, 0x3bb652ce3cfd173cU, 0xbcfe6cb83b5ee225U, 0xbc9a76f5bc977c1aU,
  0x3cb203d43cd9d625U, 0xbbd3afa7bcdf1cd8U, 0x3c85707bbcc97878U, 0xba8ead133c9481c5U,
  0x39f6c47d3cf4cff4U, 0xbbc86d38bc1933afU, 0xbcde6ac33b332ddfU, 0x3a4ba5f8bcd87ccfU,
  0x3af2f904bbfeb8e7U, 0xbc374acabcd133bcU, 0x3c0698ea3c96b15cU, 0xbc85199d3c7a55a0U,
  0xb908ad0c3cf969a2U, 0xbbc695e0bca4a26dU, 0x3b1081c53c4bbfa5U, 0x3b4abdeabce82adeU,
  0x3a26b1d2bc280f70U, 0xbcfa74b7bc9eca11U, 0x3ca981b8bb6724bbU, 0xbcb43f7bbc530868U,
  0xbce06e503cdbe0b2U, 0x3ceda4b3bc555860U, 0xbc53fdf0bce66327U, 0xbc11987ebbf7cbf3U,
  0x3cc4383d3cabbcb6U, 0xbce856c9bc7a5ac2U, 0x3d0414a03cf247e6U, 0xbcc6e7333ca9be19U,
  0xbba62deabccc06c3U, 0x3ce972c7bc9beacaU, 0xbcdc88d7bce1256cU, 0xbcbb3d0d3ce540cfU,
  0xbc275cddbc97fe90U, 0x3c7681f83bf2d9efU, 0xbcd61bc83c92aa6dU, 0xbc0767f6bcab77e7U,
  0x3c6475cb3c8c2e69U, 0xbcd8f932bcf24441U, 0xbcb31b9f3cd6755dU, 0x3c31550bbc99c046U,
  0x3b12e1c33cd40396U, 0x3c987d9b3ccf67daU, 0xbcb85cdc3c1b8e8cU, 0xbbf6bcc63b9052dfU,
  0x3cf8293bbcb626feU, 0xbc84c89a39b9da4fU, 0xbc824b703cd059ccU, 0x3ca6919e3c3c54feU,
  0x3cfbf04fbc9b8ce2U, 0x3cc2f4c1ba439359U, 0xbcb72d91bc986c86U, 0x3cb414cc3cd73497U,
  0xbc9a1074bb17cd84U, 0xba8ca7a4bcf10eaaU, 0x3cde4bb6bb45ee3eU, 0x3aa4b4e9bcfed39cU,
  0xbc2b2a243b86c7e4U, 0x3c28f393bcf8eff9U, 0xbc223a913ccc51ecU, 0xbbb6b62ebca07b82U,
  0x3ba0cc85bc9efe56U, 0x3cb45ce8bc3f6377U, 0x3c9e1bc43ca1b5a4U, 0x3bcb296cbcf7a27cU,
  0xbcf943443c10ce5fU, 0xbd018cbe3cbc8a9cU, 0xbc94f8003c4c3b78U, 0xbce5cd9e3cbfbe62U,
  0xbc1c88783ba993c1U, 0x3c67e99b3c9ef682U, 0x3bdb19ce3a06374dU, 0x3b1e7c683c490233U,
  0x3c536eab3a1de0e8U, 0x3a910a8dbc17116bU, 0xbc26b05abce0db8eU, 0xbbacee863b9a46afU,
  0xbd0381bebcabb226U, 0x3ce4f9e0bcb3d594U, 0xbb4fce86bcf4949eU, 0xbca5b942bcc515c2U,
  0xbd0069753c9c9469U, 0x3b82b050bcc4b3aaU, 0xbcc501c53cafefdeU, 0xbcd5518f3c5231fdU,
  0xbc5495ce3c72804fU, 0x3bb3e0c53c8d137fU, 0x3ce1a8423c199851U, 0xbbd87aa6bc8d02b7U,
  0x3cb7f753bbb3eef9U, 0xbcea0e4ebcd5c9edU, 0x3ca107db3ab31dabU, 0xbc9f52883ad46765U,
  0xbb3af96dbc12b942U, 0x3c767befbcfe328dU, 0x3ccb7500ba7b48f6U, 0xbc33677b3c9cb715U,
  0xbce7533dbc9350e7U, 0xbbcd6c143cf67266U, 0x3c02f15d3bc7d4c0U, 0xbcd18cd03b793c6eU,
  0xbcb84182bc93a5beU, 0x3c5dbcb0bc2e9353U, 0x3bfec802bce862c4U, 0xbca865b3bcf280f2U,
  0x3cf05165bb9736b2U, 0xbcb1b2c7bb037710U, 0xbc91f4c2bcd424f7U, 0x3b83913d3ca7e863U,
  0xbbbedf6e3d02559fU, 0x3abe6e88bcec62c6U, 0x3cde33c83be91737U, 0xbb1395883c178423U,
  0xbcb1f0b1bcf63eebU, 0xbd03c6973c2dc8e1U, 0xbc5ec4ecb9fd7a8bU, 0xbc92dc973cc723d0U,
  0x3c347c52bce92dd7U, 0xbc28424e3bdff1ffU, 0xbce47bd8bcfc520bU, 0xbc9a236a3ce71554U,
  0xbb82e979bcc88bfcU, 0xbcb0ed23bb6943b9U, 0xbcc7bc123c158c64U, 0x3abd4f49bc47a853U,
  0x3c0ea89a3bf5c664U, 0xbbfaf06fbca74ef8U, 0x3c3e4728bcda584aU, 0xbbc5822f3b259bdfU,
  0xbcbd9ca4bbd1799eU, 0xbc78df7f3bd69f03U, 0x3c01ccbf3ae69887U, 0xbc0e8f48bbeb461eU,
  0x3c9024c33c030f61U, 0xbc0d7d393c83a45eU, 0xbac28cc23cf627eaU, 0xbb3671463c80c87fU,
  0x3c47f6e2bbcf027cU, 0x3caaaba2bc0fe3e5U, 0x3ab63805bc9b369dU, 0xbcab890a3c70bac4U,
  0xbc76269ebc1cb844U, 0x3c835045bcd20f5dU, 0xbabbfca83cc90292U, 0x3cde1fb1bcac1d6eU,
  0x3c4f7e7c3cf3d45fU, 0xbcdc43373bee167eU, 0x3d025ffd3cb3f47eU, 0x3ccdfa9fbc114c9eU,
  0xbc378863ba68ac6bU, 0xbc94d1bbbbeb013fU, 0xbcc9da1cbb91680dU, 0x3cbfb81fbcce6c2cU,
  0x3c9b6851bacbde21U, 0xbca04f59bccaad85U, 0x3b588b8fbc270140U, 0x3b9eed6e3a818608U,
  0x3cf40cabbcc6f90fU, 0x3b6bf5703cb0c3f0U, 0xbbc0ced93c33040bU, 0x3ccd5021bc1de9b7U,
  0xbcea17db3c99eba3U, 0x3c8eef5b3cfb1433U, 0xba93ba223c5f9746U, 0xbc1f722e3c21682eU,
  0x3bd207773cc43d3aU, 0xbc8141fdbc6383a2U, 0xbcc1184c3c5a665fU, 0xbbdf22e4bbb9a4ccU,
  0xbc0bb10c3bc1d090U, 0xbc31bc533cb0110aU, 0x3cbba9f6bc96adc3U, 0xba3e5854bc450465U,
  0x3d027cd43c57b65eU, 0xba1046513cada449U, 0x3c216f613cb64d20U, 0xbb7069833b8aa1f4U,
  0x3cfad345bc284477U, 0x3ae073523cd71683U, 0xbce3c1a83cd8ed4aU, 0xbc9abba6bc2da1c3U,
  0xbb868e1f3cf322d0U, 0xbc844e60bcd2a4afU, 0xbc5a3f45bc8d387aU, 0xbc0840cc3b0e035fU,
  0x3cfa090ebca31a9cU, 0x3c9acc933b920dc8U, 0xbbfe4923bc2ad605U, 0xbc40a33fbce4010aU,
  0x3c4724b5bd018049U, 0xbc6302c3bc973947U, 0x3c22b452bcf5f41dU, 0xbccb35a33b6ff24aU,
  0xbce11b9dbcda0120U, 0x3ccbef97bcc32bb8U, 0x3cc7a7fd3c35c233U, 0xbcd738a03b398c55U,
  0x3b24f102bc9255a8U, 0xbcd1d21dbcb6c16cU, 0xbc8a55a2bcd8de9eU, 0xbc55d9fe3ce9d6f2U,
  0xbc8fe10aba952463U, 0xbb892fdcbc89e42dU, 0xbc5c5c4bbbcdb31dU, 0x39519bedbc2243c7U,
  0x3cd5c8a9bce37529U, 0xbc3d1acf3ca5e05bU, 0xbc93b51d3cbd9b36U, 0x3cb277743c34b161U,
  0x3b3d6ca8bc8773d0U, 0xbca40c4fbc46062cU, 0xbae1a1acbcdd91f4U, 0x3cdb1d863a049a2fU,
  0xbca71620bb915fb9U, 0xbbbcf52d3bcf23e3U, 0xbcd080a43cf2e283U, 0x3cac943abc8a9fe9U,
  0x3cc7b6d7bb894b8dU, 0xbb3722873cc364a9U, 0x3b2db567bc060ad8U, 0x3c922132bc38e481U,
  0xbce8063e3c19fa84U, 0x3cb314b2bbcd81edU, 0x3ae622ebbac156a9U, 0x3be8d2d3bc88b3b0U,
  0xbb4e1d86ba80dc86U, 0x3c443f29bc9b26e3U, 0x3c823de23cbd8fafU, 0x3ccbfd3abc129017U,
  0x3bf49b9f3b9f7a81U, 0xbc0419ecbcb38bdfU, 0x3ad3aa65bcb44052U, 0xbb802efbbbb817d1U,
  0x3c356d553bc31a72U, 0x3c838dd33d02eff9U, 0x3cdd6fd53c12f504U, 0xbc7122903ce97b4fU,
  0x3d041c523c47930eU, 0xbc942347bcbe8ab7U, 0xbc1a9dfc3cb6f616U, 0xbceeee763c70c594U,
  0xbb87d5d73b724efeU, 0x3c49a3c4bcadefdaU, 0xbcc9cf02bba0790fU, 0x3b525c7a3b823a49U,
  0x3ce8e812bc88385eU, 0xbcf20f373bacc04eU, 0x3cd69d3dbc0b5b80U, 0x3b0a23d33b26d45bU,
  0x3c20e5df3bcdbe71U, 0xba95f735bcd18d98U, 0x3cf0f27dbbcfb18bU, 0x3ba3b1953cb52541U,
  0xbb9d6419bbe7f5b6U, 0xbcd1d99e3c424b25U, 0x3c4a37fdbbf58da6U, 0x3ca496c63c52bb0fU,
  0x3be299493cfe29a7U, 0x3af8b586bc59361aU, 0xbb91ac81bc54948cU, 0xbce062f13b540758U,
  0xbbf205aabcec086aU, 0x3c4f725d3cda3b1bU, 0xbce918653cbbe6f2U, 0x3c895d1b3cc54819U,
  0xbc216c9a3c3fd838U, 0xbb3b3ef23ccf4e25U, 0xbd025229bc1a094cU, 0x3c8cc9f33ca7bf28U,
  0xbc435e6a3b8eee97U, 0xbd031d26bc03766fU, 0xbc4f1d943be1513eU, 0xbc8a2801bbaf1b65U,
  0x3b2fb6823cd45db8U, 0xbce56e2cbc15148eU, 0xbce7a343bc10d2d4U, 0xbccbccd03bfb7d37U,
  0xbc660953bc993de4U, 0x3b8a909f3c09474eU, 0x3c9d1f33bcb22a59U, 0x3cff2d05bbeba1c8U,
  0xbbe7a3bbbc36a856U, 0xbafc380ebcf7bdbfU, 0x3b4e42833c25b980U, 0x3beabaca3cd4727bU,
  0xbc1d4e543cfc7ec7U, 0xbc4607c9baadbe60U, 0xbc60802f3c21cb33U, 0xbc834356bc553346U,
  0xbbbe2e46bc2d01f0U, 0xb8e3e8b03c4c211dU, 0x3cb710663ca34b48U, 0xbca5f64cbc8a3607U,
  0x3d033324bbceef92U, 0xbae219383c7474d3U, 0xbc886fd2bcc1460eU, 0x3ce3197dbbd9ddbcU,
  0xbcf1b4f0bca033deU, 0x3bcc820dbcf3db9cU, 0x3c86db71bcb5a1bdU, 0x3c3b8577bc276d25U,
  0x3d03aa53bc7a2ec8U, 0xbcebc4253c1a5420U, 0xbb18b0793d0133ecU, 0xbc8702343c90772dU,
  0x3bb05966bcff2551U, 0x3cdb5c71bb92c87eU, 0x3bf19d623b75b859U, 0xbbd65fe23c0e7566U,
  0xbcc21b623cce2fd9U, 0xbca7a631bcf21b07U, 0xbbc624243cbd0812U, 0x3cc1ef63bc84fb35U,
  0x3c930b403be3a2a6U, 0x3ccdecb8ba1824c9U, 0x3c569433bcfe2967U, 0xbc1c163bbc5b956aU,
  0x3b90ed05bcaa91c8U, 0x3ba5635bbc49ca35U, 0xbbd31a303cc08cafU, 0x3c91fbcebb984e29U,
  0xbc769877bcecd0ddU, 0xbbb01296bbe6bc21U, 0xbaa9aa9b3cb4651dU, 0x3ceb78d5bcb483eeU,
  0x3cfdf62abba35950U, 0x3ce188063c0a4b16U, 0x3d0142d13bf0164fU, 0x3b09f3febab79fd2U,
  0xbc8153fbbcda6ffbU, 0x3d04004c3c89a7bcU, 0xbabc66013bf40159U, 0xbc98e872bb8a4e8eU,
  0xbc0f75d7bcb85c8aU, 0x3cb81993bcce355cU, 0xbb72ed233bbe0cdeU, 0xbb786bdfbcb831baU,
  0xbca8e397bccdb641U, 0xbca5bbadbbecff38U, 0x3ca3fdfabd04143aU, 0x3c07a938bc727a98U,
  0x3bc057a8bce41deaU, 0xbaa72e04bcb6d5deU, 0x3c4d9b85ba0abcceU, 0xbcfdd994bce5d58cU,
  0x3cd6b8a1bd0359f2U, 0xbcc7ea20bc850c84U, 0xbcca7a973cbe1ce2U, 0xbca729b7ba65cc4bU,
  0xbc0585df3ba678ecU, 0x3c704f6bbba0dc6eU, 0x3c9986473cc15bf6U, 0xbb9f5ef93c43d6e2U,
  0x3b3f4041bba77689U, 0xbc15c9b33c6c0813U, 0x3cc47c71bcb8d568U, 0x3ab802943cdcba8bU,
  0x3b90fc59bc8fff35U, 0x3cbf5379bccc8554U, 0xbc7f6c56bc986c95U, 0xbbe82cdebb805911U,
  0x3c0c0f9dbc5beccdU, 0xbcc9ae56bccf5186U, 0xbb80292c3b591c37U, 0xbc7d2db7bc9f9e73U,
  0x3aed74ccbbd0830aU, 0xbbf5bf52bc97ef91U, 0x3cd9e44e3c95bdabU, 0x3c4126af3d026818U,
  0x3b636d023c1a86c4U, 0xbc54b59dbc981004U, 0x3c8b1cecbb757fbdU, 0xbc7ebc89bcf2b3a0U,
  0xbc368cebbcfca746U, 0x3c45a7383cf6af24U, 0x3cb839263c4f1048U, 0xbc4f7672384a6d8dU,
  0x3cae9a983becd211U, 0x3cce6afc3ccddcc0U, 0x3ca7a7e9bc442f61U, 0x3c148e1d3cb7849cU,
  0xbc835505bb1f2776U, 0xbc1533063ced39f4U, 0xbcfcb1cebce33c88U, 0x3c06ea1abc954e94U,
  0xbc953c1ebae125deU, 0x3c1e5cae3ce28ddeU, 0x3ca0410d3cca2a46U, 0xbc49d99a3cb872d9U,
  0x3c2b2e8cbce2b01bU, 0xbb06bbd2bc37b71fU, 0x3ccabc34bbc68921U, 0xbc8fe5743c26e71fU,
  0x3bcf51123d040d99U, 0x39c01ba93ade7a6aU, 0xbcd38b5cbcd672d6U, 0x3b1e76463c93a536U,
  0xbb97811fbbbbc847U, 0x3cbdf200b9ef4a34U, 0xbc8ceb78bbb12f82U, 0xbcaba7e13c93b805U,
  0x3acbb3023ce039baU, 0x3c2dad063c77879bU, 0xbcbcea973b8434dfU, 0xbc4c692bbcf0ce49U,
  0x3cc82fec3cf82313U, 0x3cf9f5173c18e63eU, 0xbc8724e8bb033c95U, 0xbcfad795bcc1dc9cU,
  0x3cbc4efabc90efe2U, 0xbc4437d2bcfbf0d7U, 0x3ce597273cba4e9fU, 0x3c3d6e28bc42f844U,
  0xbbb441e3bbb36f3aU, 0xbce986253c17861bU, 0xbac981d03c8befc0U, 0x3c0bc054bcb2e125U,
  0xbb8a8d1bbbfada21U, 0xbc0a82003b8bd415U, 0xbabd7cdcbbc3f1b8U, 0xbd00fe6ebcc0eb32U,
  0x3cf5a33a3b45c87bU, 0xbc0583413b42764bU, 0x3cc729c5bc4a70bfU, 0x3cc208533c94a303U,
  0xbc28075bbbf70feaU, 0x3cd0fc77bb0c1415U, 0x3d02ba97bb519905U, 0xbab5a876bcdd081eU,
  0x3d0406a83b1f438aU, 0xbc05087fbc9839d4U, 0xbcb350c73cd64356U, 0x3ca7523cbc5e85e7U,
  0x3ca08e133be43ac3U, 0xbba44b57bbdf0896U, 0x3a621d9c3cd7fdd9U, 0x3c158764bc2e53dfU,
  0xbba221913cc1f36eU, 0xbca02ae7bcc24bccU, 0x3d01bbd83ceef6d2U, 0xbb8d6052bcacf4feU,
  0xbca058a3bb090507U, 0x3cfe44433d03026bU, 0xbc9d3636bcbf228bU, 0xbc3eb5163c9665d0U,
  0xbd02bac3bd02f50cU, 0xbca1acd43cc8a51cU, 0xbc3345de3c981f4aU, 0xbc0c84973ccd61a7U,
  0x3bfc13e83cc092c9U, 0xbcea2ad8bc367526U, 0xbcf2e8a53c58554aU, 0x3b8d41a83c902a05U,
  0x3c580ea4bcbe29d8U, 0xbc98ad03bcef17f5U, 0xbcf942123c995d60U, 0xbc6e434b3cc73bf9U,
  0x3ca9781c3cf80ef6U, 0x3cb12b35bcaedef5U, 0x3c2a134ebc062ff9U, 0xbc94fc47bcd40c76U,
  0xbbf57b5a3c5d798eU, 0xbcd70e583b3df11dU, 0xbcc063f23c3ee4deU, 0x3c7002bcbc9a0e3eU,
  0xbb7b2b34ba71de6bU, 0xbcd7502fbc4131e6U, 0xbc3bad3f3c7f1256U, 0x3cf9a363bc93197aU,
  0x3c285876b989a35fU, 0xbcf6bca1bcf379cdU, 0xbca4f63abc67de3fU, 0xbcd75e463bcd3915U,
  0xbbff2ccd3c6e1ad6U, 0x3b42f7d9bbd9ba12U, 0xbce06fd43c12cfeaU, 0xbab4d0593c5c9747U,
  0xbc947d6e3c9b70ddU, 0x3cecb9c23c8783abU, 0x3bfc93643c5df797U, 0xbcb40e94bc6f00fdU,
  0xbcb7cbf0bd030001U, 0x3cb869fd3ba43275U, 0x3cc89ba9bb8a497dU, 0x3c51ea94bd029cd0U,
  0x3c2ff3a7bcb20ed4U, 0x397081133cec1300U, 0x3be5ece4bce9b36fU, 0x3b3066aabcd040b2U,
  0x3cee567b3a001574U, 0xbc84a7a83ca185a6U, 0xb973df753cd2c838U, 0x3bf7ed6bbbd4a22bU,
  0xbc08418abc5d0bffU, 0x3ce210ccbcdd1b92U, 0x3c2f57013c704551U, 0xbc4748363b3f4a95U,
  0x3ca44283bcade959U, 0xbd02a013bc4f569bU, 0x3baa24d43cdf558bU, 0xb9a9057cbc431fd6U,
  0x3d01e2963ceaf2fdU, 0xbc6eda67bcc6d8beU, 0x3cb9b06d3cb2a839U, 0xbc9e7c4f3cc5610eU,
  0xbbdc64b83c35f9c7U, 0x3c45acda3c9c86a5U, 0x3c1774ae3cd27190U, 0xbc30318abbe15de5U,
  0xbc931dda3ccc6c04U, 0x3b402cb33c971667U, 0x3c965635bc770b51U, 0x3bf4fa72bbf4d9c0U,
  0x3c1b3d643ca54153U, 0xbbecccef3bca71a6U, 0xbcfacd5d3c30bd88U, 0x3cc7c3bebbdb1973U,
  0x3cf8e5123bd75d35U, 0xbcdd86853cc55419U, 0xbcbaff6ebc59cd67U, 0xbcc03c563b9f205cU,
  0xbcace9e8bcba8097U, 0xbbed79ac3c837c95U, 0x3d02b625bcceef62U, 0x3c53101fbc5781e4U,
  0x3cbb8ecf3be24135U, 0xbc6fca513cc74b55U, 0x3ca2f59d3b8046f6U, 0x3ba7558d3d01b1cfU,
  0x3c94d2e6bcb2dac1U, 0x3ce8a52abba023daU, 0xbc87e91bbc312bf1U, 0xbce309e2bb641031U,
  0x3c5e5ccdbc1d2af0U, 0x3c9c74d83c8d9cd8U, 0xbba32949bcec340dU, 0xbc9c6dc3bd007413U,
  0xbb96414fbc1f17e8U, 0xbb611a71bc8e9f6aU, 0xbcf3f2673b2b0cb9U, 0xbc798ddcbb5b7e25U,
  0xbce5aa51bca4864eU, 0x3b3ee31c3c98a387U, 0x3ba48eaa3d03b22fU, 0xbc0b35e3bc720be9U,
  0x3c77f23e3bd069c4U, 0xbb408c7ebbad91a4U, 0xbccc2d613ccf6b85U, 0xbcb7aeac3cd8d284U,
  0xbcc19d1e3c9d2e50U, 0xbc7efa32bc730b6aU, 0xbcf6283f3cb6bdf1U, 0x3cc291e2bcae357eU,
  0x3c85ddc13c640206U, 0x3cc8d8e93c5d9ca7U, 0xbba7f0f4bc0b4b8fU, 0x3cd1b193bca878c7U,
  0x3ba2ca133cbf347dU, 0xbca93db5bc91fab1U, 0x3bd44dd53d018adfU, 0x3c36bf3cbc2aaea0U,
  0xbcc8c44a3c98a796U, 0xbcb275823ca4e2e1U, 0xbc6cbc75bb235be5U, 0xbcf19d683ca28ac3U,
  0xbccd422f3c1b8f29U, 0xbc05cd5cbc95c5d5U, 0x3cd8e342bc011da3U, 0x3bb8de883b868270U,
  0x3b6aca82bcc2fe68U, 0xbc23f8bc3cb09269U, 0xbd01e1c2bc0aa66cU, 0xbc9728a8bc983f9fU,
  0xbc92e84e3bb2297aU, 0xbcf29c713cf2e17fU, 0x3c5e0af43c987d7aU, 0x3c7fe455bc2f76fdU,
  0xbc3039c1bc5734ddU, 0xbcb6a9f5bc205c02U, 0xbc950c933c13b1c2U, 0xbcd000913cb3a3ffU,
  0x3cfc02433cb91982U, 0xbc82d413bce47eebU, 0xbc9e79133cfa7c7aU, 0x3be1b4543c306bd8U,
  0xbb5dc4413cc0e6d0U, 0xbc043ab23c494669U, 0x3ab7da2cbc1360a7U, 0x3bf6d6e3bcb9f53cU,
  0xbcf62e4e3c7b33c6U, 0x3bf2a59ebbaff179U, 0x3bd138093c54d695U, 0xbce498473b88caadU,
  0x3c5c95dfbc92313aU, 0xbcc1785bbcf8c4ffU, 0xbcf4be63bcc30c8bU, 0x3cf86e443cfa90e0U,
  0x3cf84ac63cf9f399U, 0x3c6a41ef3b8274f6U, 0x3c8628723c80b336U, 0x38a58bbcbc01f5e9U,
  0x3c779eb7bcfa3982U, 0xbc9b7336bd041a2bU, 0xbc913ee2bbb363cdU, 0x3ca1af323cec4451U,
  0xbb5b207c3cb779caU, 0xbcbcdcf63bfcde77U, 0xbb273b503c5f4264U, 0x3cd0f6723d00666aU,
  0xbb2a2d623cb0c718U, 0xbb94c2983bff859fU, 0x3cb0029abc358886U, 0x3c38c270bc13cde3U,
  0x3b9ec7bc3c988969U, 0xbc3c58de3b5bf35eU, 0x3c1b9d54bc729113U, 0xbc28bd9c3c6c9e65U,
  0xbc3f51b3bc4d0c8fU, 0x3ce667fdbc5ce39bU, 0xbb2b95f5bc21fe8dU, 0x3cc82efa3bbc5061U,
  0x3c147596bc0dc567U, 0xbcf213fa3cfb3c8dU, 0xbc20254abc8a7d73U, 0xbcce9ac93b9435f0U,
  0x3b6d2c803cd6a7d1U, 0xbb4c4d59bd035a28U, 0xbca389053cbf58baU, 0x3c89bb91bb2bdfdeU,
  0x3c8a8d3cbc5d6138U, 0xbcc6fe77bcb8646eU, 0x3ca61f4dbb974c0fU, 0x3c3032d03cd12b28U,
  0x3b8fad663c6d8836U, 0x3c2d2ebcbd02cb11U, 0x39b7e6f43cbbb4a9U, 0x3c047e9fbccd9265U,
  0x3c213a52bb112936U, 0x3c4d5a85bc8a8195U, 0xbb1ab69dbc265288U, 0xbb93f0df3cdf1be1U,
  0x3c3c0cafbcd6a5ebU, 0x3c8f4f4b3be2319eU, 0xbcfa15ff3c31b54aU, 0x3bc9ecdf3c04456eU,
  0xbc4462bf3c6b3684U, 0xbc1dbc1cbc0a9ff0U, 0xbc81c56d3c8b8940U, 0x3c1b1ffdbbbe44e6U,
  0x3cde5a97bcdd1dafU, 0xbc12eee23c766df2U, 0xbbd3bb98bb807215U, 0x3ca9d93e3ca88060U,
  0x3cc9fe673c2aaa13U, 0xbbae0bdd39d88497U, 0xbc1415cbbbe0fd4cU, 0x3c8d326f3cb221c8U,
  0x3ca379abbce2e0fcU, 0x3be3a35cbbc8a1dcU, 0x3cf55d4fbabe83b4U, 0xbcfc6e30bcb861edU,
  0xbc2d568bbcf7dd61U, 0xbc805cc33ce88858U, 0xba5fdf1ebc753c9cU, 0x3c44d8d73c8d4009U,
  0xba61c6143c418cc5U, 0x3c9f83f43a8ca573U, 0xbc9ca64a3c9c1c3cU, 0x3baac3e9baa48799U,
  0x3be70be9bcea7636U, 0x3c348225bcb94ebcU, 0x3a84db613b1ca763U, 0x3ccfa0e53c475d2cU,
  0xbc9eaffdbc96f050U, 0x3c891c063b3e7e9bU, 0xbbe141c9bc8d9ca2U, 0xbd000521bcd88daaU,
  0x3c89448abc892118U, 0x3c7316a13c3a372aU, 0xbc293f0c3ca65652U, 0xbc52daac3bbfc53aU,
  0xbc127ef4bc402912U, 0x3cbf63cabc0af318U, 0xbcf2d6413cfb46a1U, 0x3cd3c3723c2b9e76U,
  0xbccbc07c3d00f18cU, 0xbca96bbe3cae2271U, 0xbc8912243caf5097U, 0x3b4008cfbc8f95eeU,
  0xbc92139d3ca507faU, 0x3b7f7c8e3cd66fbbU, 0xbad8a89b3cbb1ffdU, 0xbc9b6282bc4d51ebU,
  0xbc5cabda3d003e51U, 0x3cfbdfccbc79f8eaU, 0x3cb1681c3c5f165eU, 0xbc516c3d3c7a177fU,
  0x3c609fe93d028274U, 0xbc3b437fbc8a4853U, 0xba43b0443c505c99U, 0x3cbf6c05bcc59165U,
  0x3c55783bbcddd752U, 0x3c064e4c3cff5f90U, 0xbca1ea14bc634b65U, 0xbcf535dfbc5f103cU,
  0x3badbda13c00a898U, 0x3b908d3abb891dd1U, 0xbcfd648fbd000c4eU, 0x3bc670363cbc54c3U,
  0xbc0c46b0bce665eeU, 0xbc15cc48bccb5ec6U, 0x3c1d8a68bbcfeb7aU, 0x3cd068633bbc08bbU,
  0xbc99cf4abce7c5d9U, 0x3caec6a2bcfb6214U, 0x3c020bf4bcf2c54cU, 0xbd035cfe3c952ea0U,
  0x3bca4b1dbd020604U, 0x3b5da41cbcc77b0fU, 0xba995b453b993037U, 0xbc34df4a3baba483U,
  0x3c5a061cbce9d763U, 0x3c4babd43ce3a829U, 0x3cff1a51bc92f262U, 0x3c374c423cc7b532U,
  0xbc410f983ce5a29eU, 0x3c65c5a93cb63de4U, 0x3ce0a44b3c82c6cfU, 0x3c5812de3c8e0ce9U,
  0xbbfc42623c06e8bbU, 0x3c6b0c17bc93e006U, 0x3b7869393c627930U, 0x3c101eedbcc2d531U,
  0xbc8ed8dd3caeba24U, 0x3cd879b8bcc3ad4eU, 0xbb52abe03ce2768dU, 0xbbf28b273d0113a2U,
  0x3ce8bc06bc54830eU, 0x3cc744463c97eaa7U, 0xbcfec396bc0c2e42U, 0xbcbc47cbbc364a56U,
  0x3cda05883bc4351cU, 0x3cf74c6cbc963b82U, 0x3c8fe97f3cac8991U, 0x3b97c09bbbf4fedeU,
  0x3aaabe3b3cc223cfU, 0xbcba1a113be65d90U, 0xbc9330fd3c665586U, 0xbb959ae63c81efe6U,
  0xb930d687bb2920ebU, 0x3cf0a2783cc953c4U, 0x3a1c6349bc108a98U, 0xbc058a88bd03ef36U,
  0x3c0192893bcebf28U, 0x3cc1f5bebc10e352U, 0xbc87fcf1bc5bda9dU, 0x3cb26b9abbf8cc1dU,
  0x3bc6b4ed3ca4ac1eU, 0xbc5b7fec3c042617U, 0xbcd7e068bc45236dU, 0x3ccfbd693ae28af5U,
  0xbc4370ed3c8b5a91U, 0xbb7550f1bc2f0403U, 0xbc12be3abc9c091aU, 0x3cdf51f23b17645dU,
  0xba7672203cf0b95fU, 0xbcb74132bc31c2d8U, 0xbba46463bc515570U, 0xbc824fd63cb8d64dU,
  0x3cace430bc43739bU, 0x3abd90de3cd3f70cU, 0xbc120f02bbdae85cU, 0x3c88283f3ce04f64U,
  0x3b350e93bcd4f133U, 0xbd00701d3cb1eb24U, 0x3bad6fb0bc28a4d3U, 0xbb2dfdd3bce2b49dU,
  0x3bce1ed93ca20b9fU, 0xbc6e20843cf09149U, 0xbc906262bc2a98e8U, 0xbc6c34f03ca1837cU,
  0xbc4c0a65b95a465fU, 0x3c556b983c6e3012U, 0xbc07a987bceceb12U, 0x3c31531c3bb7f361U,
  0x3c93960bbc929af1U, 0xbcbaa5c3bcf3a3e9U, 0xbc6307f9bcc5e81cU, 0xbc1a73b93b8dc847U,
  0xbc77863cbc9ba624U, 0x3cd8275dbcffa660U, 0xbcff9eedbcafba9bU, 0x3c3898de3c0ddb62U,
  0x3c6464233cad7128U, 0x3c05107cbc62204aU, 0x3c443a67bca6ea5cU, 0xbbb6c017bbfe09d0U,
  0xbc2d4b2bbcb4feeeU, 0x3c9c6835bc6e6996U, 0xbb5398523cf843d1U, 0x38aa507fbb311a6fU,
  0xbcb071a1bcb324dcU, 0xbc8f7a8d3c4030abU, 0x3bc1553e3aa43b4dU, 0xbb031197bc9bb07eU,
  0x3c2187a6bb7c122aU, 0x3ce67b37bcc503bdU, 0xbc7c4ffc3bda8e92U, 0xbcc6b08d3c36bd06U,
  0xbcb37965bcac65fcU, 0xbcb7ca09bc4ec51dU, 0x3cd4efe0bcb09e54U, 0x3cb64885bce9b9d5U,
  0x3ce86e003bd5a8f3U, 0x3cb65cef3cc1b073U, 0xbc88ef493b467aa3U, 0xbc9c4c93bcc33342U,
  0x3bec8e31bc94b4f7U, 0x3d01744dbcdacf7dU, 0x3cd729ff3bc9c4b8U, 0xb98e658d3c52902aU,
  0xbcc54c51bc83339eU, 0xbb835614bc888ce9U, 0x3c3dc5f63b8898c7U, 0x3ca08faa3cbe500cU,
  0xbba0e446bad59495U, 0xbc6bfdedb9c27e0aU, 0x3c5d52573cffb47fU, 0x3c4779c93bb63d50U,
  0xbc017026bc9f9c86U, 0xbb6b94be3cff7d08U, 0x3a7361753c61cf79U, 0xbca5d0b4bb7a401dU,
  0x3bdd41383c6547ffU, 0x3c09b8ee3c8950dcU, 0x3cf5ea01bceaf5c1U, 0x3ce4908cbc0562a4U,
  0x3b162eb83a16dd64U, 0xbcc316c03c7f6edfU, 0x3c3e6503bc28168eU, 0x3c9b8dd0bc0a276cU,
  0x3cc309d1bbca505fU, 0xba99118ebc379537U, 0xbca2d5193c7e5051U, 0xbc580fe23c237405U,
  0x3cf1ea8f3cb4c046U, 0xbcf7f88f3c7b7b4fU, 0xbc82c91e3b12f67cU, 0xbc98f853bd015f15U,
  0xbc990c76bce8dd97U, 0xbc516ead3c578247U, 0x3a0d2310bcf5bf3bU, 0x3cbc38cb3b46e83eU,
  0xbc3ed12e3cded46eU, 0xbb05e4193cf41ca3U, 0x3c01503aba7c6aebU, 0xbcb4d939bcda1366U,
  0xbc6c8cb13c0743bfU, 0x3ce709d03c157ed6U, 0xbc2e9cb73c75b61fU, 0xbc4618433c871494U,
  0x3c0f37293bc18ceaU, 0x3c6f021a3bdc9163U, 0x3bb851c8bcb9ec4bU, 0x3cec6ca1bc84588dU,
  0xbceaca7dbc9f3a85U, 0x3c82354f3d03595aU, 0x3c8b19b83cdd85eaU, 0x3b1a4f553cf6723fU,
  0xbbffc16eba45be37U, 0xbb01d73c3c594038U, 0xbb77b23a3b826b3fU, 0xbc9eb9b83c411418U,
  0xbc92e5bb3cd9a393U, 0xbc439d1cbcc2c373U, 0x3cb6f76fbc96b919U, 0x3c26ef043c6382f9U,
  0x3cc863c5bcf24b88U, 0x3ca53aa23b6d98f2U, 0x3b62b044bc401930U, 0x3b46d44cbcc6c848U,
  0xbc7024283acb8e16U, 0xbb2fd444bcb3c2f7U, 0xbc97917ebcb8fd32U, 0xbab0f541bca15376U,
  0xbcd711a7bd02aceeU, 0x3ad1c30bbcaf21fcU, 0xbbf682a6bb4441b2U, 0xbcb16f4b3c8c1987U,
  0xbb9bf2643c99e745U, 0xbc9932123bb915caU, 0xbceee5e23ce534aaU, 0xbc4a63ffbc4e6688U,
  0xbb19c7753c6ad551U, 0x3ca25f45bbac86a1U, 0xbca9b0013cf58ccbU, 0x3cf60e8ebc54af2dU,
  0x3aca70223c86db61U, 0x3cf434e63cbf553eU, 0xbc26b0983b7cb250U, 0xbbb971623c8462c8U,
  0xbc33dd033b619c61U, 0xbcf745ccbb6ab68fU, 0x3c2719cbbc2c6ef9U, 0x3b82c3be3ba1a4a2U,
  0xbc6f3a783b154c9aU, 0xbca29bd5bcea90b4U, 0x3ce169f13c65b4f5U, 0xbcefcd6dbcaeb15bU,
  0x3bc552183d03f5e2U, 0xbc9c934abc6bfbf5U, 0x3c03ec5eba639e95U, 0x3c391963bc8eb6a9U,
  0x3c6333c13c76aecdU, 0xbcbf4f30bbdc2c1bU, 0xbc4173ce3a2e6be2U, 0x3c8daeb33a2c8425U,
  0xbcc1abe23b83ce0bU, 0xbcab3cd2bbd8f9cfU, 0xbce154f1bc06d941U, 0xbcf1a5483cd911d9U,
  0x3cf1351cbc51923eU, 0x3cae103d3c44563dU, 0x3a9614413c2dc7ccU, 0x3c94c6f7bcd4c064U,
  0x3cc7989cbcf737e1U, 0xbcfa6921bccb910cU, 0x3be8e2303bdd7358U, 0x3c4b93d53c252bd4U,
  0x3cf868cabc03158bU, 0x3cff9b6bbce6a8c7U, 0x3bb44025bc691601U, 0x3c89bb7fbb21789cU,
  0x3cc327953c8372a4U, 0xbcdf96dc3cd6dfa0U, 0xbc72708bbce3d2daU, 0x3be76f7bbcce0c61U,
  0x3c9715973b7e97fcU, 0x3c8a42193bd4b7cbU, 0x3cadecb83bfc5712U, 0xbcac11033cc3e9cdU,
  0x3c3b7beabc7975eeU, 0x3c555d8abcce374eU, 0xbcfd740f3c3f53bfU, 0x3cc4c42bbccf84e6U,
  0xbb62a2e7bcfa9eeeU, 0xbcd472bf3cfdc119U, 0x3cf53d9cbc7f717cU, 0xbc9d8027bb971400U,
  0x3bd3b023bceb94c2U, 0xbcfa67e3bceff200U, 0xbb4687ef3a9724e9U, 0xbcf270633cf11f03U,
  0xbc1928993bcd7cbbU, 0x3ce4628e3b87b3c2U, 0x3c19608cbc66b3a4U, 0x3c04ecad3d013610U,
  0x3ca39994bcd18dd0U, 0x3cbef54ebcb18187U, 0x3c526ff5bcfe76fbU, 0x3c06d2133b85737dU,
  0x3c0189c63c92909dU, 0xbc0417b2bc872224U, 0xbce93d803c9790beU, 0xbad9b85cbcc14df4U,
  0xbc74c8903c9355faU, 0xb94524963c933d1aU, 0xbc51b6b33bca8dc2U, 0x3c782e883b961a5aU,
  0xbacf3b393cc3effeU, 0xbc196fd43c5540c8U, 0xbc46d951bcf8d4a5U, 0x3cb9e49bbca68be4U,
  0xbce37ae53bd51031U, 0x3c35406c3c3b87ceU, 0x3bb5194abc8518dcU, 0x3be234763cbeae7aU,
  0x3cbdbb87bb840bdaU, 0xbb301f033c684d29U, 0xbbe2d8623bbc316dU, 0xbc296a48bb94bd5dU,
  0xbcc1c1a1bcb3cd8fU, 0x3b51de7abc5b5d6fU, 0xbc887efabc3153f3U, 0xbc49c3d13a748ec6U,
  0xbcee89d2bce457feU, 0x3bcffecf3b06f324U, 0xbc82512bbc7bbe06U, 0xbd00ffcd3c559be1U,
  0x3cca7d573ce920c1U, 0xbc302242bbe6c443U, 0x3c182e293c9829abU, 0x3cf047303a03f363U,
  0xbc5b90553c512cebU, 0x3ce8a5c1bc98eb11U, 0x3cea6f40bcae3642U, 0x3cf4d4c5bcb4e591U,
  0x3c073bbe3c747a48U, 0xbc233180b9a31199U, 0xbbfb3b81bce08685U, 0xbcb492863c41d4d3U,
  0x3c75dd983b71b4faU, 0x3c7cdf52bad653e9U, 0x3ce63bffbcb6792cU, 0xba7572c4bcdc97ddU,
  0x3cb2169f3c93a065U, 0xbb3ca69e3c2eb2d3U, 0x3bd14945bc1064acU, 0xbc20b665bc75efa7U,
  0xbc90559e3c351e36U, 0xbcd3695cbce1a254U, 0xbcc7db5cbcdf7f2cU, 0xbd018aa5bc4be2f4U,
  0xbd026d7bbb735e7dU, 0x3c76259ebcda0eb8U, 0x3c58d63e3cffac67U, 0x3c4d3c96bc92c848U,
  0x3c4cc6fa3cb9b07dU, 0xbb2e597cbc735421U, 0x3cdb0d163c94dc89U, 0xbc5863ed3cd342c2U,
