/**
  ******************************************************************************
  * @file    network_data.c
  * @author  AST Embedded Analytics Research Platform
  * @date    2026-01-17T10:40:55+0000
  * @brief   AI Tool Automatic Code Generator for Embedded NN computing
  ******************************************************************************
  * Copyright (c) 2026 STMicroelectronics.
  * All rights reserved.
  *
  * This software is licensed under terms that can be found in the LICENSE file
  * in the root directory of this software component.
  * If no LICENSE file comes with this software, it is provided AS-IS.
  ******************************************************************************
  */

#include "network_data.h"
STAI_ALIGNED(8)
const uint64_t g_network_weights_array[46375] = {
  0x3e9b1afcbd9be426U, 0xbdde8e163d03bfd6U, 0x3e2227703e11e923U, 0x3ea47cf3be6ec556U,
  0x3ea391ef3b78d6abU, 0xbdce47363e11eb96U, 0xbdc00f763e05a08bU, 0xbe52a7983e39f798U,
  0x3e1e1d233e763f83U, 0xbe5f20fbbd5bcb36U, 0xbe4f3906bcaf8a40U, 0xbdec72bbbe9732a2U,
  0x3e39cadbbe78310bU, 0x3db15556be8b959fU, 0xbea38ef73e37a833U, 0xbe17a1f63dfffcb0U,
  0xbe03f54b3d8f3960U, 0x3e0fe800bdbd1b96U, 0x3de38b063e9ba2f3U, 0x3e082706bea58493U,
  0xbd97e9463dd5c95bU, 0xbd91ee16bdcc5b9bU, 0x3d7e7fc03e54243bU, 0x3e9c3a233e853d56U,
  0xbda6c8d03e4b6eceU, 0x3daffa10be6d2a5bU, 0x3dad0830be0bc6b0U, 0xbe317f583e38fca6U,
  0xbc50b7d6be817d30U, 0xbe5764bebe8f322fU, 0x3e8e0bcf3e941e60U, 0xbd35f7363e77ea7bU,
  0x3e8191123df3423bU, 0xbe8b8b06bcc59416U, 0x3e853ebabd9ebd3bU, 0x3de1d16bbe9e582aU,
  0xbd9a654bbe730e26U, 0x3e9568873c9ae9d6U, 0x3e9284a63e395a48U, 0xbd80456b3def7410U,
  0xbe3539d03e2d2760U, 0xbe88684abe3bbfcbU, 0x3ea5a0aa3e0ff083U, 0xbdca83db3da83dd6U,
  0xbe25fa603e056013U, 0x3e00f0a63d247f36U, 0x3e793f00be4e5316U, 0x3e04bb6bbe537298U,
  0xbea3043cbdcfc890U, 0x3e7affe3bdd3c110U, 0xbe70ce363e800252U, 0xbe1127d3be4c3a8eU,
  0xbe0ed9ce3d264a00U, 0x3dfabd06bea9cfbcU, 0xbe199d16be70a13eU, 0xbe1fa2b63e7d6280U,
  0x3db87616be0cab98U, 0xbea979623e02a73bU, 0x3d9150e63d08a496U, 0x3ea4efb2bdaf253bU,
  0x3e643286be4e605bU, 0xbe3302e8bb032eabU, 0x3e9f9370be9825f0U, 0x3d553716be07c638U,
  0x3ea2901cbe95bf48U, 0xbd2c86363e15676eU, 0xbe956048bdcfcd76U, 0xbea79014be2679cbU,
  0xbe831a0ebea0c513U, 0x3e9af3de3d8612c6U, 0x3d0e7bcbbbf3e556U, 0x3e525ee0be17c666U,
  0xbd855de63e1eaa16U, 0xbe9ad6a73cf64b6bU, 0x3e7c81763d30b460U, 0x3e93cc263dfb821bU,
  0xbde865b0bd3c5eb6U, 0xbe4435903db0f0cbU, 0xbe06231b3e85ce68U, 0xbdbdcc203e6a2b20U,
  0x3da52b13bd0e5cf8U, 0xbd407736bd28baa0U, 0x3caab1103da800fcU, 0x3c9222c03d062358U,
  0xbcaebc36bda4998fU, 0xbcde121bbd04dd53U, 0x3d63f5c03cf4c9d6U, 0x3d6c9d983d75302bU,
  0x3d7e5a23bd51e5c6U, 0xbca727063d77e940U, 0x3c269e4bbc0d62d6U, 0xbd17bda8bd72a570U,
  0x3d5840b33d001126U, 0xbd4cb5483b0bb7abU, 0x3d5c8b903cef1ed6U, 0x3d32c9ab3aef3c56U,
  0xbd99ed1cbc7375ebU, 0x3cbfca80bcdd9b26U, 0xbd177b83bd844756U, 0xbd671e7bbd472056U,
  0xbd0d7046bc07eb36U, 0x3d9d72ea3caf9ffbU, 0x3d911b84bd8f1d0eU, 0xbce3cbd6bd164e4bU,
  0x3d2f4ba63c079babU, 0x3d2c3fee3acdcf56U, 0x3cfbb66bbd9bd287U, 0xbd31cdce3d388e50U,
  0xbd9f1e983c8692a6U, 0xbd9d6b433d8b24e8U, 0xbd30d9c33d8b2217U, 0xbda3196b3da6cd23U,
  0x3d8336db3a3c3000U, 0x3d016c5ebd70cc28U, 0xbd2cb0f63cba8ca6U, 0xbd4d76203a96a900U,
  0x3d379ac8bd2bc82eU, 0xbcc8ec3b3d1d9e76U, 0xbc4d8a4bbbc10dd6U, 0xbd1eb4a83d1d90f0U,
  0x3ca62e503d7674f0U, 0x3c115a56bcc178cbU, 0xbd760753bd9fc7f2U, 0x3c765100bd6d896bU,
  0xbc9323763d8b0d14U, 0xbd8819243ce4a7e6U, 0x3da3f7cb3d4ee39eU, 0x3d4f7b4ebd281a28U,
  0xbcf6b7d03d577e46U, 0xbcb78e7bbd3caf38U, 0xbc3c188bbd3d38c8U, 0x3c148996bd859feeU,
  0xbd7b7f16bc3c98a0U, 0x3b1df1abbd5865d3U, 0x3da2161fbd81c70cU, 0x3d719f76bd221a80U,
  0x3d9c61203cfbd036U, 0x3aa8e3ab3d9b7d5fU, 0xbcc73840bcdae4cbU, 0xbd26f6dbbb826f2bU,
  0xbd7329ce3d0539c3U, 0xbd903644bd884038U, 0x3d877b7f3d92141fU, 0xbd5ff0c83da1fdc0U,
  0x3cf3bb703d4cf226U, 0xbd9560333da6dce7U, 0xbd2d5c56bd516446U, 0xbc46accb3d84f890U,
  0xbd1bd666bd95fccbU, 0xbda1beab3cfb436bU, 0xbd9f3b34bd9bada7U, 0xbc065b80bd90f4c6U,
  0xbcd57a70bd716ce6U, 0xbca6df76bd1263c6U, 0xbc89eeb6bc06f50bU, 0x3d0539bebd3ce323U,
  0xbd71e8503d5656dbU, 0xbc1292b63d0b4f83U, 0x3d98200e3cb33706U, 0x3d6f5470bd868a4eU,
  0x3cf5302039f4faabU, 0xbd717ec6bd943242U, 0xbb8422d63d1ab430U, 0xbcf1eb66bd35ffa0U,
  0x3d8f2232bda7d8a7U, 0xbd7fc3163d82f3d2U, 0x3d16ce1bbd1a0aeeU, 0xbd0710b6bc282fa0U,
  0x3b330f80bcf69db6U, 0xbd206cebbd34013bU, 0x3cb382b63c11622bU, 0xbca46a9b3d6ed960U,
  0x3d2ffba6bb7746abU, 0x3c76ecb6bccc80e6U, 0xbcd96090bd5c9f3eU, 0x3d762c0bbb060b00U,
  0xbbdb9780bd8df562U, 0x3d3b02e83c9747dbU, 0x3d90176bbd3a0c48U, 0x3d85eec83c88e730U,
  0xbd9194b7bc782660U, 0x3da86604bd3c67e0U, 0xbccb844bbd978d03U, 0x3cf6aacbbd6e41b6U,
  0xbda13223bcb3fdf6U, 0xbd50ce603c59afe0U, 0xbd2022383d2c91b6U, 0x3d246ce33d0b0ac3U,
  0xbd028f5e3c55a440U, 0x3d1d91e03bfe3140U, 0x3cd88950bd9ef0aaU, 0xbd3d19603d895900U,
  0x3c7f844b3d0ef84eU, 0xbca129c63d26f08eU, 0xbd1821283ce57070U, 0x3d67ddfbbd321ff6U,
  0xbd7711703d964a47U, 0xbd37ac6e3d377ed6U, 0xbd6735133d84c36aU, 0x3c92cbbbbd802990U,
  0xbc7e3bab3da78a60U, 0xbd89ff623d36de03U, 0xbc907eab3cd68adbU, 0x3d39817ebd243813U,
  0x3d27cb503da837b0U, 0x3da762633d8f928eU, 0xbd0b95e0bcc4da26U, 0x3bf32316bd565d50U,
  0x3a764c003c6e436bU, 0x3d973bebbd257613U, 0x3cede8a0bc805c30U, 0xbd9e48b43d7e2573U,
  0xbd3fd60e3c7adeabU, 0x3c23e8d63c5a43a0U, 0xbd9bad6bbd0fc39bU, 0x3d732e0ebcbf6ed0U,
  0x3d5b4c8e3da796f0U, 0x3cb2d69bbd9683a0U, 0xbc4a4c2b3ceeff3bU, 0x3d472b23bcf5f0b6U,
  0xbd6f2df83d76964bU, 0x3c03468bbd36a708U, 0xbcc35e2bbc836970U, 0x3cd7b50b3d1668c3U,
  0x3d4269303d3e76f8U, 0x3c523220bca61b5bU, 0x3d3f8d5ebcbc0ec0U, 0x3d15305bbd925cafU,
  0xbd0bc0b3bcf8c2bbU, 0xbd0557d3bc45f360U, 0x3d443ee8bb844616U, 0xbccf0d3bbd9f2838U,
  0xbda29fdabb4fa8abU, 0x3d95637ebc9ff356U, 0x3a8eb1003da6fb1fU, 0x390c9800bc0421d6U,
  0x3d364460bc9ebab6U, 0x3ca2348bbce90036U, 0x3c2aa28bbd8ab89aU, 0xbd3534f33d479b5bU,
  0x3cc89070bd81d7e6U, 0xbc2b46003d916974U, 0xbd87d91f3d14b5e8U, 0x3d2868c33a905cabU,
  0x3d893b7bbc671e0bU, 0xbcd99396bcac14b6U, 0xbce40476bc80f79bU, 0xbbf6c7c0bd082e98U,
  0x3d0c046e3d691610U, 0xbd270180bd27acbeU, 0x3c07942bbda365a0U, 0xbd82911a3c423200U,
  0x3d0ca98ebd3a5528U, 0x3d37688bbd56a72eU, 0x3c0d6f96bd3a1548U, 0xbce072ebbba8fc56U,
  0x3d44849bbd36a91eU, 0x3cc5ac9bbd983b57U, 0xbda26d30bca505fbU, 0xbd7663bb3d70d06bU,
  0x3d2fca9e3d5b6b2eU, 0xbc65dfc0bd904ff2U, 0x3d83c883bd25f79bU, 0xbd895faebd2d0093U,
  0xbd9867e4bd4c19d8U, 0xbd7d531ebc9bc1e0U, 0x3c9c45a63c6ce7abU, 0xbcdc0fc0bbba6babU,
  0x3d352ae3b8c75556U, 0xbb35632b3d82c080U, 0x3a198156bd57385bU, 0x3d840d3ebd40d248U,
  0xbda8c88f3d0cf986U, 0xbc32364bbd9419b4U, 0xbd87fa56382c7556U, 0x3da6df983d5f4920U,
  0xbd9d142cbd9d87c2U, 0x3c732600bd8061acU, 0xbd1f4a08bd9406deU, 0xbd9acc03bcdc8890U,
  0x3d72e37b3d839ea3U, 0x3c2ebaf63c9e63c6U, 0xbcb9c4abbd31f8c0U, 0x3cfdf2563d771ed8U,
  0x3d9ca0eebcdf9b0bU, 0xbd3609863b9a6fc0U, 0xbce55336bd0810a6U, 0xbc0a6b96bd5337b0U,
  0xbb432680bd9150d7U, 0x3c08d4763d419cbbU, 0x3c4b70e0bd51f196U, 0x3ccd24f0bcd34bf6U,
  0x3d5078debb8bbd40U, 0xbd6ebb2bbd49a7e3U, 0x3a976c00bc042900U, 0x3ccff2cbbda85e04U,
  0xbd9791103d9b7850U, 0x3ce26ed6bc103b4bU, 0x3d8acf6b3d81c94bU, 0x3d8e7b6fbca1f82bU,
  0x3acd05ab3c002060U, 0xbcd25e7bbd9bbf8aU, 0xbd31a8663cf3ffbbU, 0x3d96bababcbb8cf6U,
  0xbc52842b3d2602b0U, 0x3d08378b3c738b20U, 0x3d8160f83c32cccbU, 0xbd8420f2bcb05036U,
  0x3c2a2a4b3cc9ecebU, 0xbb54492b3ca7f796U, 0x3cd7b5663d087c0eU, 0x3ce997b63d44eed3U,
  0xbb6157ab3d3b2ab3U, 0x3d828c63bcec9806U, 0x3c5ec74b3c9dd156U, 0xbd06b8d0bcf1b646U,
  0xbc04d26bbc76cd2bU, 0x3d10f9f3bda32cbfU, 0x3d95583abd9e22ccU, 0x3d90874f3d21a9a3U,
  0x3d5dc3563da18be2U, 0x3d8038ae3d6bb25eU, 0xbd1f4bd8bd8bcb44U, 0xbd9db5ffbd95084eU,
  0xbda1731ebd7bca73U, 0x3d9aa978bd0a5a4eU, 0x3d77f4433bbde6ebU, 0xbbdc81403d7449c0U,
  0x3da44d00bbfa0c56U, 0xbc3497f6bd257b8bU, 0xbd2d282bbd18da90U, 0x3d6e22f33cc87246U,
  0xbda10c3abb98fa80U, 0x3d26e093bd693fd0U, 0x3d21d2483d89187bU, 0x3c0a1fd63c83b006U,
  0x3d1eb12e3cd6ea96U, 0x3d8452783d416f23U, 0x3caaf8b0bd30b7abU, 0xbd64948ebc3cc260U,
  0xbcb7aa16bca051d0U, 0x3c877ce6bcd5bd80U, 0x3a442aab3b21fcd6U, 0xbd8c7db0bba1c3d6U,
  0xbc8c88d63bfb962bU, 0xbd80f5f03be02c96U, 0x3ce4beebbd8f5beeU, 0x3c8eebcb3d93fedbU,
  0xbafb6aab3c21fb20U, 0x3d1e3898bd82258fU, 0xbd1313ebbca73f1bU, 0x3d96ac603d1bcb16U,
  0x3d6e9b133d92b37bU, 0xbcb7ecf63cd9267bU, 0xbd84465fbc8a2f16U, 0xbd91ab8a3c1ce636U,
  0x3d7f205ebd62f3abU, 0x3d21de4ebd1c87eeU, 0x3c27dce03d5190abU, 0xbccb1356bd161b66U,
  0x3b16b62b3d88c18bU, 0xbd41d476bda23ca2U, 0xbd015cb0bc9a0b1bU, 0x3c950fe03da6f264U,
  0x3cae57e6bd5e6248U, 0x3c80ada0bda40976U, 0x3d3992e6bd910638U, 0x3d36f09b3d51b18bU,
  0xbd4cbff3bd3c51eeU, 0xbd91cd9b3d877a4eU, 0x3d9af96c3a928d56U, 0x3a51f0003cce795bU,
  0xbc5a93a0bd81a7f6U, 0xbd3bd2983bf57640U, 0x3c8262963cbbe0a6U, 0x3d4220aebd6b035bU,
  0x3d7713c3bd1a0febU, 0x3ccfd1c6bd0d20d0U, 0xbd4ce94e3ce3fae6U, 0x3c02b0003d0162bbU,
  0x3caf360bbd8c4e36U, 0x3d9f566abd8f96aaU, 0xbb90c4eb3d4e3be6U, 0x3d0687783ca4775bU,
  0xbd3387a83d6c9e06U, 0xbd51becbbd255d26U, 0x3d8bc0643d3aed6eU, 0x3d0f6f88bd3f6e78U,
  0x3d604ff6bcf167dbU, 0xbd307e5e3d062b3bU, 0xbcc22ae63cb6d5b6U, 0x3c654ee03da02967U,
  0xbda213083d7d9cc0U, 0x3da76fdebd0081f6U, 0xbd18e7b33babe516U, 0xbc676d2bbd9a36d6U,
  0xbd81375e3d32cd03U, 0x3d9b5ab23d224e30U, 0xbd8e3e5ebd81bca2U, 0xbd195ceebcbc590bU,
  0x3d86cdccbd046b10U, 0xbca2eff6bbff81ebU, 0xba3650003ce65276U, 0x3d91964bbcbcbb90U,
  0x3b47942bbd608e0bU, 0xbba4a516bd82783bU, 0x3d963edcbd18af9bU, 0xbba4886bbd66e878U,
  0x3be194d63d55abfbU, 0xbd2f260bbb912016U, 0x3d0142f0bb6091d6U, 0x3d7081b33d0d2828U,
  0x3d8e8557bd648d9bU, 0xbd0a60163d755123U, 0x3d4fe53ebc956b16U, 0x3d77a33b3d9b9b3bU,
  0xbd145b663c82a830U, 0xbd5f8b7ebb950996U, 0xbd8f2d6ebdaa62ecU, 0xbd84dd90bda40ee4U,
  0x3d87bb78bda89d57U, 0x3d98d630bd2dc8f6U, 0xbc906970bc42c9d6U, 0xbda78fcf3c099dabU,
  0xbccf9816bda4d3b6U, 0x3d55b10ebc33bf60U, 0x3d7a63a3bbc5d396U, 0x3cc3584bbcf1c21bU,
  0x3c3b794b3d5ee8d3U, 0xbca930e03d1547a8U, 0x3da8f0633d299ddeU, 0x3bbf6a96bcc9520bU,
  0x3c915a5b3d2d6493U, 0x3d330a683cc167dbU, 0xbd8d4e4f3d08c348U, 0x3d58dcbb3d8f684bU,
  0xbb52c8d63d7fe1ceU, 0xbd41f80b3d2cf10eU, 0x3d96c2d83d8972ccU, 0x3d29e0a3bd50a68eU,
  0x3c714f8b3d10d7deU, 0xbceab6203da9b284U, 0xbc2b29c0bcfb083bU, 0xbda1b7b73d473ef0U,
  0xbd55ea26bd0256e0U, 0x3bddaed6bd092fb3U, 0x3b9f1856bd804cc4U, 0xbc90d3d0bd4a7343U,
  0x3c329e56bd20d5a3U, 0xbcc6db2b3bc79900U, 0x3d14a4f83c9d03e0U, 0xbd86884b3d1b5bd6U,
  0x3d26dc13bda18bc8U, 0xbd031c983d124348U, 0x3d3d1656bc5c3e6bU, 0xbd1302063cfd3830U,
  0x3b8c5ed6bd68704bU, 0xbd9fa752bc285640U, 0x3d7210e6bd055c63U, 0xbc3868763d5f667bU,
  0xbc9a84e6bd938c93U, 0xbc3f89c03d9e2dbeU, 0xbd9ed35fbd875a9cU, 0xbd20fc463ca3c94bU,
  0x3c025a963c761736U, 0xbc9099a6bd2d92e6U, 0x3d346b503c5aba6bU, 0xbd44fdb63da313e0U,
  0x3bf9ebab3d9d5fceU, 0x3d1e2286bbda41d6U, 0xbc15a02b3c2c54e0U, 0x3d6d1ed03cead00bU,
  0xbd377b00bcd692ebU, 0x3cdbe4003c969e80U, 0x3d925404bd92ac86U, 0x3c9301cb3c836a20U,
  0x3d5dacc83da54c58U, 0x3d90e3373b3409abU, 0x3caa8bc6bc2c2e16U, 0xbc91c4903d93bdc6U,
  0x358155563cb47616U, 0xbd757490bd65d4f6U, 0x3d92e09a3d530c78U, 0x3d2d22aebd697013U,
  0xbd9837d63d8a8d5eU, 0xbd049163bda085a3U, 0xbd6e19a8bcc3c4fbU, 0xbce438b63d214333U,
  0x3ce419c63c930710U, 0xbcab48163da0b438U, 0x3d36e0d03ca7c3f6U, 0xbceedf8bbc50942bU,
  0x3c5f94a03cc8a5d0U, 0x3d1ce403bd91bc5fU, 0x3c9957bbbcc27afbU, 0xbd9fb238bda04fa0U,
  0xbda73e70bd1db5feU, 0xbcac6720bc6be7ebU, 0xbae49cabbd61ab3eU, 0x3d913d6fbd9f22fcU,
  0x3d532328bd246980U, 0x3ba5e316bd900930U, 0x3cd1b7a63c229b8bU, 0x3da8af123d3cf040U,
  0x3cc276863a5c38abU, 0xbd877184bd3bfa9eU, 0x3d6db450bd5bfc96U, 0x3d36577ebd83f344U,
  0xbda5ea623d9724ebU, 0x3d4f67f83d85d627U, 0x3cbae736bd4963feU, 0xbcd9f9263d87e378U,
  0x3d1a549ebbc0c716U, 0x3d55dee63da2a6aaU, 0x3d361328bbea4140U, 0xbd5737fbbd528916U,
  0x3cf211a0bd0dfdceU, 0x3d48ae633c9b3c40U, 0x3d8f9404bd0c4580U, 0x3d9be3eabd25d598U,
  0x3d308da3bd6b9f38U, 0x3c8107f03c894cc0U, 0x3d8e8b3ebc8ba75bU, 0xbd8a6368bd9c8e97U,
  0x3d7697c03d63ca03U, 0x3d61388bbd6ce7eeU, 0xbc9e9ffb3cc6d6b0U, 0xbd353a6e3d2f0e63U,
  0x3d95cfea3d30f8c3U, 0xbd49a8a0bc11a820U, 0xbd1a7513bb7c312bU, 0x3da90ababbf6af6bU,
  0x3d8078443da804dfU, 0xbcca758b3d18d413U, 0xbc418660bd1e6e7eU, 0xbd1d803b3d08313bU,
  0xbc3298803c10f2b6U, 0xbd517bfbbc8123fbU, 0x3cbcc6463c1544a0U, 0x3c1766003d9f5336U,
  0x3cb9c8cbbd3a7506U, 0x3caef360bd4bd5abU, 0xbc3088763d11a0a8U, 0x3d6b3598bd1d1a50U,
  0xbd3687c83da46838U, 0xbd8cc66cbc542fe0U, 0xbca36470bda7acd3U, 0x3d295d703ca1be8bU,
  0xbd7dba503d320db8U, 0x3d950a483da95f43U, 0xbc7feff6bd5e4113U, 0xbcf7b1f0bd571f2bU,
  0x3da1eec23d165c7bU, 0xbd420178bda9ae6cU, 0x3b0bb9803cda10c0U, 0xbcb474cbbc89a496U,
  0x3bdf08963d5e75f3U, 0x3d4284f83ca3f900U, 0xbcb28530bd884cdcU, 0xbd1d96483d2543f8U,
  0x3d56821b3d8193aaU, 0x3d7aeb2ebb6c1480U, 0x3be1d4163cd8c24bU, 0x3c24b88b3d260686U,
  0xbc06dff6bd6b02c6U, 0x3bcbaa40bd9eec72U, 0xbd2117903d62573bU, 0xbc80e6dbbd2373f6U,
  0xbd58e5b63d8f68daU, 0x3c6a1bebbd9cfa40U, 0x3ad13c56bd627050U, 0xbd8e7cd3bd6fba46U,
  0x3d8aeb42bb0c9680U, 0xbd4641b03d334620U, 0x3bb1d8d63d0c6b08U, 0x3da0d960bd589528U,
  0xbca5ab263d7ebdfbU, 0xbda1f3cc3bb75896U, 0xbbbf9d00bbfb5a2bU, 0x3b2d4a2bbc981b00U,
  0xbd9db53ebbd20f56U, 0x3d12d88ebc8763e6U, 0xbd9c69c4bd704888U, 0xbcf3b68bbcdbfbebU,
  0xbccf1fb63d826b7eU, 0xbd8292c73da3271eU, 0x3d33efd3bd1af8abU, 0xbaab5a563c1f2b4bU,
  0x3d7387663c7ad016U, 0x3d40a933b81c2aabU, 0xbd44757ebd6a75a3U, 0x3d86d5eabced4b56U,
  0xbc5dfd003d904f6eU, 0x3d64f3ee3da2d482U, 0xbca861d63d748120U, 0x3d84b5763d2dbbe0U,
  0xbb97942bbd799aa8U, 0xbd1a4bc6bd82ec2eU, 0xba8a43003d66cb08U, 0xba4066ab3d182406U,
  0xbd19cbcebad3ea56U, 0xbcd614503d4107eeU, 0xbd14add33da3c4dfU, 0x3d10902ebd17ddd8U,
  0x3c5790cbbd05240eU, 0x3d580e0e3cab5ab0U, 0xbb52d980bd785518U, 0x3d571023bd527b3bU,
  0x3c4686c0bceee296U, 0x3d69a5f33d2587c0U, 0x3d134d68bd941cfaU, 0xbda961303c6ad940U,
  0xbda9ecf43d1cd393U, 0xbd72e5633d68592bU, 0xbd8530d239ccf000U, 0x3c8d9e26bd79df70U,
  0xbd1c4138bd28bfc3U, 0xbb7e0dabbd6db263U, 0x3d2811f3bd8c3103U, 0x3d9c93ec3d03ecc0U,
  0x3daa54473d6d1b2bU, 0xbd952c23bcd587cbU, 0xbd739a96bd91d9daU, 0xbc799056bd887352U,
  0xbd9b642bbcc6ac6bU, 0x3c41facb3da02c4eU, 0xbd5fcec0bd5068abU, 0xbbbba02b3d1787a3U,
  0xbd97b5cf3d93907eU, 0xbd8d7cb0bd30e5f0U, 0x3d151ebbbc7bcd80U, 0x3da13c233d30b8abU,
  0x3b29bd00bd50197bU, 0x3da6ed133d448e6eU, 0xbcf7bcd0bc3785cbU, 0x3da1ad6abd530896U,
  0xbd50beb63bb84cd6U, 0x3bd6516bbce70980U, 0x3bc58680bb35ba56U, 0xbd6f12c0bc2ee3ebU,
  0x3d83e786bd37419bU, 0x3c189756bd45aa58U, 0xbcf4e82b3d318088U, 0xbd531f1b3d263fc0U,
  0xbcb6e756bcbcfd10U, 0x3c21bdcbbd4c97eeU, 0xbd97d00fbd95b3e6U, 0x3d7c2f4b3d2bb463U,
  0xbd1c26933c3548e0U, 0xbd3ff4a63d16799eU, 0x3ccb85e03bd68196U, 0xbabf31563d1a4488U,
  0xbd7c5e3b3daa6f3eU, 0xbcc97f4bbca12c16U, 0xbc84c27b3d07371eU, 0xbd2346883d9b6be0U,
  0x3d1d38983d3b1da0U, 0x3d9186eebc142796U, 0x3d9a1ad23b5be02bU, 0xbcbbe676bd5d4fd6U,
  0x3ce7489b3ca2367bU, 0x3d4add9bbd2b44e6U, 0x3bb58640bbaa852bU, 0x3d862160bb9eef40U,
  0x3d79b990bd0c77dbU, 0x3d0f9fbebd84bdbeU, 0xbd8b83b63da0b8ecU, 0x3d05686bbd6f8286U,
  0x3d88c6563c8456a6U, 0x3d746fbe3b800a40U, 0x3b9249abbd3a5c78U, 0xbd8658b8bd3531bbU,
  0x3cc830463d9dc8faU, 0xbd7fd8a8bd6721e0U, 0x3d7a342e3d998a22U, 0x3d910c5b3da7cfbaU,
  0x3c5ed1eb3d8a5ceaU, 0x3ccde5403c298180U, 0x3c191bd63d6727a3U, 0x3da1bede3cf01f6bU,
  0xbd73e8e8bc8fda5bU, 0xbc8671263d0143beU, 0xbd87a07ebd87faa8U, 0x3d934d283d370ed0U,
  0xbd5d670e3da7d540U, 0x3d9281cb3d0bcf83U, 0xbd0688ee3d854187U, 0x3d9cec6e3d7a7773U,
  0xbb896e563d4717ceU, 0xbd736180bd1c1028U, 0xbda014b2bd7669a8U, 0xbced4db0bd322133U,
  0x3d2924b63d953c9cU, 0x3d33d5383ceb6906U, 0xbd82e637bcac39e6U, 0xbc4037f6bd55d748U,
  0x3d3aa8d6bda4217fU, 0xbd81ac1a3d2a973bU, 0xbd9a1118bd8ca96bU, 0x3cd711e63c2ed64bU,
  0xbc2ae0cbbd919922U, 0x3d952930bd86c04eU, 0x3d966950bd456ae0U, 0xbc8352c0bd557faeU,
  0xbd942d27bcce1236U, 0xbc80a2603d50c470U, 0x3d1a0396bcef62b0U, 0x3d245e133c34774bU,
  0x3ce04abb3cb98b3bU, 0x3d576dbebd533a76U, 0xbcf744103d771110U, 0xbab12c56ba5a6156U,
  0xbd82104c3c8974f0U, 0x3ca273fb3d68fbc3U, 0xbd9dc3b33d9d1d93U, 0x3ce7dc2bbd2ae3ceU,
  0xbd805836bd4ed196U, 0x3d8045923c9459cbU, 0xbd6a94133d6ab3f3U, 0x3ca35100bd872a7fU,
  0xba812556bd4ff2abU, 0x3c078060bd867938U, 0xbc6b16163d853798U, 0x3c10d4f6bd164203U,
  0xb9ac16ab3c446140U, 0xbc5c0beb3d75ebb8U, 0xbd88c6e2bd320018U, 0xbd1b4d003d8686e6U,
  0xbb2388d6bd9aa63bU, 0x3ca9ce36bd84c0bcU, 0x3d4a85a33c03a480U, 0x3d1f1dbebd341bbeU,
  0x3d8f6b33bc23e7cbU, 0xbd5b81d3bca020c6U, 0xbd00b9c63d8c9ab3U, 0x3d528dcb3da69e50U,
  0x3d8b4e97bb063400U, 0xbd9bebf8bd97ac53U, 0xbb1998d6bd87882aU, 0x3d0cc7f63da72c03U,
  0xbd9d90933d0f938bU, 0xbd9948143d869846U, 0xbd8ce18abcb6294bU, 0x3adbccab3babd3d6U,
  0x3c0610ebbbef182bU, 0xbd72e3c03d96f282U, 0xbd360bfebcb711e0U, 0x3c5db6403d5841abU,
  0xbca15516bd981c13U, 0x3c23340bbd509ecbU, 0xbd1b2f303d02fafbU, 0x3d3fb70b3d9231bfU,
  0x3d4f0debbd1f4696U, 0xbd2f78b63c80d290U, 0xbd8c5ffcbd6d4e5bU, 0x3d03cbd0bd96c85bU,
  0x3af2c6003c1d098bU, 0x3d1ecda33d29d4a8U, 0x3d105ea6bc1c60a0U, 0xbd9f90183d3f8083U,
  0xbc4be10bbcbc92a0U, 0x3bab06d6bb35c680U, 0xbcf3bf903c6f9be0U, 0xbca1e26b3d74dad3U,
  0xbd07b0c03d867aabU, 0x3cbc4f8bbce2e72bU, 0x3c99b5863d3b3928U, 0x3d9417543d538a88U,
  0xbd6b78d63da496f4U, 0xbd075d103d393cbeU, 0x3d32aaabbcfb70bbU, 0xbd749048bd073713U,
  0xbcd3545b3c4a2f60U, 0xbd7f6cebbd8521abU, 0x3bd7b7163da869e8U, 0x3c4aaeab3c3917ebU,
  0xbd860c68bd0a95d3U, 0x3d39045bbd4abce6U, 0xbd892fecbd812b22U, 0xbd9f29a0bc8c848bU,
  0x3d4bb1ab3d8cfe86U, 0xbd860e4e3c4f336bU, 0xbcc481fbba09d6abU, 0xbd9744cf3d1e471eU,
  0xbd012248bd9e043bU, 0xbc894e503d9aac40U, 0x3c962ef6bbfb3440U, 0xbd4f7fa6bba33300U,
  0xbd5f5b4bbd9971c2U, 0xbc8bc8d0bd9c344cU, 0xbd6bf2e63d9c585eU, 0x3d9c9986bd02a546U,
  0x3d537376bd6fa420U, 0xbd2386963d6682f8U, 0x3d1e4fc03c9f29a6U, 0xbda16bbe3ccfba66U,
  0xbd9901a3bbfe7400U, 0xbd73bbbbbd7fba13U, 0xbcdca1fbbd9a600fU, 0xbd6dc260bd5052aeU,
  0xba8aa3563bd86980U, 0x3cfb7c7bbd71a003U, 0xbd0cd006b9dae800U, 0x3d8a9160bd45399eU,
  0x3d0569103d7b9580U, 0xbd84e768bda8d772U, 0xbd8a16e63d20698eU, 0xbd3ed6fb3c906770U,
  0x3d1451e8bd58d96eU, 0x3d57db4ebd76f120U, 0x3d3fcf13bb0bc0abU, 0xbd2c839b3d9eab8bU,
  0xbd8d694c3cb3a7fbU, 0x3d5c7c933d8a10d6U, 0xbd98578fbd15cbdeU, 0xbda2a24e3c97be40U,
  0x3d5eb3d83d146c96U, 0x3d7f0593bc971866U, 0xbd4a563bbc2ad1e0U, 0xbd3afb2b3d939cecU,
  0xbd9211463da6972aU, 0xbd9db85b3d89048fU, 0xbd9e621a3cf4b4e6U, 0x3b97db96bd515116U,
  0x399c5eabbd79e39bU, 0xbd6f2b8e3d20a53eU, 0xbc0048003d8f221bU, 0xbd949f6b3d84a9eeU,
  0xbd96a0373c5b720bU, 0x3abe77ab3c817f7bU, 0xbc12e900bd9cd3b0U, 0xbd3a57b3bc8d77f6U,
  0x3d9ab3db3da0c5dfU, 0xbbc88380ba7824abU, 0x3d1f2246bd006dcbU, 0x3aa392003cfebb16U,
  0xbd99401ebcee67d6U, 0x3bbbbf96bd9cd533U, 0x3c706e563d4924d6U, 0x3d2525283c6aec40U,
  0x3ce910463cfa5156U, 0xbc8d05803c9760d0U, 0xbc616ab63d153030U, 0x3d9f8c863bc15ac0U,
  0x3cccc0a63c18d076U, 0xbd123936bda72680U, 0x3c8a11ab3d073c7eU, 0x3c880ecb3ce6cab6U,
  0xbca6b1e63d90822bU, 0x3cfefc503b4045d6U, 0x3c201120bcb321c0U, 0x3cf39586bccc36a0U,
  0x3cffec503d278100U, 0xbd84f2f7bd79c033U, 0x3d70c50bbc1fc9b6U, 0xbd47af26bdaa3f3bU,
  0xbcf786bb3cfc8ef6U, 0xbccd262bbc876170U, 0x3d90556f3cd21c66U, 0xbb550cabbc623a80U,
  0xbcdee01bbd826f3bU, 0x3d8f1e43bcc886f0U, 0xbd246606bc85e8b0U, 0x3d3e51d63c851bf0U,
  0xbcf78810bd513b78U, 0x3ce7bc76bccdb590U, 0x3d9c1deabcccd25bU, 0x3c40d760bc075be0U,
  0xbd5e2f503d9d779aU, 0xbaa47600bd920c5fU, 0xbcf78c70bcecac56U, 0xbd0ab3683d01215bU,
  0x3d32fd503d1807f3U, 0x3da07972bd64ae96U, 0x3d8f4e36bd0423d0U, 0xbbfec5ebbcd86af0U,
  0x3d82892cbda281bbU, 0xbd1081883b3f10d6U, 0x3c2a4eabbb5e0ad6U, 0x3c2fe7ebbb601aabU,
  0x3d58441ebd4dca16U, 0x3d998a93bc438b2bU, 0x3d5f5ed0bd4e7460U, 0xbd05a9fbbd1b5570U,
  0x3d0a92a8b9ed2c00U, 0x3d62680ebd07c15eU, 0xbb80d5c0bd41e093U, 0xbd30078b3c7c87e0U,
  0xbda1079f3c1d4856U, 0xbd9b0d3cbd6405e6U, 0x3da95af73c550fa0U, 0x3c933bb0bc45c1ebU,
  0x3c05b1203d99439cU, 0xbc706eeb3d3ddd50U, 0xbbd6b26b3d574ca8U, 0xbbff42ebbd8bd1e0U,
  0x3d4d5b50bc91ac80U, 0xbda62ca2bd492f7eU, 0xbd853a6cbd9c72e4U, 0x3c2595b6bc29beabU,
  0xbd531b20bbec8100U, 0xbc0bbe96bda4ebf3U, 0x3d7a5b803bf45240U, 0xbc8c72abbbb2bd16U,
  0xbd4152b6bd59a3a8U, 0x3b167a003d9ced28U, 0x3d8b708a3d939992U, 0xbd1057a33cdc789bU,
  0x3d93df033d873d28U, 0xbd8742e43d1af3b3U, 0xbcaf41f63ccbbf4bU, 0x3bf441c03a5452abU,
  0xbd8cf827bd43b7f8U, 0xbb4a0180bd10f306U, 0x3d7c93863cb1c4c6U, 0x3d97e754bd8cd93aU,
  0x3cfda796bd8e9fccU, 0xbd973742bd856810U, 0xbd8a7a3bbd90d820U, 0xbda4f1abbb3b99abU,
  0xbd5e89b8bd4284aeU, 0x3d11b3f8bd9c53efU, 0xbda6ae903d4cd1c6U, 0xbd95f37c3d9d1b9fU,
  0x39833c00bcbebe70U, 0xbd78b9483d094290U, 0xbbb82156bd538bebU, 0x3d5e8a60bda85f8bU,
  0x3beefcc0bd911982U, 0x3c3798203d84a662U, 0xbd687e2ebd7d8b0eU, 0xbcbdcc5bbc436ecbU,
  0xbd7e2536bd4cb863U, 0xbd6ee480bbd239d6U, 0x3da26e1abda274bfU, 0xbd7108dbbd8c473cU,
  0xbcf67dc63da2f8a0U, 0x3bb9b1eb3ca05e00U, 0x3c4673c03d9b0c04U, 0x3c053ec0bc95632bU,
  0xbda010a63d49c10eU, 0xbd5b108ebd0c38e8U, 0x3ce9fd6bbc47d260U, 0x3da0ae7bbd9dc37eU,
  0x3d21f92ebda6905cU, 0x3c55c4abbb495d80U, 0x3d3b60f6bd4260fbU, 0x3d99047abc10b80bU,
  0x3d1f831bbd0ab7dbU, 0x3c3b92cbbd9850eaU, 0xbd592a5ebb2c052bU, 0x3d3a3230bd7e433eU,
  0x3bd72bc03d479f53U, 0xbd995e9c3d9a284bU, 0xbc10708b3d946f66U, 0xbd39f6033da29a26U,
  0xbc8d0c863c6e8dc0U, 0x3d54e153bc92bef0U, 0xba7fcf56bd0c5ae3U, 0xbd593cf63d735c8eU,
  0xbc6620f6bda2818aU, 0xbd4628b63d0b0c98U, 0x3d753e333c52f116U, 0xbb98fd6bbd953bafU,
  0xbb38bb803da1bfd4U, 0x3d6c4f983cf197ebU, 0xbd393fdb3d7748f3U, 0x3d366fcb3da2471fU,
  0x3d15dd48bcfb22dbU, 0x399094003ca57dd6U, 0x3da7283c3da54b82U, 0xbd8e8866bb0742abU,
  0xbd2bf40b3d033c13U, 0xbd80119c3da31873U, 0xbd06de46bd89528eU, 0x3da11b9b3c98b006U,
  0x3ad58fab3d56aef3U, 0xbd2cfbb0bd35dc66U, 0xbd6545ab3d980274U, 0xbb19b956bd13f183U,
  0x3d608c76bd9473a7U, 0xbbccc9803c8db89bU, 0x3ca5f350bd89e0cbU, 0x3d2f09f0bd0e0f16U,
  0xbc179140ba617400U, 0xbd1150f3bd4eb2e6U, 0xbc9e9febbd0279cbU, 0x3d6c25583d951673U,
  0xbca75a70bd2d45cbU, 0x3cbea0e6bc994d30U, 0xbd6c2768baefbcabU, 0xbda3effc3d258228U,
  0xbc9531d03d92d847U, 0x3ba2b796bd80f418U, 0x3d8193c7bd0cd778U, 0x3c5c36403da2dbdeU,
  0x3d140888bd607d1bU, 0x3d1171103d954828U, 0x3d8ddf3a3d97f846U, 0xbd4c4b1bbae3c300U,
  0xbca2cff0bcc34646U, 0x3d8b09babda7a39eU, 0xbd6ceacebd9776ecU, 0xbd17270bbd18005bU,
  0x3c798256bc983496U, 0xbcca63203d223ee6U, 0x3d926c3e3c90987bU, 0x3d11cfe03d1a2e98U,
  0xbda5d2b63b4eef00U, 0xbd348aae3d40e100U, 0xbbdac380bd9ea033U, 0xbccf55b63b04dad6U,
  0xbcc40a2bbbcb3556U, 0x3caf3960bda3d81eU, 0xbc3ae8963d984620U, 0x3d8514533d565fa3U,
  0x3ca4c340bd598e73U, 0xbd06ec983d9b04e6U, 0x3b1859d63d1b6dc6U, 0xbd522766bcd5b50bU,
  0xbd4362303d54855eU, 0x3b9a23d6bd2862cbU, 0xbd5af14bbd0b0380U, 0x3d39aa63bd81b010U,
  0xbd5670c6bd211093U, 0x3cb8d840bccf6f66U, 0xbd42aab6bd4b6876U, 0xbd36f7ae3d5ea6e6U,
  0x3d3a8953bcaf15cbU, 0xbd7e8866bd2a38aeU, 0xbcfa34bbbc3423d6U, 0xbd169928bd797f1bU,
  0xbda13133bd5af526U, 0xbd06ef0bbd9d15ceU, 0xbd605a003d250c6bU, 0xbc6ea4163cbc062bU,
  0x3cdd9550bd030283U, 0x3ca869163c7b7c36U, 0x3ccf3e10bb32d2d6U, 0xbda3841ebd4d379bU,
  0x3d813554bd6f7fd6U, 0x3d4ba593bd0fbbfbU, 0x3d65e5463d94251aU, 0x3d01628bbd05e7ceU,
  0x3d2711d8bd81ccc2U, 0x3c9f8716bd93ae14U, 0xbd3408883d9192c3U, 0x3cb8deebbc212ae0U,
  0xbd8fc4eabcd40ea0U, 0x3d47719b3ce712c0U, 0xbd52d7f0bd9af5eeU, 0xbcb9bd10bd771748U,
  0xbd4c1d9e3d8a8ef6U, 0xbd19d1463ce74e7bU, 0x3d0841c63d108420U, 0x3c4ce700bc3f21d6U,
  0x3d0f765e3ce7e25bU, 0xbc80cdc0bd8c6ac3U, 0xbda6bd06bc1b91cbU, 0xbd9bebb23d66b8a6U,
  0x3c967c503bee2640U, 0xbd1c877e3da7b9d6U, 0x3d2b12b83bb9bbabU, 0x3d23316b3d797438U,
  0x3ca383db3cdb6686U, 0x3d76dd4ebd256e96U, 0xbd91aec03d9ccc0eU, 0xbbafc280bc9373a0U,
  0xbd95e56b3d7d26d8U, 0x3da2fa9ebd88a74aU, 0xbd3be4d63d0d6dfeU, 0xbc8550203d76ea6bU,
  0x3cf32086bbc18356U, 0x3ca41a76bc2885ebU, 0x3d93691abd857e14U, 0x3d9b45283d0f4708U,
  0xbd08d6bbbd8e3a1fU, 0x3d3c06dbbd8210aaU, 0xbd8619f2bb9c4816U, 0xbd83c556bc2646d6U,
  0x3cb3031b3cc196dbU, 0xbd7044a63c852550U, 0xbce7b5ab3cfc6bc0U, 0x3d5e78a83da35380U,
  0x3d5116603d3ef3c0U, 0xbbbf7a80bd289a4bU, 0xbd1d3ac6bc5843cbU, 0x3d76d5363d914748U,
  0xbca824c0bca6dce6U, 0x3d6dc388bc2daeebU, 0x3c7244e0bd7bbb26U, 0xbaed56003d802498U,
  0xbd218f303d3d6550U, 0xbb3b91563d67170bU, 0xbcc310f6bd557e4eU, 0x3d21a2d6bd23bb30U,
  0xbd68ac7b3ce5148bU, 0x3d6826583d233f18U, 0xbd6dac3e3d9a5e13U, 0xbc9831c03d1b33f6U,
  0xbd42b460bd7cc313U, 0xbd83b112bd677b83U, 0xbc89f3a6bcb379a6U, 0xbc46e08b3d17c3feU,
  0x3caacd8bbd8dfef8U, 0xbda275073d17aeaeU, 0xbda9da0cbd65b450U, 0x3da3f3123d10cc3bU,
  0xbd2c4c063d027096U, 0x3d4273a63c7d46b6U, 0x3c97f3003d0e06c0U, 0x3cd0137b3c8ee480U,
  0xbd6b3b8bbc218f2bU, 0xbd91384b3d605ecbU, 0x3d97274fbc2ebb2bU, 0x3d95c94b3d893f0fU,
  0xbda3101fbd119c80U, 0xbd7a3756bd37b46bU, 0x3d0966e63d132ff8U, 0xbd59059e3d6f997eU,
  0x3d455f08bc0b0320U, 0xbcc3744b3d0bf3beU, 0xbd5b0ca0bd505f56U, 0x3d52bf563d82b323U,
  0xbd311163bd35e3f8U, 0xbd8b67503da58e74U, 0x3d7bc518bd9bfb47U, 0xbda8a7abbd4e6650U,
  0xbd6c93b3bda46e4aU, 0x3b34d5563a285156U, 0x3d8453ffbd9c4cb6U, 0xbd184c0ebcc2a6d0U,
  0xbd8e61a8bd595a13U, 0xbcc2a1463d2fd580U, 0x3d0572d03d9b5f63U, 0x3d1a41d0bce57056U,
  0xbd337fee3d70d6c3U, 0x3d992c93bd1e871bU, 0x3d9eed9e3c76c28bU, 0x3cae0430bc91b296U,
  0xbd72fc5b3c776576U, 0xbd65980e3d678648U, 0xbd681dfeb9b98556U, 0xbdaa117fbd3b6313U,
  0x3d85362ebc83a586U, 0xb9a0eeab3d79003bU, 0xbd14f9d0bbc5a8ebU, 0x3d3fc3ebbd8fbe6cU,
  0xbda7c56f3cd69306U, 0xbdaa0b88bd909660U, 0xbd35da663cac73b0U, 0x3d4f0616bd43f290U,
  0xbda4f91abd8f45acU, 0x3d19526ebd172520U, 0xbb87cb16bd1c1d56U, 0xbb95ad80bd28f31bU,
  0xbc8d080b3d7996feU, 0x3d304c5bbc84a770U, 0x3d757f26bcd54066U, 0x3da8335ebcc2437bU,
  0x3cde279b3d267e9bU, 0x3ce5d9463d9444f0U, 0x3d01a0bb3d0b8210U, 0x3cfbca60bd392ce3U,
  0xbda1ed0fbd8a4562U, 0x3d2dcb833c09d736U, 0x3d3fb6533bb5a556U, 0x3d7c60a0bda788a7U,
  0xbd0449163d9adb7cU, 0xbd4a088bba059d56U, 0xbd8362503d88011aU, 0xbd5756103d8a0587U,
  0xbd4f12b6bd22b7b0U, 0xbd3033c83c6f5060U, 0xbd017676bc0c1aa0U, 0xbcf808f03d9510acU,
  0xbd2a02cbbd5b3c30U, 0xbc8eb6c0bce6aa06U, 0x3cd2cb803d00658eU, 0xbc94eb4b3d0d5563U,
  0x3d9cb9963d9059c4U, 0x3ca70f1bbd20275eU, 0x3cd684103d715358U, 0x3a4edaabbc8b8b16U,
  0xbc17ff603d2986e6U, 0xbccb563b3c55f800U, 0xbb9523163d86e982U, 0x3d45a830bd0c8388U,
  0xbd5b5123bcd6eae6U, 0x3d93f1bebd428e40U, 0xbc932b1b3d2ad663U, 0xbcd5b500bd77cefeU,
  0x3d252af0bd6b940eU, 0x3c11b556bd1faf23U, 0xbd19131e3a86afabU, 0x3c02370b3ae897abU,
  0x3c6876eb3c388740U, 0xbd7b2f3bbd8edb26U, 0x3d7d57dbbd972e3eU, 0x3c365cb63d8e8842U,
  0xbced87203cba1510U, 0xbc805b503d1c92c6U, 0xbcfa053bbc92649bU, 0xbcca19363d65b496U,
  0x3cc778bb3d3ee653U, 0xbc5c4420bda2158aU, 0xbd00b3eb3c1b726bU, 0x3c9a35ab3d41b92bU,
  0x3d8dc1e33ce535c6U, 0x396af556bbe111d6U, 0xbc91b140bda0c42cU, 0xbc1ca4e03c70a276U,
  0xbbb6262bb868caabU, 0x3d0580363d1924d8U, 0x3ab33fabbca26496U, 0xbd750fdeba7c4d56U,
  0x3c8af4f6bbe3da80U, 0x3bd7a6163d158f8bU, 0xbc85537b3cb4ec80U, 0x3d8b4e53bd9227feU,
  0xbd0e7c733d06d1a8U, 0xbda7b507bc925ee0U, 0x3d79898e3a658600U, 0xbd8a99c0bd00d36eU,
  0x3d255acbbd046cf3U, 0x3d1260163c1c3260U, 0x3d6c644e3c12402bU, 0xbd9ee388bd50c110U,
  0xbd4032c3bd94fa6cU, 0xbc95f19bbd8e0543U, 0xbd44d70e3d2c52f3U, 0xbca442803b88ebabU,
  0xbae179abbc152d76U, 0x3da034663cd0018bU, 0xbcc114b03d921a10U, 0x3d8b8b383c0a4256U,
  0x3c4058963d954fccU, 0xb94590003d8ed004U, 0x3b9ea86b3da33a5aU, 0x3c02302bbd91bba7U,
  0x3d979d72bda1c83cU, 0xbc3a93ebbc6d5c76U, 0x3d9a149e3d66217bU, 0xbd0bb2c33d50168eU,
  0x3d9acefbbd04a1b6U, 0x3d9b55a43d731f0eU, 0xbda814ebbd28aa4eU, 0x3c0424a03bd408ebU,
  0xbbdcfc6b3c1fb136U, 0xbd2dbc533d93d15bU, 0xbc41c90b3da310fbU, 0x3d997e633d71474eU,
  0xbc5b88a0bc6f7b60U, 0xbd513c0e3d856102U, 0xbd9e4c983c997d8bU, 0x3da2d8183da5462aU,
  0xbd2f301ebd78e533U, 0xbceec5963d2790b8U, 0xbda002cb3d9aec6cU, 0xb873caab3d87b8bfU,
  0xbca3b276bd031070U, 0x3da22606bd92e6bfU, 0x3d930e5e3cfb6e60U, 0xbd7fc6963d78465bU,
  0xbda14fdf3d8816b8U, 0xbd8c5f783d417df6U, 0x3c9d6b7b3da0d598U, 0xbcfd55d03d963afaU,
  0xbd629bd63ced0c6bU, 0xbcafbdd6bd99570fU, 0x3d58ac36bc91b8e6U, 0x3d1860b6bd996774U,
  0x3af24a00bd880d10U, 0x3d94ed983cf3c930U, 0xbc645debbd8c91ffU, 0xbd120176bc20862bU,
  0x3cd18aa63d16647bU, 0xbd2274fb3d8469aeU, 0xbce145803d8e76e0U, 0xbd826970bd94188bU,
  0xbd2bed133c9467c6U, 0xbd514e3bbd86dfd4U, 0xbd7eb670bdaa533cU, 0xbd8783d3bb89ac2bU,
  0x3cdaac163d1b9b10U, 0x3d4178bebcf058ebU, 0x3d426150bd0813e3U, 0x3bf59a00bd53374bU,
  0x3b45a62b3d9c824bU, 0x3d9cd88bbce3c01bU, 0xbc31be8b3d5fc503U, 0x3d08d388bd00d830U,
  0x3d92ac2f3d9d216aU, 0xbc933fc6bae9d056U, 0x3d174380bccdb616U, 0xbd9925cb3cfc2866U,
  0x3bcb83ebbd9c4224U, 0x3da317a63bfa98d6U, 0x3d91351e3d9772bbU, 0x3cde03563c99edc0U,
  0xbd8ba8c83bb41f40U, 0xbd7af5103ca1d8d6U, 0xbd3a6fc3bd903120U, 0x3d64f9d6bcc9edebU,
  0xbc27e1163d4f39abU, 0xbd433a3e3da6267cU, 0x3d2c397bbcae3a46U, 0x3d2d3306bd32fc33U,
  0xbd222430bd7cc0d0U, 0x3d6f05103c7b2276U, 0x3d801e9c3d437230U, 0xbcdcd1ab3d98757fU,
  0xbd91bdcabcc43c3bU, 0x3bb816563d4ece5eU, 0x3d815bc0bcc77aabU, 0x3d5a724b3ca6271bU,
  0xbda543da3da20373U, 0xbda1060c3c43832bU, 0x3da5d5ecbda23317U, 0x3d8c58473c56f660U,
  0xbb6102abbd9e6c7fU, 0xbda8be77bcef074bU, 0xbcae5a463da2a093U, 0xbb15f2003d4318c0U,
  0xbd8844c6bc0e832bU, 0x3da741763d9636e7U, 0xbd828020bd3fcc30U, 0x3d000bcbbd9f2bb3U,
  0x3d6e4ab63d450463U, 0xbd6ff5333daa9a67U, 0x3d2c3dc0bbcd9896U, 0x3d228a98bb6d5dabU,
  0xbd5851603cb00e9bU, 0x3d3f83663d8427d6U, 0x3d33bff63d9c1566U, 0xbd9442303d565b98U,
  0xbd8644b6bc4bdd6bU, 0x3c218bc0bb6a1cd6U, 0xbcd26fbb3d922268U, 0xbca0175b3d8b39caU,
  0xbd584a033d2ddb90U, 0x3bbfb1ab3c134e60U, 0x3d39d9e03c4d5c56U, 0xbd5fd23e3c954a86U,
  0xbc8e19a63d72f9eeU, 0x3b71a500bd9008c2U, 0x3d6cbfbbbbe59256U, 0x3bad0596bc791140U,
  0xbc8f06803c335376U, 0x3c2cf5ebbd60abb0U, 0xbd037c503cfcfed0U, 0x3d8a40263d0f4573U,
  0xbd04bfdbbd118128U, 0xbca0b8163d3517bbU, 0x3ca817eb3d26ec58U, 0x3d453d133d55859eU,
  0xbca728663d74e2a6U, 0xbab5a0abbc34026bU, 0x3c095eeb3d6ec983U, 0x3b7a902b3b88ef16U,
  0xbb80f3c0bc510d36U, 0x3d5810f63d28a28bU, 0xbda9d62f3d2067abU, 0x3bf9c9c0bcb37b1bU,
  0x3c9179abbda7a744U, 0xbd88f7b6bd99e827U, 0xbc87c356bcecb9d6U, 0x3d8f4b5cbd518213U,
  0xbd46de0ebd1b023bU, 0xbd4ff630bd3534e0U, 0xba54a8ab3d6bfa70U, 0x3d80190abd955a5eU,
  0xbd8fb76fbd6a5b8eU, 0xbc7a27003c51fdabU, 0xbd5a3e383d429cb0U, 0xbd906633bc5696cbU,
  0xbd92a41ebd44c8bbU, 0x3d53cfb63da23966U, 0xbd9af5e7bcd9bde6U, 0xbd63f92bbd8cdb14U,
  0xbb52dc80bcbf398bU, 0x3d6a5e963d5c6b58U, 0x3b977856bca63b5bU, 0x3b984840bd2fec08U,
  0x3d5cc7963ced5390U, 0xbcdd2e7bbc82c020U, 0xbd64c5d6bc377d8bU, 0xbd493a38bc7cdd40U,
  0x3d463ce03da0cfbeU, 0xbd7222f63da9015cU, 0xbd7bc7a33d83f8ecU, 0xbd68b7e0bd6d7cfeU,
  0x3d0079533d920a32U, 0xbd69e0903d2b0136U, 0x3d93bc37bd82c2bfU, 0x3bb9d6563bfca66bU,
  0xbd8c1b68bd0b64eeU, 0xbc704480bd3d79c8U, 0xbc2a53163cb55debU, 0x3d84dc183cbe23abU,
  0x3cef77e6bda2dd9aU, 0xbd3db50ebc982640U, 0x3d0b04d3bd17ea6eU, 0xbd5edba8bda5ae06U,
  0xbd26b64e3d9c2918U, 0x3d615fcb3d05052eU, 0xbd1057483d09bc2eU, 0xbd2c399b3da551f4U,
  0x3d87863cbc8fba5bU, 0xbd7ed9363d8a30feU, 0xbcb54d703da1c0d0U, 0xbc9833303c36f90bU,
  0xbd804a963c47d92bU, 0x3d82a5a33c8057e0U, 0xbd8f2cacbd8a2ab6U, 0x3c0126163d8c0eeaU,
  0x3c41fe363d47a696U, 0x3d2cb23b3c606a40U, 0xbd9c77e3bd84d178U, 0xbda404aabc91e98bU,
  0xbd9666273cd852ebU, 0x3d98fa743d8befe4U, 0x3c634060bbb7c06bU, 0xbd786c783d565c40U,
  0xbc469b2b3cbf63d0U, 0x3d8e6b8f3aa19300U, 0xbca995263bd7342bU, 0xbd86342b3c299d6bU,
  0x3d83deee3c8bb326U, 0xbcbeb1f6bc0900d6U, 0x3d81703a3b92cac0U, 0x3d0a0ef63d84a14cU,
  0x3c9c9dabbd2058f0U, 0x3d645cfb3d709df0U, 0x3d949730bcedacc0U, 0x3cc492803d81762aU,
  0xbd951fb8bd1a1ce6U, 0x3d8be33fbcfecce0U, 0xbd4478883d93dbc2U, 0xbd39c2463a7d8cabU,
  0x3bec962b3d871d4cU, 0x3d2eb6a83d83e862U, 0xbcdc9ef6bd430babU, 0xbd1fae783d8f33cfU,
  0xbd48c8503d2719f6U, 0x3d9e4d873d455d5eU, 0xbda220303ced3276U, 0xbcb6cb363d9f1d86U,
  0x3d920b02bd288326U, 0x3d09592b3d9a1df0U, 0xbd8220c43d334e9bU, 0xbd9a288c3cc05de0U,
  0xbd0525bebd860398U, 0x3ca49c56bd4ea8e3U, 0x3c9b837bbda7afecU, 0xbd5899063d8cf1aeU,
  0xbcc5867bbcf5bc90U, 0xbd111903bd061af0U, 0xbd74f7b03d5c4690U, 0xbd996f073cf24430U,
  0x3d6eae9bbd12da16U, 0xbd9c34b8bc9c9870U, 0x3d658aa8bd8b712cU, 0x3c70b6403d817f0cU,
  0x3c4c6976bd7531c0U, 0xbccd0ddb3d9d272cU, 0x3d11d67bbd0d74b3U, 0x3d4392febcf4aaf0U,
  0xbd84ab4fbc3b69cbU, 0x3d30b998bd413603U, 0xbc8483a63c913b16U, 0x3cdad6863d00a77bU,
  0xbd40901b3da7bbdbU, 0x3d9cd6703cade530U, 0x3d84d1bf3b35dc56U, 0xbc8a1d263d0c247eU,
  0x39fa25563d3d1d3eU, 0x3d1f595e3b28d600U, 0xbd48fe90bd0d5b03U, 0xbdaa6c183a13f200U,
  0x3d1266fb3c86f690U, 0x3da3c5403c843526U, 0xbd8a1c5a3da3011fU, 0x3da9cb64bda0e686U,
  0xbd610d96bd4a29c6U, 0x3caf6bd6bccc3fe6U, 0xbc93def6bb1afa56U, 0x3b03fed63d01fb83U,
  0x3d8414bbbd5bb4beU, 0x3cbfa3963cdd0aabU, 0x3a4a2d563cc250abU, 0xbda939ac3cf444f6U,
  0x3d48f2303d7643d0U, 0x3c6b014bbd58ded6U, 0xbbec89c03da0636eU, 0x3cc323a03d18a26eU,
  0xbc4f0da03d3f40feU, 0xbd0018b0bd81da5bU, 0xbc90406b3ba96d2bU, 0xbcbdf200bda25858U,
  0xbc4c49963c854d1bU, 0x3d983aac3d7ed5aeU, 0xbc6d3ecb3d09a460U, 0x3cc424f0bcce8e4bU,
  0xbd9cec77bd63d153U, 0x3d23c8abbb1e1580U, 0x3c12f4763d3d42f3U, 0x3d4481bb3caa84abU,
  0x3bf0d7ab3d9fb792U, 0xbcba72a03d09474bU, 0xbda90b2c3d4b0a8bU, 0xbb3a2b2b390782abU,
  0x3ceb7e0bbd272708U, 0xbd93a1dcbd8c24e4U, 0xbc95be00bd069ba6U, 0x3d495bf8bc801196U,
  0xbae885abbd1d2546U, 0xbd39db7ebc9d68d0U, 0x3d354b983be056c0U, 0xbd6ff4c3bd7b7b8bU,
  0x3da4ee18bd40e576U, 0x3bc7db56bd936e28U, 0xbda2584ebd12708eU, 0xbc0e69b6bd56cdf8U,
  0xbcf372b0bc8f6b96U, 0xbd9a18673d9a96f0U, 0x3d10b7363d99d064U, 0x3d9bc7773d306eb3U,
  0x3cd38ea03c3f0000U, 0x3d576e803d0802b3U, 0x3d40c306bd805c9fU, 0xbd2081e33d955aeeU,
  0x3d42215b3b9c546bU, 0x3d9386e7bd5aac5bU, 0x3acea656bd61e190U, 0x3ce70cc63c4f9796U,
  0x3d45ad5bbc7bd356U, 0x3cbef7ebbbcce756U, 0xbc0458e0bd294916U, 0x3d1427263c82b4c6U,
  0xbc4e3b8b3d0e0590U, 0x3da580c4bd01214bU, 0xbbf20cd6bceaf956U, 0x3d8339d33cf24a6bU,
  0x3d672673bc93c9a0U, 0xbbb945d6bd51d800U, 0x3c1406cbbd092e5eU, 0x3d846eca3d3cb613U,
  0xba6bf3563c896e96U, 0xbc6cd0d63da418b0U, 0xbda18ed0bcba1280U, 0xbd9e30563d8d3086U,
  0xbbcfe32b3c1ba28bU, 0xbd38c3f03d4e5543U, 0x3c128d603c932940U, 0x3cec1770bd5b8f66U,
  0x3ca3e9f6bd2b29d0U, 0x3d4e05b33c23f0cbU, 0x3d9730b73da3627cU, 0x3c967debbc926f36U,
  0xbd82d89cba8a7056U, 0xbdaa9974bd5c4753U, 0x3cea72703d49f656U, 0x3da487643be240abU,
  0xbd93fb2bbd377506U, 0x3c7834a0bd74459bU, 0xbd7136933d202b48U, 0xbd33375b3cb933fbU,
  0x3c3e1e2b3c6f44c0U, 0x3c0e19163d9bbfd7U, 0x3c352716bd44dc48U, 0x3da4ed5c3c4c58c0U,
  0xbcc26feb3d9c487cU, 0x3d25a8e0bd0582e8U, 0x3d6e61abbd244b93U, 0x3d5edbf3bc04a240U,
  0x3d356f86bc42e9f6U, 0x3d2db26e3da48cf8U, 0x3c2a6a80bbfb2d00U, 0x3d83a6273cdaeddbU,
  0x3cac5a5bbb992a00U, 0xbd38f31ebcc06606U, 0xbcc9d95b3d4b7cb6U, 0x3caa71cbbd304800U,
  0x3c10f5d63d9b225fU, 0xbd3fad183d5e73ebU, 0x3ae4f556bd17f59bU, 0x3c327aa03d0af9f6U,
  0xbd4b8738bc42e34bU, 0x3c041aabbd65ce43U, 0x3d7e44b83d829a5fU, 0xbd837160bc4c5356U,
  0x3cc9ebc0bda39b6eU, 0xbd6af9febd4c3d13U, 0xbd5a18fb3d4761a6U, 0x3c5cf92b3d7b2da0U,
  0x3ce5ddf03bd44d2bU, 0xbc07ddf63d5322e8U, 0xbce8c2603d32d870U, 0x3be6ebeb3d851d3eU,
  0x3cfb3cf03d368086U, 0xbcf73b50bd00437bU, 0xbcdf37fbbd8ecdbbU, 0x3ce949063d8fec52U,
  0xbcfcc44bbc2a2800U, 0xbd2af3863c8e2de6U, 0xbd6c24d8bd28e956U, 0xbd9f2ee3bd115b73U,
  0x3da8bad63c4dc976U, 0x3d2c888b3d08f723U, 0x3ce3dd96bd9b21a3U, 0xbcf2f640bd127bd8U,
  0x3cc4fbe6bd43ba3bU, 0xbbb85f2b3d9bedbeU, 0xbd9fff6c3c761040U, 0x3bd4f316bc767296U,
  0xbd8910303cd4d260U, 0x3c3ffd163d91ba7fU, 0x3d4dd783bce1d686U, 0xbd7ae428bb83ec6bU,
  0x3d8cc047bd4bd496U, 0xbd80d3b6bce4de36U, 0x3d99aab33cc9dd00U, 0x3d0c04fbbc790220U,
  0x3cc3192bbd375bd3U, 0x3d6ae8e0bd595c46U, 0x3d8df8ebbd667660U, 0x3d90ca2ebd5dc8b3U,
  0x3d12cd103d8e54f8U, 0xbd27d0d3bc98129bU, 0x3da574b8bc2ed240U, 0xbd27d67bbd477683U,
  0x3d22df63bca3bd6bU, 0x3d95e2433d98c37eU, 0xbcb0982b3ce9917bU, 0x3c98e340bd857014U,
  0x3d4acd463ba51856U, 0x3c8cf2b63c34e4ebU, 0x3b104b563d441de8U, 0xbd9b578b3d5b5010U,
  0xbd9c3a38bd650e40U, 0x396628003d5883bbU, 0xbd0921c8bda20750U, 0xbd86a466bd860087U,
  0x3d3900e33d53b553U, 0x3bddf7d6bd3556deU, 0x3bd9f6403d9e2cffU, 0xbd8b8ff4bd8d68afU,
  0x3d91d464bc878b5bU, 0xbd857212bc831536U, 0xbc98e2203d97096fU, 0x3d3e781b3d6060e8U,
  0xbd07d9c6bd936d86U, 0xbd422ab83d701d9eU, 0x3d9144c33d97f03bU, 0xbdaa6fd6bd41f466U,
  0x3c9ac706bd2c5150U, 0x3d9fab14bd6ecfeeU, 0x3d689b4b3d827ee0U, 0x3d5b13dbbb192580U,
  0x3d24c5e6bd56e508U, 0xbcfdcb8b3c2777a0U, 0x3d3bd78bbcf88660U, 0xbd74556bbd834c3cU,
  0xbd379b20bd91e543U, 0x3cd096403d6f30e8U, 0xbd80a3f3bbd15ed6U, 0xbbf82f803d23b2c6U,
  0x3ce422d0bd1a1fd3U, 0x3d9565e33d98c674U, 0x3d8a915b3d73f733U, 0x3a124c00bd661128U,
  0x3d3cf41e3d61f330U, 0x3cedb7eb3c2adaa0U, 0x3d717446bbe67bc0U, 0xbd68c036bd4c2d78U,
  0xbd43e673bd821884U, 0x3d3ddbe03c8f89c0U, 0xbd9cf10bbd1a779bU, 0xbd92c2673d94373aU,
  0xbd65ea183d15cf23U, 0x3d478f733c988a10U, 0xbd41e9a83bfdfe16U, 0x3d387e863d6ff22eU,
  0xbd47d8783d7b8cebU, 0xbd9c6850bd4a6a6bU, 0x3d73a3b33d9121a8U, 0xbda7e03f3d348d4bU,
  0x3d991d483cb9e75bU, 0xbc9b50f03d6a6c5bU, 0x3d91794fbcef31e6U, 0xbd16ed0e3d6bd1deU,
  0x3d93ef2cbd573790U, 0x3d92861ebc575c56U, 0x3d5242f0bd422950U, 0x3d8367033da7fe42U,
  0x3d0c6ed3bdaa81c0U, 0x3d8a6e6e3cf04570U, 0xbba034eb3ceb5e26U, 0xbd04cbdbbb5dde00U,
  0x3d3db4603d9a8f6fU, 0xbd9f7fdab67a0000U, 0xbd8671b6bc8bf5cbU, 0xbd8f4ddbbb029500U,
  0x3d6c74f83d466e7eU, 0xbd8767c8bd444feeU, 0x3d435ab0bc816146U, 0xbb93622b3d9126c8U,
  0x3d5d150ebd8d5bd0U, 0xbcbe5496bd5d6fe8U, 0xbc56bc6bbc2a496bU, 0xbda27ade3c53ebf6U,
  0xbb603356bd6cc90bU, 0xbd5abd203d8e8336U, 0xbd326a983d223ebeU, 0x3d2fc8633c70b116U,
  0x3bae586b3a28a000U, 0xbd201df839cddeabU, 0xbccdf83bbd5de31bU, 0x3d308f033cf1bb66U,
  0xbcf52170bce59ec0U, 0xbd8b3c5fbda7a85bU, 0xbd8926b73da3543fU, 0x3c3f94cbbc0c3280U,
  0x3d7e8c08bdaa6172U, 0x3d19679ebd382698U, 0xbda62b0c3d45af4bU, 0x3d97cf5a3d9e25baU,
  0x3d8b710c3d872758U, 0xbd669dbb3c873750U, 0xbbf11f16ba6312abU, 0xbd6c4523bd8f13fbU,
  0x3d8491983be7e5c0U, 0xbd861fefbd8ef0dfU, 0x3d2cf8b6bb47d8d6U, 0xbd9bf0c33d8026c3U,
  0xbd745216bda4bb53U, 0xbced52d6bd4abb96U, 0x3cd4ae0bbc37db60U, 0xbd1c87f83ca3edb6U,
  0x3c9dc8563cb1a0fbU, 0xbd73c0a63d8d56eaU, 0x3d9aa85abd8ee208U, 0x3a9484ab3d29d390U,
  0x3c8f83703ce41de6U, 0xbd5036b83d8fb0baU, 0x3d87430e3d4596c6U, 0x3cc8aa063d68c956U,
  0xbc97e88bbd991e0eU, 0xbce4eccb3d4fc180U, 0xbd91ed08bd5ecd33U, 0xbc3f8b203d08cca0U,
  0xbbb6246bbcb3e52bU, 0x3c5903ab3d60f4c3U, 0xbd43bc03bd0dc8b0U, 0xbd5b4c803d58fb9eU,
  0x3ca334b0bbcc0d80U, 0x3d64f8cebd201f70U, 0x3d84b1bf3d0b6706U, 0x3d68dd083d89ac4bU,
  0xbd3367b0bd2b8838U, 0xbd8cb0fa39919956U, 0xba83b8563d91f3c0U, 0x3d72361ebc3255ebU,
  0xbba6b3eb3cd171e6U, 0x3d1901ce3d0549a3U, 0x3d277da3bd72e5a6U, 0x3d8f7372bd8e8e6cU,
  0xbc600d0bbd6987a0U, 0x3bc33fc03d484da0U, 0xbd32d9333d9113a2U, 0x3ca5d7b0bd874f20U,
  0x3d5f73c33b525e80U, 0xbc916b0b3cd1f340U, 0x3d8a0c1cbd6c4746U, 0xbd59e173bc74d5b6U,
  0xbb6a6880bcfe2c80U, 0xbd6cc798bda06070U, 0x3cb92fc6bd5c5de8U, 0x3c4e80c0bd7c239bU,
  0x3c852e36bccb6f80U, 0x3d877eea3d5a2a20U, 0xbc1f68c03d7fa9e0U, 0x3d22c72ebd6b0a5bU,
  0xbd5a635ebb37f2d6U, 0xbd9c3392bd08c6e0U, 0x3ced086b3c091b76U, 0xbd0d9b283da40298U,
  0xbbe62b40bca71c40U, 0xbda21ef6bcf8c5f6U, 0xbcc8a8db3b9c2400U, 0xbd94f1823d147abeU,
  0x3d780058bd6ade98U, 0xbc556d6b3c7fffc0U, 0xbd9e43033d324080U, 0x3d8652d3bd003633U,
  0xbda0a6ea3d5a87cbU, 0x3d975d463ce60e66U, 0xbd79e3183d9febe8U, 0x3c80c9503b4df580U,
  0x3cb4c7f03c8cee4bU, 0xbcaba6103d508d3eU, 0xbaa207563d8a7352U, 0xbd0cf4b03d97aa3cU,
  0x3d052bbbbda523e8U, 0xbd7764e0bba692c0U, 0xbd81f1cebcc4b81bU, 0x3ca293bbbd2dca30U,
  0x3cf426e03d1328a3U, 0xbd63b370bc8a0b7bU, 0x3d046f2bbda5ea03U, 0x3d8f7ff33c2d98b6U,
  0xbd982437bd5bb000U, 0xbd4bdd503d81221bU, 0x3d466a23bc00c0e0U, 0x3d9952bc3ce7f246U,
  0xbd22414b3da3908cU, 0x3b278a563b566180U, 0x3cc8ac6b3d9084c8U, 0xbd921ee63c05c660U,
  0xbd0d2d49bd11646aU, 0x3d1c38a93d3f6f44U, 0xbcf3c5c13d46ad07U, 0xbd437cf5bd25043cU,
  0x3d80c4903d80c15cU, 0xbc1a33323bf41f66U, 0xbbdae74b3d674ba1U, 0x3c327db4bcf23a1cU,
  0xbca3d9adbd259052U, 0xbc630561bae76ba2U, 0x3d343aa4bd47d24cU, 0x3d4b9cb13cfc9ffeU,
  0x3c5a897f3bae9945U, 0xbccc522bbcc46e2cU, 0x3d1e05a43d20b09bU, 0xbc82ce7b3d020a45U,
  0x3b3e10abbbec4ec7U, 0x3c6d35bfbcb03a24U, 0xbc206d683ced99ebU, 0x3cd39e24bd2f480fU,
  0x3d17bc4dbd4c8b41U, 0xbc8366073d78ce96U, 0xbd7663233d623c89U, 0x3d1b4ccf3bca57c5U,
  0xbd3931d3bb50bda9U, 0xbd6e63863ce8553cU, 0x3d88b4e23cd1532fU, 0x3d34985c3c4a307aU,
  0x3d0b973c3ab9ea22U, 0xbc3fab893cc2cdacU, 0xbd5e63643d1cef03U, 0xbcfd70fb3d247e19U,
  0xbd5017443d538539U, 0xbc50bb023c9f46dfU, 0x3cbb4dbcbc80b637U, 0x3b4735273cb498ddU,
  0x3d83db5bbd27d00cU, 0xbd2b5b86bc405aacU, 0xbd1d45db3cf93fb7U, 0xbd591d68bd0ce0b0U,
  0xbd171d0ebca3f888U, 0x3ca5c66abd7039d4U, 0x3d3ee476bcb111a1U, 0xbbe4fc2cbd82abd2U,
  0x3d5b50463c37cc40U, 0x3cda37f73cf39a2dU, 0xbc957291bc06c83aU, 0x3d2dc2333cab9becU,
  0x3cd432ccbd60c20aU, 0x3d7535debc386654U, 0xbd232c2c3d33d923U, 0xbc91259bbd160c82U,
  0x3c897082bcf069c3U, 0x3ccb1e18bc43a0bdU, 0xbb0a89593ccb10a8U, 0x3b1429893d523dedU,
  0xbd25b3d9bd82895dU, 0xbaa12b35bc7f2118U, 0xbc86fb613d000029U, 0x3d30dc913bf64fcaU,
  0x3d1d8f99bd74973fU, 0xbd3552d8bca8fafaU, 0xbd147f44bd06cfbfU, 0x3d54c2e2bd6d44cdU,
  0x3ce6fa5dbd6b8f10U, 0xbcc3b42ebd0051cfU, 0x3d3e1bd1bbe68a48U, 0x3d4aef8b3cac0776U,
  0x3d5ddc98bd05a71dU, 0x3d02acaa3d856f38U, 0xbd6220f73b72a662U, 0xbd280aa83d652758U,
  0xbc95c2d63d14f259U, 0x3ccb396e3bec9b65U, 0xbc68d52cbc1fe919U, 0x3d33cf59bcc9c9ecU,
  0x3d188997bc3861ceU, 0xbd7242953ca9424dU, 0xbd6f3a4cbc59c973U, 0xbcb410a539ff2d2cU,
  0x3d4d47d03d8299c2U, 0xbd4935d03cb69425U, 0xbcbd960ebd76f6f1U, 0xba33c7bdbd6b095dU,
  0xbd826d7cbd3649a6U, 0x3c89e477bd648761U, 0x3d718ebb3d513e52U, 0x3ca6d5873d86ae1eU,
  0x3b881957bcfe393aU, 0xbd8183113d77e3c9U, 0xba0127373c43f178U, 0xbb97df763d888739U,
  0xbb9367e3bcf4ecaaU, 0x3d6635edbd4a5fb0U, 0xbd895b1f3cb49f53U, 0xbd3eab003d834167U,
  0x3c86fa163d201581U, 0x3d8387553d681db5U, 0xbd84dd9dbc40417fU, 0xbd062e8c3d4aa1e9U,
  0x3c33500d3c758cf4U, 0xbcac3d213d626104U, 0xbd714dabbc5b5238U, 0x3d821fe03d4a2a8aU,
  0xbc8c32a83b9334dbU, 0xba7683913d08ce43U, 0xbbf4088a3d75c5a1U, 0x3d4fe365bb1020aaU,
  0x3d626322bd05d6e5U, 0xbc23af043d0f1f12U, 0x3d3fec213ca0a37bU, 0xbc684890bc3ada03U,
  0xbc4623493c97122eU, 0xbd65fa3d3c3a29d2U, 0xbd462ef3bb6239b2U, 0x3c1dff453b4b0c7dU,
  0xbd8498c93c563856U, 0x3d4b0974bca3dfdaU, 0xbd83e86abcf1d7e0U, 0x3d6e5240bcfe5972U,
  0x3d118e6a3d113a6fU, 0xbc5fe3da3d59c8a7U, 0x3d5827523a379247U, 0x3d28c8efbd3ebda1U,
  0x3d75907fbd78b5a2U, 0x3d533c183d2e5219U, 0xbd83e7283d205ca4U, 0x3d2720e6bc11acabU,
  0x3c8f7e5abd89acfaU, 0xbcaa0ca83ccdcc2cU, 0x3cf1d44e3d48c920U, 0xbd875eab3c0616fbU,
  0xbd0bc254bd4ba156U, 0xbd4a7184bcde732fU, 0x3cf985703d0814edU, 0x3c4c44413b47dcacU,
  0x3d85c01ebb6c7a53U, 0xbd2c2140bce4f2d0U, 0x3d87c2c2bd83b9b4U, 0x3a80a493bd1b7fd3U,
  0x3c668fed3cd36af1U, 0xbd8a9e4cbd32ec47U, 0x3cc55202bbe62677U, 0xbd354291bd2c38a8U,
  0x3c0bc99ebd6035f1U, 0x3d19204f3c1758faU, 0xbd6f4b163d861345U, 0x3d2c81d43c839c1aU,
  0x3a45ff053cf215eeU, 0x3d3b305dbd609aa9U, 0xbd3930a23d6a0831U, 0x3d777f613d842adfU,
  0x3bb9c5debd616a39U, 0x3c65d79a3d8ae0a3U, 0x3d81daf13b20ab04U, 0xbd1c1508bce8bcbaU,
  0x3d4d53023cc47bc3U, 0x3d292bccbd81d57bU, 0xbcc57e5b3d678aefU, 0x3d8701c13c63c183U,
  0x3c919412bd1ab4c6U, 0x3caf9c9c3d37d9aaU, 0x3bbf98a73d54ccfeU, 0xbd416212bd3cebedU,
  0xba20bf6ebd39234eU, 0x3cd3afb7bc942b79U, 0xbcef8f18bcb5b61cU, 0xbd205b1f3d76f053U,
  0xbca00081bd55c99bU, 0xbc3471b4bd575f80U, 0xbd58aba0bc0d6d43U, 0xba1ab5873bf3c3e2U,
  0xbd773c533c02de49U, 0x3d1d8394bc40750aU, 0xbd80744b3d79d492U, 0x3ccc2005bd8890c7U,
  0xbc78fd71bd6824cfU, 0x3d37c3fabc3bf9b1U, 0x3d2d40e73c345913U, 0x3d4d988cbd87fb74U,
  0xbd15d97c3cf7dc92U, 0x3b5838c1bd7415dbU, 0x3d1eb49c3ca14ac3U, 0xbc936788bd8a2afcU,
  0xbc4251283ccb830dU, 0xbcf97a2e3c9a1b9aU, 0xbd510569bd344f14U, 0xbd26aaca3c5237cdU,
  0x3d2d17fabcf823f2U, 0x3d854bd83d63e00cU, 0x3d78b86cbc33ec2cU, 0xbc8eb147bd7fd334U,
  0xbd6d016e3d85263cU, 0xbcff901b3ce9272eU, 0xbd843bab3c7f0e51U, 0x3cbed4f33cf1cd3fU,
  0xbd84502ebc76c7a5U, 0xbcdebc543ca7e34fU, 0x3ca6616e3c939318U, 0x3cf72944bc06c997U,
  0x3d108a2abcab8a9bU, 0x3acc2a663d848399U, 0x3d412b84bd53bc0aU, 0x3d01b0673d533089U,
  0x3d0d359f3ce43597U, 0xbd567496bd058385U, 0x3c878578bcbe4f2eU, 0x3d8945753c9b1279U,
  0xbca0f6ae3d035a60U, 0x3c8a73d83c2169e8U, 0xbd1d20833af600eeU, 0xbcbfccfa3cad289bU,
  0xbd3ba6cfbd14ded7U, 0x3c696537bbf67e54U, 0x3d812ae6bc2b7434U, 0xbadab32c3a28fcb6U,
  0x3ccbc54a3ca4acc2U, 0x3d8483a0bcbfda89U, 0xbc764d793c8a5acaU, 0xbd4519923d03e179U,
  0xbcf54d51bd0285a3U, 0xbd649ee9baef4a7aU, 0xbd61c7633d677793U, 0x3d579084bc9a4e61U,
  0xbd8a6b903ce95aa7U, 0x3ce039dbbd5c8b2dU, 0x3c2240bf3d80fb02U, 0xbd6ee36fbd211a92U,
  0xbc0308b53d344afbU, 0x3d2981c2bbc0af6bU, 0x3ac199583cd9aa00U, 0xbd01f7f53c25ab5aU,
  0x3c513f6bbc817cf7U, 0x3d08a3ec3d051367U, 0xbcbd6444bc0c5128U, 0xbd33881cbd361a6bU,
  0xbd414ad73d1598d9U, 0x3d7c4a6abd8315a9U, 0xbd6f5b4cbbe6b372U, 0x3d3fa0513d3b8a16U,
  0xbd7c172dbd34d3f7U, 0x3d4beda13c04a5a7U, 0xb8ac13a03b3ccabfU, 0x3cba5920bc993df5U,
  0xbb1831fe3d35e64fU, 0x3c2abf5abd555c00U, 0x3bf735163cfe9642U, 0x3d4c41a7bd803cc4U,
  0x3bda5a1b3c1163b1U, 0xbd2fa8a3bc0df024U, 0xbc6df3953ccf7ea6U, 0xbb8b33a8bd652361U,
  0x3d76b84a3ce06ea3U, 0xbd3c94873d112583U, 0xbd89003d3d88dd48U, 0xbced87a23d21ee34U,
  0xbd09fd33bc1ab852U, 0xbd126f23bcbe27d6U, 0xbd1c5288bcd766baU, 0x3d3d88063d489740U,
  0xbcebce143c241a62U, 0x3d6bf7f33d85dc06U, 0x3d525c163d303591U, 0x3cf601a4bcd5f1d4U,
  0xbd1dcf5a3d88803aU, 0x3bd95f60bd42c66dU, 0xba8e1c5ebd08521aU, 0xb9d828b2bcb4690cU,
  0xbd5d00333b7f9680U, 0xbd883c963d7bfa1eU, 0x3b22b1a13c0dcad2U, 0xbd86abb1bce27da3U,
  0x3c52331b3ce68469U, 0xbc9a528c3d84dcfdU, 0x3d76d02f3ca673e3U, 0x3d31f7dbbd41d479U,
  0xbd2c50ea3c4b5400U, 0xbd7255f5bb927cabU, 0x3d134704bcbc7ea5U, 0x3caceaa33c8b7f14U,
  0xbc26bd8fbd4b8db9U, 0xbd83d9fe3ce6e329U, 0xbd4673a3bd510179U, 0xbc097f943d2e1f71U,
  0x3cc02416bd4ba943U, 0x3d80a798bc97ba8cU, 0xbcec70bb3d2fb1afU, 0xbb7ca4e0bd0bb5e1U,
  0x3d1124bdbd75d14aU, 0xbd66ff7dbd522942U, 0xbd561e5c3c2f78dbU, 0xbd2c009ebd35dfdaU,
  0xbcaf2bebbd22c7d4U, 0xbd6468303cd3f414U, 0xbd4ff0523ca87416U, 0xbc7d78ed3d17aed1U,
  0x3d6c82243d416912U, 0xbd2b308ebd7ffa23U, 0x3c7df2243c9be6adU, 0x3d6516bb3d31e7deU,
  0x3c88623f3d6e8968U, 0x3d2484713cc20987U, 0xbd60a6b03c40390fU, 0x3d4b0ce13cf4929cU,
  0xbc3e1a3abce787c0U, 0x3d88eacc3d8825c2U, 0xbd32595cbd234bfbU, 0x3cb61548bd3c85d7U,
  0x3c7027e23d79e278U, 0x3cb10dcdbc8b2413U, 0x3d25fa27bd1fd7a5U, 0xbd3b77b73ce667b3U,
  0xbd185d8f3d7aade3U, 0x3cd9fe86bd4c6de5U, 0x3d0722e73b907b06U, 0x3bcef7253d6a2a00U,
  0xbcbb93c4bcfb2e8bU, 0x3d362cd53d6ffffcU, 0x3a899c4a3cf57e7eU, 0xbd30a3333d67da17U,
  0x3d24df9e3d253959U, 0xbd77357fbc3ac9f4U, 0x3d880bd5bd62ee82U, 0x3d40df753d662e29U,
  0x3d723f46bc88ce54U, 0x3bd641babb34c0c5U, 0x3c2ffe143b31ac4eU, 0xbcbf0f9a3c73305fU,
  0x3cbf9e78bccc0a51U, 0xbc91b46cbd34a47dU, 0xbd1d3467bd7c3274U, 0x3d5db9183c84edc7U,
  0x3d38aba13cec7d7dU, 0x3bf4308c3c9be227U, 0x3c2a1dafba7aa27bU, 0x3b803d38bd375637U,
  0x3d208b013c3be2eeU, 0xbd2848fbbc958841U, 0xbd6448f93b63e70aU, 0x3bc0fb6cbc41cdd7U,
  0x3d7dbd04bba50ecaU, 0xbd820dcf3d50c964U, 0xbd5cb3153abc6cb7U, 0x3d2029413ce5d941U,
  0x3d42aaad3d3b7b0fU, 0x3d2b612bbd72fbdaU, 0xbd283e4cbc4f2871U, 0x3d6a42c63c6e8ce9U,
  0xbbe3fe833cb68a8dU, 0xbca934e13b29fde9U, 0xbcfd97aa3c58d597U, 0xbb90faf13d73470bU,
  0xbcb551d5bd57ea7bU, 0x3c3bfc243c6f1c4fU, 0x3cd55a67bd61cb32U, 0x39fe6a4d3d7a2485U,
  0xbd12ab9c3d14f4aaU, 0x3c34ed8abd88c6ddU, 0x3cef43c1bcbaae5dU, 0xbbde040fbcedc823U,
  0x3d84c5d33d6dc67cU, 0xbb44aee6bcfc8687U, 0x3bb184293d8b268aU, 0x3bb21c5e3d544ec0U,
  0xbcac1f4b3d194dabU, 0x3d582217bd68bb25U, 0x3d55d563bca3992cU, 0xbd80e2693d5d0b41U,
  0xbcb54f963bdfef0bU, 0xbcbdf4f03d15f5deU, 0xbd2f228b3d6eeb7bU, 0x3d5d93063bfeb64eU,
  0x3c4ad5f4bc126270U, 0xb91e6d05bd475afcU, 0xbaa91e76bd2f3a1cU, 0xbd668da23ccb9157U,
  0xbcdd8c08bd37ce90U, 0x3ccc953dbcdeaa8aU, 0x3c30acc6bd22f70aU, 0x3cf9ecadbd469851U,
  0xbc83daaf3d808de7U, 0x3cb714513bc757c9U, 0xbc69bdc53ccd3e1aU, 0xbd5b3a2b3c894347U,
  0x3ba9f3e8bc692e1aU, 0x3c6b5019bc81097bU, 0xbad903853d64ffffU, 0x385cf6e33d6c29ccU,
  0x3d666027bc503225U, 0xbd2e8c81bc2212afU, 0x3cf6b8853d747033U, 0x3b611b84bd7f5cd8U,
  0xbc835344bd1dc34dU, 0x3d3ca44c3bd504feU, 0xbd0e46da3d443a6dU, 0x3a47331dbaba2f89U,
  0x3d14a3f3ba86b8d1U, 0xbd420a033cbed6a2U, 0xbb4fd2a6bd05b99eU, 0x3c01e6093c7a759cU,
  0xbd753d743c9abf99U, 0x3c84fa3a3d64154cU, 0xbc8d49fcbd032332U, 0xbd83cd2ebd55edbaU,
  0x3ce9c92bbc8f3572U, 0xbd7744c8bd0360f5U, 0xbcbcf255bc9314d8U, 0x3d80a5783c88126bU,
  0xbd254c3fbd213072U, 0x3c134027bcbe51a5U, 0xbc399d623ce07a0dU, 0x3d42b32c3bd9e7efU,
  0x3c4ea4f4bbc5c3d3U, 0x3d7783ba3d612fc4U, 0xbd2e18393d02610eU, 0xbd3449cabc95a139U,
  0x3cab1de93ca3ff2bU, 0x3d3022ce3d448521U, 0xbccb019abc6763acU, 0xbccf58a23b34bc24U,
  0x3d1eeaa6bd7b916dU, 0x3d5ce4313d6099bcU, 0x3d6b5a9a3b1f8b9cU, 0x3cd5d485bd6411c4U,
  0xbc362818bba1083cU, 0xbb06b502bd2b9172U, 0xbd4f4346bb2c8729U, 0x3d51c6563d2c5540U,
  0xbcda81e53d5a7acdU, 0x3cbe256b3d24f0daU, 0xbd04f0a93d6e649dU, 0x3d8759123d1271bdU,
  0xbd4ed910bd837ea9U, 0x3d81cef73d003b57U, 0x3d274f493d16cceeU, 0x3c9e5edabb9509efU,
  0x3d4335f03d55d2d8U, 0x3d505b46bd5f74f4U, 0x3d7ff10c3ce06a2aU, 0x3d0fb851bd2e40e0U,
  0xbd75cf8cbc09cbb7U, 0xbb989c123d3d06ceU, 0xbd7ce1703bb157bbU, 0xbd86ac1abc3a8b0dU,
  0xbd29eb37bd29485eU, 0x3cc2817c3c50552fU, 0x3d296bd3bd83ab84U, 0x3cf60d20bcdd16a5U,
  0xbd20e4143c025b71U, 0xbd8661ee3c8840dfU, 0x3d5fe0b93ae9e1b2U, 0xbd059eff3d595ff2U,
  0xbcc5afa2bcd82928U, 0xbc6f9a983d113a8bU, 0x3cb470653d85d141U, 0xbd0626533c18445dU,
  0xbd6e6cbd3d446496U, 0xbd5ffc733b6f7b31U, 0x3d18a6c9bcba7f54U, 0xbce45c90bd5e20c7U,
  0x3d0be4b1bcbf73cbU, 0x3d54bc7a3cc1ee6aU, 0x3d46c3e23d3f39d4U, 0xbb3d5c7e3d81b0baU,
  0x3d1f8ba9bd262a62U, 0xbcdaf6bdbd86f617U, 0x3cbe8389bce1fbd9U, 0x3d41cd2bbd71dca6U,
  0xbd66eac33d33f72eU, 0x3c3dff8e3d89b7e5U, 0xbd6b8fc13cc01008U, 0xbd1b5f67bcd550e0U,
  0x3d4867063d1c5e8dU, 0xbd8323fd3b8324a4U, 0x3b2428663d03e874U, 0x3c0167463d004cc7U,
  0xbd088e06bd89b591U, 0xbcc73470bca3dcf6U, 0x3d6da613bc57e36eU, 0x3d49f7773d601ee9U,
  0x3c3cd6dc3d57e3f1U, 0xbd83ae40bd885657U, 0xbcdfac36bd292310U, 0xbceb3897bd6d4baaU,
  0x3d07a0823cb6840dU, 0xbd2b0e083d395764U, 0xbd82d9aebd457d51U, 0xbc6072663d87711fU,
  0xbd573bd0bcf6ccddU, 0xbc9cc2c6bd815473U, 0x3d8537ac3c3b3eebU, 0x3bff79febb471643U,
  0xbd49730cbb523c0eU, 0xbd8b038ebca4113bU, 0x3cd8c457bce5019dU, 0xbcf24c88bd51c8dcU,
  0x3ca097e13d34b1e0U, 0x3cff5cdf3d4e5ad6U, 0xbb64b96cbc0beb66U, 0x3ca593a8bd56c845U,
  0xbd5b80463d09dfc5U, 0x3d7b31cb3d8b0fe9U, 0x3cc793f8bd81a592U, 0x3d1b7c013bbb4da6U,
  0x3d6a57dabb687473U, 0xbd5596b43c0bb40cU, 0xbc16ae7f3cc17eacU, 0xbcd85656bc29a74bU,
  0x3d1aa281bc6ffbb9U, 0xbcfbf083bb8fcb9dU, 0xbc40334f3d886000U, 0x3d021a123d5d175eU,
  0x3d6675a33d255676U, 0x3a033f61bc3376cdU, 0x3d41ad4e3d263f62U, 0x3d002ed8bd3a3b06U,
  0xbc26f76dbd6f62edU, 0x3cc47f08bd14fc63U, 0xbd2c22753d1f4d88U, 0xbd728947bd0d662bU,
  0x3d689db1bd6eeeb4U, 0xbd8233cfbd6882a3U, 0xbbc444243d2a2f5cU, 0xbc983602bd125589U,
  0x3d34cd923b34e378U, 0x3c14f0373ca166adU, 0xbb682014bd5b2c43U, 0x3cc3cc973d6605c3U,
  0x3d7cb7ed3d76c33dU, 0xbd511dd7bce21cf3U, 0xbd409837bcc846f4U, 0x3bf8bfccbd6a2486U,
  0xbd51f94e3d3b6859U, 0xbd41bae13c209fa7U, 0x3bf3f179bcddfe4aU, 0xbaa60675bd622dfcU,
  0x3d00f2e63bc84f98U, 0xbce380913d17205bU, 0x3b0fabe83c8ba686U, 0xbd2e119fbb885bd1U,
  0xbd87c4dbbb2d58baU, 0xbd705cfbbc32c309U, 0xbcb661fb3c291f72U, 0x3cbadf383d1507d7U,
  0xbc82fa44bd85d69bU, 0x3c6c56803c8ebaf0U, 0xbc25b1603ca8fcaeU, 0x3d3a23e63cec2d8aU,
  0x3cc4a6533c295d29U, 0xbc7f86f43b871c28U, 0x3c6df96f3cd6bf54U, 0x3cf98fbfbd309e8eU,
  0x3bbacf063d44b021U, 0x3d703bffbb60ae1bU, 0xbcad62d9bb37648eU, 0xbc4993ad3cd2ef0eU,
  0x3d748c923c8c823bU, 0x3d50e956bcd20197U, 0xbd742306bd09e665U, 0x3d728915bc0a9e3cU,
  0x3ca124c7bcfcf2a5U, 0x3d0603813ca2eac4U, 0x3d61011f3d7bfa2fU, 0x3d61f456bd36c672U,
  0xbc0482683d24cb8cU, 0xbcc110bc3d4c2423U, 0x3c8c84bb3c3d29aaU, 0x3d545f613c6027d3U,
  0x3d14a1b43cc60bf7U, 0xbaf6dc9139e284aeU, 0x3d2f778d3d895dcdU, 0x3d51bb153d4b2c6dU,
  0xbd56bfefba8ecbeaU, 0x3d3f445cbd78df6bU, 0xbd710d953c44ff38U, 0xbb831771bd8a9daeU,
  0x3c95b562bd1e1fd1U, 0xbd881b753d670303U, 0x3d382edcbd60921fU, 0x3d8ae49b3c5bb83fU,
  0xbd28ae61bcd05f1eU, 0x3d844351bc758640U, 0xbd2bfde53d593a2aU, 0xbd4751c6bd59b630U,
  0xbd76d27dbd696408U, 0xbc4477da3b53a100U, 0x3d2a2b6ebcbe644aU, 0xbd21583ebd85923dU,
  0xbd3a67773cb7309fU, 0x3ce8f8c6bcda8159U, 0xbd7920bf3c165c68U, 0x3d0b1cffbd649e64U,
  0x3d86bd9fbcfdaff0U, 0xbd794c883d6c67ebU, 0x3d102cee3cef8020U, 0xbd3f0c463cd6e61dU,
  0xbcb277e73d829262U, 0x3d5448503ce14fabU, 0xbc6dae0b3c8542a4U, 0x3c410db93d89f9b3U,
  0x3d6708443d59770dU, 0xbd7df8f03b2f8e49U, 0x3bf4df12bcf0fdc5U, 0x3c02629fb9c56af6U,
  0xbcf8c76bbd6c94a8U, 0x3c97a48d3cc60c7eU, 0xbce03dd23bf82f47U, 0x3c90a0f1bd33b1dfU,
  0xbceab4fb3d43ba98U, 0x3cd2706a3d5aa0baU, 0x3cbc1156bd2cc6b4U, 0x3d3a3156bcf46f8dU,
  0xbd428d4abc4cf00fU, 0x3c8407403c4db453U, 0x39ddd9543d02dd0fU, 0x3bf954663bfdfdd8U,
  0x3c7a4eca3d879fc7U, 0xbce42a183d0c9dc7U, 0xbd2b0f5a3d3f1d2dU, 0x3d530086bd404f88U,
  0x3ca586efbd00d565U, 0xbd77eae0bd008bd7U, 0xbcc57c4c3d8af54cU, 0x3d7beb253c8dec25U,
  0xbd60d547bd109b01U, 0xbcb2fabf3ca63eebU, 0xbb79b777bc40320dU, 0x3d8541123cdbb47dU,
  0x3b31098d3be7cd34U, 0xbc8202ae3cd4ba74U, 0xbd3f713d3c59f582U, 0xbd0f2373bd099c76U,
  0xbd139518bd30e8b6U, 0xbd68aa1e3d85f13fU, 0xbcc4e10fbd648944U, 0x3cb16ad5bd539943U,
  0x3d879d7ebd618898U, 0xbd8561f6bd05bc0dU, 0x3d7eee5abc4e659bU, 0xbd2691663ba0a272U,
  0xbd60564cbd792eb4U, 0xbd4ac55e3c9468b1U, 0x3d3082073c40dd47U, 0xbd2ebcabbd83c858U,
  0x3d871305bc0d4277U, 0xbc985191bc6dde1dU, 0x3bab34963d4d13b8U, 0x3d750ae63ce6f75eU,
  0x3d7a79d83d846e0fU, 0x3d62fa22bbf20304U, 0x3d3554273cdec51bU, 0xbd1e51053d07c69aU,
  0x3d760b3f3d841898U, 0x3cf9ea01bd754d7cU, 0x3ce9783b3caa0a72U, 0x3ccf9a01bc9278b5U,
  0x3c8d17f03d234e05U, 0x3c07f8943d6fe36fU, 0xbd6da9a33d0745ffU, 0xbd335eed3bd1e9ffU,
  0xbd6c4bf23cbcd16fU, 0xbd81dc11bd74e6d8U, 0x3d81f4b33d5d6457U, 0xbcb6100fbd8b1c1eU,
  0x3d7256483d27ed34U, 0x3ccc705cbd2a0131U, 0xbd4d6ebebd608b81U, 0x3c51e4483d10f430U,
  0x3c27c0ef3b9aec19U, 0x3d12c9dd3c2f6fb4U, 0xbce019c63d7abf48U, 0xbcbc49b1bcf8f666U,
  0x3cec2158bca56fbbU, 0xbc01e4103cbfe54dU, 0x3d1c4860bd2a3a6cU, 0x3c8a23ad3cd96632U,
  0xbc1f9878bcc23ddeU, 0xbce179f53d86f3b9U, 0x3cce304b3c2f4f6bU, 0xbccf8978bd293144U,
  0x3cc7a6bbbd2c183cU, 0xbd572445bd6899b8U, 0x3d04e4213c6768fbU, 0x3d2fb9183c8fe346U,
  0xbd89429d3d0e6333U, 0xbd22c25ebd4203b6U, 0xbaebff94bd245afbU, 0xbc017923bc04619cU,
  0xbc8f25a0bc629679U, 0xbd463c493cffc9c5U, 0x3d5b0546bd135fe2U, 0x3c8123a03ca6857aU,
  0x3d362be1bd849c2cU, 0x3ca206c23bebc0c7U, 0x3d365b5fbd017be6U, 0x3d662cb7bd478842U,
  0x3cff021a3d15a15cU, 0xbd6ecc93bd12e34fU, 0xbd272d5abcda8a55U, 0x3d23419f3bfaeaacU,
  0x3d474df9bc42ce63U, 0x3c1ea1e3bd20b0c2U, 0xbc07caecbcf2949bU, 0xb9dc8039bd3fc59fU,
  0x3d1896173cced9c9U, 0x3d497857bd0aa2fbU, 0x3d59103ebcae4cb9U, 0x3ca4897abc2d40f2U,
  0x3ca0f90fb8cd20b5U, 0x38aba267bcdff89fU, 0xbbcbd2c33d385bcbU, 0xbd680e113d437b2cU,
  0x3d08ad56bcf6a3bcU, 0xbc9a7548bd4194b5U, 0xbbc58412bcb5d851U, 0x3d64cd943bcaa761U,
  0x3d70d317bc84ad57U, 0xbd665331bc813e78U, 0xbbb27c1a3d0c7ebcU, 0xba144a32bd019c2bU,
  0x3d6ae5b33d46326fU, 0x3c67609cbd463849U, 0xbc4c2bb13d800b05U, 0xbb85cb5a3d56b214U,
  0x3c4aa6debd697f8eU, 0xbb950881bd838ebeU, 0xbd039e943b8c3d8fU, 0xbc13a66b3c5ffc7bU,
  0xbc54b7f83d89bb64U, 0x3d40297bbaa1de90U, 0x3d88e733bd3f0f6aU, 0x3d62d798bd7ac380U,
  0xbd70e5013c9dd4cbU, 0x3bd8ae55bd3362d5U, 0xbd6588e1bd6ad879U, 0xbd7ad1dbbc07ffd3U,
  0x3d76eb293d4cbb28U, 0x3c82b9573d47c1f7U, 0xbc0679333c808c8aU, 0xbd4ced263b1ece0cU,
  0xbd8963573affade8U, 0xbd7920c5bd543144U, 0x3d8357933d3edd72U, 0x3d77db5fbd5676d7U,
  0xbc8bd791bd86a688U, 0xbd472d88bd1ea932U, 0x3d2089353ca130bcU, 0x3d18ef8cbd362d30U,
  0x3cabb7a23d435752U, 0x3cf59f1ebd0676f4U, 0xbd6f3950bb997e72U, 0xbd1b7e79bd560febU,
  0xbc339b60bc825425U, 0x3d1b2b1dbd86213dU, 0xbd851a9cbd7d0e6eU, 0x3d528b0fbc52ec9fU,
  0xbcf459033d216f0bU, 0xbd6b46353c9be168U, 0xbc713076bd82c8ceU, 0x3c9ede1bbcab346aU,
  0xbcdd42833d76a0b3U, 0x3d4648e6bd50a159U, 0x3d885070bd883168U, 0x3c1c9911bc21cfe7U,
  0xbcd1aa58bd02303aU, 0xbb2e4262bd4b7fc4U, 0xbd100f16bb54ce8fU, 0xbbf1d60abd21125bU,
  0x39cea9b7bd35c9b4U, 0x3d61fdd0bd626164U, 0x3d508259bcb1ce0eU, 0x3c85b0b7bd81150bU,
  0xbca72f643a9d32abU, 0xbd0face73d840f66U, 0xbccad6dfbd864b53U, 0x3c96bbb7bc8a2430U,
  0xba0ea473bd11e868U, 0xbd2e8bd93cf6ca0fU, 0xbb9981eabd25deaaU, 0x3cd0194fbd4bb13cU,
  0x3d2bfbb1bd56e4dbU, 0xbd89a2793c8af517U, 0x3cfc023dbbe60ac5U, 0xbd3f26d6bd5decceU,
  0x3d5843d0bd89127eU, 0xbc268d7dbc60810fU, 0x3d2774c9bd40592dU, 0x3c45996fbd3d56d6U,
  0x3d856fc73d3e16d1U, 0x3d877f453c017e46U, 0xbd19db363d539bfbU, 0xbd7f6e66bb6c859fU,
  0x3c755ca4bd4b7609U, 0xbc824088bd6faf50U, 0x3d40751bbd69c878U, 0xbd5f37693cc602ebU,
  0xbca64f13bc3bc40aU, 0xbd50662bbd64d2e9U, 0x3d2c0995bc57c11bU, 0x3d85c512bcb674e1U,
  0x3b029a0abd7e9419U, 0xbbd795523d7069e2U, 0xbb7aac023d87162aU, 0x3d42824fbca2bebaU,
  0xbd09a9803cfb2e2cU, 0xbd64455ebc302e49U, 0x3d40da403d2c75deU, 0x3d0616d6bc7f3630U,
  0x3d5a8d4dbd4ab031U, 0x3b2d43e8bd2c1fc1U, 0x3c9ff8da3d03c0b1U, 0x3ca5b19c3d715e52U,
  0x3d130b393c09c6f4U, 0x3d1fe76fbd2e2baaU, 0xbb17c6c3bd1c3177U, 0x3be9051b3d05e896U,
  0x3cbf94a8bc82aaddU, 0xbd8341bc3cb55e56U, 0x3d3283ebbd875cceU, 0xbc89f74cbd670be8U,
  0xbd3bac013d648ea4U, 0x3b4caa0b3d54c674U, 0x3cdfa7ca3d36ace1U, 0xbd32f7c03d3b3919U,
  0x3c9f071ebb4ab016U, 0xbb83af953b261065U, 0xbb7051633bc0eb3aU, 0xbced65dabcec6592U,
  0x3cc235dbbd6717b4U, 0x3d402b07bcf1a55fU, 0x3c888392bd57486dU, 0xbd8225a5bd229a7aU,
  0x3c8f27f1b949ee09U, 0x3d5c03bbbd3f3e82U, 0x3c0a1bf8bbe9de06U, 0xbd6d7a98bd2bfbfdU,
  0xbc9eaddd3d25b78eU, 0x3c5d24a5bbefcf5cU, 0xbd69e3173d829973U, 0x3c4b37633cb9d065U,
  0xbd89bb43bd4f5f9bU, 0x3cb5a111396eed65U, 0x3c126887bd28d2b7U, 0xbd3dff1f3d3bd270U,
  0xbd6435d2bd872d46U, 0x3d4413703bdd09cdU, 0xbd502f93bca35269U, 0xbce74b893c1563b7U,
  0x3d53c8d03d84bc59U, 0xba057096bd523d3fU, 0x3bbfe2aebbfb0845U, 0x3cc4746a3d58d86aU,
  0xbcd3cb3c3c01e0b2U, 0x3c9730b23d2cf388U, 0x3d0414f2bcce264fU, 0x3c4981c8b9c50e6dU,
  0x3c151b40bd81ad25U, 0xbd4d5134bcdc283aU, 0x3d20fc2e3d03026fU, 0xbd66a6b93d44348bU,
  0xbca3ce483d510f77U, 0x3cdfb2a83c361c64U, 0xbd755fae3ce73552U, 0x3c94dbe73cbe6cb1U,
  0x3ce2f134bd2ae161U, 0x3a05f0813d5dd2f5U, 0xbc0bd0753c8733aaU, 0x3d687886bb8c75e6U,
  0xbcd7a7743d0dd482U, 0x3cb117133c2f23a2U, 0xbd756772bd84a2bfU, 0xbc74d4a93d06d6ebU,
  0xbd63e0dbbc03e9a7U, 0x3bbec15fbd29ec4bU, 0xbd8978e5bd82a2a9U, 0x3bae57e2bbaae08eU,
  0x3c33dbac3bf14048U, 0x3d47e88ebd5ced85U, 0xbd80e32d3c908b0cU, 0xbc7838a2bd7d61deU,
  0x3d626cd9bd4da7f1U, 0xbd38f8113d27d0afU, 0x3ba367b5bcb8f6c8U, 0x3c26d5a5bd053f60U,
  0x3d21cc11bd172d65U, 0x3cbaff6f3d0bae60U, 0x3d5910ba3d6f7b4eU, 0x3d402651bd133f4fU,
  0xbd898d773bbd066cU, 0xbd327cc43d6aab70U, 0x3d836b703bdfa859U, 0xbc0615c1bd831f2aU,
  0x3d81d1063d8571ddU, 0xbd882692bd206324U, 0xbd8b1b343c90935eU, 0x3c3018c0bca38b69U,
  0xbd49d1e4bd60dab7U, 0x3d12e5dc3d42f1a0U, 0x3bc18188bcb23af4U, 0xbc897295bd24b27dU,
  0xbcbae011bcf8d48cU, 0x3ce7667bbb79ea3aU, 0x3c3675c4bd5183d5U, 0x3d85077ebd74a183U,
  0xbc86a243bd03fd24U, 0xbd1cb6e93d4deafaU, 0xbd654d0a3d553c35U, 0x3d8955cfbc37bb12U,
  0x3c2d3655bcb2955dU, 0xbd2a0d7d3c91c8d6U, 0xbd3eee61bc96de0fU, 0x3cfa1bbebbc7e4c5U,
  0xbd8356f03c34a33dU, 0x3b6fdd72bd0fcc3aU, 0x3d2215f53d87b4e9U, 0x3cca3aaf3d7b8079U,
  0xbd4885683d30162fU, 0x3d02d786bc99fd6dU, 0xbca94ab9bd50b1ccU, 0x3cfeb19c3cd4c329U,
  0x3cb0d63bbcd841f9U, 0xbce799c8bcd55c46U, 0x3a5de54d3d8601d3U, 0x3c8a1ec73d7a06cdU,
  0xbd6bd4453cd0063dU, 0x3d48909ebd4725afU, 0xbd0a16a53d21a247U, 0x3d78bc5c3c836610U,
  0x3d0243c83ba5ec32U, 0xbc0b5f563c9ebe84U, 0x3cef41c8b81e667dU, 0xbc42b09fbd830f5fU,
  0xbd2d0bcc3d2efbf0U, 0x3d07a60f3c878b19U, 0x3cf710503d21186bU, 0x3be3b54dbb406728U,
  0x3d3247d23cc87601U, 0x3ca95e26bd25c4bdU, 0x3d417668bd2e4e1eU, 0xbcd8f1513c8c58b5U,
  0x3c484dd3bc8a653cU, 0x3d6eb4a6bc6d23c8U, 0x3d20c2fc3d3cd6c4U, 0x3d849e0b3d57472aU,
  0xbceb09103d89f148U, 0x3c6c9ad9bd804f83U, 0x3d8a2885bd27cf1cU, 0x3d3b23c03d3e59cbU,
  0x3d80d7613c031864U, 0x3d8613f43c754b30U, 0xbd23d1123d125f1dU, 0xbd79df45bca17f04U,
  0xbd12a7ef3c9d4901U, 0xbc1068a7bb89b34aU, 0x3d0d8755bc9ce8e9U, 0xbc03064bbd3b84a0U,
  0xbccbfe8bbd848ab1U, 0x3bb6df773bf427c5U, 0x3d6e03d83cefa1a7U, 0x3c5a0719bd379a74U,
  0xbd269b233c4c9d52U, 0xbd4e3a6fbd08d33dU, 0xbcde14c73cff0d61U, 0xbcf90d95bd5fc66aU,
  0x3d2c359f3c0b15c0U, 0xbcad7493bc84de25U, 0x3d3bea0bbd84f8aaU, 0xbd56682dbd5f1f27U,
  0xbcbbcba03c8451a3U, 0x3c99c3523d64e491U, 0x3d101e0ebd0f1e9aU, 0xbba50b2f3d833ff3U,
  0xbd7468823bc84194U, 0xbc1e1e4cbd492065U, 0x3d32aba1bd0f679cU, 0xbb55a61dbaf4268bU,
  0x3b96f887bc55ba27U, 0xbb9501f93d802e29U, 0x3c6be31a3c9ea5a6U, 0xbc5001873c6f6d84U,
  0x3d41c4113c568434U, 0xbb0ce9a3bcb65e83U, 0x3c84daf63b59d9d9U, 0x3d709c2e3d2d9195U,
  0xbd772b9f3d02e2b3U, 0x3cfcb4d0bcde7f2eU, 0x3a21d7c23c22e6cdU, 0xbd30c719bd13abc4U,
  0x3c407bb5bd7b893eU, 0xbd3e04fb3cfb6ab6U, 0xbc8932f23cdfcac3U, 0x3cea5b083c71adcbU,
  0x3d80465bbd6c86ffU, 0x3d72e5063d4f7cecU, 0x3d316ec5bd89adadU, 0xbd0e3aac3cc1161cU,
  0xbc94a671bd5e3c33U, 0x3d25539b3d7b2bb4U, 0xbcc78e4abd413025U, 0x3d1d3c13bd11ceebU,
  0xbd2b79643cb176f6U, 0x3d4f4748bd826ed1U, 0xbd8793d83d264782U, 0xbd358b2dbd659dabU,
  0xbd703d983ba48b32U, 0xbd4d70e1bb9e2332U, 0xbd49b9a03c940448U, 0x3993f28e3c551b12U,
  0xbcfc9255bc706956U, 0xbc9b8c81b8d3e5dcU, 0xbd16ed1bbc5e6c43U, 0xbcba1eb63d7af857U,
  0x3d4baa283d14c50dU, 0xbb67eb02bcaa2af4U, 0xbd4d340abd89a5fbU, 0xbd6a45afbd0d49dbU,
  0x360101a83d2a2541U, 0x3c713ff93cf3500bU, 0x3d2e376b3d7bf873U, 0xbd0714d83ccb4b5cU,
  0x3c2c8587bd81c8f7U, 0xbd78a2dc3d7a5f21U, 0xbd37501ebc611fd6U, 0x3cae11413d170e01U,
  0xbd7a01cbbd1b3fc6U, 0x3c27065dbd8223f5U, 0xbc53e5963d5c5717U, 0x3c847edebd55addbU,
  0xbcc39952bccc503fU, 0x3d3b8a4cbce0e8c6U, 0xbd1c44ec3c08edf8U, 0xbcf2d330bcb905b8U,
  0x3d75ce363d1642fcU, 0xbc0218523d149dfdU, 0x3bcd521bbd530ec7U, 0x3d152cd73cbd26c6U,
  0xbd272fd5bcf02827U, 0x3d5574dcbd32e084U, 0xbcb7580d3cd7264bU, 0x3d788ec13d5b45f2U,
  0x3c4561a43d12b4fbU, 0x3cf3781f3d2d412dU, 0xbd5bbd2abc8cd49dU, 0xbcef7b9a3d85ce90U,
  0x3d89392f3d4ece1eU, 0x3852482a3cb5eaacU, 0x3ca9f788bbab45cdU, 0xbc9197563c0ba56bU,
  0xbd106d3b3c957ff4U, 0xbb2056a53d109520U, 0x3d400da6bcebc7b3U, 0xbc8f6d7fbd250172U,
  0xbc7c080abcb24beaU, 0x3d31760dbbd9ee9aU, 0xbc2e1164bc4d157bU, 0xbd1456c8ba38e3c4U,
  0x3d58ff37bcee3cc7U, 0xbb7ec213bd7fec9dU, 0x3d0ca3dc3c79cedfU, 0x3cf268653d8641f1U,
  0x3d7224843cca99a7U, 0x3b947ba93d43529eU, 0x3c846b4abd8ac01fU, 0x3cab1cc53d844768U,
  0x3d68ec3f3d41952fU, 0xbd1f58f2bcdf45b0U, 0xbd865efcbd3fdc17U, 0xbd867e72bd87a000U,
  0x3b43c2cb3c5ff104U, 0xbd233cd33d4d0d57U, 0x3d40b18b3cf3b00dU, 0xbcf4d96dbd5aca48U,
  0xbd2f3feebd1df728U, 0xbd4577bf3d82c3b5U, 0xbd0529c3bd0456d1U, 0x3b9ede1b3d2a80d0U,
  0xbd8ab522bc2e29d1U, 0xbd7ad103ba870f18U, 0x3c1dc8653bd76156U, 0xbd846c463d69e55bU,
  0x3d475e673d154835U, 0xbca1df773ca81faeU, 0x3d21d26b3d419fcbU, 0xbb01c34d3d43db8dU,
  0xba5631313c8ac91aU, 0xbd1fa81cbbf2815eU, 0x3cdc92fcbcae3619U, 0x3d578bffbd8a7f03U,
  0xbd4cb20c3cb5c521U, 0xbac3ec923d83e0e6U, 0x3d62689cbd18f124U, 0xbd233b1f3d865679U,
  0x3d8928983cbfb943U, 0xbc6474993b4df522U, 0xbd3bc443bbc8a05cU, 0xbd75c0ed3d06be06U,
  0x3a47f2b8bceb778cU, 0x3d700d8abcf29b72U, 0xbd87965abd3ca2e4U, 0x3d2bd3d2bc4a6afeU,
  0x3bf38cc53d8a31a5U, 0x3cd9a8183d39ce5fU, 0xbd85664abd666e9fU, 0xbcfd1c563be0a1edU,
  0x3d6df04cbac2519aU, 0x3c6904e73d262d61U, 0x3d846bb83c831894U, 0x3d61e3cb3d1aab98U,
  0xbcbd502d3ce9ef1aU, 0xbcd02fef3cf1bf2dU, 0xbd299e4f3b8b5c58U, 0x3d6076313cfd9c57U,
  0xbd1b7b8abb3d2c2fU, 0x3c83032a3d497fe2U, 0x3d76e0163d827ec0U, 0x3d7f5e14bc91a39eU,
  0xbd2cd85abceeceacU, 0xbd5a88963d60e9d8U, 0x3d70f7c43d6f086fU, 0xbd3d721bbcf9ac6dU,
  0xbcad72db3bb83571U, 0xbb0e5cdf3b59ba47U, 0xbcaf3e11bc8e6819U, 0xbd4ac77e3d5a6cdeU,
  0x3d45f985bd2eff36U, 0xbd7f1c59bbdd7aaeU, 0xbce1b10d3ceac566U, 0xbc9f49efbce299f5U,
  0xbc48b51c3c14a2a6U, 0x3d80b5dfbd0de396U, 0xbd0688e8bab7ac22U, 0x3ac4f7d6bd2ce59eU,
  0xbd40652fbc3af8a1U, 0x3d759fca3d5a7ddfU, 0xbc477a51bb90699bU, 0x3d1aa12d3d69235aU,
  0x3ca73a803d6ea8cfU, 0x3bcf9db63d63f39aU, 0x3d6b6adbbd7e6482U, 0x3b5cb662bcc1f6d5U,
  0x3d0b0fb6bcf707dbU, 0x3d3f367fbba3afa0U, 0xbcb738f9bc011d25U, 0x3ba4e88d3be8c133U,
  0xbb7f3e0cbd2d9fa2U, 0x3c356960bd775acdU, 0xbd1e53d4bd460422U, 0x3b0e0010bc6fe6a1U,
  0x3cfe7c85bcf5473aU, 0x3c87c707bd4f2d7eU, 0x3d2518113d416e00U, 0x3c4dbf61bd6950c7U,
  0x3d4cd2ff3cca14aaU, 0x3a016f9cbd2906a5U, 0xbc665bcfbce16474U, 0xbd8869713cfb8890U,
  0x3a4a153a3d4fc98aU, 0xbd3f4febbd18ad93U, 0xbd6a443bbcc31cd7U, 0x3d3ef733bd8aee48U,
  0xbd2469d93c89c937U, 0xbcdf095fbd23464fU, 0x3d2e436b3c70c7b6U, 0xbd21f6dfbd11e6a8U,
  0x3d039998bbd4936eU, 0x399137a3bcfb57baU, 0xbca9bfb43bbb122eU, 0x3c78ee333c7d52c1U,
  0x3cd4debcbd105758U, 0xbbd8d9783a9ec7ecU, 0x3cc673383d82f8ecU, 0xbd3da084bc95adc7U,
  0x3d568bfe3d363b2cU, 0x3b199b4bbc69df37U, 0xbc209c0c3b3ea4ffU, 0xbd172f6b3ca9eb67U,
  0x3ced6c25bd312233U, 0xbcd9b5cebc6cb15fU, 0x3d2bb4833cc99606U, 0x3c26dfc8bd467cecU,
  0xbc0066483d20251aU, 0x3cb766d1bd3bb312U, 0x3c9241ef3d566689U, 0x3d8a371d3cd12e82U,
  0xbd7dcdeb3d819852U, 0xbd4a57ad3d1159ebU, 0x3cd987923cb0c21bU, 0xbd7a158b3c699ab2U,
  0x3b9a28af3d59bc07U, 0xbd86a1bf3cf87b80U, 0x3d7c2614bd6ba963U, 0xbd61e79fbcef683eU,
  0x3d7070a5bd85471bU, 0x3d1749313d1e92aeU, 0xbd74a2f53d8ac409U, 0x3d3f13403d507a49U,
  0x3c8fd726bd851a16U, 0x3d60703d3ccfc1edU, 0x3d85aec33d1c277fU, 0xbb20dc8dbd53d6abU,
  0x3cd838613c8f3469U, 0xbcd1e903bccc63ffU, 0x3cf743693b9ce653U, 0xbcfdd833bd08d86bU,
  0x3c78290dbd854621U, 0x3c8ba9b03d879163U, 0xbd41ad53bd104e61U, 0xbcb8129f3cd10916U,
  0xbd531a753d01022aU, 0x3d684279bc3be4b3U, 0x3c3d3a2a3c13b31cU, 0x3c26a9253d5771f2U,
  0x3cffb50d3c04a976U, 0x3bee36fa3c83e4b0U, 0x3d878c173c91b4ccU, 0xbd3b5a13bcf491a4U,
  0xbccd85713bd0e3f8U, 0x3c5edababd015e97U, 0x3d04c8a7bbbb50d9U, 0x3d595ac4bc69967aU,
  0xbb31383a3d817298U, 0x3d8193213d7e9a52U, 0xbb996f8b3d195e84U, 0xbd23ac1fbd7f877dU,
  0xbd7cd8b23c350e07U, 0x3bd94caabcd8419aU, 0x3d1863d13d490ffdU, 0xbd440616bd4a8725U,
  0x3c43e6583d37c313U, 0xbd83c64abb2012bdU, 0xbcbb27603d70efecU, 0xbd37f7363cf3ae3bU,
  0x3d169eaebd39b7faU, 0x3d3b6a473d8949a8U, 0xbcb8ba2dbd76a0cdU, 0xbd76a5ae3d4cd67eU,
  0xbcd7ba783cf383c5U, 0x3d6c0a933d3a89acU, 0x3abff636bd256ca2U, 0xbd7209853d1fc710U,
  0x3c9bbb9bbc35daf0U, 0xbbbc77e0bd8b2d25U, 0x3c96c076bc16611aU, 0xbb22b52b3c24eaeeU,
  0x3c785f1cbd691fb2U, 0x3d15fd9ebce65e8cU, 0x3d60884cbd4691adU, 0x3d6cfbb5bd1a6553U,
  0x3c9f79603c63b78bU, 0x3d36775b3d87e248U, 0x3d6b01b53d8a37c6U, 0x38712c353b223633U,
  0xbc989aea3c58c9ecU, 0xbcc1fa63bc8f5856U, 0xbd4f8d00bd5f1740U, 0xbd4f8b593c21b8aaU,
  0xbc9604f03d05dd27U, 0xbcbae7d33c89b4f9U, 0xbd872c5fbc9aeb6fU, 0x3d54bbbbbd2d151aU,
  0x3c83447cbd82a77cU, 0xbcdd709c3d400268U, 0xbc6263e2bd81d4aaU, 0xbd1aaa56bb53c80eU,
  0x3c24560ebd3156b8U, 0xbcbbf76ebd162e62U, 0x3d170ba83d539818U, 0x3cd9b1503ca3fa1dU,
  0x3d1669fdbc00592fU, 0x3d0157b6bd74d85fU, 0xbba9b1e83d3ba565U, 0x3cf9cb8abd2062b7U,
  0xbcd2985fbcd6f1bbU, 0xbd7a3023bc67a4dbU, 0x3d014e503c473792U, 0xbd8043ee3c24aac4U,
  0xbcbd6a153d037784U, 0xbd4ce700bd6d94d5U, 0xbd02101cbd40c251U, 0xbd888dd7bd57363bU,
  0xbd32b266bc96d633U, 0x3bbbfc2d3d128687U, 0x3d2378d83a19c3d9U, 0xbcd0d75dbd845f58U,
  0x3d2463393d3e7741U, 0xb7f788d9bc0e0269U, 0xbd73df82bd27c8f6U, 0xbca36eaebc11ed94U,
  0x3c439e043d07810cU, 0x3ad5352abb00399dU, 0x3b98412b3d88ce6dU, 0xbd6398b03d433aeeU,
  0xbd2b44b8bce43ad5U, 0xbd34fcc83d1b3907U, 0xbd558d363d4ddeebU, 0x3c2ccf973bbddea8U,
  0x3c3132b7bd2a0a42U, 0xbd1fd340bc7c6f76U, 0xbca18a503c022eceU, 0xbc0308fbbd249cbaU,
  0x3d237b193d3cc38dU, 0x3c8c17f33c9618b9U, 0xbc3fd2143d0bd45eU, 0xbb17a7dfbba2f6b1U,
  0x3bf5b604bb868aafU, 0xbd41fb99bd143903U, 0x3d1c28eabbd58d47U, 0x3d0969473b8ebdd4U,
  0xbca7f76fbc32c07cU, 0x3ccedf80bc76308fU, 0xbc889cb13d580174U, 0xbc6e35693d2e49a7U,
  0xbcaa9d3abd8acc4aU, 0x3d519bedbd47c397U, 0xbc8eee7b3b923b14U, 0xbd835f133d82ba1eU,
  0xbca0c4e8bc84518dU, 0x3d60a5c5bd83e84cU, 0xbd56ed4d3cc7a53cU, 0x3d1bb99ebc9840b5U,
  0x3d3d70dbbd2e6e70U, 0x3c98d4763d78f50cU, 0x3d61db48bd3f64a0U, 0x3d81c2473d088edbU,
  0x3d88c1443d1a6c4dU, 0x3c5de3abbd459e1dU, 0x3d3babda3d59ba17U, 0x3d72302fbb545ceeU,
  0x3ce27b1e3d1e5dceU, 0xbd16de85bd25d966U, 0xbd0291573d06ee60U, 0xbd2804693cc630beU,
  0x3ce48d6f3d2473aaU, 0xbc9ed25a3c38d4ddU, 0x3d149f66bd848f9dU, 0xbd1e781c3d50fde2U,
  0xbd23c5e5bcf919e6U, 0x3d5d562b3c1e85dbU, 0xbc2de3653d1a415eU, 0x3ccd351abcc730e2U,
  0xbd249241bc98c8b9U, 0xbc470b7abc807e97U, 0xbd6c422abd373969U, 0x3ce184d8bc8c5904U,
  0xbd81fd6bbd34882fU, 0xbc5587c5bd60dc64U, 0x3c108f5e3d80fa1aU, 0x3c6e269c3c62ee73U,
  0x3cb541b5bcb540d2U, 0xbc8a3d543d6860baU, 0x3c737dc43cae5741U, 0x3d4cfcc23d10b7cbU,
  0xba9fd21abd5ddc54U, 0xbd07aae8bd39c442U, 0x3d68fa8fbcb65abcU, 0x3c0507aa3d0a99e4U,
  0x3cfa855cbc8d5d76U, 0x3d0f02a33c9fa67cU, 0x3ce5243f3cf68dacU, 0x3d62e2523c0b093bU,
  0x3d6812033bfacdc1U, 0xbc2712453d5464e2U, 0x3cbecf33bd3401b7U, 0x3cb5fea8bd4d52e3U,
  0xbd8a88fe3bab0fc6U, 0xbce7b0223d7f2814U, 0xbd45666abcd004baU, 0x3cc791513cf5d0a7U,
  0x3cb3aaa23ccc3063U, 0xbd665c863d247924U, 0x3c7be3bd3861dd06U, 0x3d216c04bc38689cU,
  0x3c7d7c91bd0c1c9cU, 0x3b54d23c3bd08e71U, 0x3cfaf157bd77e686U, 0xbd28fdee3d27c91dU,
  0xbd6e8f91bc248d00U, 0x3d6b0bbe3d3f873aU, 0x3d5408eabcc8615aU, 0xbd0ab338bce2fe26U,
  0x3d7e29ccbd2e9f97U, 0x3ae64e223d48d162U, 0x3c24d57fbd43a4ddU, 0xbd779936bc95a982U,
  0xbc025d1cbb742fccU, 0xbd34c1c1bd6fee31U, 0x3d4608ad3d232601U, 0xbce30591bd86be5dU,
  0xbc5ad81ebd3a4bc1U, 0xbbfb9ea4bc18810fU, 0xbd53a9193d01f8c8U, 0xbd837e663d3a437fU,
  0xbd1d3135bc98b2e6U, 0xbc1b60a73d0fa6e6U, 0xbd5962103d776c04U, 0xbd86bfc73d2b1295U,
  0xbcba4a953c1e39daU, 0xbd7452cc3ac6d30aU, 0x3d4930f4bd65552dU, 0x3ccdb5a2bd710dcbU,
  0x3d537ee0bc47b882U, 0xbd56bd62bd71292cU, 0x3ba9071f3d54a01dU, 0xbd17e8d93cd4aa72U,
  0xbd46ec043cdf783eU, 0x3c7a9ecf3d4c30d2U, 0x3d07fb6b3c67f90fU, 0xbd838a463cbdf9f9U,
  0x3d0e6aee3d29674dU, 0xbd125c21bc400f14U, 0xbd167138bbcfa521U, 0xbd171f5f3d4d5621U,
  0x3d75cbcebd6c7becU, 0xbd5dbb52bd69492fU, 0xbced233d3c5ffac8U, 0xbca40bca3d85cfe6U,
  0xbd2605c1bbf27419U, 0xbd39ed2d3ba9b4e6U, 0xbd86e81a3d573277U, 0xbc27d39c3bcc0809U,
  0x3cc647ac3d830552U, 0xbb9db6dfbcf67a29U, 0xbcb07ba6bd88c308U, 0x3d6ecaf13d422e8fU,
  0xbca21e22bd85f6d1U, 0x3d3c913c3d5830a0U, 0x3aa68c183be8f1fdU, 0xbd85d89ebb82e591U,
  0xbcb86bca3d27c48cU, 0x3cbee3cc3ce0e7e3U, 0x3cef40fcbcfb0f6fU, 0x3d3f80b63c371fd5U,
  0x3cb835683d8358d3U, 0xbc68b82fba948541U, 0xbd344945bcba98a8U, 0x3d32c449bd8863e1U,
  0xbcbcd4cd3cf46c79U, 0x3d1526093d384ed0U, 0xbcccdf7dbd093611U, 0xbd18d27cbd80e2e1U,
  0xbc9cb3133d4e4832U, 0x3d6e1a0abc694f68U, 0x3cf02274bcd655ccU, 0x3d0fe3d4bd3def2aU,
  0xbd2780dfbd8a5ddfU, 0x3cb095e53ba057f0U, 0x3c9ab9e73c382611U, 0x3c5043cd3d67c6a6U,
  0xbad7c1003bfcdf41U, 0xbd5323d43d57d7e4U, 0xbd2b80743d824b9fU, 0xbd72f8bf3c8e26f7U,
  0xbc6c3bcb3d678127U, 0x3d0240d43d6ca549U, 0x3d69387a3d362107U, 0xbc2e23863d3385efU,
  0xbce25a753d579f68U, 0xbd4d71c1bc62b0a2U, 0x3d7aad4bbd68772eU, 0xbc215eb73d5dc614U,
  0x3d170cad3d1ccf26U, 0x3d242414bd6515e6U, 0x3d80c013bd297fa6U, 0x3d4ecf89bcf708e5U,
  0xbd3553ccbd7dacbdU, 0x3d0b261f3d2fcec6U, 0xbc3b450a3d550aecU, 0xbd0263a63c162707U,
  0x3ce56774bd3630f7U, 0xbd12c31abd152beaU, 0x3d2f2060bccaa8f6U, 0xbd8af399ba9079aaU,
  0xbc8f2d7cbd19555bU, 0xbd815826bcd024e0U, 0x3c9ba5e3bd567cfdU, 0x3c293e11bd4573c0U,
  0x3d5568483d82062bU, 0xbc880a49bd0fe21cU, 0x3ca7b2b6bd42d198U, 0xbccde0dbbd53d422U,
  0x3d61d5223c706101U, 0xbc1971f5bd4a8782U, 0x3cb9b8283d31336cU, 0xbd04282b3d852895U,
  0x3d40633d39488b21U, 0x3ca5992fbd6c0f4eU, 0x3d1c971c3d48ed15U, 0x3bfd2a93bd209a4cU,
  0x3d3c1d2abcb333bbU, 0x3cb01bd93d4394bfU, 0xbc98e5babd437eadU, 0xbd475ef33d40b3a7U,
  0x3d0b7c663cae2ba8U, 0xbd4430623c5ecb8eU, 0xbd133484bd7d84f1U, 0x3d18108dbad11a9bU,
  0x3ae500bb3cc95cc4U, 0xbd74f46bbc5d4f3dU, 0x3d89c37a3bd18b6bU, 0x3cb5217d3d285b1fU,
  0xbcfef4cd3ca7b58dU, 0x3c998805bcce3961U, 0x3cb3bc043b93a2e1U, 0xbb0464183d437efbU,
  0x3cb8d7e83c9e3409U, 0xbd25cdbb3d6ce3e4U, 0x3c227ecd3d6e2e78U, 0x3cd319123c3addb8U,
  0xbd1f68b2bd468689U, 0x3d1dc748bd64ddd5U, 0xbd2b353e3c242e49U, 0xbd2bbdacbb0368c0U,
  0xbcc56f213cc95931U, 0xbcda78ffbd044601U, 0xbd360705bd654415U, 0x3d1413d23ba4c55fU,
  0xbd87d3e5bca294a4U, 0x3d369687bc317b14U, 0xbd8926403d85eb38U, 0x3d8578873ce62718U,
  0x3cd89a72bc818a14U, 0xbc1a308bbc30b0feU, 0x3ced305fbd05a776U, 0xbd191ba63d0be0cbU,
  0xbd6e0de13cb3b454U, 0xbd5cba6ebd33a4ebU, 0xbd4c68303c9ba236U, 0xbd71e1723d7a85e5U,
  0x3c1d6cbe3d73cfe9U, 0x3cdc9b263d7e8c7aU, 0xbd7c47d2bd2ff3caU, 0x3d1d8df4bd09295aU,
  0xbb4300e0bbca1dbbU, 0x3d4f3fe2bd3193d6U, 0x3cae24c0bd875c4fU, 0x3c7eb5743c97d34cU,
  0xbc45e23dbd126f83U, 0xbcdd1574bccac9d7U, 0xbced07393b1aef5dU, 0x3acd24ca3d2bf7feU,
  0xbce7c1853d456943U, 0x3c1cb9c2bd47825dU, 0x3d5eecf23d05f9f6U, 0x3d217fd13c99f6e1U,
  0xbd5353593c0f4b6cU, 0xbd1995b73d3f55ecU, 0x3c2251e5bd2cc798U, 0xbd30c41dbc11f735U,
  0x3a00c9973d4bef9aU, 0x3d17740abceaec14U, 0x3d3387d2399c74f8U, 0xbb05654abd7435d4U,
  0x3c8c54d03d257e21U, 0xbcd276d33d0c576dU, 0xbd36a5d13cfe0180U, 0xbb97364f3d6b0bd8U,
  0xbd79fe383d407b74U, 0xbd2ee8513d18b754U, 0xbd30db1a3d5bf224U, 0xbc52e427bc93b799U,
  0x3d7a14babcf13f01U, 0x3bb65e1f3d1e256aU, 0x3d527563bd81fc7cU, 0xbd8acd2f3d4ea7a6U,
  0xbc68c00b3b9f226bU, 0xbd0d0b51bbf30769U, 0xbc41a609bb1f788fU, 0xbd1614783d74c7aaU,
  0x3caeab073ce59b97U, 0x3c96fc8fbd645828U, 0xbd6c369d3d7e640bU, 0x3d540cdd3d558efdU,
  0x3d5fb671bb838f31U, 0xbd0caea3bc28f25fU, 0xbd3255cebbf0b35eU, 0x3d612c293d759bd8U,
  0x3c2039383d5ebbdfU, 0x3cba95273d29901bU, 0x3d1d87b4bb09c1b7U, 0x3d43362dbcfe0bcfU,
  0xbd88c812bd6e2c35U, 0xbd4a17f9bcea2cbfU, 0x3d6fa15b3d1ae22aU, 0x3af16077bd1b9223U,
  0xbd3af5573ba75755U, 0x3ca31f06bd6fe655U, 0x3d247b053d3879ebU, 0xbd2ec3c3bd029c01U,
  0x3c36374dbbb1ae01U, 0x3d6ad74bbd2d2c08U, 0xbb84e1c4bc57c3d3U, 0x3d17691abd89274eU,
  0x3d158f5bbcc4b4cdU, 0xbd84a00bbc670339U, 0x3d877a1bbcada70fU, 0xbd09b28fbce8f72dU,
  0x3d1e5e963c1f0827U, 0xbcd39db7bc837324U, 0x3c6e4d3a3d2ad63fU, 0xbc4d663f3c4a9b5eU,
  0xbc79150d3c89508fU, 0x3cd995733bfb7319U, 0xbc40816c3d7cc265U, 0xbd88279fbd12549aU,
  0x3cb8f7bc3d4a8718U, 0xbd0ec28f3ac4d42fU, 0x3b3af3a13b5bc286U, 0x3d1d61433c1f82aaU,
  0xbd6765043ca7514fU, 0xbd3eacc9bd01bc1dU, 0x3cb99597bd85fb9bU, 0x3cdc4e613c22648aU,
  0xbcced37ebd689dd8U, 0x3cff9b73bd3ce98cU, 0xbc5700af3cfd9be2U, 0x3bbda5a33d667b19U,
  0x3d2ba05f3d049532U, 0x3d00b058bc9e93dfU, 0xbc8eb3b13cbac875U, 0xbd6933893d4b6220U,
  0xbd2538e8bcceafbcU, 0xbd217f9dbd0afcf5U, 0x3cb23bf9bc2a22c9U, 0xbcbab3febb2487eeU,
  0x3cdda0da3d7ffd9aU, 0x3c0e39d43d8417c5U, 0x3cd6b8113c9ee37bU, 0xbd6818893d760f10U,
  0x3d829dcbbd02fc62U, 0xbcd87d34bc835f28U, 0xbd347f52bd5c9e24U, 0xbd59d837bd647b97U,
  0x3cfb59aabcd62ea8U, 0xbcae04b8bd36d95cU, 0xbc1bba43bd239f92U, 0x3d58309e3d587d9bU,
  0x3d6a4a653bbe8b9eU, 0x3d187047bc949edbU, 0xbcf9598dbd6d225fU, 0xbd30f5103cb4dd77U,
  0xbb8f1dd6bc5a4fa9U, 0x3d65d1f5bd1bbf64U, 0x3d60cbdfbd255316U, 0xbd5d7c2b3c7bd167U,
  0xbd778e8ebc91ffefU, 0x3c3f66d0bd6db348U, 0xbd687a243b911bacU, 0x3ac5e2fd3cfc1b95U,
  0xbd5b6793bd3b7d70U, 0x3c5a8ce6bd415545U, 0xbca995edbd4a9b40U, 0xbccca8dfbc996aa9U,
  0x3d81ee88bce39e4dU, 0xbc2143d6bd1d0a9cU, 0x3ca550593cdfc907U, 0x3c3f3e053d167c88U,
  0xbd22d5eebc268de5U, 0x3cdbead23d26edd1U, 0x3d778ddf3d0171baU, 0x3d4ffc1cbd5cdb47U,
  0xbab6e75c3d3ed153U, 0xbd4af6253d7f7722U, 0xbc73ac57bc8638bbU, 0xbd3a22973cbefdffU,
  0x3d21f8c73c34eaf4U, 0xbd6d459bbbca3c48U, 0x3c7a9e893c537b3dU, 0x3d207241bbe000bcU,
  0xbcd024203ba0592aU, 0x3d3a1e633d5c4a12U, 0xbd5ab608bb80350eU, 0x3c2c431ebc844e2bU,
  0xbcdfe2b6bd3cce70U, 0xbb801b67bd506b21U, 0x3d10bd9fbc86081dU, 0x3d44a5c7bd076808U,
  0x3c2f53e0bb4c5b63U, 0xbd12d0d43d2112fcU, 0xbd84e8af3d89fb98U, 0x3b9554a53cc0659cU,
  0xbd73bd93bd860ad7U, 0x3c2c8b4f3c7ae6c3U, 0xbc5db055bc387c46U, 0x3cd8a35cbd78afedU,
  0xbc1ce3b53d63c18aU, 0xbd2a6e873d215f5cU, 0xbd49a389bd5f969bU, 0x3d644cf4bc8fb4e3U,
  0xbd37a1c4bd7e8596U, 0x3d3fdb163d8011c6U, 0xbd821e53bcc42dfeU, 0x3d80062fbc6a5b41U,
  0xbd2fc5de3d44351aU, 0xbb8411f8bc8849ecU, 0xbd30df1cbd3a604bU, 0x3d7d047f3d1e9370U,
  0x3d83d8f13bcf2db7U, 0x3cd53b1abd52faaaU, 0x3d335f423c0895ecU, 0xbd369570bd850f36U,
  0x3d16e5383c42b372U, 0xbd8923e1bd1bf9ebU, 0x3c4d0373bd808b6eU, 0x3ceba777bba084fbU,
  0x3d01230abd17f143U, 0x3cae7793bd875701U, 0xbd0195a13d68c281U, 0x3d3d1c4cbc490700U,
  0x3d50a261bd5ca67aU, 0xbd06fe5d3c4fcc7dU, 0xbc1ccdd5bd2e0571U, 0xbd51a4453c9b27a2U,
  0x3c3fb9cabd8ae296U, 0xbd4f0ab3bccf5a0bU, 0x3c9f18c63d0fecc0U, 0x3c5a28703c75edf2U,
  0x3c214d293cc6f3ebU, 0x3d475c20bc123a9aU, 0xbce9026bbd6df429U, 0xbc6782653d2bf2b8U,
  0x3d12668cbd04094fU, 0x3d7e7aa63af5747eU, 0xbac903f93d88cf0aU, 0x3c8a8ccd3d849474U,
  0xbbda74eabd599d60U, 0xbcc620913d204a3aU, 0x3cda696a3c5a20d1U, 0x3d2b7bb2bcf7f265U,
  0x3c19a8f0bd0749caU, 0xbd51638ebd52769fU, 0x3d5290373d39abb4U, 0xbd1c0867bd884fe6U,
  0xbd7fde44bc998beaU, 0x3cd35a3d3d06c8a3U, 0xbd897a373d5ea165U, 0x3ca79fb2bd8453f0U,
  0x3c408aadbb32c298U, 0xbbfe72663d37af51U, 0xbc101e37bca1552cU, 0xbc2d9baebd549f29U,
  0xbd3ddaa8bbc36de1U, 0xbc3b0146bd6148e8U, 0xbd4b50be3ccb64b4U, 0x3c76f7233c4a9988U,
  0x3b23b33cbc77db36U, 0x3d2103463d6324e2U, 0x3d07c783bc439273U, 0x3d83aa6fbd801a27U,
  0x3d0a6e7d3c491c6fU, 0xbd758b673d42f83cU, 0x3d05e689bd696d01U, 0x3d1330303c9c860cU,
  0xbca6b1d7bd36eff5U, 0xbd6f19f2bc4d76d0U, 0x3d809cd1bd153320U, 0x3cf103363d0e5cc9U,
  0x3d6142eb3d44b969U, 0xbb296445bcdbc453U, 0xbd73e3e1bd0ae3c4U, 0x3d57dcbfbd55d709U,
  0x3d474d0b3d42bd67U, 0x3d22e5cf3d5d2470U, 0xbbd05919bb8990edU, 0xbb80305c3d128317U,
  0xbd848fc03c844d85U, 0x3d3600b5bd4c004cU, 0x3d675204bd42b4c5U, 0xbce522c03bd2212eU,
  0xbd3a40163d8218cfU, 0xbca6370abd18339aU, 0xbc68348f3d3f5dd5U, 0x3d33dcf33d777a52U,
  0x3d2c5552bd54b04eU, 0xbce754febaacc929U, 0x3d16da953d1e79d2U, 0xbd0d7e05bc88eb59U,
  0xbd40fe663d0328e2U, 0x3d54b169bd67dcd8U, 0x3d31a9f1bc989c9dU, 0xbcb2c2f83d71e3cfU,
  0x3c49fcefbd3b1407U, 0x3cc74b63bd1c5151U, 0xbc88c7d53c8cc16dU, 0xbb1e6520bd07e754U,
  0xbd6637b8bd53e3b9U, 0x3d78e37c3c9e687aU, 0x3cbde4823d16051cU, 0xbd2671013c2b929eU,
  0xbd5eef86bd438ed6U, 0x3d859e8fbc7679f1U, 0x3d176f31bd242203U, 0xb99f9eef3d4d6f91U,
  0xbd2dd1343d62c1ccU, 0x3d27d21f3c86e6e1U, 0xbd0c1c75bd6d89f4U, 0x3d02ab643bcd0456U,
  0xbd030291bc46fb15U, 0x3d5c71fa3d21bf57U, 0x3d38c3f7bd3e4245U, 0x3cfefe163d71e780U,
  0xbcf3519cbd5c1b74U, 0x3d621354bca5e0e2U, 0x3d237b5b3d6d69b6U, 0x3d793d6d3aa8c232U,
  0x3d84d1393d6f33edU, 0x3d23c993bc8fa296U, 0xbd49a3aa3d530b97U, 0x3c380093bd28a1f6U,
  0x3d340bc93d240b66U, 0x3ce079453c8a2ee7U, 0xbc54cc023d2acf11U, 0x3c458df8bcde14a0U,
  0xbc9adb7b3ca5512aU, 0x3d69e21b3c912ddfU, 0xbd328b0a3d4041ceU, 0x3d3b814d3d499661U,
  0xbd152683bd1922b7U, 0xbca62895bd62348dU, 0xbd31b4ffbc5774ccU, 0xbd7face3bba9f1efU,
  0x3d757548bd71c15dU, 0x3b8bac903cc114c8U, 0x3d3a89903adcb0abU, 0x3b9c96fd3d39e397U,
  0x3cfba774bcbb4043U, 0xbd178dee3d104123U, 0xbc17e46d3d8ac46aU, 0xbd14c0133d64d5c1U,
  0x3bf2d12e3d86922aU, 0xbd891b7a3cf12668U, 0x3ce205bfbc66634bU, 0x3d325d34bd39a200U,
  0xbd1d18453d4fc2d4U, 0xbc024435bb5f13aeU, 0x3d80fa303cc1a8a3U, 0x39bf920d3bd4e350U,
  0xbce69b76bd4bb68aU, 0x3d299c113c9d9a17U, 0xbd8b44fcbd171936U, 0x3d5d53b6bc09ea78U,
  0x3d2191bf3cbece7cU, 0x3d5cc147bd78bd93U, 0x3ca037d33cfeb260U, 0x3d5ef3693d84d827U,
  0x3d3ebb4cbce5b56aU, 0xbd00d000bd1e7350U, 0x3d7ac9c63d86e4fbU, 0xbcfa8147bd60eb74U,
  0x3c83983abca670f6U, 0x3d86c0fbbbf0c0e8U, 0x3ad78b1d3d6fc0daU, 0xbc410a15bc928e09U,
  0x3d4307a13d624913U, 0xbd2d04c6bc735a5aU, 0x3d1a20713d4a64f6U, 0xbd41ec3cbc898ffeU,
  0x3d2841b1bb760156U, 0xbc7fbed1bd81195bU, 0xbc4ba5b8bcef0a43U, 0xbc2392bebd806a92U,
  0xbc5292783d48b950U, 0x3c9c2a77bc8bbfb3U, 0xbd340b3abd16825dU, 0x3cc78db63c888153U,
  0x3d1b91df3d7b0106U, 0xbd046d9fbd78e552U, 0x3d0b5e513d07caa4U, 0xbd36b0363cdc307eU,
  0xbc44c1223d54ece1U, 0x3bb7a7ebbd5c9e3cU, 0x3b2e98eebd7a749dU, 0xba2ffdbd3d7be104U,
  0xbbdd89b83d8abe38U, 0xbd2b3e8e3d601effU, 0xbc667e573d02197aU, 0xbd207bf3bd6cb893U,
  0x3d29a398bd1e6ab9U, 0xbd12c9a8ba9eb869U, 0x3b20e97b3d452c3fU, 0xbb45dd233b953476U,
  0x3d2c19d3bcfae461U, 0x3ca87528bd138e23U, 0xbcbac7ea3c7e67b7U, 0x3c334eff3c854b7cU,
  0xbc7296a1bd87f9caU, 0xbd801891bd8b33d3U, 0xbd22cbe2bd3b9d94U, 0xbd2fbe053d73bfc6U,
  0x3d37af713b835075U, 0x3cdb8dbd3d39ba3fU, 0xbd43627bbc574d80U, 0xbd4e57253c1c1866U,
  0x3d6c3c4ebd72bec4U, 0xbd6a24f2bcdfab30U, 0x3cd9dd6c3c15b398U, 0xbc510db63cee9ab9U,
  0xbd6cdbc0bcc2512dU, 0xbd2015f53d15cec5U, 0xbbc4ae14bbef00fdU, 0x3d6c1f24bcc7d04eU,
  0xbd10e3213ca2e6d2U, 0x3d41678cbd3b3583U, 0x3cb18d293d66b0aaU, 0x392ff24f3cd9da4fU,
  0x3cfdba963d416198U, 0x3d891e533c4c2708U, 0x3d8180ccbd1c53d5U, 0x3c7f8f043d402d6fU,
  0xbcd7b4503d3e09e5U, 0xbd1fff1c3d3fa902U, 0x3c526183b85f1b92U, 0xbb3a41a2bd7ac2ffU,
  0xbd16d3f23caf2555U, 0x3d3e38da3c0a28baU, 0x3d1f8980bd3392f4U, 0x3d824fcebc8f673cU,
  0x3d48ca60bd1d65f9U, 0x3d1fc82fbd4fa8aaU, 0x3d335b36bc142ea3U, 0x3d8583b33d7a345dU,
  0xbd6b180b3c11080aU, 0xbc587a363d064eb5U, 0xbc6975a63cfb3b5fU, 0xbd4b4f3f3d5c307aU,
  0xbc97ed64bd6cd080U, 0xbb5d23ee3d3cfb5fU, 0xbc7ab55d3cf159ddU, 0x3d362f873cf100ebU,
  0x3c85fa79bd81d380U, 0xbbaa6bbabd323027U, 0x3d1901e73bff40b3U, 0xbd27d8cabd72a08eU,
  0x3cf4301a3c1dbdd9U, 0xbc8a79ef3cc0802aU, 0xbd5ab5783c24de24U, 0xbbd9a76e3cc848feU,
  0x3d71e594bc06ae34U, 0xbd0834463d6cd2fcU, 0xbc3fb80ebd1557faU, 0xbd529af2bd853498U,
  0xbba7bdcd3d4f8512U, 0xbd529822bbbbcbddU, 0x3d806036bc25f83dU, 0x3d5120cabd104089U,
  0x3d45077a3ac2d29bU, 0x3d62164e3b44ca85U, 0xbd6e8a973cf88fcbU, 0x3d4c8e16bd26c280U,
  0x3d83d4a0bc63ed78U, 0x3cb45c713cff6101U, 0xbd0252a63d0a82bfU, 0xbd6139cbbcfb094fU,
  0x3d2390b2bcf380e1U, 0x3d455634bcf21bd1U, 0x3baa54ef3d8a9ccaU, 0xbd7a371dbd58480eU,
  0x3d88551cbd087e50U, 0xbd2e247e3d06ff7fU, 0xbd8670953d7f6b17U, 0xbd7a831b3d835064U,
  0x3d11e7b3bd09073dU, 0xbd8511543c82c1c2U, 0x3c0d1db0bc6015dcU, 0xbd0e1ff13d08b3cbU,
  0x3c54420e3ce31186U, 0x3b509656bd5c9513U, 0x3cf3e266bd60bb15U, 0x3b24dd64bd53009cU,
  0x3d421a60bd006449U, 0x3be42b6b3c0de348U, 0xbd7dc9a43d2bb091U, 0xbc873f26bcd2e314U,
  0xbcdffe03bc044a3dU, 0x3cba88df3c3cb619U, 0x3b2430283c74178aU, 0xbc2bc41ebd6691d7U,
  0xbc572c4cbd8a14ebU, 0x3d1fe286bcf1d20bU, 0x3c1154ff3b6094eeU, 0xbd435711bd8a930dU,
  0x3d1affc1bd1fad9fU, 0x3d5c26753d5afc05U, 0xbd4026e73d7cec93U, 0x3d53ee9c3d78921fU,
  0xbd7abe95bca9c335U, 0xbd66c4953d5f54abU, 0xbcbd4702bc4ce66eU, 0xbd7befc63d67b7feU,
  0x3cfad72ebd2dca00U, 0x3c41ebea3c196a3cU, 0x3bcec7febd34c010U, 0xbd5aadf5bc825519U,
  0xbae4535c3cd591b4U, 0x3d4cb579bd876f30U, 0xbccd7aa4bc827f1dU, 0xbd2dced7bc136e86U,
  0x3cc16c44bbecf33cU, 0xbd607cc8bd819147U, 0x3d11338b3d2e8aafU, 0xbcb41d21bc5fc769U,
  0x3c9b4700bc8c0057U, 0xbcdc5b583d2f50c0U, 0x3d4c42343c7dd6edU, 0x3ce5c948bd0a547dU,
  0xbce90430bccc2c0cU, 0xbce45ee9bcdadc79U, 0x3d633a1cbce41dd0U, 0xbc4c78573c1e4caaU,
  0xbbd222bebbdf0038U, 0xbcdb0cf0bc2ef04bU, 0x3c3158d13bebea59U, 0x3d17f352bcacb38aU,
  0x3ce6835b3c226731U, 0xbd83e6f43d8167b2U, 0x3ae2e3643d4ede82U, 0xbcd3db173d09775fU,
  0xbd835e293d0efdb4U, 0xbd2fe520bd5f9d01U, 0xbd6ed729bcdb16c0U, 0x3d434471bc9d37faU,
  0x3c7155ae3d6f3ba0U, 0x3c584a3ebc610cc0U, 0xbcba108fbd7bc08dU, 0x3c44c6823c423e72U,
  0xbc595e523d447eb3U, 0xbcea7689bc430018U, 0xbcfad0e33b781f5bU, 0xbd685a113d809f6aU,
  0x3d1855513c8ed27bU, 0xbbfb43acbd464f6cU, 0x3ccc07d53cfe1be7U, 0xbc42bbea3bf58805U,
  0x3c8d16bbbd12ac85U, 0x3d4cb6b33d4305f6U, 0x3b85c8163d019ae9U, 0xbcf559353c8f0117U,
  0x3b6e20513d843a61U, 0x3d736d03bbe75989U, 0xbd4c166dbd0a4e54U, 0x3c196c24bcdccae5U,
  0xbcc92b5ebc31de14U, 0xbc784a27bca6eb6bU, 0x3d239935bd18cad9U, 0x3d12a417ba0b1310U,
  0xbd3fdb103cee0dc7U, 0xbcca9a7cbc3f8c11U, 0x3d3cc20abd4e5d89U, 0x3bff50e53d143c3dU,
  0x3d3992893c8f688cU, 0x3d349a51bd633e50U, 0x3c673f453cbdac7eU, 0xbd89ec443d5283e6U,
  0xbd410150bd0c4757U, 0xbd5a81923cc64259U, 0xbd824fbb3d39b25bU, 0xbc18c2f53d0bf1d2U,
  0xbc55024ebc8296e4U, 0xbd11c9b8bd87e108U, 0xbd71b73abb37ae50U, 0xbcc67976bbeffd38U,
  0xbcb60d26bc0f67a0U, 0xbbbc37b6bca36702U, 0x3d1b3d6dbc1da1d0U, 0xbbfb740c3ba05051U,
  0xbc93b4553cc4a2dfU, 0xbd84654e3d08ba7dU, 0xbd836d8d3c478c2eU, 0x3d068f5b3d6667ffU,
  0x3ca65cc9ba8bb88aU, 0x3cd5e3ffbc6586b4U, 0x3d43bb97bd1e190aU, 0xbcebc1ef3c29be64U,
  0x3d5efc6dbc9d7809U, 0x3b4e8cdd3d1f9589U, 0x3bdd68ecbd855fd4U, 0xbca44b1ebd7cdf7eU,
  0xbc4e3bffbbb05105U, 0xbb780e58bcc20a1fU, 0x3d86fda8bd50af1eU, 0xbd6e94bf3c8eb968U,
  0x3d685409bd753d05U, 0xbc8fca4e3d22564bU, 0xbd8b3672bd84a44fU, 0x3d4cd168bd56ea0fU,
  0xbd1ea3fd3bbc32adU, 0x3bb7bbc9bd11e2dfU, 0xbd8125cb3b82d4e5U, 0x3d2f683c3c7fe087U,
  0x3cd8c56abbaf9f06U, 0x3d1b0c71bd6cc2b2U, 0xbd7f3c5dbd899340U, 0xbcaf32c53bb81946U,
  0x3ce04492bd0efdedU, 0x3cc6827a3ba1fe7aU, 0xbb83dede3d776b42U, 0xbd3df94d3d355e28U,
  0xbd0e5f9ebd414a5dU, 0x3d0ba7533b20fa38U, 0xbd7aa10dbd14ba33U, 0x3ca94f4c3d8ac3b4U,
  0x3c68823b3d0896f2U, 0x3c1a8635bd1e78cfU, 0xbd02e8cebd0d0754U, 0x3d0f4b89bd006b49U,
  0x3d607016bc327b38U, 0xbce96425bcb6286fU, 0xba9e0780bd1d306aU, 0x3d25d6703d01adf2U,
  0xbd65caabbd1956ecU, 0xbcd885adbbdbc5a7U, 0x3d831b393b702662U, 0xbd8967dc3aea2461U,
  0x3d055eee3d43956fU, 0x3c96d6193d4e35deU, 0x3d5266ecbd7db1aaU, 0x3d5dc25dbd48c810U,
  0x3c9f9071bd7aa9e4U, 0x3c93a96ebb9667bcU, 0xbd8590a73cff269bU, 0x3b990e843d5ea65fU,
  0xbd44bd773d098769U, 0x3d849588bd8223b2U, 0xbd676cb2bd87a199U, 0x3d54cc34bc85b941U,
  0xbd08535f3ce1fedcU, 0xbcc90a323d863485U, 0x3d7759f73bf2400cU, 0x396c483fbb9cbc35U,
  0x3cba651e3d1b1fe3U, 0x3cd1a9b73d899a20U, 0x3d1dc71cbd8b2037U, 0xbd4ec9563d097467U,
  0x3cb9c7063d06fde5U, 0xbd3bed7abd4e2affU, 0xbcd5c625ba85d9eaU, 0xbcb8b23fbd5abff0U,
  0x3c39ea5f3d16054aU, 0xba657da7bd1ed86cU, 0x3cafb1afbd5fa497U, 0x3a208d5abd2fe8aaU,
  0xbd6a4221bd00703eU, 0x3c7bdc5b3ce9c654U, 0xbd8750a2bcefc27cU, 0xbb64ba833d838e81U,
  0xb9e63d42bd4cf064U, 0xbc82fa1d3d63fa6aU, 0x3d7c26cfbd0dceebU, 0x3a6f89133c9cbd9aU,
  0xbd5779db3a143d21U, 0x3c25e6b83d189762U, 0x3d2680c63cb3cb46U, 0xbd0fe897bb80e847U,
  0xbd35d5bd3c8be8f3U, 0xbd1b71483c664470U, 0x3d60f8113a0ec633U, 0x3d34ff643ca979f1U,
  0x3d4552a6bd8ac5c1U, 0x3d4675ea3cedd9ffU, 0x3d1b304d3b629502U, 0xbd6d8b32bcf8f8bbU,
  0x3c10ec47bafe3126U, 0x3cb6f76f3d36bae5U, 0xbd6a13463d808727U, 0x3d0ebe8bbd4b6e43U,
  0x3d82407b3d738155U, 0xbd4ea8523c963feeU, 0xbd66a473bd5e7b81U, 0x3d61f95bbb0e716bU,
  0x3c1f8df53d4d6fcaU, 0x3ad4093d3d32d69dU, 0xbd801dc43d3ce8bbU, 0xbd28b58dbd5ca0b2U,
  0xbcdda0fd3ca5321aU, 0x3c20467cbd116966U, 0x3d5bcaa5bc34a9b4U, 0x3b847b4cbd40aa51U,
  0x3cabc505bbdc5802U, 0xbd83da41bcc455bfU, 0x3cb6ea103d53a5b4U, 0x3c7268d73d64c18dU,
  0x3d12f1c0bd4aac13U, 0xbd4058f23b801073U, 0xbc95473dbca64d12U, 0xbcb767f9bcd48020U,
  0x3d6884753bca4cbfU, 0x3d5d24ec3c2a866fU, 0xbd2f10f0bd68996aU, 0xbd260a34bd567ff7U,
  0x3d1b3db0bd1ad1c8U, 0x3d4b1a783c223108U, 0xbcf143e7bd65654bU, 0x3d8b04f8bd654e13U,
  0x3d1f70103d002a15U, 0x3d65019b3c939a41U, 0xbc69a6203d8062f1U, 0xbd08d4d8bd8930ffU,
  0x3d4e8bdcbd1335cfU, 0x3affdea03b95b256U, 0xbd091247bd5c2850U, 0x3c1d7667bc563500U,
  0x3c2c05ea3d2a7b0cU, 0x3b15d0c0bd295c22U, 0x3d276002bbdfad1dU, 0xbd20611ebd7f14e2U,
  0xbc9c7113bd61c3c3U, 0xbd20d4353cb14617U, 0x3bec2afd3cd5f8cdU, 0x3d4ee0ff3d82e633U,
  0xbd2cfb3d3d470a82U, 0xbd09fe7c3cdec629U, 0x3d32d8873c56bc44U, 0xba393b67bd069d70U,
  0xbbdd831ebd876d40U, 0xbd7ea3193cdc63d5U, 0xbb019022bd88ede2U, 0x3d01d4db3d41388cU,
  0xbd051aaf3b8d323dU, 0xba47c8423a309d3aU, 0xbcdaa46dbd3b8b58U, 0xbd49450bbcb12751U,
  0x3d67d276bd2c1f36U, 0xbd0eee033d6c21c7U, 0xbd0a7c4b3caf39efU, 0xbd7eefac3d04c7ebU,
  0xbcafb11b3cf3534bU, 0x3d7b5b71bc9a5033U, 0x3c728b70bcf3a847U, 0x3d7abc6abc0e4460U,
  0x3cb7925dbd355f4cU, 0x3d1f5cf83d68c5d8U, 0x3c75e832bb33fbfeU, 0xbd4342603b004002U,
  0xbd74563b3cf3d579U, 0x3b4a28f53ccc93d8U, 0x3c79768ebcab7d2bU, 0x3d56d851bd3a3a7dU,
  0x3ce45ce33cd18864U, 0x3d5c5cb43d5781fbU, 0x3c3203893d19660fU, 0x3d0d5596bc45e010U,
  0x3cbd06dd3d44405bU, 0xbd62fa3d3bfb3d58U, 0x3d83a8b13cafa198U, 0x3d2b43303cbd7fa3U,
  0x3d55afeebd5d5e07U, 0x3c9b2d81bd66eebcU, 0x3cee6d5b3d803eddU, 0xbd791a743c9fec13U,
  0x3ba936af3d83f588U, 0x3d4ec300bd3583b7U, 0xbd30377bbd1ec5e6U, 0x3c84ad393d78c3e5U,
  0x3d86e32e3d1f11edU, 0xbd555c96bd58b954U, 0xbcac5e7dbb738f7eU, 0x3c7ff562bd0ea929U,
  0x3cb2b441bd1c39f8U, 0xbd278f2f3d3c1952U, 0x3d282ab63c562db0U, 0xbac4309dbd83742dU,
  0x3d5ffe613d77cfd2U, 0x3c89b3753d0abbb0U, 0x3cfa027b3d79b656U, 0xbd4fbf30bcb8049fU,
  0x3be8e59abce907d0U, 0x3d4751273d4a6fe2U, 0xbcd20b563d34b7b4U, 0x3d05ae7c3c865479U,
  0x3d2f8f0dbccfa077U, 0xbd05c596bc5b7472U, 0xbd381712bb0abd9aU, 0x3cd5c70c3d3b3633U,
  0xbd8936613d8b12f6U, 0xbd7e009c3bb26129U, 0x3d0c19d7bd0b64d0U, 0x3d30924a3d32f97cU,
  0xbcfdd393bd4e9b3bU, 0xbd07b0b53c913b7bU, 0xbd1ff8643cccd671U, 0x3d231dc33cc4e692U,
  0xbcd8e88f3b0d64eeU, 0xbd18a2593d169e49U, 0x3c478b543c79d1efU, 0xbcb1d7f4bd547f53U,
  0xbd47d50b3d107742U, 0xbd124cd8ba7f7ed2U, 0x3ceaf7b23aedaddfU, 0x3d3a801a3b7ee1ebU,
  0x3ce2d98b3c8cba85U, 0xbd3d1f7c3cb1cbcaU, 0x3c9fbbc4bce0740cU, 0xbd4261443be4a4abU,
  0x3c930525bca1a3c7U, 0x3c3385b4bd4ee35bU, 0x3c99e50dbd809cffU, 0x3d2e89a1bc2255c6U,
  0x3d7f3dedbd7be5e0U, 0xbd06fdd03b47b66fU, 0xbd516cee3d72ed90U, 0xbcac86a63d624bc9U,
  0x3d65fc0fbd2f5ff3U, 0xbd7e5beb3d3dd03dU, 0x3d783ab03d18dbfdU, 0xbc17a4323d67b419U,
  0x3d25711cbd8371ecU, 0xbd80f96ebd1a2204U, 0x3d1b63f8bc2b9e5bU, 0xbcd3347ebd892cfdU,
  0x3c8435923c801b37U, 0x3d5723673cb910dcU, 0x3cfa89a53d850f4bU, 0x3d0766b23d3aeaeeU,
  0xbd2e02f13d4bffd9U, 0xbd77ddad3cd81af8U, 0x3d47a0243d178341U, 0xbd3cf01a3d0b8866U,
  0xbd3d7b833d5c6120U, 0x3d53b161bc803bb5U, 0x3c88ad663c87bb0dU, 0x3d0f71803d33891dU,
  0x3d69a2ae3bf894baU, 0xbbab0b03bd60c94bU, 0xbca4b488bd4f8340U, 0x3c5c28733d04c990U,
  0xbd040e9c3cf71cb2U, 0x3d69b63abcaa8d30U, 0xbb17746e3aa22c22U, 0x3d0dea803cbd35eeU,
  0x3ce922f13c7c484eU, 0xbd1484e13cc5e00cU, 0xbd716f553d898435U, 0xbd492ab0bd4ebf4dU,
  0x3ccee58a3c76ddffU, 0x3d85630e3d5d4c0cU, 0x3cb7d1f73d7e806aU, 0x3ce20fc0bd5c7e2aU,
  0x3cfe3efebd74f1c6U, 0xbd5faaa93d4b19ebU, 0xbd810244bc1a5a40U, 0xbd8a88c53d1ef649U,
  0x3b3d6fd1bd6a4482U, 0x3d5ce585bd481305U, 0xbc66bff73d32e091U, 0x3d2d7f1cbd6e40e0U,
  0x3d86a868bc382f97U, 0xbd64f6b1bc34be40U, 0xbd6dfa8abd898c9aU, 0x3c5b4ec93cb6fd7dU,
  0x3cba9229bb2f5a70U, 0x3d2531683c62b36cU, 0xbd6a9fadbc8de9b6U, 0xbd4fc9b73d58457aU,
  0x3d3a3f77bd4cd792U, 0x3c18fc3f3d284e4aU, 0x3d2c284b3d7b22f8U, 0x3d168b453c087e47U,
  0x3ce292dd3ca568f6U, 0x3d87e689bc906ed8U, 0x3d06f3943d85fa62U, 0xbcf1ecfc3d2b573eU,
  0xbc99f192bd7bbc2eU, 0x3c932173bc12630dU, 0x3b3817c7bd124d47U, 0x3d5a05403caae86eU,
  0x3cd3df163d27936eU, 0xbce94c663d1abe32U, 0x3cf9dc54bd5a42a2U, 0xbcff6e0d3d17e0baU,
  0xbb9d7fa03c715c2dU, 0xbd5db97a3ccd8945U, 0x3d5f5215bccef2edU, 0x3d1ae8e23d74025bU,
  0xbc4f34d3bcb7136fU, 0x3cd0d2edbd29c81fU, 0xbc425620bc46e42fU, 0x3d56c1883d295769U,
  0x3cc90ab93b476aa2U, 0x3d780f3dbd2e02c1U, 0xbc19a446bcbdba3dU, 0xbd4661a63d7492a5U,
  0xbd74ddcabd1a0ef5U, 0xbd81038dbcc1799fU, 0xbc4402f5bd58935aU, 0x3c98045b3d8ad2e4U,
  0xbaeb82a7bd2e995dU, 0xbb615c273c92683dU, 0x3cda2e7ebca576e4U, 0x3c8207bcbcb9192dU,
  0xbd869569bc61d02aU, 0xbd439e503d43b64cU, 0xbd51756b3c46d0b1U, 0xbd722fc03c2983b5U,
  0x3c5bd8d73c668bf2U, 0x3d09deffbd690d29U, 0x3ca9941f3cd903a7U, 0xbc1b79eebd853c01U,
  0xbd6a675bbcdba37fU, 0x3d736b6c3ae6d708U, 0x3b1deaedbd323fe1U, 0xbcade7233c52ebb4U,
  0x3d5656f4bcb58885U, 0xbcb630ecbccabfd2U, 0x3d1e5a95bcbbbc10U, 0x3d365604bbd29553U,
  0x3d54c31a3d2bcdc8U, 0x3c390bce3d258103U, 0xbd1715d6bc49fd3eU, 0x3d07549d3d5f944fU,
  0x3d3cc03e3cf3e24cU, 0xbc57140abcd0f880U, 0x3cc864e4bd02a826U, 0xbd013e30bbd47deeU,
  0x3c8c930ebd236a72U, 0x3d1cfc3ebd7225f2U, 0xbd11b714bd127f6fU, 0x3d0b8144bd59ab40U,
  0x3bc0f61d3d1ca104U, 0x3c6298f4bd62e9dfU, 0x3c19b2903d2f1fccU, 0x3d0e11033c0088adU,
  0x3c7078a63ca3d9d9U, 0xbcad36a3bd817c3fU, 0x3bc9d5f23b919e0aU, 0x3d2a3e56ba98539bU,
  0xbd82cfe1bcd07140U, 0xbcde5a103ce0c970U, 0x3cdbd92e3d87652bU, 0x3d4eca30bd16e1c4U,
  0x3ba857fc3a347d00U, 0xbc312b92bcf7731bU, 0x3d024797bac70a4aU, 0x3d30a959bd392830U,
  0xbd285800bd657739U, 0x3d7701e7bcc19061U, 0x3d622a9c3ca8a7efU, 0x3d07a6dcbd75e22aU,
  0xbc5ce2e23d1e3d7eU, 0xbd733ad33d55c64eU, 0xbd32b085bd3357a8U, 0xbd34ee713cdd97b8U,
  0xb9a8aedf3d7944e2U, 0x3d87c000bab085d2U, 0x3d004bc1bcb93be9U, 0xbd6bcafb3d3da4d0U,
  0x3d4be46bbceb46d8U, 0x3d0d149f3d5f0775U, 0x3ccb818e3d0668aaU, 0x3d38d30dbd6feacaU,
  0xbd70ef103d5f22d6U, 0xbccf54c13d6e1354U, 0xbd14f0d8bd4f9f9eU, 0x3d6305973d5a0149U,
  0x3cc2d09ebd2de34dU, 0x3cbf95e13c94f948U, 0x3cb59f89bd28dc0dU, 0xbcf8e0973d61bd07U,
  0x3d1fe137bd89ee02U, 0xbc86079abd6ea61dU, 0xbcf8e067bceb9c6dU, 0x3d02e8ae3d5cfe63U,
  0x3d88b6483d443a39U, 0x3d0b51abbd02500eU, 0xbd7b8b0c3d88f3e6U, 0xbd0c1e56bc65fb0eU,
  0x3d2342bebb184e4cU, 0x3d03b020bca2267cU, 0x3d2985d9bd2041acU, 0x3d6b2214bc741e9eU,
  0xbd71ee643bedd200U, 0xbb9407fdbba7ea70U, 0x3c92014f3cfeb49aU, 0x3d4d545c3d48fb71U,
  0x3d448ec4bd303e88U, 0x3a141bedbcb398dbU, 0xbd3199573c2e3895U, 0xbc1284163c95b68eU,
  0x3cf60fea3cca6ffeU, 0xbd27305f3d33ccd7U, 0xbd06a899bb82c024U, 0xbbc18915bd0edeecU,
  0x3d2bdf91bb07bb83U, 0xbd350edf3d316a0dU, 0xbc780d98bd198542U, 0x3c11cafb3d3a3dd7U,
  0xbd840e00bd373e8eU, 0x3b5d43a3bbce0338U, 0xbcfe61d93d0e4cdbU, 0xbd4dbd3d3d2f388aU,
  0xbd85ca7b3d3d52e6U, 0x3d1555c43ccf684cU, 0xbb8c9da2bce6f471U, 0x3c69c6473cd937d8U,
  0xbd657c33bd058129U, 0x3ca21e67bcedcbd4U, 0x3d2338bebcba0cebU, 0x3d44545e3d55f596U,
  0x3d88fd6d3d332f81U, 0x3d4951e33c0d21a3U, 0xbd870ece3d16c4e2U, 0xbd49ecb53d8b19deU,
  0x3bf5aa50bd022ea3U, 0x3d2c235cbd3a3ec2U, 0xbd5c5aa53ccf46f1U, 0x3cecb9593c9878b5U,
  0xbd0019a73d4ac23fU, 0xbd2723fcbbe92101U, 0x3d3f22edbcfcf622U, 0xbbff7a783d41898bU,
  0xbbb506dabd072581U, 0xbd1598753d76e43bU, 0x3cefc74c3b8c055cU, 0xbd397816bd5158d5U,
  0x3d8228c33c0442c1U, 0xbce5d5d13d0eaa88U, 0xbc96fe543be121a3U, 0x3d31956dbd3b045aU,
  0x3d1572ea3b9b20b2U, 0x3cabee64bd46489eU, 0x3b83a975bd6d7782U, 0x3c7f56fcbd22de14U,
  0xbcf167c3bbc8972cU, 0x3d1007ce3c1c9231U, 0x3d79bfc93c76eec4U, 0x3c494c55bd0beea4U,
  0x3d89cc173ccac018U, 0x3bdbbb3ebc85b23fU, 0x3c7a322e3d7393ecU, 0xbd63d4b8bd78bc74U,
  0xbd5e1872bd585865U, 0xbd57bbb6bc86ca3cU, 0x3d267452bd4b1e02U, 0x3ccf8c723d66b2d1U,
  0x3c297ce73c7b434cU, 0xb9a4f41ebcd26272U, 0xbd054b073d38105aU, 0x3ca4eba13c8ec6ddU,
  0x3d0cad1f3d2c7cedU, 0x3bb288c23d228486U, 0xbd43477abb67731eU, 0xbd1ccf52bd77683dU,
  0xbd3992b9bc8c9197U, 0x3ce48c01bd7ae98bU, 0xbd825fbe3b485ea1U, 0xbd569b793cf1751dU,
  0xbcf09a4bbc1373baU, 0xbd2ff4813d4a54d8U, 0xbd89704cbc46f6d4U, 0xbd8839e5bc90682dU,
  0xbb91127c3d7866d5U, 0xbc3940fb3c9b779aU, 0x3d1f5c32bd58bc86U, 0xbaf9a5183d1322b3U,
  0xbcb9135cbbf530feU, 0x3ca16077bc33a285U, 0xbc1ffd123d6abf0bU, 0xbd82b7d6bd84f780U,
  0xbca30de4bd25938cU, 0x3d4f8fbabd894c62U, 0xbd74879bbd7be17eU, 0x3c36a2a33d75d03cU,
  0x3d09a28f3d87b7b2U, 0xbd66a3b23d2c2895U, 0x3bef64acbc8eb24cU, 0x3cf0fd613c7217a2U,
  0xbd67bca93d836f6bU, 0x3d05961a3d0b2dc5U, 0x3d430c4abcea497aU, 0x3c8d9bb83cbead3bU,
  0x3d2b0fcfbd7cd5adU, 0x3d68eafd3c1d1e39U, 0x3d7cdfe63b93c6abU, 0xbcba7f733bbe6f0aU,
  0x3d238f093c75339dU, 0xbd167326bbc7d0a1U, 0x3ccd68d9bd61ca5bU, 0x3ca75be0bd3cb05bU,
  0x3c8811dfbd775c1cU, 0x3bd415373d63ee07U, 0xbcb4c58cbd4836e7U, 0x3d4f65943c8545dbU,
  0xbd7b87a33d140767U, 0x3b016a703b856434U, 0x3cb3bdc5bac97460U, 0xbc808f3a3d1f244cU,
  0x3d80bf0f3cd3dffdU, 0xbd25fc91bb6e21f3U, 0xbc83f474bce6ef57U, 0x3d84eb683d2af445U,
  0x3d44b30c3d0221a6U, 0xbcc925b43d887429U, 0xbd854c9d3d87f6bcU, 0x3c88dd74bcaf2193U,
  0x3b7c66013d8b460dU, 0x3ca41acf3c96c36cU, 0xbd075efbbd664641U, 0xbac9a18ebd0a8477U,
  0x3d0cf018bc3e73c5U, 0x3d196b25bc03e3c5U, 0x3c8647fdbd544ea0U, 0xbcbfedd73cd5fa9bU,
  0xbd857dfe3cfebd0aU, 0xbba06fe4bca67670U, 0x3ce7574ebceeb96dU, 0x3d5a2f97bc43a5b5U,
  0xbb51459cbc833ce1U, 0x3d5ae33cbd89cdffU, 0xbbc77551bcb57d1bU, 0x3c4bcdd43bd72624U,
  0xbd24e5af3cc25f7bU, 0xbd0db5d63af4b412U, 0xbd69a59ebd25f6cbU, 0xbc122b883d838512U,
  0xbd6f4ec3bcc08156U, 0x3d4de11abcce9910U, 0x3d0e73a43d556851U, 0xbbe2a534bbca95c1U,
  0xbc7846693d3eb643U, 0xbbcd6e35bd7170a0U, 0x3d5a9ff83d6f37e6U, 0xbd81f7c23d6799cdU,
  0x3c36e9293a56ed87U, 0x3d0007bd3d683805U, 0x3b9f9e643d0ca525U, 0x3c8578cdbc74218bU,
  0x3cc32506bbea4a9eU, 0x3d2a85913d26d49bU, 0x3cd26d923d4b9783U, 0x3d75d79ebc9a03f1U,
  0xbd80e5b33d3da181U, 0xbcba64c73c1f5b8aU, 0x3c27fc4c3b9ddd74U, 0x3c3b4c1e3c9ac300U,
  0x3d78e97bbd0d263cU, 0xbd5b79c9bd5c9780U, 0xbd4ac0aa3c87184cU, 0x3d15e7ff3d584312U,
  0xbd18aa763d77cad7U, 0xbd51cc25bcb79750U, 0xbd89f413bca0ca85U, 0xbd41bdcabd34c365U,
  0x3d50cef4bba96dddU, 0xbd3ecb6abd3c0161U, 0x3d2d6adcbc074dffU, 0xbc2031cd3a495a85U,
  0xbd5367d63ce1a62aU, 0xbbdfc865bd39c008U, 0x3d1ecaa3bcc4f6c8U, 0x3d8793103cb30d0cU,
  0x3bb3ba9bbce91cdaU, 0x3b843e433d207f09U, 0xbd856bbb3d118821U, 0x3d1f26cc3d1216f0U,
  0x3d30c14a3d2613baU, 0xbd7c10ccbcaca3dfU, 0xbd83e9b03d2e3bf3U, 0xbc27c9e13d4e8423U,
  0x3d0dcca2bd68cefbU, 0xbd528d17bc63273bU, 0x3d57a3d6bd0bff67U, 0xbc821a1f3d74a766U,
  0x3c995536bd88c9dcU, 0xbd59e116bc7f3d4cU, 0xbac669fbbd0a579cU, 0xbce481debcce4799U,
  0x3b668c523ca5f561U, 0xbd15e748bd839b97U, 0x3d8484cf3cfef8fcU, 0xbd747ebe3cda69caU,
  0xbd21f2a9bd28de09U, 0x3c9540a43d7b63a2U, 0xbd7c5e48bd1986f3U, 0xbcf785bcbcc82b3aU,
  0xbd6673da3c7338bdU, 0xbd5051bd3c8a0887U, 0x3bd37f1d3d3096bfU, 0xbd1e1089bd5c10a4U,
  0xbcd39d123c84e8a8U, 0xbd57b989bbed040aU, 0x3cd947d93cb12f3aU, 0xbd4f58723c7c6027U,
  0x3bb7e25dbc16a38bU, 0x3c8494e63d418139U, 0x3d36e539bc291a9eU, 0x3c61cf6a3c9c4128U,
  0x3d5f3f44bd13e27dU, 0x3ce32f653c0f79eeU, 0x3d4513233cba2774U, 0x3d1b603fbc30513aU,
  0xbcabbaae3c9dfa22U, 0x3cc22956bd5f5e4bU, 0x3d23698b3d2cd1aaU, 0x3d3cc2933c2c4b85U,
  0xbbcf1d973bd046cbU, 0x3d4114f6bcb22decU, 0xbd43efa83d45caedU, 0xbbbd9cdcbc8d686aU,
  0x3d805a463d5d65f0U, 0x3d7bf9aabbcba7b1U, 0x3d7432663d1f30f8U, 0x3d057c8f3d837b7dU,
  0xbce3aab83d797107U, 0x3c0420aa3d713fe4U, 0x3cab5e3a3bbd2b6fU, 0x3d792d28bca40340U,
  0xbd5d61f33d44d096U, 0x3c97734abd1fdd15U, 0xbd76941e3d16587cU, 0xbcbbfb1fbd4d8394U,
  0x3c5f616abcd66b81U, 0x3cb01f1d3c2b1d74U, 0x3cfcbc8d3c9e80dfU, 0x3d1de1aebd6e7099U,
  0x3d2a95be3d56a0baU, 0xbcba14b53d530d9fU, 0x3d6e93fbba2d853aU, 0xbbb1cab83d4d49b6U,
  0x3d609281bba79ba5U, 0xbd609242bd2d8defU, 0xbd7270e7bd84f0dbU, 0xbc9509873d0bf716U,
  0x3d03d1bdbc6fa4e7U, 0x3cb74340bc39019aU, 0x3d0d2d50bcb7a8e7U, 0xbd142860bc115d43U,
  0xbad1b8763cfc7928U, 0xbd49f794bb02cfa8U, 0x3d58d1793c97a171U, 0xbceec305bb9ec2f5U,
  0xbd1920cbbcc12a44U, 0xbd699d0bbb3d86aeU, 0xbce8a701bd1c79f4U, 0x3c4d4bd0bd818c95U,
  0x3d0f7462bce35b55U, 0x3d4a670ebc58157aU, 0x3b5f7406bd29c615U, 0xbd5f2cab3d0439f1U,
  0xbcae390bbd073d8fU, 0xbbebcbaa3d460cb9U, 0x3d82a2923d4a5d04U, 0x3b93ee8b3d11eda7U,
  0xbb974c26ba8332dcU, 0xbd5057d03d3bbf9cU, 0xbc68cacb3cfb7b29U, 0x3c3398fe3c49c379U,
  0xbd286361bd55e68aU, 0xbd129d543d85b7f7U, 0xbd542bdf3bfe4660U, 0xbc830e153bde5f3bU,
  0xbc235880bd80761aU, 0xbcc131533d7e07e3U, 0x3d3b2a243d83198fU, 0x3b9a287bbd32e82bU,
  0x3d895589bca1fc32U, 0xbd3d869abd33abccU, 0x3d5f4f583d55f998U, 0xbb04a9393d1d5f8bU,
  0x3d7883a6bd50d419U, 0xbba559053bb4f1c2U, 0x3d376c88bd3b7d5aU, 0x3d06b302bc5584b5U,
  0x3d3b60bc3cc7a919U, 0x3cf1eaa33d0b96daU, 0xbd1eba94bd2a1e29U, 0x3d212726bd81a7beU,
  0x3d844c8e3d00ce79U, 0x3cff8bc0bd3dfc5dU, 0x3c98e6703d1dca12U, 0x3c6bcf2bbc400e5dU,
  0xbcac7fba3ba40f17U, 0xbd73bf00bd00c2e3U, 0x3c97c9843d208c8bU, 0xbd7df4e33cff9b8dU,
  0x3d87e6e0bc855794U, 0x3d1653b9bd46edc1U, 0xbd1c21b43d8b337dU, 0x3d7c3ca7bd470531U,
  0x3c5d5cd8bd20cb2bU, 0xbd5e47e9ba82aedcU, 0x3d618e0e3c4936ccU, 0xbc454df1bd7d2f2fU,
  0xbd718d153d44af8dU, 0xbd84bb423b8d401eU, 0xbd45f7cfbd537379U, 0x3d519a7e3d78822fU,
  0xbd04af89bcde8e0bU, 0x3d69fdd73cce59a6U, 0xbd2f2c7abd7e0a98U, 0x3d8346113d050b41U,
  0xbc1013543d0c5f4bU, 0x3d262de63d61ef17U, 0xbcc7c450bd6163ffU, 0xbcbab9a0bc8abb09U,
