/**
  ******************************************************************************
  * @file    network_data.c
  * @author  AST Embedded Analytics Research Platform
  * @date    2026-01-17T11:48:33+0000
  * @brief   AI Tool Automatic Code Generator for Embedded NN computing
  ******************************************************************************
  * Copyright (c) 2026 STMicroelectronics.
  * All rights reserved.
  *
  * This software is licensed under terms that can be found in the LICENSE file
  * in the root directory of this software component.
  * If no LICENSE file comes with this software, it is provided AS-IS.
  ******************************************************************************
  */

#include "network_data.h"
STAI_ALIGNED(8)
const uint64_t g_network_weights_array[15337] = {
  0x3c8eef083e9647adU, 0xbdbd1cbbbe0d4d34U, 0xbdce55b33de48fafU, 0xbe9a5fa43e806890U,
  0xbdb9dc2f3e916639U, 0xbe47289fbe06d473U, 0xbc40ac6b3e9cadbfU, 0x3e6f74a73e9dbd54U,
  0x3dcef18fbd71fce6U, 0x3e17d4a73da13be8U, 0x3e5db4eabc115c1aU, 0x3d2d4ecbbe7bdcc2U,
  0x3e12db7bbda06451U, 0x3d2ab0643e79a96aU, 0x3db5b576be3a552bU, 0xbe6f9deebe67add5U,
  0xbde53415be3d7c64U, 0xbe8a7b9a3e93f78fU, 0xbe7023943e0c2162U, 0xbe0764823e093da8U,
  0xbe5321253e70b56bU, 0x3dd5fa933d41c109U, 0xbcd853263e8a0271U, 0xb8d7825cbe543010U,
  0xbe40e529be67cd65U, 0xbe22273dbdecf42cU, 0x3e498b813d2f0345U, 0x3e150aedbe98579dU,
  0xbe0a8fe43e899717U, 0x3dda4ef43e2e4ea7U, 0xbe2bf17bbe9da5aeU, 0xbe96f29e3ccae13fU,
  0x3e537bddbd866a3aU, 0x3e2f2b153c95ba5dU, 0x3e214c843dfbefc7U, 0x3d56ab493a7f73e7U,
  0x3cdbdd4d3c8ceaf2U, 0xbd8637ba3e4f59bcU, 0x3e6f27123d9d559dU, 0xbd3391df3e01cf40U,
  0xbde87cd03e83f0cdU, 0xbdf85b50be1fae08U, 0xbe03a3883e602683U, 0x3dad6de2bd8e7f71U,
  0x3e4444cfbbee7ffeU, 0xbb0de515be9c5c0dU, 0x3d641d593c6f7863U, 0xbe3ccd6dbe6aabb2U,
  0x3dd15db83e945471U, 0xbd8a85eb3e7f660fU, 0xbb0680253d91eda5U, 0xbe79c0a9bdcfb9f8U,
  0xbde52060bdcd4d8cU, 0xbdc2c08cbe90151aU, 0xbe5d6778bd8cba21U, 0xbe9b66053e6ccae5U,
  0x3e6e4a483e589d32U, 0xbe58b0e23da7cb92U, 0xbe4227d4be9d4bd0U, 0x3e061afbbe0ce8d8U,
  0xbd963625be9aaa29U, 0xbe92f9463cc96a5cU, 0x3e85ad23be2d4abeU, 0x3da039f1bcca4c76U,
  0xbe47c7a8bd78b05bU, 0x3e2d2a0ebd6c32d2U, 0x3cc0b897be9432dcU, 0x3e6b7c0abe81c0fbU,
  0xbd84cca9bdbf6a1aU, 0x3e4e2ed7bc857caeU, 0x3e99a5933e9ec34dU, 0xbe8bd4e03defc745U,
  0x3e2d1df33c451ed6U, 0xbe0bd3ed3e0ff4c2U, 0xbcd670bf3d4dbe25U, 0xbcf6cd5c3d09512fU,
  0x3d8ff0ccbd711dd7U, 0xbdfb5cc13d75e008U, 0xbc56e39dbe0bf336U, 0xbe09b5c6bca11ff5U,
  0xbe4a4cedbdffa013U, 0x3e0c42eebe370050U, 0xbe0656ccbe85dba2U, 0x3e8a4aa2be929572U,
  0x3e092c5dbe9c81a3U, 0x3e7cf7023e8091f0U, 0xbe8df6ee3df2d7edU, 0x3d9e45003e64c390U,
  0xbbc018383cfa0f90U, 0xbcd9dae43d3a3fddU, 0xbd072d2eba63f5a6U, 0x3cc7047a3c49d9a1U,
  0xbae6106c3cf981abU, 0xbc030e963ca45e94U, 0xbc2ae1703d0d7c31U, 0xbc980ba43d0d1f20U,
  0x3b48c8623d0234a2U, 0xbce0e19c3c84c25bU, 0xbce3dea73cc1b565U, 0xbbe96cab3bda5026U,
  0xbcd8bdbebd2247a9U, 0xbd3a75033ca1201eU, 0xbd0a6f3ebd125523U, 0x3c6048e9bcdfcd6fU,
  0x3c0c2eebbca15e72U, 0xbc6abb713c4c8103U, 0x3d1da827bd30a8b1U, 0xbd165d623d2f97c1U,
  0x3d3289c63ca86643U, 0x3c2e49a9bcf5fdb4U, 0xbcb3d9a03bb4ec6cU, 0xbc4ac52c39f2e177U,
  0xbc2a8c673ca2cec7U, 0x3d1586e7bb549f4cU, 0x3beb0f8abbead36dU, 0xbd058e173c9a73e0U,
  0xbd0b9acd3c52e2a9U, 0xbd0079663c4dc5d5U, 0x3d2ff8303c98bee2U, 0xbce39ec1bca796caU,
  0x3d3353353d11990dU, 0xbd03177cbcb70476U, 0xbd2dded7bcf02120U, 0x3b6dca9dbcb23c33U,
  0x3d22c01c3cf36fd1U, 0xbcc09727bd0d0890U, 0xbce9cc5c3d016a44U, 0x3cc5e5613c6313ebU,
  0xbc2302003c8ab1aeU, 0x3c2dd7a5bc5a18b1U, 0x3b15a129bc86bb8aU, 0x3d19f6a23c694c2bU,
  0xb9239ee6bacb71a9U, 0x3d24e805bab07ebaU, 0xbcf7aca0bd17fe67U, 0x3d3a38163c45a26fU,
  0x3d0bd8c63b740a54U, 0xbd07d66dbcedda31U, 0xbc6846a23c8771fdU, 0x3cec13f8bcd2b721U,
  0xbce93b4ebd1cc8daU, 0x3bb9ee983cea9739U, 0xbc39bbae3cd11375U, 0x3c3e9c8e3d0b61d3U,
  0x3c94a0533ad6cb25U, 0xbcceedfb3c0d27d0U, 0x3d386b74ba62d5e9U, 0x3cd06a51bd15adc3U,
  0x3bd8b39fbd27956eU, 0x3d38dcdb3d3980e3U, 0xbcf51451bc73175eU, 0xbb37e1773d35edaeU,
  0xbd1a99393d1e4c1fU, 0xbc3d40d8bca6388eU, 0x3d00fb0f3a7bf775U, 0xbccd42963d208151U,
  0xbcd62965bd344fe5U, 0xbc38e8b13ccf3757U, 0xbd3976d53bbd3b8dU, 0xbc22bdb8bd1ce674U,
  0x3cf6c9e13d12f57eU, 0x3ae7504b3cf8fe52U, 0xbd1700d6bc4afb89U, 0xbca5d691bd24cdccU,
  0x3c9f97153c289433U, 0x3d0644ff3d254c1dU, 0x3d1fd6c1bcffc55eU, 0x3d3421cb3cdaceacU,
  0x3d1a4485bcb3fdedU, 0x3cad6c90bd1a7a97U, 0xbd2e841cbbbf021dU, 0xbcb6a9e43d393512U,
  0x3c695777bd0f69f2U, 0x3d3274cd3d05ad4bU, 0x3c1803c13c88f040U, 0xbc4d26323b89ee59U,
  0xbd03e6693cd46976U, 0xbcd923d9bd3724fbU, 0x3ca509f03d0553cfU, 0x3c93701cbd1d3e8dU,
  0x3c01808d3d30348dU, 0x3d1db189bceaf4dfU, 0xbb2285d43c8aafefU, 0xbb83a042bd0e2ec2U,
  0x3c999c41bbc57978U, 0x3cfb028c3d0519cdU, 0xbcdd5175bcc75236U, 0x3bb00057bd11b4aaU,
  0xbd2eb1463ce162b4U, 0xbcc0f9273c5b1f47U, 0x3d27214abd280dfeU, 0xbc00adffbc49dd7cU,
  0xbd2b02b03d1bdb4aU, 0xbc8cddbf3c23a6f5U, 0x3c072684bcb39e50U, 0x3cc9c6d93d011127U,
  0x3d0bfc2f3c3822daU, 0xbc3d3c88bd352597U, 0xbd32bca839dac730U, 0xbd1e5a25bc60d2c7U,
  0x3afda07e3d1f8144U, 0xbbbeb410bc6accd4U, 0x3d242735bcb75713U, 0xbb607d84bd247cb3U,
  0x3cab9ab73ced6653U, 0xbba8279d3c87fb0eU, 0x3ad50313bb19dbbcU, 0xba43a0d43bc1e5b9U,
  0xbcf443623caf12c4U, 0xbd22187abd36675fU, 0x3d213c783ca90c84U, 0xbd12842c3bd64ea1U,
  0x3c860493bccd6226U, 0x3cd398673c2afce4U, 0x3cbceb803ca03317U, 0x3d100e243caadf13U,
  0xbd095a39bc605d8bU, 0xbd2090aabca594ecU, 0xba9a5d453c6d6875U, 0xbb2c8197bc4bd8caU,
  0x3cd7edf63c147ad4U, 0x3d3154803cd1ec61U, 0xbc8498c63c67f8ecU, 0x3c5e06c43b3b11f0U,
  0x3cc487dd3cce4f73U, 0xbcaf7685bb56675eU, 0x3cc9330bbce5205fU, 0xbbe88bc8bd1fc5a5U,
  0xbd1569553ce22161U, 0x3d05f5be3c3012c2U, 0x3b79362dbd09980bU, 0x3b492a6d3c472656U,
  0x3cf3b4e8b9f3f63fU, 0xbce4d9fdbcded9e4U, 0x3cce21ab3c4f9647U, 0x3bb739e93cb612caU,
  0x3cd54187bcc10f06U, 0x3cbb2995bc5c6cccU, 0xbcfaec69bccfafc8U, 0xbc916a02bc72abb2U,
  0xbd12d28d3d07470bU, 0xbd21a5d3bc00d90aU, 0xbc88a6adbc6c4ee2U, 0xbced824b3bbaeb76U,
  0xbc548530b98f668eU, 0x3ca5c60cbc4ecea8U, 0x3d39be11bce21fb9U, 0xbc3d26da3c2d1770U,
  0xbc2063903b963f5cU, 0xbce0d575bc9e47a0U, 0xbcd80e79bbab364fU, 0x3b8a911d3b077064U,
  0x3ba03840bce308d3U, 0x3ba8fab73c089341U, 0xbcdf1d46bcf4002cU, 0xbd0e2f803d39e37aU,
  0xbc26c2a33d36f4a4U, 0xbba8033dbc23a9ecU, 0xbce0060b3d1d5125U, 0xbcfb6b9b3cc41454U,
  0xbd2905873c2534c9U, 0x3b77090dbc68975aU, 0x3c8348243d2f0f98U, 0x3c1c21b6bcd28846U,
  0x3c4fa586bd108e4fU, 0x3d264d313c2cdc32U, 0xbcc7ef50bd0ef1edU, 0x3d3374b43bc43e7bU,
  0xbd14345c3ce8c900U, 0x3cc6d03a3ceae964U, 0xbc7b72b4bce4cd27U, 0xbbfa0f593c07faf1U,
  0x3d0611c1bcda7be3U, 0x3d37a9bcbccf6f0cU, 0xbcbedd593cde668aU, 0x3d19236d3b5454cfU,
  0xbd3989bcbd337b94U, 0xbd0776223c6078adU, 0xbd18ae993b00ac20U, 0xbc95f39d3accbcabU,
  0xbc1155033d27ee5fU, 0xbd1fa2ffbcb2d962U, 0x3c6a96e73ca0e369U, 0xbd214e053c7e98e8U,
  0xbc2777d7bcd4b4c0U, 0x3c66e56bbd2c0af4U, 0xbc62156e3d37079cU, 0x3bc4a8c93cc3acacU,
  0xbc37d5cebc1df7b4U, 0x3d083d77bb06fea5U, 0xbd05fe2abbaa8c1bU, 0x3c87c1cebd04bee6U,
  0x3c9ab6edbc459679U, 0x3d362c3b3d399942U, 0xbd1cc8a33c84ca9eU, 0x3ceb25b63d3084c1U,
  0x3c853979bc24ac4fU, 0x3ceed1dd3cf637dbU, 0x3caf14ef3ca65973U, 0x3d027bad3d00c7e2U,
  0xbd1117f5bc0142f4U, 0x3d19b07e3d28c519U, 0xbcebb3173b638b63U, 0xbc7d2c94bd0f3d5bU,
  0xbc1d08243d1c13b7U, 0xbcbddfc9bb6b5d39U, 0x3bae3a5f3ce31220U, 0x3ccc5f7fbc796b59U,
  0x3cc321eebce3b41dU, 0xbcca6cf43cd3878fU, 0xba849d1fbd14ec5cU, 0x3d302ba53cda8cefU,
  0xbd096532bc8917a4U, 0xbd383c36bc762174U, 0xbcb12456bc2c5b75U, 0xbd138ddd3bcb9800U,
  0x3d30881f3aadaaa4U, 0xbd31e50cbcce444fU, 0xbb7b2d42bc040df0U, 0x3d38fbf039e00403U,
  0x3d1f04ebbcefd5ceU, 0xbce213783c17da44U, 0xbd0932e63cf63f4bU, 0x3d04578e3d1fe8eeU,
  0xbd0057683b306c79U, 0xbd21d8cf3d1fc931U, 0x3cce54cabd0fc7a8U, 0xbcf8ce90bb1d3072U,
  0x3d0992b5bd28dde7U, 0xbc6f4ceb3cfc874bU, 0x3c224387bcd376fbU, 0xbce30b6dbcf8dd4fU,
  0x3d093804bc8f3624U, 0x3d05f7f6bc5fababU, 0x3c9a6d623c8e6e13U, 0xbcd1ce3bbb012ca8U,
  0x3d2626e8bce310adU, 0x3d101f6b3c862712U, 0x3d10f084bcf8dce2U, 0x3b98ad7bbcdb4f66U,
  0xbd145d5fbcfb6ee5U, 0x3cc6ba52bbebc533U, 0xbd1edea4bb5212b0U, 0xbd0128d13c8a032dU,
  0xbcb28f483d266d59U, 0xbd114af63cfc5380U, 0x3bfd6ba33d0e327fU, 0x3d37cd8a3c4ba9d3U,
  0x3bdcdb873c3410ecU, 0x3c36636e3bb4541cU, 0x3d358bc23c88e174U, 0xbd1fdd453cb56a4fU,
  0xbce9eab6bd1e988bU, 0xbd050d7bbcf1d29aU, 0x3cb7e43dbcf019f9U, 0x3bdd8cf2bd19d4b1U,
  0x3c1e8bae3d03558eU, 0xbc8b8d2bbbdc6780U, 0xbd14d766bcf216ceU, 0x39dda5ddbced75e1U,
  0xbcd3f0a4bd2e4b93U, 0x3c03999dbc85bdebU, 0x3ce932d9bbac2f63U, 0x3c138f6cbb7d2c8fU,
  0x3d035dc8bcce445bU, 0xbc284fd9bc895040U, 0x3bb30c92bbb69979U, 0xbc849a763b09f858U,
  0xbc1d3e123c1b8bc0U, 0xbb979d093a2df293U, 0xbcc45ec93b57abe5U, 0x3cebc66e3ce2f12fU,
  0x3a21b369bd360fe1U, 0x3c5b1a54bc28b68cU, 0xbd0fabe6bc924d53U, 0x3cc383463d2d0595U,
  0x3d348cebbbe3a7dfU, 0xbd20d54dbcf42a88U, 0x3cf78f033c1d10dcU, 0x3cc4ce2bbc83a712U,
  0x3b5c16f13d0de75bU, 0x3c8bf759bd1f3c78U, 0xbd365d823c84fa36U, 0x3c6bfe703ca0da20U,
  0x3c8e658fbd37df6bU, 0x3d2792e13d27f276U, 0x3abad9b53d2e7039U, 0xbb4cd04b3d26969cU,
  0x3c1278153d2900a5U, 0x3cbfe6de3d0e35fbU, 0xbd2e22683d0efe87U, 0xbc02d5f7bb3df1fcU,
  0x3be99836bd11c3beU, 0xbd29f93fbc28e99aU, 0xbd059e79bd0cda84U, 0x3c191a983c0fc1d8U,
  0x3d2debb7bcf1470fU, 0x3ab19e1abd2dc190U, 0x3c5b6517bcc17602U, 0x3d2aaf483b97e3c8U,
  0xbc7c39aabbc26b46U, 0xbd1812e7bd013d81U, 0x3c12f62cbbe71f17U, 0x3c33d27cbce89c7aU,
  0x3cff5a5ebd221187U, 0x3c03fe3d3cb55ffeU, 0x3c2ef346bb8a56c8U, 0x3cf7ead6bb89d23cU,
  0x3b9b8f09bc7704ebU, 0x3bd721afbb8cc573U, 0xbcc634123cf30eedU, 0xbd2cc4b63c9b0837U,
  0x3b418bb63c0c9249U, 0x3c85b8453cfef680U, 0x3c3d5eb83ca8e1ceU, 0xbd36085e3d2ecbfcU,
  0x3ac9472ebd12eb58U, 0xbc8c4719bc4e5e08U, 0xbb654be23d09dca1U, 0xbd2c18133bf5dcb7U,
  0x3bcecc7d3d2e015dU, 0x3d2790ee3ce9611cU, 0xbcea0c663c81d4a0U, 0x3ce6c67cbcfa6441U,
  0xbce3dfe03d12784eU, 0xbcd5ce53bc82aa20U, 0x3bbd9f8e3d261afbU, 0x3c0c36563c664391U,
  0xbd0b0b69bbc19708U, 0xbb41b56e3b5538efU, 0xbd1663b1bcc6cb47U, 0x3be68bef3d21930bU,
  0xbd17c415bc872e2fU, 0x3ce3dc533ce05ba3U, 0xbcc95b723cff8c44U, 0x3d0e5ba8bcfa1233U,
  0xbce0f857bb84df37U, 0x3cd73e3fbd3060d2U, 0xbcc2e1923bce5680U, 0x3d237fdd3d28ead9U,
  0x3d035eb8bcd66b2bU, 0x3cadedb33be583efU, 0xbc2a0b2fbcc17937U, 0xbb94da3fbcf693c5U,
  0xbc7895fdbd1c3227U, 0x3ca02c70bc6973d5U, 0xbd28acc9bd148455U, 0xbcfed716b94badbaU,
  0x3ceb765fbd35ec99U, 0xbd17a2cb3beedc34U, 0xbd18a1353d358036U, 0x3c64b3de3ce1c184U,
  0x3cddb6f53bcdc8deU, 0x3cc5d1d23ae27aceU, 0xbc097b14bcdff2d1U, 0x3b92ce7cbc83fdf3U,
  0x3ca2962e3ceeb224U, 0x3c3c4839bc98ba2cU, 0x3d1eebbcbcb7a7d7U, 0xbc70f8b13ca13c10U,
  0xbca4291fbd1abf73U, 0xbba41076bc83d87aU, 0x3d269ea63bb037c1U, 0xbd333b483cf052a9U,
  0x3c4646e33d360e4bU, 0x3b3dc9bb3c4a2211U, 0xbbe36e0a3cff157bU, 0xbba7daef3ced9fdcU,
  0x3cc9e7e73cea90a6U, 0xbce6e2e63d24e29fU, 0x3d353327bc889c19U, 0x3d2fcda03ca8bccaU,
  0xbca65af53cfd0db1U, 0x3cedb997bcaec4f8U, 0x3d1bbfc1bc24b178U, 0xbcc77f9dbcd90923U,
  0x3caa099138c660d6U, 0xbcbf4eae3cad495fU, 0x3ce951ee3d2d6a22U, 0x3d29005c3d12ddceU,
  0x3baaffadbc4dcf5fU, 0xbca1a5253d097c74U, 0xbcb5b2a1bd28c8a8U, 0x3c5c0535bc3c1d17U,
  0xbb1fc9bfbc457989U, 0xbd1b2586bcc101caU, 0x3c9fcafabc01fc90U, 0xbcf4b9fd3ce17666U,
  0xbc746fd73c8fd2e1U, 0xbb862b68bcb49824U, 0x3be0cf89bce85f07U, 0xbcb0c210bca2cc07U,
  0x3b1c17d4bd221e0bU, 0x3cca47fcbd1014c4U, 0x3d0b7115bd128c2dU, 0x3d084d8abcce1e39U,
  0x3b75daccba8befcbU, 0x3c01a9843d0cd759U, 0xbc237e15bd32f90cU, 0x3cdc428e3c5d4b84U,
  0x3c3adaf03d05fcf6U, 0xbc5085903c5331a0U, 0x3d0cd4ed38c5428fU, 0xbb8aded8bcb1f894U,
  0x3d138e523d03de49U, 0x3c9abb02bb8b7757U, 0x3c98e41b3c5fc350U, 0xbcc3028c3d2f7e45U,
  0xbd0c1a903cb762a0U, 0x3c5e1d2dbccf3032U, 0xba5ae5dc3c63447bU, 0x3c37a22f3d2e9f43U,
  0xbc520e713d26215cU, 0x3d1532c73d036ec9U, 0x3cfdfe59bc9c8dc0U, 0xbac347bcbd342047U,
  0x3bf623b13cef576bU, 0x3d0a41dbbcb778f7U, 0xbc85d84dbc69efd9U, 0xbc6661023ccae6b0U,
  0x3d1ba4ec3d3a4c09U, 0xbc8ed3613bef7ee0U, 0x3c270db83c3d6813U, 0xbbfa7cfc3d135609U,
  0x3c707918bcf0e651U, 0xbba4042f3c72d082U, 0x39c9c0c7bc616510U, 0xbc907a79bcb3dc52U,
  0xbc9ab71bbb58f49eU, 0x3cdbbf19bbfbc9e8U, 0xbd142de1bd01faf2U, 0xbcd42c5bbc9f9388U,
  0x3bf9759f3c749e89U, 0xbd176e803b82edf9U, 0x3cfca9c13b958caaU, 0x3b5767fabc95826eU,
  0x3d1b6b633b23f386U, 0xbb29bd633a0b73d3U, 0xbd0b93ce3cafceabU, 0x3bc3592bbc0cfd06U,
  0x3c1861b1bc5e1ac8U, 0xbd0859cfbc9550c2U, 0xbcbeaf19bc16650aU, 0x3d2391db3d1533e2U,
  0xbce6ee863c005723U, 0xbc86449dbd139513U, 0x3d2be589bcd2146fU, 0xbcaf7cccbc53292eU,
  0x3b48c1d0bcc1f656U, 0x3c313a3b3c33b81aU, 0x3c914eebbd144112U, 0xbcbd029c3c24d272U,
  0xbd185d3d3ae2e6e4U, 0x3cebde30bc9b74bfU, 0xbcc45293bb5e1ce7U, 0x3cdd4d17bd35eda3U,
  0x3cca48483ca5d4b5U, 0x3d17ebbfbb802736U, 0x3b2ecf4e3ae3165cU, 0x3d380c6fbc25edd9U,
  0x3d0a5f79bd23a25dU, 0x3d243bbbbd22136dU, 0x3d21aef03cff7d7dU, 0x3c0bced1bd1d7142U,
  0xbd2a964cbcfb699fU, 0xbd3879243d25199bU, 0xbc4583653d1ddcadU, 0x3cfcc11d3d18fd3aU,
  0x3d241051bd25501cU, 0xbd17ded4bc4773d0U, 0xbba72c07bc23e3a3U, 0xbc5b92813cc9328dU,
  0xbcb1698ebccabdc7U, 0x3cf62f1d3c465887U, 0x3c1c41b53c13bb20U, 0xbd1bd519bc4568c9U,
  0xbcf6a7023cf2afc8U, 0x3d316c71bcea6235U, 0xbccedb383c386c56U, 0xbc198d22bbd04749U,
  0xbcc59f2bbc83d4aeU, 0x3c5dcf44bc854ae9U, 0x3d069a45bc803548U, 0xbccd8c123c8944fdU,
  0x3b5bf49ebc13672aU, 0x3cbf6156b821d446U, 0xbc70458abc506e66U, 0x3d01d3dc3cf27d9bU,
  0x3d1950523be628fbU, 0xbc942f2fbcc20f9fU, 0x3cd311acbd089117U, 0xbb07e1c53ca50a7fU,
  0x3c0d2ecc3c83ca3aU, 0x3bf83b2e3ce477e1U, 0x3d0b10113cc522a4U, 0xbd2891193b54dc47U,
  0x3d1ebd653c5faee3U, 0x3ce4f5b83d1a0178U, 0xbd06bec03d141c3bU, 0xbb806835bd0324e0U,
  0xbd148419bc8ac7abU, 0x3cf59f82bccc9dadU, 0x3cd9abe1bd1e2cfcU, 0xbd234fc13cac12e5U,
  0x3c410dc2bc3b5555U, 0xbbba37143d19d188U, 0xbccddb6fbc01b48aU, 0xbca92f4c3d36403cU,
  0xbd0f5ffd3c4c8553U, 0xbcfad0daba5f3ca4U, 0xbaf9905ebc79f0caU, 0x3c938105bbefe8d0U,
  0x3cacdc863b6fe47aU, 0x3d10587fbc7d3878U, 0x3d1317953beae2cfU, 0x3d1b1f053cae351fU,
  0xbd29a1d13c31ae8eU, 0xbc9cbc1fbc64f0f0U, 0x3c8218a23cf2faacU, 0xbbb0545fbccddb09U,
  0x3d3917fcbd37ca17U, 0xbc8dcd85bd2f808aU, 0xbbadfcb53ce1e52dU, 0xbcf6c83f3d146b5cU,
  0x3cf470893caf52d1U, 0xbd2381313cff093fU, 0xbd3919153ca6477dU, 0x3d071e1e3c00235bU,
  0x3c688bb1bd1cf526U, 0xbc4dcdb5bb0d8d82U, 0xbcb1a9c93ce898c4U, 0x3d0fcb81bc38d164U,
  0x3d2895493c78fdb7U, 0x3d31a7023cdb9d82U, 0x3d1011f7bccea67dU, 0x3cc79c27bcd9724fU,
  0xbcdfd084bc704472U, 0x3d30d3db3d006df8U, 0xba81649ebd38ca61U, 0xbcb897b6bcecd4a7U,
  0xbcc8d7953d10769dU, 0x3d31cfcd3d1b5937U, 0xbcd12196bd37f78cU, 0x3c2eba613c8d8492U,
  0xbc0db520bbf50a12U, 0xbc95a59fbb4e0f86U, 0x3bceef973cf2ed52U, 0x3d1122683c90b74eU,
  0x3d0a61c13c31d684U, 0xbc6c4bc7bb03e8ecU, 0x3cbd94e0bc5e55efU, 0xbc93b8d5bb0ea5c2U,
  0x3aaa3c183cabe982U, 0x3cc744f0bce07ed1U, 0x3d0c98aabc698478U, 0x3d34bb0b3c8a60adU,
  0x3cfa6f7cbce95d8cU, 0x3cb5caf23cfd9bf3U, 0xbbace778bd1caebbU, 0x3d1b32f4bcef931eU,
  0xbc897741bc07d67eU, 0xbc3afcb7bb69dbcfU, 0xbce68b893d36c07eU, 0x390c5a993d1d7b7aU,
  0xbb82225bbd086003U, 0x3d35c7603d2d4bdcU, 0x3cabf37ebc098480U, 0xbd1d86373d29ce9cU,
  0xbd0ff83dbc107764U, 0xbc0352a43c2aa7e1U, 0xbc676d4dbc55f01aU, 0xbc61e28abd1bcf62U,
  0xbd3199c2bbb8f9dbU, 0xbd3380a0bce20817U, 0x3d06a194bc8ec546U, 0x3ce7d2bb3d30f272U,
  0xbca1a505bc8aca77U, 0x3d30503fbd1546b6U, 0xbc4677f4bce36838U, 0xbcedd4f4bd20bf58U,
  0xbcd309153cad3af9U, 0x3c74d14abc86f75eU, 0x3c0afb193ba9d8ddU, 0xbb96484e3cddb98dU,
  0x3cc6701abbcf2f5aU, 0xbd381cdb3d1e9ab6U, 0xbd2488d4bc000aafU, 0xbc6d310cbbde3654U,
  0xbb89b0ea3b218b9cU, 0xbbc4d4bd398c4e2fU, 0xbc60705fbb115324U, 0xbc09cd363bdff1b5U,
  0x3c6b7b99bc8dbeadU, 0xbcbcfa103bcc5f53U, 0xbc9dbe14bc1d3ec7U, 0xbd12bd4a3ca750daU,
  0x3d1a2aabbcb0387cU, 0xbc42da53bd0600faU, 0xbaa86ab6bc994a0aU, 0x3d11f3e93ce6fb14U,
  0xbd213c8c3d264466U, 0xbd12bf693ce1a9c2U, 0x3c8f84023cacc611U, 0x3d016046bcdce245U,
  0x3c9cab3fbd06b0c1U, 0xb995a5e8bd1977bfU, 0xbbf31edb3cdc7249U, 0xbc8439783a429186U,
  0xbcd5c3eb3d13bb38U, 0x3bdc806c3a8da2deU, 0xbc5dbc64bbd84998U, 0xbb86c2e6bcddd19aU,
  0x3cbdf03bbc6392e6U, 0x3cbc6a2c3d308020U, 0x3b58c8fcbd231230U, 0x3b86b182bce90d77U,
  0x3b9446223a7aaf31U, 0xbc87aea63c99649dU, 0x3cdfb2a13c8a1c67U, 0x3cc688b73cc27f81U,
  0xbcf49112bc8ad0c6U, 0xbc9e921abcf1243cU, 0xbcd5f551bd130a74U, 0x3d0f925bbb72b346U,
  0x3c29efb5bc662f30U, 0xbce80268bcb018e6U, 0x3d12524b3c9d5ef5U, 0xbd02df1cbca6d2d4U,
  0xbc42d9693d2b1388U, 0xbbabd20c3c8aa989U, 0xbc94c11b3ced0007U, 0x3cb46ec4bb33f494U,
  0x3cc3a931bc76e1d2U, 0x3c90e6343cb3d23eU, 0x3c7f18b5bbba1cbeU, 0xbba8b92039d8c5caU,
  0xbcc4945f3cfa1473U, 0xbcc3eb75bd364785U, 0x3c890abc3c32b874U, 0x3d0a6992bd330a44U,
  0xbd2cacb6bd350991U, 0xbc02e665bcedaa12U, 0xbd04001dbcb6346eU, 0x3caad9273cd07c7eU,
  0xbcc36728bcc32bafU, 0xbb6da58dbab0b0f0U, 0xbc6fc41e3b8c6296U, 0xbcbcbe223c909f71U,
  0xbc8517643d0c50e3U, 0x3cff28a9bcf57705U, 0xbc3e0d653d1f6b61U, 0x3d33c4dc3cec4ad5U,
  0xbcfef0d1bc8fa87dU, 0x38bfe59abb557c1fU, 0x3cc525b03d2740f4U, 0x3d23f9c73c31267eU,
  0x3d19a4063d2f31feU, 0x3d39df223d0f58b8U, 0xbd1996073d28f1d8U, 0xbc215f7e3b6448cfU,
  0x3b802b69bc6bdcd8U, 0x3cbc65e1bc720a70U, 0x3ca1a9353c6cf3ddU, 0xbccf5903bc4ccec4U,
  0xbc097ca73c843063U, 0xbb69d6b2b9a4a0b2U, 0x3c7e38243d16f553U, 0xbc3cdb2c397f547bU,
  0xbcb16fbabcd9e6f1U, 0xbb79e4e6bd391f14U, 0x3cb8a43aba52742eU, 0xbcd55539bd08d053U,
  0xbd31ced53b73d5bfU, 0x3d01141bbbd6d374U, 0xbcc0f1ca3caacd20U, 0x3ca1bb5d3cf9c709U,
  0x3d06cf563a80baa4U, 0xbd3722c9bc29bfb1U, 0x3c91a7acbbe3534bU, 0x3c84d8213bff1673U,
  0xbc826dc0bc6f574dU, 0xbd2c3bb3bcb8fdc8U, 0xbcd4c3b03cb21844U, 0x3d2be4db3c2dd1cdU,
  0xbbc1d56dbcc0aeefU, 0x3d14a94538254c50U, 0x3d0b2da23d0a981cU, 0xbd275963bc340b43U,
  0xbc3f26d53cec11b0U, 0xbc5632c33d1148ffU, 0xbc4ae014bc93675eU, 0x3cabe1ebbd0dec65U,
  0x3bae390c3cc1b63eU, 0xbd3472493c5606c9U, 0xbca45cc13d2bcef3U, 0x3cb533863c18db83U,
  0xbca701a3bc044a99U, 0x3d2fe0b0bac7db21U, 0xbcf64ee23c4b2c25U, 0x3aa2bb3bbd1c390dU,
  0x3c81612f3c9c398cU, 0xbc8cfb70bd2df8bfU, 0x3d394650bb4b1a1dU, 0x3bd89fe7bd31431bU,
  0xbd13da883d04421dU, 0xbbfade053b9599a1U, 0xbcaae837bca261bfU, 0x3c9535333a816900U,
  0x3ceb8278bcaacb2cU, 0x3c73c1c23bcf7322U, 0x3cf2b5053c08f5deU, 0x3c4267b73cb47459U,
  0x3b656eaa3c92504bU, 0x3cbc8156bd3034b6U, 0xbd29c52e3d0f4014U, 0x3bc252953cb10cbdU,
  0xbcaba4e2bcd5b71bU, 0x3ccd05c4bb9d8f62U, 0xbb360420bcca5daaU, 0x3cd275013ce46e2eU,
  0xbd367397bcabac35U, 0xbd04f04c3c6caf48U, 0x3cb00aa5bd25fe10U, 0x3c8574063d2ca16dU,
  0xbd20a4093ccf4dfdU, 0xbc7ebb643caabf28U, 0x3d0056e33c8a5dc1U, 0x3c8db0e7bd04be31U,
  0xbbd66983bc4565a3U, 0xbc6653683cb84d32U, 0xb96df4f93d24feeeU, 0x3c0ce7ccbd031e59U,
  0xbca7654cbc5ae72fU, 0x3a61293a3d00290eU, 0xbd3aa4393c77a00aU, 0x3d27eef9bcd1b8e5U,
  0x3cfe4ac73cb9bbc3U, 0xbb9a18f1baf399aeU, 0x3c6af85abd0c0779U, 0x3cdb23263d100805U,
  0x3d0d2c8c3d28477eU, 0xbbe4faafbbc2daebU, 0x3baed5f8bc42972fU, 0x3bdfae6e3ce9cbb5U,
  0xbd12d06ebc95824eU, 0xbd021ff4bc81456bU, 0xbbacf8e73c13d3e3U, 0x3ce0521c3c3f01aeU,
  0xbbeb4ecd3cb7c883U, 0x3be2810f3c885d4dU, 0x3d13fba6bc657969U, 0xba40e9963cb85f71U,
  0xbcddfe4d3cfbdb0cU, 0xbd1e893b3cd2a947U, 0x3b2587d5bcd27e24U, 0x3c01fd28bd06f92dU,
  0x3c848ab43bc8bf64U, 0x3a03342c3d30d708U, 0xbd0c08453d336d69U, 0xbc3212e13d110874U,
  0xbc7b6a663c737a2aU, 0xbc1089f83c79720fU, 0x3ba0fc1bbbf5c4ccU, 0x3d0b6b98ba65bf2dU,
  0x3a6f953ebc97040aU, 0x3cc2f39abc58f6e7U, 0xbd22f9d1bcc47c7aU, 0x3d290ee8bd19b8efU,
  0x3cd9bba9bcba39cbU, 0x3d2dcbe73d374b12U, 0x3c913ae2bc1eb81dU, 0x3c7ee7eabd1fb021U,
  0x3cd12edb3cc4e361U, 0xbbabb6a9bccf2e7cU, 0x3cf08ff63cbab311U, 0x3bc69b083cdfbe59U,
  0xbcbee5dcbd235587U, 0xbaea4943bd34880fU, 0x3d218435bc7d71ccU, 0xba030dd53bcebd0fU,
  0xbcf9d6393c853b55U, 0x3c76ec1dbcd1e99bU, 0xbc9a2a893c49ee65U, 0x3c93f64d3d115048U,
  0xbc0c32983c8cc47eU, 0xbc104c5fbc90631dU, 0xbd1bd245bc90c9b8U, 0xbcd809a23d26a36bU,
  0x3d0de51f3d388a1fU, 0xbd36974e3b543b28U, 0xbd1844193c4070dcU, 0xbcde70cf3c688f2eU,
  0xbbbb4a5bbcb4fe5cU, 0x3c29153c3c7b36f5U, 0x3c81ac35bd22c124U, 0xbd150707bc6970e9U,
  0xbc9df225bb968d2fU, 0x3cf96299bcf1be0bU, 0xbc1cfb4b3c4c70e6U, 0x3d1bd47abd345e07U,
  0xbccaacfebbd5c016U, 0xbd37314ebcdc5b56U, 0x3d00c808bd36c947U, 0x3c170e7dbd20ccc7U,
  0xbd39987cbcc81085U, 0xbc870ff83cf10942U, 0xbd02961fbc2cf1daU, 0xbc3c4767bb8a3b5aU,
  0x3d1251e2bcd5fad4U, 0xbd12454e3c9bfccfU, 0x3cc403803c54926dU, 0x3cf2f9dcbcc26b7eU,
  0xbb6e06803b717624U, 0x3c3166013cfcb08eU, 0xbc9624313c256424U, 0xbc938881bc1b7611U,
  0xbcc41c1abce92412U, 0x3cc0bd043d15a5c0U, 0xbc1055a33d2f47bfU, 0x3d13a4463d078eb4U,
  0xbba1cdcb3d1b3bb4U, 0xbcdb67c03c75dc02U, 0x3d1214df3c8af60eU, 0xbce620433c0a45d9U,
  0x3d11793fba22c831U, 0x3d337850bc8e5171U, 0x3c5e24ea3ce62cbcU, 0xbc036a94bd303580U,
  0x3cf2f018bbedc165U, 0xbbd392003b3ca198U, 0x3b821ee33cff12d5U, 0x3ba590303d0fe6b9U,
  0xbbbb02a6bc214895U, 0x3ca51013bc89eb3fU, 0x3d047690bc8f82e7U, 0x3c968b183caf8ffdU,
  0xbc5b806ebcb4f140U, 0x3cbec52ebac7196bU, 0xbd094a743d2cf0afU, 0x3c8b660bbc6c3290U,
  0xbd292d863c93a947U, 0xbcfa6880bbc31fe3U, 0xbbd80797bc19353aU, 0xbd1bcacabd1fd0aeU,
  0xbc10d9983ce1eae7U, 0x3d0e5a063bfd1065U, 0x3cd0fb59bb6d3cf0U, 0xbc5edc61bb049b34U,
  0x3c14db0b3c9b84a1U, 0x3b2ca1d13cf80b27U, 0x3d02c07cbd10b462U, 0xbcb5ac293cd77f21U,
  0x3c8fdb70bc993e92U, 0x3b3f4bdf3c817efdU, 0xbd12688d3c483910U, 0xbce329aa3c5da3e1U,
  0xbc0f4947bd167625U, 0x3d13041b3cf1b4f5U, 0xbc99d74bbbbab3eaU, 0xbd07c6dbbd1c8c31U,
  0xbc6cf8e2bcfe4fdeU, 0xbb0b781ebd2da63cU, 0x3d0b1a01bcccdff9U, 0x3d2a366abcd780e3U,
  0x3cec996bbb56f783U, 0xbc51f0743ce65913U, 0xbcdb40c83a8afb82U, 0xbcc4636bbd123b09U,
  0xbd1e5f56bc82a38dU, 0xbc13158dbcece5f7U, 0xbad0d5313c5c7555U, 0xba7959693c328d00U,
  0x3d382ebcbcfe1c58U, 0xb9de52373d3958b2U, 0xbcadee2ebd04368dU, 0xbc80365d3b599762U,
  0xbd15e3583d20de99U, 0xbcde5a4eba4fe28cU, 0x3ce3bcc03d1a05a4U, 0xbcd3116639a86e2eU,
  0x3d1c8a62bd0faf00U, 0xb89728f7bd0869d6U, 0x3c0668c13abb2b22U, 0xbbd14b8b3b55d852U,
  0xbd0c2b7abd10b013U, 0xbb70c910bc35029bU, 0xbc8f562e3d24b418U, 0x3cecdec3bcd3118cU,
  0xbcd2b695bce5bef6U, 0xbc0d9f55bd167393U, 0x3d1267e2bd058b8aU, 0x3c7b6b5b3d36f00aU,
  0x3d2aeadfbd0867c7U, 0x3d1c120ebcd0519fU, 0xbd0a420f3c6a704aU, 0x3af3c926bbfb2618U,
  0x3c92638ebbf9b894U, 0x3be771d73cd508b0U, 0x3d303327bc79c1bbU, 0xbd2cc1c33d1a3929U,
  0x3cd46b8abbdd134eU, 0xbd135b1b3c88bb51U, 0xbd196a4c38a06fe3U, 0x3cabbe63bd0393a4U,
  0x3bb6e503b9d59a6eU, 0xbb8801893b120c17U, 0xbc4378813c495673U, 0x3ab66e4b3c34f564U,
  0xbbb28f0dbb7c5305U, 0xbcf14958bd146e1dU, 0x3c0a234cbb775214U, 0xbcfda266bc7153d1U,
  0xbd1d76e7bcb1d606U, 0xbc8872783d23d38bU, 0x394de470bc2fc01fU, 0xbcd2bd213d1959baU,
  0x3cb957123d39de79U, 0xbd0d6f17bd28c780U, 0xbd27369c3b881411U, 0x3a4e6fec3ce0ea6eU,
  0x3d2a72c23c84fa48U, 0x3cdd14a9bb0d83a6U, 0xbc787abdbcebcca9U, 0xbcbcf76a3ce9c94dU,
  0xbd1f0b71bc078427U, 0x3d1d212d3d2319b5U, 0xbd2eeae0bd1ceb56U, 0xbcdf43283adae7deU,
  0x3c17f1a33cdea3ffU, 0x3caf76193cc2cfb9U, 0xbd2940283c925284U, 0xbc28d6343cc9fd9eU,
  0x3d237b81bd1c5039U, 0xbd24fcafbc9096dfU, 0x3d35a7413c497f58U, 0xbc2fca58bcad20b7U,
  0x3cab5af6bb95b8cdU, 0x3bad93453cda8310U, 0x3cfba5f9bd2609d2U, 0xbd0a1976ba967292U,
  0xbcd9b0ba3c756016U, 0xbc2bf9c1bd2c4f0cU, 0x3cf8c45dbc8acea7U, 0x3c3fe2cb3cd523d6U,
  0xbd090e3d3d1ed788U, 0xbbe5cc8d3cd0493fU, 0x3c8a047fbb9617e1U, 0xbc6a89d93cea95ecU,
  0xbd3133dabd0cc6b5U, 0xbc93b0863cdd5453U, 0xbbbb0765ba757bdcU, 0xbc890410bc1665b3U,
  0xbd388d7cbcc2ed39U, 0x3ce016da3d3711faU, 0xbcb1fe34bcb68797U, 0x3d320fd8bcebbf76U,
  0x3cd2834dbc404cdeU, 0x3ca456d23cd149d5U, 0xbc55ee0c3c083d43U, 0xbc0bd6133d22f3f5U,
  0xbce8ba48bc9f51aeU, 0xbd0db9463c0faf6dU, 0x3d221c6fbd2c4838U, 0xbd1987943c8e0543U,
  0x3cc429b13d192a70U, 0x39c37f3cbd0bc9a8U, 0xbc6435a9bd05c9afU, 0x3ce1d9983d2d563fU,
  0x3bedb131bd243a6dU, 0x3d22a034bb53ba59U, 0x3c85ce253d0871caU, 0x3cbb6bc7bc69632cU,
  0xbcaff7d73bc1aa91U, 0xbc265ae9bcf03c1dU, 0xbcf74c483d185f78U, 0x3d0917123c595ed5U,
  0xbd0d7c2f3c6e7956U, 0xbd20426fbb364392U, 0x3c4991953cf9cf2fU, 0xbd14f9edbcc0917eU,
  0xbd378c0b3a976d10U, 0xbc879cdebcf0e74dU, 0x3bc54081bd29c814U, 0x3bb6ccbb3d16dfd6U,
  0x3c650fff3b255312U, 0x3d09d7aebc9e8180U, 0xbba1e2493c2e0c22U, 0x3cdfa836bd0c4762U,
  0x3ce38ede3d151e01U, 0x3b9d30c4bb9029a3U, 0x3b6f6b9dbc9069deU, 0x3c98b913ba85e8dcU,
  0x3c6bad71bca3ab4eU, 0x3d134d5e3ca04d68U, 0xbcddd0eb3c91e6a6U, 0xbcab8419bcdf57e1U,
  0x3b181cf93d1712fcU, 0x3d1938a9bd18c07eU, 0x3c9b672dbce0323dU, 0xbc576ec73cdbff55U,
  0xbd33b5993ce1ad72U, 0xbd08209dbce7ef10U, 0x3cbe97663c396dbeU, 0xbd1c2589bd170b05U,
  0x3c26700bbc13a2efU, 0x3cd5f4933d004545U, 0x3cad49b1bcf96481U, 0xbc9b869abcc1096fU,
  0xbcdcd073bc319e31U, 0x3ce8cd96bcebedd8U, 0xbc723e9c3c683685U, 0x3d0d1b0dbcb562f0U,
  0x3cf77dbd3b929d5fU, 0x3d157139ba27e199U, 0x3ad4eccd3d1cf46aU, 0xbcc7b253bced693cU,
  0xbcb481663b806c74U, 0xbcb96d27bd3052f9U, 0x3ca8bcdc3aa7da1dU, 0xbce318cd3d1c7564U,
  0x3a4c6f9fbcbf64faU, 0x3ce6820d3c9f05feU, 0xbce73a42bd157f16U, 0x3c0f514fbbd3a00fU,
  0x3cdf3a16b8cc156eU, 0x3c210a41bc0321b0U, 0xbc1911943c72ecf7U, 0x3c37c69bbd2820c3U,
  0xbc95aadfbc4ea2b9U, 0x3d3968d83c23df25U, 0xbb2877f3bc8f278eU, 0xbd0c90d6bd24599eU,
  0x3d2e5ac03cb63b52U, 0x3c441039bc4ec593U, 0xbd059a6abcc790e9U, 0xbc7ce9363d1919beU,
  0xbcf836293d06a69eU, 0xbcde391fbd3a2618U, 0xbbfd415f3ce1b265U, 0xbd1a4cc5bc80a628U,
  0xbd14c2cabccbaa97U, 0xbd093466bcac046aU, 0x3d22fe07bcaa6da0U, 0x3ca68d88bb59a4e5U,
  0xbc8b69d73856b50eU, 0x3ca10a5ebd14b765U, 0x3c12b2eb3c49c4faU, 0x3b8ca1b63d33b929U,
  0x3d38aeae3d01d46cU, 0xbcf73b793d35f27bU, 0x3c28021e3c284806U, 0xbd2761aabb939dccU,
  0x3ca6ce7eb99ac585U, 0x3ce35eda3ce1e076U, 0xbc0e6a083d27f3aeU, 0xbcf4a91d3c1b5faeU,
  0x3c0456023cd87cebU, 0xbc02cf703c99a816U, 0xbd2fe3053d01fd4aU, 0xbb3bd9203d0286a4U,
  0xbd3010a4bce625e3U, 0x3d0ae3e6bd325338U, 0xbc58504dbc8bf857U, 0x3d003fd7bcfe76afU,
  0xbc9baca5bcd51d26U, 0x3d044357bc6c0796U, 0xbd2c18c23d390f98U, 0x3c3afd553c163ad7U,
  0xbd0efce63c098204U, 0xbc199be6bd27b21aU, 0x3b9aa6c1bd1bbd5cU, 0xbc73ac4e3cff4787U,
  0xbc357fec3d0d3265U, 0x3d1a48563c2be1a8U, 0x3cfeabeebd112be5U, 0xbc8ffaae3bc9ad03U,
  0x3d2835503c1803f6U, 0x3d131830bd004246U, 0xbb6d39bebcc4299cU, 0x3cf2558ebd32b5c2U,
  0x3d2e23b4bceeb2d0U, 0x3d3a156f3d0caa25U, 0x3c8234c6bcfbac92U, 0x3d30720939424821U,
  0x3c4e83d33c2e85e3U, 0xbcb2bec93abe34e6U, 0xbbe35e623c5a74f6U, 0xbc98197b3cc849dfU,
  0x3cc81319bc015c20U, 0x3d276222bc924a5fU, 0x3d02d4ec3d2b86fcU, 0xbb986b64bc174fa5U,
  0xbc4a8fd6bcc8bb74U, 0x3b1d4228bd30fbbfU, 0xbcbbb14e3cb335d6U, 0xbc3704df3c7488cfU,
  0xbbcff696bc04eccbU, 0xbd06c4013d148624U, 0xbd08dbf23c8826ebU, 0x3cb5d2f2bcaf2dfbU,
  0x3bdfb653bd0346f6U, 0x3d132a603ce5ec55U, 0xbceb3d26bd21082bU, 0xbc351f683d2d39d5U,
  0xbc999ed23d107a05U, 0x3cef4910bd0fdfb6U, 0x3d26c8e5bc196e13U, 0x3c764387bb365a07U,
  0xbd36c9833d246577U, 0xbcdcfd2b3c90997cU, 0x3cf68c053bfc9794U, 0xbd3933f83c217c23U,
  0x3c4d336ebd0a3160U, 0x3d1ca351bc94666fU, 0xbc8c912d3d0c74b7U, 0x3d36b65cbd315a26U,
  0x3bddc34ebb455618U, 0xbbb879813d1961adU, 0xbd0bb271bbd64baaU, 0x3c8408fcbcf54e2fU,
  0x3d0c974e3d0d517bU, 0xbcffc731bd0299a5U, 0xbc2ffba43c669e7dU, 0x3c0ed355bcb2da34U,
  0xbd3a01fc3d1bf498U, 0xbd074a3bbd12477dU, 0xbaf9f3df3bfbcd26U, 0x3cac68113d2920caU,
  0xbb2ab3c5bc8a4792U, 0x3d0dbe35bd0be79eU, 0x3b36d78cbb241951U, 0xbc83ab913cfceae9U,
  0x3d30163c3d2a3cf1U, 0xbb38036d3c4f3c51U, 0x3d30abc13bcd9585U, 0xbc9fff1a3d2605beU,
  0xbcd5fa1fbd17f7efU, 0x3cf7a6b43c442ab8U, 0xbccb7b59bc5b4fccU, 0x3caa3909bbc9f5dcU,
  0xbc6283003cdb908bU, 0x3d2ae3a03c8703b0U, 0x3cdc0cc93d2bd50bU, 0xbc947043bce7cd2cU,
  0xbd282d363d2ff8ceU, 0x3cf443a83c3541f5U, 0xbd0852593c56e4b4U, 0x3cb172a93d29a096U,
  0xbd193f72bd33cb1eU, 0xbc42eb773c9fea1bU, 0x3bd37ff93ce18899U, 0xbca51d64bce52a64U,
  0x3c68b2fd3d195f00U, 0xbd37bafabd27afb8U, 0xbcac0fc23c01f604U, 0xbc910a693cf380abU,
  0x3ce0316d3c10d7f9U, 0x3c440f0fbcce7c28U, 0x3c2b861ebd23a7d3U, 0xbc924bb1bcda4884U,
  0x3ce2d3983d0031bdU, 0xbba8c3143c6f7eb1U, 0x3cf1182f3b42e3ddU, 0x3cd2dc683c2714cbU,
  0x3c3a4cbc3c5a0920U, 0x3cad962837c9b2e6U, 0xbd2eaee33b5fc950U, 0x3d196980bc8a1211U,
  0xbc903dadbd0ca59fU, 0xbc52a5973cb7fe59U, 0xbcd09e68bc96bed5U, 0x3cc6c23a3d277290U,
  0x39e5424cbc3ae295U, 0xbcc975c33be83711U, 0xbd31fefbbd2f0057U, 0xbb8696ab3bb38db3U,
  0xbb263f983ced8ae0U, 0xbc2823243c85fd78U, 0x3caf1b65bc7ec063U, 0xbd3a49aabb6ace44U,
  0x3c0b9f87bcd3cbf2U, 0xbcab29ae3c289fd1U, 0x3c469ff6bbb5bc77U, 0x3c4922f7bcc0b749U,
  0x3ab753f93d35385dU, 0x3c72968abb7172f2U, 0xbd17825a3d288f51U, 0x3c4ce13abcb20501U,
  0xbcf5b62e3c719eacU, 0x3c109319bd2c54dbU, 0xbd08abe93a870a9bU, 0x3bb764f33bc14a7dU,
  0xbca371903b266f6eU, 0xbd1596033cb50910U, 0xbd18101f3c88dcc6U, 0x3d2fd303bbb69f0aU,
  0xbd20f7e63d071f4cU, 0xbc081a183cd39171U, 0x3c4f34313c5221c5U, 0xbbc68a0d3d2e5a3fU,
  0x3c9d46843d04a406U, 0x3d168532bd3218f9U, 0xbc9a4dd2bd31dcf2U, 0x3cfaa9b9bc01d87cU,
  0x3d307515bc23c34dU, 0x3d0fbae3bb28be6cU, 0x3c316a0bbb5e62a6U, 0xbcfbd45cbc93e1b1U,
  0xbd074ca4bc84f424U, 0xbc97083abc015a88U, 0x3c31db553bdd3976U, 0xbd20666cbb56e7e6U,
  0x3cd48e98bd297deaU, 0xbbc0f14d3d2b2b98U, 0x3c034baebc2ba193U, 0x3cb609893d00253eU,
  0x3ce1122dbd1db985U, 0x3a86cf73bd188ef2U, 0x3c8795453d0b9d94U, 0xbbf0d44abbf943deU,
  0x3bb9c9143d2820f8U, 0x3d2f2961bd116674U, 0xbd28d21b3caca309U, 0xbc738b9a3d1ce645U,
  0xbcf7c7e33c35f2ebU, 0xbd2f26833d063ebeU, 0xbcc6319b3b5e6591U, 0x3a5e1fd3bd3a0df5U,
  0xbcb7ecef3cd2bee9U, 0x3cdae9683d00902dU, 0x3d12cbf4bbb9a326U, 0xba17dbe33d04a00fU,
  0xbd2f3aca3ccd170aU, 0x3cc4adfabc833fadU, 0x3c97696f3d161b8fU, 0xbd12ecce3c2d71d0U,
  0x3cb40341bd38e648U, 0x3d1ae637bd2b85b8U, 0xbcc40f9e3cc8d547U, 0xbc9c09683c8a7c3bU,
  0x3cbe4b8d3ce779e9U, 0x3cae968fbce49719U, 0x3d1a97d6bd388a76U, 0xbc941d4b3bb1fe17U,
  0xbc53b5c9bce1ddbfU, 0x3cacc97ebd38bf4dU, 0x3d0f90d13b3550eeU, 0x3cbc8b49b9eec22fU,
  0xbd28b724bbcf5ff6U, 0x3d2241c9ba4133b6U, 0xbd18834a3c5821c5U, 0x3b69f0ce3d27a1eaU,
  0xbc0ac13fba48b178U, 0xbcc6b783bcf1d9b9U, 0xbc1102373ce13362U, 0x3cb44dc13b38b226U,
  0x3d2479bebb1587b1U, 0xbcd827d1bc55c90eU, 0x3c426cb03c6f9ee5U, 0xbcb83565bd1031f7U,
  0x3cb96c343d1ef4c6U, 0xbcfff3bbbd156091U, 0x3b49decfbcd10740U, 0xbd2f19933d1e8e71U,
  0xbd11d980bb5836beU, 0x3cb14dd0bd2a96ffU, 0x3c9d1af83d2c8424U, 0xbcec6d8e3bedb5d9U,
  0xbc80788fbc91a59cU, 0x3d3727aa3c982929U, 0x3d2443793c8bf051U, 0x3c824f0ebd108501U,
  0xbd2674793bb0a31bU, 0xbd25064dbd3860d3U, 0x3c5a17e43d136631U, 0xbd07a19fbcf86523U,
  0x3bd0c8bb3d12ea52U, 0x3c56cb883d029102U, 0x3d2fc451bd247b27U, 0x3cd510f0bd1518e4U,
  0x3cacfcb73c849776U, 0x3cf5de41bd26ab20U, 0xbcc0aa19bd0f0f32U, 0x3ca869a0388fa3e7U,
  0x3c754af4bd25fad8U, 0x3c2a33603c8a45d6U, 0x3c37040d3cea0bd1U, 0x3c91e8943c3d4389U,
  0x3bb00e2cbc1a41dcU, 0x3af3d6d8bd2d9775U, 0x3cf550cbbd1ba395U, 0x3baf02d63d239c29U,
  0x3ccba306bce2ede8U, 0x3c5478b5bc40ba5eU, 0xbd0caac4bd2b4729U, 0xbc9159e83d340c27U,
  0xbce49eed3d04ebaaU, 0xbc23d0553cfb9689U, 0x3c14ea4a39f1ba6cU, 0x3cb773543d0b90acU,
  0xbd3966683c4c9119U, 0x3c30cfa23cda3b0aU, 0xbc3802a6bd22a45aU, 0xbd2af591bbfc954bU,
  0xbd2a934dbc6fff0bU, 0xbcf4c4c0bd314c3cU, 0x3b8812843c9a695dU, 0x3d212fb3bc5dd899U,
  0xbc0ab5b2bc3f7eadU, 0x3d04c161bd00eb56U, 0xbce9915d3c9c0da9U, 0x3d04fa58ba7ebac0U,
  0x3ca7e8983d210d79U, 0xbbf2014fbb8f33d9U, 0x3d1ccee8bc9aeb5bU, 0x3bb89b83bd11ce52U,
  0xbd1d63e93caae94cU, 0xbd1284a8bcbaef66U, 0x3be391f6bc1a2b56U, 0xbc911d2e3d2f30aeU,
  0xbc003040bb8eac26U, 0xbcd30230bc1bd39dU, 0xbccb309b3c6f10f1U, 0x3cce73d9bc49560aU,
  0x3c910d40bd390b52U, 0x3ccf328f3c90fe41U, 0xbafce3b63b3cf493U, 0xbccaf5f7bcefb970U,
  0x3cbe1d9fba093d1dU, 0x3d01bd0a3c8364eeU, 0x3cec0dcc3b600016U, 0xbce4344b3d19fcefU,
  0xbcf0b942bd17f6d1U, 0xbd09e5763a6f9656U, 0xbcd89aabbc3eaba4U, 0xbcf66a04b7ca1c10U,
  0xbc38aec53c873799U, 0xbd0f545fbb8e4efdU, 0xbd0ce35dbc1b5170U, 0x3ba7f2653cffeb3dU,
  0xbb29f8d03d1f91f8U, 0xbd2e3fe93b25e60bU, 0xbb9ece6fbcbdebc7U, 0xbc4d823c3d2d5dc2U,
  0x3cc43bf93d11bd6bU, 0x3c2aa6fd3c49e50aU, 0xbcdd0bd4bcd4aa9eU, 0x3c18c9b63b80941eU,
  0xbd290a9bbc95b7acU, 0x3cb1089bbba9e013U, 0xbc2f6be93ccd4b82U, 0xbbaa87503d025420U,
  0xbc87c7403c2c59c4U, 0x3aa5c158bcb45292U, 0xbd2dd5ffbc0b90a6U, 0xbc51afafbbf0db2eU,
  0x3d0bd7bc3c4f6195U, 0xbc0aee7a3d0fc5dfU, 0x3cc9b9bf3c370cb3U, 0xbd00fb1b3d3ae5a9U,
  0xbcf696993d3a55e0U, 0xbc35f2533c81e327U, 0x3c284127bcecdf1eU, 0x3c5ddee0bc57c961U,
  0x3c2500913d3487e9U, 0xbcfbd7073c6f2c14U, 0xbb8624903cc54482U, 0x3c89b41cbc723ac6U,
  0x3c6209e83c01cf1aU, 0xbd29e5d53bedce96U, 0x3ced4cc9bd2b1f21U, 0x3cd26c173cc4152aU,
  0xbc8964013ce39c70U, 0x3c4fa0463c118ffcU, 0xbae158833d181d58U, 0xbc2b19773d0c8219U,
  0xbce53f98ba30421dU, 0xbd3730193c8d45d3U, 0x3d1d1f6abd3299b3U, 0x3d33e9743d330a52U,
  0xbc0203e43c9fda56U, 0xbc2511cc3ba1756dU, 0xbc88f5a93b9fdb3aU, 0xbd38f8723d19d19bU,
  0xbced1b55bc560c55U, 0xbd372846bc989114U, 0x3c1c4eb13d385557U, 0x3d23ce513b0c463eU,
  0x3d0aa7733ce9f050U, 0x3c58c6dc3c31ca43U, 0xbc009329bc2c6b22U, 0x38c1bed53c57a71aU,
  0x3c64be693ceca5fbU, 0xbcc5bdb1bd36fdc6U, 0x3d1341b23cf30bd2U, 0xbb1a7d383b8d5468U,
  0xbcbe764c3d1b0f8dU, 0xbcaa20513bba4f0aU, 0x3cedbb0dbd2ee7ddU, 0x3c5c5b3f3c9aa225U,
  0x3bfe01653d38c819U, 0x3c6fa901bd0e8dcaU, 0xbcfba3da3ca70ac4U, 0x3ce6339d3c32cf1dU,
  0xbbf00da6bc951179U, 0xbd333c8bbd34496eU, 0xbd07cfe5bbb4803fU, 0xb9fc3cd63d326f13U,
  0xbbef407b3cbe3399U, 0x3ce211b0bcec2ab3U, 0xbd1c52fc3d2cf055U, 0xbc857fafbd0136b7U,
  0x3d05f94dbd2943a8U, 0xbc398b9e3c1d2a6cU, 0xbd26e6213c073d50U, 0xbcb529b33cd71063U,
  0xbd25754a3d0e5922U, 0xbb392976bc15647aU, 0xbc23025d3d38f47aU, 0x3bb7fb9f3c23bff2U,
  0xbc0df4463c5fffc4U, 0x3c8bff84bb4fceecU, 0xbc7136613cd4049fU, 0x3be040083c8ea4a7U,
  0x3c0f8bb0bc6feea2U, 0x3c5d4a483d2aea9cU, 0xbce4031d3cdb6c10U, 0xbd3504223c398bbbU,
  0x3d127d013cb640b5U, 0x3ce063223bffdcc5U, 0x3cddc01c3cafedb2U, 0xbc3f65e4bc823c71U,
  0x3cc0e49fbbde983bU, 0x3b151e293d152457U, 0xbd0fcae3bc8f1ec2U, 0xbd34e8d7bd297c3fU,
  0x3c150f8e3cc5814fU, 0x3d1612b8bc721469U, 0xbbb052d23d076aceU, 0x3c94df0fbcd71655U,
  0x3b8ec1bdbd1095c6U, 0x3cbb34cf3d324e3dU, 0xbcd19b25bcb5f285U, 0xbc2473593cbf4579U,
  0xbce850a6bae1fbebU, 0xbd136946bc864c05U, 0xbb457b3f3acc5e46U, 0xbbf487b6bb892c80U,
  0xbc1ff527bc89d2cbU, 0x3c4d577d3d04b1e2U, 0x3b91a6f13d33b710U, 0x3bb6d0043c87ed34U,
  0xbcceb7493d06c947U, 0x3bd49a5ebc15c7baU, 0xbd3a935a3c45e397U, 0xbca78a2b3d26a4ccU,
  0x3d2105f7bbbd20d9U, 0xbcc65188bd000636U, 0x3ccc1e143d3a2d39U, 0xb945356abd3286adU,
  0xbc7e334e3cabbefdU, 0xbcd4138c3b36f263U, 0xbd31b80bbd244e59U, 0xbd255b09bd190e1aU,
  0x3d024ff4bc115786U, 0xbcfbcd3abcc56961U, 0xbd258a0fbc7882aeU, 0x3c32ed313c43c624U,
  0xbd16765c3ba797bfU, 0x3d03b077bca824e6U, 0x3d3159aabc125b65U, 0x3d24631cbc8a2124U,
  0xbca5f64dbcb85cc6U, 0xbd3475383b24eae9U, 0x3d38eeef3bdc93afU, 0xbc75d4343b8832bdU,
  0xbb921d1dbc78f6b5U, 0xbcba2cb2bcf60f8dU, 0x3d3845db3c16ef7aU, 0xbc9bfb53bb252b8bU,
  0xbd36e5ba3c4a6c88U, 0xbbf1d4133ca9f220U, 0x3a3727f9bc2d40b3U, 0xbc6675293c7a1d39U,
  0x3c4d9d763c36583aU, 0xbca1e53ebba216eaU, 0x3d10cdd73d333465U, 0xbb1d221d3ca1e087U,
  0xbccbf6b0bcb94b0eU, 0x3cf185efbbf36e81U, 0x3b78a8aebd323dc3U, 0xb9c9d193bc19d51dU,
  0xbd017268bc4a94d0U, 0xbd2d1e03bcd8dd34U, 0x3d0127aa3d324946U, 0x3d272007bd0bcbf8U,
  0x3cb485823cabf727U, 0xbccd537c3b5b87e5U, 0x3c8eba153cf18ba1U, 0x3cf9579f3cb12cffU,
  0x3cc97d25bcb32d8dU, 0xbb9e6574bbdfd0cdU, 0x3ca60f65bd0c8f14U, 0xbce599ac3c28e11cU,
  0xbc2cc458bcd46023U, 0xbc8965dd3c09d74dU, 0xbd31bfb5bd1708d7U, 0xbcc1d89f3d036ddfU,
  0xbcb351e53cd08917U, 0x3b9b67303c64dbebU, 0x3c66664dbc1369dbU, 0x3cdd63c33c0b57aaU,
  0xbce8cb2ebb8a104fU, 0x3d0953b8bc9db84eU, 0xbd0d523d3c2ec212U, 0x3ca44f79bca6eda5U,
  0xbc84f4643c30e348U, 0x3d2114193c7b57d8U, 0x3c645e093b15cb3eU, 0x3bd41a7abc5a0a68U,
  0xbb29e5a53ceb5c67U, 0xbcbdfe55bd3561a3U, 0x3d3314e4bcc2374fU, 0xbd02383d3c71afe1U,
  0xbd293642bce6c6e8U, 0xbcc404af3ce04964U, 0xbd1ed0493d1ed798U, 0xbc4ae86f3c85857bU,
  0xbbdea9c2bd00e2b9U, 0xbcd623303d1bb9a6U, 0x3bb455e4bd09bc99U, 0xbc39fbacbc6a0a75U,
  0xbcd184443c8cbfdfU, 0xbca54474bce61bd3U, 0xbd0ebc8cbca0456eU, 0x3c0d85ffbd1e5e05U,
  0xbd3655eebd25e118U, 0xb99d0ad6bd1711b5U, 0xbd37c4d0bcc1e9ecU, 0xbc5f1b6fbc6db867U,
  0xbd3ac60dbc14a962U, 0x38cb74c3bc76a303U, 0x3cbb02ec3c2b583fU, 0xba89385ebbd06ab4U,
  0x3d12afff3b44879aU, 0xbd0ae65cbcb9679bU, 0x3a95c520bb932694U, 0x3b927d9b3ba6439cU,
  0x3ca0fae8bb1b6a62U, 0xbc8aff5b3d1f8478U, 0x3ba96c8d3b517c6dU, 0xbd1e06d43ca4d1b4U,
  0x3d118711bd15826fU, 0x3cb13a84bc608102U, 0xbd1910523c113d9fU, 0x3ccf42453cc54c2bU,
  0xbd285e8dbb9f4c3aU, 0xbd36478cbbe8973dU, 0xbcc59d46bd156e01U, 0xbb12aaee3d1a3ce4U,
  0x3bac91cbbceb2c14U, 0xbcc700d4bd079b2bU, 0x3cfaeaa1bd3213feU, 0xbd3a17103c85ec2eU,
  0xbc9c4dc23cc1e9f1U, 0xbd22d7b5bcb68725U, 0x3cff7ecabc9a5716U, 0xbd359a4f3d258895U,
  0x3c730f39bca2b8b5U, 0x3bd70eed3d266a7eU, 0xba74512b3d27fd23U, 0xbc8faa01bd057ea5U,
  0x3d2c79993d131ec6U, 0x3d0a745fbd346e5eU, 0xbcfa2481bc698282U, 0x3cc40388bcc1b141U,
  0xbd101a1bbced1d94U, 0xbc236760bd2289dbU, 0xbbf36d16bc81d15aU, 0x3c6e61b23c41ed23U,
  0xbc6c60b5bc7ca5cbU, 0x3d028d4d3d1f9020U, 0x3d05f28d3d0a8693U, 0xbc0bc194ba4badbaU,
  0x3c1ed12cbd1edef5U, 0x3d29932cba38f181U, 0x3cb2a15ebb9c9ab0U, 0x3cb4e8a53cfbd710U,
  0x3d002854bc63a753U, 0xbce268c1bceea903U, 0xbbb393adbcc2820dU, 0x3c4c13da3c27d0aaU,
  0x3c39a920386b8b24U, 0xbc4a78323cf6da21U, 0x3d2818e2bc227a5fU, 0x3d082e57baf49f7eU,
  0xba55d078bcc874eaU, 0x3c7c06e93c891a4aU, 0xbd2ec469bc86ee08U, 0x3d20cbe93cb181e2U,
  0xbd382cf8bd093bd2U, 0xbcf4c3e53c85dbabU, 0x3c96fcc53c559877U, 0x3c5bd13ebb1ae48eU,
  0xbccbbf123bc7f805U, 0xbcacfc02bd253cbdU, 0xbd35c175bc8940e1U, 0x3b9121c1bd25a1aeU,
  0x3c9cc78ebc4ae7e2U, 0x3ce3848b3bb89ba6U, 0xbd1e5655bcba05ebU, 0x3d2d67c83c4e8003U,
  0xbc95f4413ce7fd05U, 0xbd28e3373d04c783U, 0xbc062c0cbcce4978U, 0x3cb8b734bd12b3d7U,
  0xbd0778433c2b0bfaU, 0xbc997240bd120aa4U, 0xbbecfad8bd359b5cU, 0x3bf90c0c3bb803b3U,
  0x3ce28129bcc06639U, 0xbcdea1cbbc73262eU, 0x3d2ba7b5ba761b10U, 0x3d072be53d09fbf5U,
  0xbbe4a5c93c91b0bfU, 0xbd387e2cbc137b73U, 0x3cff78123c85b2c0U, 0x3d21006abbc419b1U,
  0x3b9634503bdc3098U, 0x3bcc8ac73d11ef80U, 0xbccb8a083c202a2bU, 0x3cbae4e0bd251dccU,
  0xbbf5abec3cea1bb0U, 0xbd337463bc9ad559U, 0xbc70e629bcd6c796U, 0x3d33c7153d2f8789U,
  0x3d2a46a73cbd7ffeU, 0xbb0151b8bc16f592U, 0x3b257d56bd30f294U, 0x3c88a6463d086da3U,
  0x3b382736bc3a0c15U, 0xbd0912ccbd127498U, 0x3b372db93d2f1528U, 0x3c7983f9bc7281a8U,
  0x3d0a6d413cfbd30fU, 0x3ce35902bce275ccU, 0x3cd5e2dabc53dcfeU, 0xbd364d383c82ef8cU,
  0x3be71eb9bcc2bbbeU, 0xbcf69cb1bd20e33cU, 0x3cc4050a3d36ac7dU, 0xbd19a4bebc77f90bU,
  0x3c302f1a3cc0ed51U, 0xbcda87c13cad6c7cU, 0xbcbe95a7bca978c3U, 0xbd39f9d13cb9d982U,
  0x3c2c9902bd16d905U, 0xbcf7cdd5bc18a685U, 0x3d02e41abcf83e9bU, 0xbcb7c0e33c86c522U,
  0x3a51cdac3c878a56U, 0x3d24d5a7bb3c35c9U, 0x3c11529ebba55234U, 0xbb91756bbc926c48U,
  0xbc63af383ad5b775U, 0xbc8c8567bca3e5aeU, 0x3d3226443c97745eU, 0xbca84e18bcc11042U,
  0xbcb21f05bc1f71bfU, 0x3d0f09b03cc9ced3U, 0xbce984ea3cdf1116U, 0x3d1df07cbd2010f3U,
  0x3cbb15fd3bca3643U, 0xbcd0836e3cea6b53U, 0xbcada676bc732e02U, 0x3d261cd6bd050e3aU,
  0xbcde2d24bb7e57e3U, 0x3d1447373c9c9914U, 0xbbd7856a3d32c7fbU, 0x3d1f68523cb9de36U,
  0xbaf9a2a0bd0d1453U, 0x3d28d27b3c9ae0a2U, 0x3cf9d4143d084a22U, 0xbd1f193e3cd77138U,
  0x3d22db633d34e60dU, 0xbcb80f573bf53e0fU, 0x3c9d751e3d36f248U, 0x3c6377b73d33748eU,
  0xbd239a863c299359U, 0xbc82da64bcb5610eU, 0xbd012c193d1da36dU, 0x3d2784ee3c041818U,
  0x3ce9c875bcf909f8U, 0xbd10adbb3c522988U, 0xbc7761303c9c245fU, 0xbcc0a1d0bd362c05U,
  0xbd37c58bbcdb2686U, 0xbcdf4b623bacc8ccU, 0x3c1ae03ebd118fd9U, 0x3c5981dd3cc0af70U,
  0x3c79dec2bca688daU, 0x3d383b75bcc72fceU, 0x3a84d8473d087570U, 0xbd15f5e1bd123b89U,
  0xbd0aa642bcbbc014U, 0x3d3420ec3d05f387U, 0x3cf1c8c23d206ffeU, 0xbc826eb23ca02be7U,
  0x3c418f9dbcd3b3beU, 0x3d38ea703caf9ec4U, 0xbbe1e547bce6831dU, 0xbce14bc7bcae9c4aU,
  0x3cec33c8bd2f2708U, 0x3bdde6393cabf1b9U, 0xbd2affcabd3adf56U, 0xbc93ff85bd08b1eaU,
  0xbc14bcce3c97bbc7U, 0x3bb062853c3614beU, 0x3d39ac25bd18ff8cU, 0xbc27ff443c53d7a7U,
  0xbcad3ba23d148923U, 0x3d16cd9cbd28cdd3U, 0xbcda6a0abd2d615cU, 0xbd26d2e4bc2fededU,
  0x3c8ec94d3ced3fdcU, 0x3cc420ed3b164b51U, 0x3cdffc8ab92fa45fU, 0x3c0ab8b0bc30d966U,
  0x3cf988fcb90aa46cU, 0xbd337cdb3c8e2e52U, 0xbd39645abc40b0c3U, 0xbcdc9d683d060096U,
  0x3d1c1885bb6822e4U, 0xbd21be00bc4124f2U, 0x3cd0ef09bce8f6d1U, 0x3c5a92bebd3733ddU,
  0xbd30f107bd0a695aU, 0x3b8d8d8d3cfb2fdfU, 0x3b23d880bc9597bfU, 0x3c95e2a0bd2d65dcU,
  0xbc579732bc0c74deU, 0xbc90a8af3d0ce7ebU, 0xbd11af413c6b0057U, 0x3c4a3721bc7ffbbdU,
  0x3c25cddfbaa4c795U, 0xbcc98475bc422b08U, 0x3c7205a53cef0ac2U, 0x3c927408bceeecc5U,
  0xbc9d3a943cd272c1U, 0xbc887111bd09c98eU, 0xbd0bf42abcd291ceU, 0x3ca9c2aebb833f09U,
  0xbbf2bc5b3c8b1128U, 0x3c6abf293cedd150U, 0x3c511355bc919a76U, 0xbd3a79dcbc8ae70dU,
  0x3a9f9183ba54152eU, 0xbc122347bcca8107U, 0x3c7f9bafbcddea43U, 0xbd2a84b63be1542dU,
  0xbab1103dbcc30d00U, 0x3d2c029cbc085213U, 0x3d04ed51bcfeb0dcU, 0x3c07865e3c8bedd8U,
  0xbcea68bfbb79c86bU, 0xbceda78fbce96b8aU, 0x3c87e2a8bc801092U, 0x3c9124fcbbf1b6d1U,
  0x3d28bbc3bd0f5e69U, 0x3c0c1f603d0d332eU, 0x3ceed1c9bd060a81U, 0xbc70bdec3b33743bU,
  0x3d1046c3bcc65bf6U, 0x3cf6b894bd0d462aU, 0xbc1f6840bd11ce80U, 0xbc0a6a6e3c62258bU,
  0x3d089809bd2d604cU, 0xbd13c5323b406105U, 0xbcb247cebc8c43cdU, 0x3d3aace43c2313a4U,
  0xbc18d69b3c7c1ee5U, 0xbbe0ff0d3d26cb92U, 0xbc51bfe93d159cb4U, 0xbd14ec243d15b2ffU,
  0xbcb7effe3cf829cdU, 0x3cebbb433d014717U, 0xbc1ba769bd247e76U, 0xbc148b6bbd0abbecU,
  0xbc1c100cbd0534e6U, 0xbb7b93513c3209e3U, 0xbd183c223d2c4b61U, 0x3d24280dbc66342fU,
  0x3cc9d6dbbccf79e6U, 0xbc538aad3d0cf0edU, 0x3b4c7eaf3c46310cU, 0x3d2fd967bb85ca6aU,
  0x3d2d2540bca35fbbU, 0xbc8de386bc58cbf3U, 0x3c67f713bd1bc1e2U, 0xbcaaf932bd24b7a7U,
  0x3d32963c3c3edd4dU, 0xbcf4d5debc8de69dU, 0x3be650ebbd28c5b8U, 0x3a84a00bbc0d6ba4U,
  0x3cba06bebc1c2006U, 0xbca01b7b3c86b148U, 0xbbdae899bbd2783eU, 0x3ba1e2033cfdfadeU,
  0x3d275480bc29a769U, 0x3ca7411d3c888a89U, 0xbcf68aa4bc549109U, 0x3d36559abcddb681U,
  0xbc9cb9b13cff5186U, 0xbc158e66bc911a33U, 0x3c8d0a54bd200753U, 0x3bb4dc8abd246de9U,
  0x3ce9df133cd6cc61U, 0xbcd1bc4039b014d6U, 0x3cf0b1f4bbb248cfU, 0xbc8accb93c38febdU,
  0x3b529a85bba9413cU, 0xbb8069cebcc35ab3U, 0x3c923115bcc90696U, 0x3c79b7d93c9295bdU,
  0x3d3acc693d0cf93aU, 0x3a951a0ebcac745eU, 0x3d2694de3b558427U, 0x3cf7490ebb104fb4U,
  0x3d1cf122bcd07fa1U, 0xbc59ad623d142eadU, 0xbc633a303cd81208U, 0x3d011326bc6b3032U,
  0x3c507d653cf7f1dbU, 0x3d232096bc222bfaU, 0x3cedeaa23c9b5e3bU, 0x3c9196283d07664fU,
  0x3d2c8769bca4120cU, 0xbd12b8173d075cd5U, 0x3ce5c09e3cf9e01bU, 0xbccab0a2bcde667eU,
  0xbc3121dcbb7f9490U, 0x3cc4e2ec3d1f3459U, 0xbce2dd45bc0d075cU, 0x3cf69b2dbd31408cU,
  0xbc2cc6b8bc215cdfU, 0xbd0a87bfbd26fae1U, 0x3c841c28bb06eeacU, 0xbd1c3e0d3d1f1b89U,
  0xbb95ec32bd1fbedfU, 0x3d391f27bd048d15U, 0x3c804680bbd8f8c6U, 0x3d177b243c7dddadU,
  0x3d33b019bcbaf6ceU, 0xbd1231b7bcfaab09U, 0xbd1064e9bd2bbfa5U, 0x3ba4e4283d20a3c9U,
  0x3b8781d3bc9e311cU, 0xbcd28f343cf846b5U, 0x3c5255b1bd06007cU, 0xbc0c3db53d1ca175U,
  0x3d277423bd166ec8U, 0xbd30a3c23cd1504aU, 0xb89ee8733cf66e74U, 0xbc48a482b902a335U,
  0xbb84e4a53cfccd21U, 0xbd100881bd16d9e6U, 0x3cc458ce3cdf83fbU, 0xbce70a7ebcca77b1U,
  0x3c31374a3c97c66cU, 0xbcace247bca58b9fU, 0x3cb92f77bd207153U, 0x3c9708babc17ec05U,
  0xbcb0385ebc0d4601U, 0x3c1728363b898581U, 0xbd320a873c5c7b27U, 0x3c394dae3c6be83bU,
  0xbc39b449bc46423bU, 0xbb33d2fcbd1a329cU, 0x3b0836aaba1defc8U, 0xbd1396033d27d06eU,
  0x3d0091c33b992ecaU, 0x3c3e4ca83d00c835U, 0x3d1c644dbd20311aU, 0xbac632a5bc8fe4a5U,
  0xbc1db62e3cdb5b50U, 0x3d32899dbcd4ac5dU, 0xbcc6a8b6bc25c1b0U, 0x3cdd1cb53cd73baeU,
  0x3cce19e5bb2c8dd3U, 0x3d106dd03d06cdb1U, 0x3d1e2e8ebd246b2cU, 0xbb7984f5bd1d64f2U,
  0xbd32b8bb3cb98c79U, 0xbd2780523d02f53eU, 0xbccea2393cb28901U, 0x3d16464e3c2b9fd7U,
  0xbc72e84f3cc7b2a7U, 0x3d16051dbb58aff8U, 0xbcdbe69bbbdfffdcU, 0xbc36515b3cee81eeU,
  0xbcce524abd33e62bU, 0x3d23fad63cb65ab6U, 0x3cdff062bd202299U, 0xbd06c9283d23b825U,
  0xbd242b903d38c1edU, 0x3d0497b9bc92fe06U, 0x3a9d33ea3ccbca29U, 0x3bf050043d3a19dfU,
  0x3d02232b3c1b4a4cU, 0x3d0f0d2a3d2d34daU, 0x3b7dc2453cfb2a6bU, 0x3d1e0486bbec043cU,
  0xbd21a48c3d381ca6U, 0x399b5a80bc66160aU, 0xbd12943a3cbb2311U, 0x3d3584623c7b84aaU,
  0xbb25df323ccde891U, 0xbd244cbfbd160a5eU, 0xbd14e641bce07448U, 0xbd33aaa1bd34989fU,
  0xbd240d943c8a3236U, 0x3cd6421f3c401bb0U, 0xbc84856fbd2ff4c4U, 0xbac603e8bce00143U,
  0x3cbd7ae13b794d5dU, 0x3d18c3c1bcb9e0dbU, 0x3d1d50b6bce7e855U, 0x3bc832b83b75f32cU,
  0x3b7c1fb7bd2b53c6U, 0x37928fbabca3f4dcU, 0x3ccd088f3c30bc30U, 0x3b7f655ebb093ba8U,
  0x3bf5429fbbb90e4eU, 0x3d3a9e7cbcd082bfU, 0xbd2288923bc4c29fU, 0x3c89f9023c980cdfU,
  0x3cc776213d1414a7U, 0x3cbad175bc59a127U, 0xbd3992c63d14b405U, 0xbcc57a04bbec7f32U,
  0xbce7c6573d2c0f51U, 0xbd2eef5dbaf76b5eU, 0xbd35736a3c4cada6U, 0xbbee5cc4bd0394d3U,
  0xbcfbb8dfbc874b45U, 0xbc95b3133d06960cU, 0xbd2aeb15bceb315fU, 0x3b4d1f423b975684U,
  0x3cf9b69e3d08a3bfU, 0xbd0be7d73d28f803U, 0x3c426a1c3aa95006U, 0xbd3ab613bce4249dU,
  0x3c95ce7fbcde44baU, 0x3d040c333c3af98bU, 0xbd0646953cda80ceU, 0x3d12076f3d37722aU,
  0xbbc069b13d34d242U, 0x3d38b135bc8891bfU, 0xbba6cec7bd30a285U, 0x3c625e8dbd11716aU,
  0x3c738de23c4b8763U, 0xbd1d69a6bc06c456U, 0xbd39a663bb01eed3U, 0xbb59df0b3b0e9885U,
  0xbce49e4d3d0d7b40U, 0x3d29a9c13c820585U, 0x3c3c423ebd10598cU, 0xbc6846f33c991639U,
  0x3d24971fbbe2ff7eU, 0x3c773d7e3c5eac85U, 0xba287cc9bcb78146U, 0xbb1d465bbbbaeb82U,
  0xbd2f04983c4285d7U, 0x3d06c7843d2b4964U, 0xbc9421f53cde0c8aU, 0xbba0e7d7bd2a21a0U,
  0xbb5895c5bc880567U, 0x3c6809323bff511aU, 0x3afadbecbcc97b5aU, 0xbc3e597cbd07f31eU,
  0xbd2b54c1bcc62505U, 0x3cce6e303aae8f0aU, 0xbbb09d4fbbd15c92U, 0xbd13802a3c3703a4U,
  0xbd3952343c327521U, 0xbd01b5613d179629U, 0xbcd2cb713cad3d41U, 0xba09e0563ce81819U,
  0xbcff0daa3c837e38U, 0x3c8c3ed9bcd321afU, 0xbd2e13863cd9b6e9U, 0xbd076a69bc910e81U,
  0xbd01fefabc15af55U, 0xbd3a4eaa3cca42f9U, 0xbd0d8b54bc3fff35U, 0x3ce665a43c91673fU,
  0x3d39dea83d35721dU, 0x3bb53bef3d2569c1U, 0xbcd55d07bb941276U, 0xbd22501bbc724f96U,
  0x39c27d713b5b4a8cU, 0xbc9c02d53d2c3240U, 0x3d26dff6bcbee6d4U, 0x3bd207b03cd11fa5U,
  0x3d035c5ebcfeb826U, 0x3b7381ac3c47f7ffU, 0xbc4883c8bcb30100U, 0xbcc4db193c4aa466U,
  0xbcce4d70bc84921fU, 0x3ca0ad9f3cf337a4U, 0xbd29d8e13aaaa6b7U, 0xbbf7c0153c8513e3U,
  0x3cf446e6bcb05fd1U, 0x3d086fd83d093fafU, 0xbc449f103c8492b4U, 0x3c57dea6baf46f7aU,
  0xbd386195bd07778eU, 0x3b24de96bd21163eU, 0xbc993d1fbc6062bfU, 0x3c88eaa33c9d0c6cU,
  0xbc9bb07e3caeaa50U, 0xbd324a9c3d0aa960U, 0xbd3196ad3c20788aU, 0x3c68201c3cd466adU,
  0x3d1243cf3c0302f2U, 0xbc3e9db83d1af337U, 0xbcd52271bc9be39aU, 0x3d36afb93d154ca9U,
  0x3bcb55e8bc764084U, 0x3ce81cb83c40abdaU, 0x3d2e475a3d17d86eU, 0xba5c9a943c6f087aU,
  0x3cbdeb2abd1566b3U, 0x3d32ff3abbce6c69U, 0xbd126a7f3d158f33U, 0xbc8cd0aebb9859aeU,
  0xbc4f15ad3d353082U, 0xbd04aacc3d0f3b75U, 0xbd1c40a7b9c5ebfdU, 0x3d39ecd43caed12aU,
  0x3d252b8b3ca8cfb8U, 0x3ba58ee8bd0893a7U, 0x3bbaec83ba814594U, 0xbc8085253adbdd9dU,
  0xbc4c5751bc556f0bU, 0x3d000bbdbd30db32U, 0x3cac7f61bbf5528dU, 0x3c30aaf5bc51632aU,
  0xba809c55badfecd3U, 0xbcce52c83bd6c5c2U, 0x3d028c60bc1b328aU, 0x3d042ce1bcb369b8U,
  0x3ca3f279bcd10e16U, 0x3ca7501f3c4377baU, 0x3c9b03b8bd2d4cddU, 0xbd1f5c063c8f7bceU,
  0xbd05f2d63b410d8eU, 0xbd17ffa73d38bc18U, 0xbd17dc563c360e31U, 0x3d307c883b33f54fU,
  0x3c470313bc810cdeU, 0xbc857a5bbbc743a3U, 0x3c83657ebd339597U, 0x3c0b81853c381d9aU,
  0x3cadd65ebc9e8a0fU, 0x3cba6c55bc9536e4U, 0xbd2d36d33c132451U, 0xbd16fef6bd39c46dU,
  0xbcd36dee3ca57f09U, 0x3bbe4acfbbdc3decU, 0xbd054d213ce4db96U, 0xbd39590abcd75d54U,
  0x3ca223053d213eb7U, 0x3b59fa9dbc35e19fU, 0x3ce439653a911225U, 0xb9c328543ca3a559U,
  0x3d32a1e33cbcbd29U, 0x3d1a6ab63ba55b26U, 0xbcef6da2bc0d1ffcU, 0x3ce96303bc80ac1dU,
  0xbc8c1319bd035e72U, 0xbcde7744bd012915U, 0x3c745f05bb32f4e2U, 0xbcafd0aebd0bf23fU,
  0xbcd06531bd28991aU, 0x3c86737d3ca5903eU, 0xbcee26f9bcfc7aa0U, 0xbb670a753c596287U,
  0x3bb7b9cdbcc30fe6U, 0x3d29a0b13cc9655aU, 0xbca6f9f23ce493d0U, 0x3c63788a3c4e85a6U,
  0x3b41241abc711044U, 0x3cac06fbbd08fa8aU, 0xbcf4267e390bb2a2U, 0x3b98cc563d385476U,
  0xbd12c9e13ca0f5a0U, 0x3cd9a4793d2f493eU, 0xbb265c42bc100002U, 0xbc5394a6bc211709U,
  0xbcbe8fa13c18658cU, 0x3c94530f3d0a9f6fU, 0xb95de105bc21a291U, 0x3d1262083ad24d7aU,
  0xbcfe0eff3ca604d7U, 0xbc9b4f4ebbc846c2U, 0x3ca2bed63bf9e408U, 0x3bb44e8bbc3b10c0U,
  0x3c697681bc1967afU, 0x3cdcac98bc85a528U, 0x3ca7f303bd09c68eU, 0xbc9513413cb438ceU,
  0xbaccc10cbc564119U, 0xbc3293c1bcd01929U, 0xbc622f84bbfdeb2aU, 0xbd35932dbc81bb4eU,
  0xbc5d1b4b3cfd0bf2U, 0xbce83777bb6e9ec4U, 0x3cf0dc963bea226bU, 0x3a5737c7bcd8cdf8U,
  0xbcb290b2bbafd74fU, 0xbcf31b5a3cb2e956U, 0x3c9a90093c7571a8U, 0x3d234ddc3c9d7df3U,
  0x3c00a54d3bcf2e93U, 0xbcbea1ae3cad9637U, 0xbce608a4bd13d732U, 0xbd16c1b0bd027960U,
  0x3b343d56bab22d6cU, 0x3c05f2febced42fcU, 0x3c1908c53cb2b0daU, 0xbc3db0ecbcc3123dU,
  0x3ca40f863d298b6eU, 0xbc6c4d1a3d249fecU, 0x3d2386f13cc50eb5U, 0x3baab24f3cf36a65U,
  0xbd15427d3cbbf33fU, 0xbd185b473c97a89eU, 0xbc8df8ce3d31dfbbU, 0xbbd0fdc4bd24188aU,
  0xbd0a3f8f3cf02429U, 0x3c4865b438596674U, 0x3c1ac8823a177dadU, 0xbc35d47abbfbd88fU,
  0x3c5139f8bcd44769U, 0xbd2ac0543d308c50U, 0x3d16cd96bcb5de93U, 0xbb579d1bbd170ac8U,
  0xbc5959cabc9b20e3U, 0x3c2746cc3ba8388cU, 0xbcf5bee63c5aa309U, 0x3c4f6048bcaaa931U,
  0xbc279c5bbd313ccbU, 0xbbc4ba44bc8e721dU, 0x3c2ca7e3bceb40e1U, 0xbb76f3dfbd168454U,
  0x3b2d4b9c3d0207f5U, 0xbd0048a53cb7b832U, 0xb967498a3bd14360U, 0xbcda13c03ce0e35eU,
  0x3ca649dabd39f436U, 0xbca8bc09bd1e31a7U, 0xbd1d16583c2cb716U, 0x3d119bebbce69adcU,
  0xbce6a70fbb84b3c3U, 0x3ce23f72bce492d8U, 0xbd3879843a370661U, 0xbd115f48bc822449U,
  0xbd109afdbd39204cU, 0x3ccd6b12bd177ac9U, 0xbd033dab3d1dedbcU, 0xbc4284843d1d1887U,
  0x3d085fa1bd104ae8U, 0x3bb5578c3c9d7613U, 0x3d3997403bde8051U, 0xbc0c95633caf2b84U,
  0x3c94360b3be2079aU, 0x3ce7fb433cb8d444U, 0x3d0aed3cbd03d8eeU, 0xbd17008fbd1da000U,
  0x3cbab8b2ba64ea4cU, 0x3c0094a43d29639fU, 0xbbe1839abc17c680U, 0x3d363337bd1762abU,
  0xbc387ed3bc9ea116U, 0x3cded3acbc24b031U, 0xbd237593bd00c750U, 0x3d2157b63d1c2e3cU,
  0xbd1bd3f8bc9e49b0U, 0x3c345c5f3c2d9f5eU, 0xbd36f2c3bcc7d51dU, 0x3cfe62683bad0422U,
  0xbd2b6ab43d247407U, 0xbcdbc49fbcf0bde7U, 0x3c015f0c3bb6e0ffU, 0xbc29561ebcaa4f7eU,
  0xbca9ed613cb029d5U, 0xbd396538bd2daf7dU, 0xbc94a9cbba856fd0U, 0xbb910c943c32c5a4U,
  0xbd30b4acbc934d74U, 0xbcae5fd5bd2cccf4U, 0x3bf30a973d128df2U, 0xbc44e942bcbc7716U,
  0xbc5adf1bbcdb97f9U, 0xbd3152cbbd1d5c0cU, 0xbcf8aae53ce35e54U, 0x3d18e5823cf6b7e8U,
  0xbcf80c513bd9d6a5U, 0xbd2776413cb6fd5dU, 0x3c8d9c43bcfaa37cU, 0x3c5d977d3d152cbdU,
  0x3ce7dbad3c258f29U, 0x3ce3a773bc9bdc18U, 0xbcc6b437bcceed20U, 0xbc65919a3d1b05cfU,
  0x3c99190d3d0e11e1U, 0xbc147e6f3bc24a46U, 0x3d0f0609bc2be488U, 0xbc843df7bcf80272U,
  0x3d0c43c8bc890c7eU, 0xbb1e91453d2288cbU, 0xbc221354bc073a93U, 0xbcbd0940bd26e175U,
  0x3c7ca9f3bcee52a8U, 0x3c76203f3cc3636aU, 0x3d1a00fd3cec4f6bU, 0xbc29e83f3ab1cc4bU,
  0x3c8561233d018cbaU, 0x3d2ee8013c695c4eU, 0x3cfb71b03d160a5bU, 0xba8414023b7aae5eU,
  0xbce2a7be3ca84e81U, 0x3cc5866bbd0d354bU, 0x3c7fb7c73d0f6e18U, 0x3c046665bb796862U,
  0x3c6acd093c9638f8U, 0xbd1e60ad3cf0d1d0U, 0x3cbea3043ce80d71U, 0x3ceceea83c9d23e8U,
  0xbc2b4716bd29e019U, 0xbb5a81e6bccf8c48U, 0xbb505f3fbcdffe66U, 0x3bbd59f33b3a0fdfU,
  0xba4b53e63cad3417U, 0x3c317b753cfa4f42U, 0x3ca0f2da3d002772U, 0xbcc1114f3c022b76U,
  0x3bea944d3b261929U, 0xbd0ca1abbd2572c2U, 0xbb98943d3d310bbdU, 0x3ccd7bcf3d1e0894U,
  0x3d102d6a3c83a518U, 0x3d0aea193c050cedU, 0xbcc0f9c1bd346225U, 0x3c8971f53c1f3859U,
  0x3bb2e4d13d2f9c29U, 0x3c99a5ab3d26d82dU, 0x3c2e5db33d332f2aU, 0xbcd53441bd081551U,
  0xbd2a71c6bd2e2305U, 0x3b15d217bcd3d8ddU, 0x3c9604a7bd2109bbU, 0x3cbce5b23c9cc64aU,
  0x3d31cf553d2fb92bU, 0x3c2ea308bb32c9b4U, 0xbc68e58a3ccd0176U, 0x3d130c123a9b2f69U,
  0x3d01e86c3c3d3136U, 0x3c8c4dbdbcd5c52cU, 0x39a54679bd1a54f9U, 0xbc8fb56bbcc88322U,
  0xbb9f05ef3c4ff1a2U, 0x3ce213aa3d2a89abU, 0x3cb626bfbd01c5d5U, 0x3cccb47c3c59d703U,
  0xbd3187b33ca78ed0U, 0x3d15dcd53d0bd959U, 0xbcd5d74bbccd2b2eU, 0x3d092e7a3c60abf5U,
  0xbd27eaf13c1d1824U, 0xbcb6a33d3d3a8031U, 0xbc4abcb5bbd1cfa3U, 0x3c3e91c93c562593U,
  0x3a3628bcbb5a25f9U, 0xbcb58aa8ba1e8235U, 0x3c3e68d83d38e5c9U, 0xbd1d0a81bd0aa0a9U,
  0xbcf175febcd1d0beU, 0xbc8fc5d63d0d8211U, 0x3ccae8083c9d14d2U, 0x3a9d742e3c149143U,
  0x3d3863ba3bcd087bU, 0xbb8bf2fd3cefbd5fU, 0x3d1c30093cce74c9U, 0xbcd07e57bd0b1486U,
  0xbd1b43503c4fc21eU, 0x3c80866ab91fe0c0U, 0xbcbc8f04bcb37e19U, 0xbd0aebe3bd38ae68U,
  0xbcde43933c41bb1dU, 0x3bc155143c4a16adU, 0xbd09f1123ccab042U, 0xbc9a8185bcf16b18U,
  0x3c72fee2bd0c5189U, 0xbca5781cbd197821U, 0x3bd0abe2bcfd7d33U, 0xbcfecc33bd39d4b1U,
  0x3b9f4685bc53efc6U, 0xbc16b3b43d2f6bc7U, 0xbd310b93bcb7da30U, 0x3c4d5d20bd09ef59U,
  0xbccbd02abcc66243U, 0xb9d3fa293c376410U, 0x3d01b198bb0e8c4aU, 0xbce0bf673cbe5739U,
  0xbc189686bd388e17U, 0x3cc06053bd014e5fU, 0xbd2fd7033cd56962U, 0xbb82991fbce3df8eU,
  0x3c4b94abbcc7874bU, 0x3b9b2cac3d0cb463U, 0x3c31ce8dbc77a056U, 0xbd1c42b33d0bd5e7U,
  0x3c850fa1bc16e77dU, 0xbb32a97b3d25c32aU, 0xbd0304d73c9d7deaU, 0x3c8f0926bd1a4e6fU,
  0x3ca96fdcbd15f32dU, 0x3c8e94b63d178524U, 0xbd397d093d086afdU, 0xbcfeee5d3d19029aU,
  0xbcc166af3c63d509U, 0x3c43eb1dbc9f7b57U, 0x3b87988e3d381b0cU, 0xbb9994aa3cbe7d70U,
  0xbd36319b3d12eb07U, 0xbbcbd88a3a8a5272U, 0x3cfd4736ba3e9ecbU, 0x3cb5e24bbce1e1acU,
  0x3ca6217ebd243305U, 0xbc583351bd25bdabU, 0xbd0e8b4a3c62d3f2U, 0x3d2fdc10bbb5f069U,
  0xbadd8417bc9c062dU, 0x3cddb50bbc81d469U, 0xbd2687b63d1d266fU, 0x3cd10102bd330ca8U,
  0xbc84db58bb4d9908U, 0x3d1250593d11ccfbU, 0x3c3fd51abd16ea14U, 0xbb5fe00b3d24abc0U,
  0x3d2c308a3c89fdcdU, 0xbd0698a0bd0b8bedU, 0x3d047523bca7fb20U, 0x3d36afa0bc674c7bU,
  0x3c59a3573c1d047eU, 0x3cf267d3bae31055U, 0xbbd883b23c187cfcU, 0x3d01c9333d1a697bU,
  0x3bb11ec13c11ee26U, 0x3d218e4f3c458056U, 0xbd099dd43d01da6bU, 0xbb20722cbcadcee7U,
  0x3d06c8f83d39d295U, 0xbb849f44bd1b3c59U, 0x3caf9c623cc51da5U, 0xbc9334ec3c862426U,
  0xbba20485b9398d6cU, 0x3d3aefe5bc7561b5U, 0x3cb43a0c3d15a901U, 0xbcc17b8e3cf158bcU,
  0xbced1a9d3cc0febeU, 0xbd2bb4d43c51cfa3U, 0xbc5e845bbc8978c5U, 0xbc3e2198bc65f25eU,
  0xbc9daf44bcf4fc20U, 0x3c6153893c8988d4U, 0x3c5b0b3eb9990af6U, 0x3d3183ea3c5a6ff0U,
  0xbd059e253d10678cU, 0x3cd76a1fbcf55eefU, 0x3b3289703c2e5310U, 0xbb958288bceaf9feU,
  0xbcd1b0d63d1c46a7U, 0x3c66b3ce3ca0b094U, 0xbc286b5a3cc2b05bU, 0x3cce17d53c510411U,
  0x3cb70aabbd056640U, 0x3d31ef6d3d117f08U, 0x3d1f9f583c0ec9faU, 0x3cdeaf483bd3574eU,
  0xbb04073abcbaa794U, 0xbc86ba573d393616U, 0x3b8e3c8dbcb97908U, 0x3b99e9ca3d34ed96U,
  0xbd1ace153d15b69fU, 0xbd11caedbd3a227dU, 0x3c5f29213cad812cU, 0x3c01d1d2bcf511e0U,
  0x3ce2c583bc4338cfU, 0xbd2333e63ca635c5U, 0xbce70f52bd198d91U, 0x3b8eb0fcba002d54U,
  0xbd2b3c37bc7153d7U, 0xbb78f68cbbd2b135U, 0x3a2a3528bd1b921bU, 0x3cb04402bb8adf65U,
  0xbd2ab393bcb8985cU, 0x3cb7bb1dbcb403a4U, 0x3d22ca87baca1179U, 0xbc1c82e93d132298U,
  0x3d054d4d3cbd74b5U, 0xbbb05bd0bc35c3dcU, 0x3d39db9fbccd5a46U, 0x3c2c92b5bcdcffdcU,
  0x3c165f21bc91398cU, 0xbc7bc9aebd30ae11U, 0x3d2dbe013d32c1eeU, 0x3bd7fb68bd2db855U,
  0x3c3cccb4bc89c9a7U, 0x3b6d64bd3d30ec44U, 0xbd0ed642bb524358U, 0x3c5b8f4a3cb21867U,
  0xbd328bffbb983822U, 0xbc4617cebcbeac25U, 0xbc2317aebd265bd3U, 0xbc7b7673bc265f9dU,
  0xbb3a90093c9f7179U, 0x3cc3a8e2bd21c0d1U, 0x3d22243cbc4b666eU, 0xba8964bc3d38585bU,
  0x3bb1c7173caa9906U, 0xbd0d9f233d1a5603U, 0xbd28b7573ccc3535U, 0x3c5e9ae73ca3e4d0U,
  0xbd256ca6bbfeb087U, 0xbcfdec0b3c4d7618U, 0xbcac9e1b3cd12661U, 0xbc9e82f33c69b3dfU,
  0x3b0098f4ba002db1U, 0xbba070e43cfa3c34U, 0x3c2460ba3ac80750U, 0x3c87ff3bbcce05d9U,
  0x3c72ccc43cd42346U, 0xbb555c893c8ebf92U, 0x3c0df5073c39f7faU, 0x3bd7e7bb3d26b4daU,
  0x3d00ec3d3d0cf23eU, 0x3cb06efebc6b7076U, 0x3cbead9b3d1b1d69U, 0xbceb3717bc543972U,
  0xbd32d59b3c591d09U, 0xbbc46267bb95cf2bU, 0xbcb96570bc887916U, 0x3cec89173cdefffbU,
  0x3d37e5cfbb8fa58bU, 0x3c0151ed3d1046ecU, 0xbcacf2b23cb8efc7U, 0x3c2892febd06cf2fU,
  0xbd2fea5c3ba02032U, 0x3c176121bcb1f181U, 0x3cae15fbbd3548a4U, 0x3d1135dfbd3632a0U,
  0xbb349e31bc8db321U, 0x3d350a5dbbbd1f34U, 0x3ce0b8e83c61b7faU, 0x3cd4b061bcfe8b1fU,
  0x3c88a9d0bc8963efU, 0xbd2e7081bd244ea5U, 0x3ba89c0d3c3308a6U, 0x3bfd1e2e3d2ed768U,
  0x3bd7107a3bb602e5U, 0x3c070de4bba5ad4eU, 0x3ca75715bc959b11U, 0x3d1f079d3c441628U,
  0xbca77321bcb8cfb7U, 0xbce70fc43c8371eeU, 0xbc36c7873c3bd3f2U, 0x3c83538a3cb47c8dU,
  0xbd2da858bab2c9b4U, 0x3d12b81f3b3e5061U, 0xbc54a2903d163ad6U, 0x3b138a4fbc6b4c39U,
  0xbc8052e73c41f05bU, 0x3cc26de33c9c6312U, 0xbce1d0e0bca479cbU, 0x3c8064c0bcf58ce0U,
  0xbd026304bc3c80ccU, 0xbc07da6b3c510f80U, 0x3bd166a83c42f1feU, 0xba0d45643c31449eU,
  0xbd1a849fbc85b5c9U, 0xbc3caa733ceccc9cU, 0xbd2669efbc972c89U, 0xbd0ed65b3cee9234U,
  0xbcbfa9ac3ba2939cU, 0x3cb84108ba805b85U, 0xbb59a4593d10c5baU, 0xbd2648dc3bbb8ef5U,
  0x3d1212193b42b4c3U, 0xbcf33962bc5e1ec6U, 0x3d0acd713d3153beU, 0x3c662768bc8eeb0bU,
  0x3b5186493ab8d5efU, 0x3d15b6be3c3a6337U, 0x3d3027e3bd33b6c4U, 0xba20a3bd3d2b3847U,
  0x3d02e8d5bc32e9bfU, 0xbcb2e7b13d395ec1U, 0x3cd1304bbd37e31bU, 0x3d16ec293d0b355bU,
  0x3c20ee64bd1e1036U, 0xbd0b31ddbcde1d7cU, 0x3cd608dd3c756893U, 0xbc324ce4ba657f47U,
  0xbcf7f06bbb006f25U, 0xbd03c9473d215eeeU, 0x3b5a09093cb964a6U, 0xbd368b93bc692b60U,
  0x3c771998bcda6450U, 0xbc7765c6bd2f97a6U, 0x3ce25ee53d22545eU, 0x3d0d15523c212209U,
  0xbc38f3603c0a0526U, 0xbd38adcf3c52bd6aU, 0xbc5967cdbcda314bU, 0x3d1bc87cbcfe5f94U,
  0x3c2345823d2f5e31U, 0x3c7e10a9bc95785dU, 0x3d0d5f953ca182bbU, 0x3d2a6de13c66b691U,
  0xbcd6a61bbcc28bceU, 0xbcb187aebd323a9bU, 0xbc4b543ebcc8ade6U, 0x3d2d20babc818de4U,
  0xbce9b41c3bc1e9b1U, 0xbcdf01333cbf5093U, 0x3c0c89fabb5df84cU, 0x3d22f719bd221e11U,
  0xbd34ef9e3c949ccfU, 0xbd191a2b3cbad6bdU, 0xbc9216443c7cd26fU, 0xbc5abf623b8c0b8bU,
  0x3ba4f2943c872222U, 0x3cdab2853d1376faU, 0x3d319a0e3d2c492aU, 0x3c88e64d3cb76669U,
  0x3c12a3dbbc4a9366U, 0xbcaa72a93c4f6d85U, 0x3d0f627e3b0f3c04U, 0x39816f063d1e6988U,
  0x3cca1c0ab9fcd116U, 0x3d1b96f43aefb906U, 0x3cb713173d0fbed9U, 0x3d04d03d3cff0965U,
  0xbca6fc753cb4c85aU, 0x3c67aff03d2e317dU, 0xbc64d7b8bc605d33U, 0xba7e91203d3a6e2dU,
  0x3ce404ffbcb6e431U, 0xbd2c8a6e3d3a33f1U, 0xbce4faa33cee472dU, 0xbc4ce010bd1b21ceU,
  0xbc3cb7f03d30409eU, 0xbd242d63bcbd5f2cU, 0xbb81e122bd1b971aU, 0xbc6a0d49bd2f6d89U,
  0xbc5580c73c66d3eaU, 0xbd28ad383d2a2988U, 0x3ce13f0ebd01f42cU, 0x3d067681bb7d2815U,
  0x3cfb069fbc91b497U, 0xbce719053ceb34d4U, 0xbd2b93f4bd38b8edU, 0x3c0c7acdbc3d2fbaU,
  0xbd3549ce3b9ab21fU, 0xbd286d963d31dc23U, 0xbce0b53cbc64bfbcU, 0x3d0a0220bc0b6079U,
  0x3cfad2e2bd305517U, 0xbd28d42abcc17b36U, 0x3cc03e20bc83b249U, 0x3d3591033cc7617aU,
  0x3ba29815bcaf9d63U, 0x3c4972e83c83cf28U, 0x3c1918d0bbb5fdc8U, 0xbc8f36383bd16b21U,
  0x3cf727c2bc84c2c4U, 0x3d2de63dbc0bd0f6U, 0x3cb8abf7bcd5b9dbU, 0x3d0dab9c3cebbfe8U,
  0x3d379bd23d0bc665U, 0xbd28f84f3ca952c6U, 0xbcaf1ed7bb291b89U, 0x3c9941c43d11522cU,
  0x3c5bd1ca3c447d78U, 0x3d2747b7bcc1b3deU, 0xbbc8e4f5bcdbd312U, 0x3cdfc32abd23fc8eU,
  0x3c475b4e3cf136f3U, 0xbc015f473c9c1c90U, 0x3d399b233ca8c9f8U, 0x3d0e6f1ebd16031fU,
  0xbaf0c8e1bc839d9fU, 0x3d2dd265bcc7de01U, 0x3d2537af3d132454U, 0x3cd34d603d24b667U,
  0xbc3329cf3c77f1c3U, 0xbb68da783d30f8c7U, 0xba1022f93d38902bU, 0xbd0e2125bc060445U,
  0xbc20cb8a3c7fdba7U, 0x3c08ee8abcf3bfa2U, 0xbcf87d1d3c9a4745U, 0x3c8407123c86d0e0U,
  0x3bf6c3febc74dcbfU, 0x3d08afb9bcb80c1cU, 0x3bc380be3b92e306U, 0xbce225c03cde1340U,
  0x3d20ceebbc1cb9e3U, 0xbd2b536d3bfad796U, 0x3d0f45fa3c432bbbU, 0x3c2a8fb63d382617U,
  0xbc9de91cbbaac3edU, 0xbcc2a1603c762651U, 0x3d082a543ca2dc9bU, 0xbd259988bc544140U,
  0x3ca9ae7fbd2aa761U, 0xbce1c21c3d144d5fU, 0xbc45ed093a3fa729U, 0xbd3aacafbd04287eU,
  0xbd23a83d3c8ea1b5U, 0xbc736e4cbd3747edU, 0xbb90abd03d204bf6U, 0xbc6d46e93c113f61U,
  0xbcbdf0153caebd2cU, 0xbc372e3f3d26945bU, 0xbce4ab753d1368a8U, 0xbc628089bd3226d3U,
  0xb8cfdc573c90ccfcU, 0xbcc7110b3d264ee2U, 0xbd00c7dc3a77d82eU, 0xbcd3830d3d173985U,
  0xbcf1ca1d3c98c6cdU, 0xbce42b703d1a1094U, 0x3d0ee7bbba9e5866U, 0x3cab0f4c3cb50c71U,
  0x3d2bf786bbd7ab64U, 0xbd11dfee3d24f7fbU, 0x3d1a68fe3d0c5385U, 0x3d28cb38bb6b5c96U,
  0xbbdba662bbae223aU, 0x3bd52eb6bc45e703U, 0x3ccb00773c8eda11U, 0xbcbf9123bd3844daU,
  0x3cfece84bcd156aeU, 0xbd2d3acf3b9ce213U, 0xbc86b97f3cf7d337U, 0x3b23618e3bc73750U,
  0x3b92f50ebcd1c0caU, 0x3d1f02a93ccbbc55U, 0xbcf153943ccbc310U, 0x3d3601d53ba02d05U,
  0xbbe999203d2c419cU, 0xbd0f1c793b589b40U, 0x3cb1e4d6bc588a62U, 0xbd0f0cacbce7a057U,
  0x3d065d073d16b2ebU, 0x3d17de18bcdf4b0dU, 0x3d2b62e9bd25f0aaU, 0x3d369df6bd1529aeU,
  0x3cd5dee83c4a1b2cU, 0xbced17593d17eeb5U, 0xbd0619053d2a42c0U, 0x3bc470eb3cb1821cU,
  0x3c111db7bd0598a1U, 0x3cbaca993cd4dc47U, 0x3c846896bc3086c9U, 0x3c3f8a333ca68f47U,
  0xbca326b0bccc637dU, 0xbd2f4d9e3d0e0105U, 0xbc914cbd3d38fd2dU, 0xbcf865903cc476e3U,
  0x3d11eeb93a3f4492U, 0xbc9e38adbd18d630U, 0xbd28af3cbc9e05e6U, 0xbd11a4c9bcf161b4U,
  0xbcea1d6fbcce2046U, 0x3d0326f73c5bda48U, 0xbd2287583c9c6d4cU, 0xbc9e21e6bc57e325U,
  0xbc93ee473d268c49U, 0x3c7fcfb7ba3aa179U, 0x3d20d05fbc6d771cU, 0x3c06cfc53ce47761U,
  0x3c85a3e7bc440eecU, 0x3d00d3ad3d22bc45U, 0xbd034dbf3ca0c3d9U, 0xbcac7008bc72494aU,
  0x3d16ca3e3c8b93c7U, 0x3c5025423bd0afdaU, 0xbd243342bca9c6fbU, 0x3c83f694bbbe2432U,
  0xbb9ef339bbfcd84dU, 0xbd14adf1bd07ed1fU, 0x3c9eae0f3ca07afeU, 0xbcb65ccabc4e39d6U,
  0xbc7b0db2bd1228c8U, 0x3cc55d173d382a91U, 0xbc21d047bb53c161U, 0x3c6717f8bd370b21U,
  0xbc1b437fbcef4c1fU, 0xbc8c2e103c2ca9ceU, 0x3d05417abb36ce25U, 0x3d363482bd0d876aU,
  0xbcc8c4e7bd0752e7U, 0xbcd8e98d3c88bbcfU, 0x3c4fc920bc6c1ff0U, 0xbc8069eebd076e3dU,
  0xbc2308b6bc6ea98aU, 0xbcfd38dc3c129be9U, 0xbb5e1369ba08a70aU, 0x3b987f903d120b1aU,
  0xbbfe52463be52e5aU, 0xbc1b9ec2bd0d43f7U, 0xbd2afbd93cb1ef7cU, 0xbcd359ad3d386d09U,
  0xbc84562ebd188376U, 0xbca0f2abbbc44c50U, 0xbd294597bd2a2f1aU, 0xbcfea7373d2d21b1U,
  0x3cb30a99bcb31ee9U, 0xbcd407aebd286f2cU, 0xbc1c5812bc8d9b4dU, 0x3cf1aa1ebc68d383U,
  0x3d35dda23d3072b4U, 0xbd0a0d3cbca15e11U, 0x3c2c7daabb8524c6U, 0xbb349068bd0d72f8U,
  0xbcdcde70ba74ed16U, 0xbc8c70023cb67f9dU, 0xbcc41fd2bc561d6dU, 0xbcf03902bd264052U,
  0x3cb8cb09bd29f424U, 0x3d097f1bbd1b53d3U, 0xbcad0d773d117fa0U, 0x3c832f0abd10d611U,
  0xbba5b814bd2910edU, 0xbce2ec98bc60b9f2U, 0xbcf6e5e7bcc01154U, 0xbcd43ce4bc075ac1U,
  0x3c81fa19bcf48ce2U, 0xbd2f8294bcbdca1bU, 0xbcf01179bcb003d5U, 0xbbe3694bbc1a3162U,
  0x3cdcffb9bcf57509U, 0xbd2f7997bbe2ec23U, 0x3cb10cf43ca42875U, 0x3cc8e001bd073a50U,
  0xbcfebc94bc68a884U, 0x3ce26bbe3ca64b6aU, 0x3d189d7a3ce79447U, 0xbc9ed54dbd01967aU,
  0xbc079984bce261bcU, 0x3c7a24bbbcb15b96U, 0x3cfd65f4bc78bc95U, 0x3adad2dfbd356f1aU,
  0x3d1d7ced3d167ce6U, 0x3ae5a1f73d18e074U, 0x3cbbf616bc7912f0U, 0xbd12f5d43c7ad088U,
  0x3ccfa601bc2b37cbU, 0x3bd86f1c3aa7c720U, 0xbd271ec23cf8ce50U, 0x3d3694b73ccdaf7aU,
  0x3d301f903c9b3a7eU, 0xbc23403c3cd2f9b0U, 0xbce4b7f6bca5fef1U, 0xbce1e8903c5439a6U,
  0x3d1e5c1a3d007646U, 0xbccc9d203d328d95U, 0x3cf4df4dbb40c1b2U, 0xbc313bc33bcf02c2U,
  0xbc0c3dd8bc9f7770U, 0x3c85c46fbd0c527eU, 0xbd2ff1903ce46ceaU, 0x3cc43a80bba8180dU,
  0xbd02d8c7bcd07ae5U, 0xbc8713963cca86f0U, 0x3d0ef008bc05744fU, 0x3ca9f5153b592159U,
  0x3c6695d13c383516U, 0xbd1b2dc2bc716278U, 0x3d0a4508bd2163d5U, 0x3ccbfbafbcabb348U,
  0xbc4eb1acbd165029U, 0x3c91477e3d1c614cU, 0x3ce41ee03d135ae8U, 0x3c9e56063cd2b2dcU,
  0xbcc2799ebc9f0a1cU, 0xbcea9eefbd2ad336U, 0x3cc8e0f63c63904cU, 0x3c047630bcfdffc9U,
  0xbd0bf3cf3d358584U, 0xbc573bbf3c80c70eU, 0xbc77d60f3d0f022bU, 0xbad056d93c97e38eU,
  0x3c110939bd1cf34dU, 0x3cf130083d1cda9dU, 0xbbd75930bc486a67U, 0x3ce29394bd39313aU,
  0x3cc754fbbc1c686fU, 0xbca7f0ac3d212509U, 0x3d0f67b73b9da2f7U, 0xbc179ddbbd0d8107U,
  0x3d194c82bc680b23U, 0x3c23282ebd0e0a42U, 0xbc1cfc923cac90b3U, 0xbd33ed2cbd354cd8U,
  0xbc763ea5bba2cfffU, 0x3caaf4e4bc1a3cbfU, 0xbd0d90753c83b333U, 0x3d3702a3bbf3df0fU,
  0x3c0426b3bcc67c0aU, 0x3d3631afbd23492eU, 0x3c88f6d0bcce383dU, 0x3d35b7b7bbb5ca29U,
  0xbcd81f79bce52741U, 0xbc9d27acbcc019fdU, 0x3c050ce73c596f20U, 0xbc0d3aa4bce61713U,
  0x3cf0b1c53b2080deU, 0xbd27be293d072602U, 0xbc6e8aafbd133b48U, 0x3ad3fc5a3b38f6e3U,
  0x3b884c87bcec528cU, 0xbcc61bd8bcc80bd7U, 0xbcf580cabd2869fbU, 0xbd3709e73d13a202U,
  0xbcad7f6d3d18586eU, 0xbd03d2d93cdd6d90U, 0x3c2a94c73d2c1ef9U, 0xbace91843cdad01cU,
  0xbc0ce1cc3cf34b4dU, 0xbd32b1a93a1a6868U, 0xbc8825233d01be3eU, 0x3d19ca35baa46f95U,
  0x3abdcad33cd23f5cU, 0xbc8de227bc91cc4dU, 0xbcd50df3bc8316d9U, 0xbd10ba36bcd97d38U,
  0x39dc66babd22fdbeU, 0x39cb578dbd03b28bU, 0x3cb1906bbc9e38e5U, 0xbd19d0d93d2223adU,
  0xbaf7f1ecbcb4b88fU, 0xbd27f7ff3c853073U, 0x3cafc80abca19a77U, 0xbb1628a1bc280f9bU,
  0xbcb28cc53ca1ed60U, 0xbcdf6d8cbbecfe8bU, 0x3cb4f6fabd045537U, 0xb933584b3d141561U,
  0xbd2a60183c0f285eU, 0x3c64fdd5bd36a194U, 0x3d2df29e3d120899U, 0xbd30c7043d1f47c7U,
  0xb9a02e29bd311169U, 0x3d143864bb15abc0U, 0x3ce3fad43d08c9ebU, 0xbd29c7323c7e0f9cU,
  0x3d118c3ebd0fb038U, 0xbcceac4fbbcf8fd8U, 0xbd24659d3c121bedU, 0xbd1730cfbd16ae49U,
  0x3cb564d5bcfb3960U, 0xbc9ff605bbd640aaU, 0x3b7ab9f6bc7a666fU, 0x3d25e3d1bd2585ddU,
  0x3ca6cf0d3c84ae7aU, 0x3aab47bfbccb7a9bU, 0xbd1190c0bc59913eU, 0xbd39d3953d28e2a2U,
  0x3cf128ac3cf27cccU, 0xbc837d91bcd432d0U, 0x3d2f4404bc31fdd1U, 0x3ca7ba75bb424564U,
  0x3ccd2ad13b69aeceU, 0xbc188837bd1c921cU, 0xbd213c793d10569dU, 0xbcdb6191bd09575fU,
  0x3ca19aa9bb01de1fU, 0xbc287905bc3dc82dU, 0xbc6a837bbac18f8cU, 0x3ccf0ff9bce78f45U,
  0x3d2948473bc2ebc3U, 0x3d04a1c1bd31d7c1U, 0xbc02bd9d3c99c1f2U, 0x3d2a70c2bc0e5723U,
  0x3ce1334d3be034ceU, 0x3d1b171d3d136595U, 0xbd26695ebc13b906U, 0x3d152d13bd24dfdcU,
  0xbd33bae4bc915a60U, 0x3d1843d2bd32fcc8U, 0xbc019b98bb8d2357U, 0x3d0c53c9bd196ae0U,
  0x3c94d528bb643f39U, 0xbd2ad87fbd01f89cU, 0x3c4ec125bd2fd5bcU, 0x3d08cd83bd0d2ba8U,
  0x3d24e179bba15d8eU, 0x3d1387633c35b581U, 0xbcf0efe7bd19697dU, 0xbc875f78bcef41dcU,
  0xbad4fa503cbe267aU, 0x3d01b83fbaa940dfU, 0xbc812477bbd65f04U, 0x3d2d4124bccf8bbfU,
  0x3bcdd84cbc43d765U, 0xbd15554ebc96afd6U, 0x3d14095bbc870168U, 0xbd32a7603cf35506U,
  0x3c2024c83d0bd97fU, 0x3a0dc9f0bcf56065U, 0x3d2f8a43bc05df63U, 0xbd1b8cf2bd26796bU,
  0x3cefa03bbcf396e6U, 0xbcae66623c31f13dU, 0x3cf1be7c3c992b9bU, 0xbc469d27bcabac84U,
  0x3ced5902bc9c8dc8U, 0x3c5b81bbbb8e5d8dU, 0xbbdbcbc43d343ee0U, 0x3cb10538395ec7cbU,
  0x3ce6b78fbc18f53cU, 0xbca8cdadba0bbd96U, 0x3d00becebc3aa774U, 0x3ce9626c3d1534b3U,
  0x3be7d867bc015fd3U, 0x3cbc2d08bcbf5dfeU, 0x3d36ee603c8aed79U, 0x3d19691e3c2509caU,
  0x3d3694f0bcd00edeU, 0x3d1f84d03d0d4503U, 0xbd24ef3cbcf7e18cU, 0x3d05ff233d25df07U,
  0x3d1822fe3d24305fU, 0xbd0421d5bd2c84dfU, 0xbd1526f73d380696U, 0x3cb6cfb83d023a56U,
  0x3bc3ea74bc6e12a4U, 0x3c28f9b0bd102b8cU, 0xbbc6e69e3cb6cb3cU, 0xbc8904f9bc243557U,
  0x3c3625a7bb0c964dU, 0xbd0b21833c8e1159U, 0x3d18b89b3d21ca67U, 0xbcb9d7253ca1b9d3U,
  0xbc0608ec3c29f19aU, 0x3cec213a3a958883U, 0x3bf3b260bc681c06U, 0x3d2094ef3d3785fbU,
  0xbd1a970b3cb80c4eU, 0x3d25b6753ceb8d9eU, 0x3ca42ca5bc967913U, 0xbd2cfe613bf5fdceU,
  0xbd0eea8b3d0a8427U, 0xbd1a57f93d151b6eU, 0x3c6787ddba4bab2cU, 0xbd2f56893d145223U,
  0x3c1a51613bf38008U, 0x3c8e44553901b0c0U, 0xbcf5b53cbced04b1U, 0xbcf802d53cf0df01U,
  0x3b76daf3bce175aeU, 0x3bc59ee5bd002a1bU, 0x3c98e6803cf2b632U, 0x3d102870bd1cff45U,
  0x3d25e2483ccbe6a2U, 0x3b3922b5bce66f57U, 0xbd1956a63b8576c0U, 0xbce1a3e43cad5246U,
  0x3d1f16bdbc4c10d1U, 0xbcc712a7bcc79ab1U, 0x3cad234b3c58e3e4U, 0x3d0080703c70fedaU,
  0x3c8417ec3d376439U, 0xbb37db2b3caf98a4U, 0x3ae992b0bcea4e9dU, 0xbca3a7e13d39a24dU,
  0xbd0b72063c86f1afU, 0xbc92c5f33d0a599fU, 0xbce61f073d2cd9e6U, 0xbca13748bd08810aU,
  0x3d2ac2a8bc1028eeU, 0x3cd497ed3cf2d5bcU, 0x3cb18ccabc86811dU, 0xbccffd573d05ee39U,
  0x3cd2414abcdebf9cU, 0x3c90db713bd508bcU, 0xbd298865bcdf0552U, 0xbcab71f7bcc98fd0U,
  0xbc1bbff1bce52183U, 0xbd315ad4bcca35c3U, 0x3d39130e3ce7969eU, 0x3c7f4b88bb9d0388U,
  0xbb8c1b853ce94bc5U, 0x395029c13cdc8c70U, 0x3b95a75ebcfb12a0U, 0x3bc1448e3ca580c5U,
  0x3cf0dcdcbc8e1b67U, 0xbbdb81c7bc343351U, 0x3d3acaa83c17396bU, 0x3cbfe710bca4b718U,
  0x3d06de89bcf170bbU, 0x3ca60af2bd35e4a5U, 0xbd29b70bbd0a86fbU, 0x3cedb4c0bd00991cU,
  0xbcd8d7a2bd2926f6U, 0x3c37721f3c361a2cU, 0x3d3962683d203c12U, 0x3d0b798b3d38a10aU,
  0xbbc80db43acc6d9dU, 0xbcf96680bd180453U, 0xbbb1abeebd1c601eU, 0xbccf92f83ccb8948U,
  0x3c80ee20bcabe485U, 0x3d0bb3de3ca3ec4aU, 0xbc492a043d37f265U, 0x3d0b2d1ebc5b9d82U,
  0xbb386f3cbcab1798U, 0xbb8946bf3d1d69b3U, 0xbb9f8f81bd2f1436U, 0x3d2296eebc141724U,
  0x3d05e29438c39525U, 0xbc0ec02a3c35fecfU, 0x3d1f8849bcf381d2U, 0x3cc3b5273b7c8e2cU,
  0xbcdf2f4abc8532e1U, 0x3ccb1fbbbd211af1U, 0xbca598aabd2e3393U, 0xbd2f90003b8bdd89U,
  0x3d0d73163c604b83U, 0xbaa072cf3c4f6992U, 0xbcfd35aa3d2a2254U, 0xbbe11992bcccab12U,
  0xbd3246813cdb7a19U, 0xbc128546bc164029U, 0x3d20a7c93d17a54dU, 0x3d12fde1bcd7c3a7U,
  0x3b98e7b9bc84f901U, 0xbd3567403ca1f65bU, 0xbca567933c3c56ceU, 0xbcbb9192bccfd377U,
  0x3d35ba51bb586e56U, 0xbc1a23d93c3d418dU, 0x3d00bfffbce9b491U, 0xbcdc039f3c96b5b1U,
  0x3b9c40f43d065b87U, 0x3c542366bbe07390U, 0xbb6a8a88bd31d1f4U, 0xbcb904f5bd142bffU,
  0x3d19d0b9bceb5363U, 0x3c286850bc94dbe6U, 0x3d2ed9ae3cd359e2U, 0x3c8102e2bcbeeb48U,
  0xbd2cfbe03cdac623U, 0xbcef4916bd36cf02U, 0x3cccf287bd34bd98U, 0x3c903bc5bd1b78f0U,
  0x3a6b08c8bd282b59U, 0xbc1674d53d0d6e0cU, 0x3ca375743cb6e2acU, 0xbc7d265f3cce93beU,
  0x3cdfd31bbcc29e9aU, 0xbcd3e09c3cc1c086U, 0xbbb31b7fbd224a6dU, 0xbcba6204bd012f74U,
  0xbc81f7c3bd0551c4U, 0xbb1ba5723d05fa23U, 0xbc92cd323c54b878U, 0x3c1fa2e73d19bf7cU,
  0xbd31245a3bc7ca32U, 0x3bc795633cc2c395U, 0xbcd15dbbbd1b121fU, 0xbcc3067cbc38d872U,
  0xbc840fe43c435151U, 0xbb949ef43b3deb81U, 0xbd30832cbb2bee9eU, 0xbd35874e3c1bef2fU,
  0x3cc6f7d9bd02cc9bU, 0x3cde9f69bd3225b8U, 0xbc3ed23c3c94e365U, 0x3d015dfe3c384460U,
  0x3ce0b67abd03222fU, 0x3ced92213ba590c7U, 0xbc1342a63c24100dU, 0x3ce49f25bcf00973U,
  0xbd2b5d4dbc033e25U, 0x3cc8cb6ebc40c625U, 0x3cd3d40f3caa7f07U, 0xbce70a933cd3226dU,
  0xbd2ffac93d2f82f5U, 0x3c079b173c86a5b0U, 0xbc224adbbd2abed7U, 0x3cd0594d3bb30dceU,
  0x3c5b37d03c9aee4aU, 0xbcdce690bcacef1aU, 0x3cc0bc83bc655211U, 0xbbda46333c64490aU,
  0xbd20aa93bd2f1f1aU, 0xbd1b1ca33ce313bfU, 0x3cf81c6b3d34d889U, 0xbcd9eb4a395e1886U,
  0x3b9828573c2137cfU, 0xbcb0a07bbb657f5eU, 0x3d0c482f3cd8e13bU, 0xba8cb640bc02b3f6U,
  0xbc9e2e8bbc97dff6U, 0x3d1afde13d0bf010U, 0xbd2dc177bd035cd1U, 0xbd32eafcbc0cdfacU,
  0x3d13a52d3cea1676U, 0xbcabaa76bc8a97e4U, 0xbbbc3ae5bbfb262fU, 0x3d182a66bd308e55U,
  0x3ce63fe2bb05d480U, 0xbcc415f63ba672f1U, 0xbd2c9ad2bc1fd866U, 0xbd2e97adbbca9276U,
  0x3c26a6b4bcd98c85U, 0x3c0d0e7b3bc1f61bU, 0xbc1976273c0fa58bU, 0xbd0563843c9b790cU,
  0x3d2183bf3d2e768fU, 0x3d3a80fcbc3006e4U, 0x3babdeeb3c8a29a1U, 0xbc9bc416bb816c03U,
  0x3ca3d02f3c9e6b92U, 0xbd1b8eb43d34a487U, 0xbcdf56c53c68609aU, 0x3d39dfb03c1f45b9U,
  0x3bdfddb73d1f84beU, 0xbc52f63e3d2c7c98U, 0xbc2843523cce8f13U, 0xbc37e10e3c92615aU,
  0x3d02f76d3cea381aU, 0xbca931ac3d223177U, 0xbce3e5053c672c25U, 0xbcea3c413aadffe7U,
  0x3d2796f8bcfd3f54U, 0x3d0631243d3703bbU, 0x3cc56900bc88ed14U, 0x3c19bdcabd0c26faU,
  0xbc54265dbb0856fbU, 0x3cbaa7f13cbb1782U, 0xbc831b8f3d2a32fbU, 0xbc321d153d379982U,
  0xbd062d96bb5926ebU, 0x3c0bb3e33cc1a4cbU, 0x3d1069d63d042973U, 0x3cae83873c1f8077U,
  0x3d1c0d26bd0ea7aeU, 0xbd360fb23bb810f0U, 0x3c308475bd38435eU, 0x3c29e8a8bcc999d2U,
  0xbbe1b312bbdf13d6U, 0x3d19e176bd098a8dU, 0xbcc5b78e3be59d44U, 0x3d2832a03c2d5caeU,
  0x3bc17149bc91361dU, 0xbcec636cbcaeff70U, 0xbc4d12e33c68f286U, 0xbca5c0a33cb65351U,
  0xbb0ed1363d096a8fU, 0xbc6b13253cad3d33U, 0x3cbde86dbd20240fU, 0x3c7a2d6dbc863983U,
  0xbc34c7fabc79ccfbU, 0xbc41f1e3bb7ff2f4U, 0x3cae3236bc524c5bU, 0x3d32d6d5bbcf8b5fU,
  0x3ccb76793c2f1677U, 0xbc4962aebbe4b7a2U, 0xbcabea7dbcd549d5U, 0x3ca8e8e7bd311308U,
  0xbc4e287e3c0ed069U, 0xbd2a181c3c935d10U, 0x3c1fe1d33c0a799cU, 0xbd1a42413ca6d05aU,
  0xbbed0d60bb12d08aU, 0x3d2fa1babcfece18U, 0x3d053affbca59229U, 0x3a6d5a84bd29ac49U,
  0x3caa522c3d08a2b1U, 0xbc8fb8283b99c4afU, 0x3c88e2603ce34132U, 0x3d12beb7bb4b3b9eU,
  0x3d33db9fbca9a133U, 0x3c8618afbd060264U, 0x3d0f1c473bfbbdf3U, 0xbc6847ef3c7b8ab1U,
  0x3cd5705ebd074a53U, 0xbd2dfc96398a5933U, 0x3c59248bbc8a859aU, 0xbaccc5cbbcb12f3eU,
  0xbc0cb9d63cfa155cU, 0x3d064285bc44f690U, 0x3ca7405d3d23027cU, 0xbba46ea03d39b3e6U,
  0xbd12ad243ca3fc18U, 0xbc981046bc693334U, 0x3c7ade97bd24d97fU, 0xbccb68e53cec2fbeU,
  0x3d0834ebbd323de4U, 0x3b48711d3bc395d4U, 0xbd07a43fbd240785U, 0x3cddae953ab79b5cU,
  0xbce2defe3d2cc327U, 0x3c23f49ebc8a62cfU, 0x3d2e672abd3349ebU, 0xbc8fd32a3cd9f915U,
  0x3cfced0b3d1fbe14U, 0xbd0c0940bd0c1cf5U, 0xbca579983d20502fU, 0x3b95aa903d175960U,
  0xbd342cd8bcd8347bU, 0xbc551864bbcea862U, 0xbc971ed23cd0bed6U, 0x3ca9c1d63c902d24U,
  0x3d285670bcacc9d8U, 0x3c902980bc5bee6fU, 0x3d2717a13c151e24U, 0x3c5426583d22b347U,
  0xbcb31b6ebd1e90b7U, 0x3d379f7f3c531adfU, 0xbd12bc273d12af75U, 0xbd14e782bcf53335U,
  0xbbf4c0b9bca90419U, 0xbcd154bb3bbec135U, 0x3c0f458e3cb527e0U, 0xbc9636c1bc47f3eaU,
  0xbd13814ebcb79994U, 0x3d2c1453bcfbc94dU, 0xbd2923a03ab2dc25U, 0x3a5145d63d36d2b7U,
  0xbd14fdc3bd2fcaafU, 0x3c4bb1bebcb86c9fU, 0x3d12c8013cae8268U, 0xbd1e5dbd3cb02e8eU,
  0x3b10e2dcbce9b393U, 0xbaa5dba23bf172dbU, 0xbba4c41d3bbbdd77U, 0x3d3759b8bc406859U,
  0xbccbf153bd1fb69cU, 0x3d0ffbe83c961fb8U, 0x3d2ef7083a879e7dU, 0xbd08a4cdbbe1762eU,
  0xbc14b35bbd03fea0U, 0x3aaf3c4dbca44938U, 0xbd2493ee3c17947aU, 0x3c2f08e33ca347d8U,
  0xbc5046abbc812260U, 0xbccfbdc0bcf924c3U, 0xbb9896283cab3782U, 0xbbaecb6d3cc1cdf4U,
  0xbd104815bbf9c489U, 0x3c909bd6bc913eb1U, 0xbc1353dbbcf6e027U, 0x3d309cf5bb883485U,
  0xbca1e0333cbf9c72U, 0x3c9907ecbd2ab0afU, 0x3d13119d3cdad978U, 0xbcf384db3b33017bU,
  0xbbd264863c7c7873U, 0x3b8541413d337567U, 0xbcf97c46bd2838b4U, 0x3b896e3a3d1da067U,
  0xbb13c81cbb35b310U, 0xbc33c9e1bd1c0b5eU, 0xbcb9390fbc1aec9dU, 0xbd164b443b50d7a8U,
  0x3c0b479f3d3a0760U, 0xbd0ac018bbac0db4U, 0xbca459a1bb303555U, 0x3c3708afbd2c76f3U,
  0xbcb2d7113c3037f5U, 0x3bab94ee3cd9ae14U, 0x3ce2fe313c96cdb3U, 0x3c59214ebc92f9d0U,
  0xbd2fa7073bbc7c7cU, 0x3d06e7d93c0ccc8cU, 0x3d1291d63c8ee97eU, 0xbc482ac1bcf76f62U,
  0xbbcc942e3c46f813U, 0xbd2665e8bcf7db92U, 0x3cef3bd9bcdb908eU, 0xbcfe9688bc75c1c3U,
  0x3c40f8253c3366f2U, 0x3c26673cbca2b185U, 0x3bcfb78d3c7f748bU, 0x3b29049fbd18ab53U,
  0x3d397eb93bedea4aU, 0x3cd9e015bc8aa46fU, 0xbcd5297f3cef7d44U, 0xbcc8a196bcb8c6c8U,
  0x3cd109593aa8d123U, 0xbc937f6fbcabcecbU, 0x3cb214173cc846bfU, 0x3d28e7c0bd2d3062U,
  0xbd2d1ad83cc64bd7U, 0x3cfdee24bcb77c95U, 0xbd332a46bd137827U, 0xbccc2c8fbd2c1732U,
  0xbcb3c04ebd168865U, 0x3d1915b23c92d936U, 0x3c047a1d3d22ba97U, 0xbbcaa7473c04fff1U,
  0xbbf89de83cc48e7fU, 0xbbfe0a6ebd01d07cU, 0xbc80b633bcb0b6d6U, 0xbcc4f433bd13ba06U,
  0x3cafaf193c260ee4U, 0xbd12821a3c370210U, 0xbc941ad73d105a2fU, 0x3c5bd4fc3ca18893U,
  0x3c9eec46bd21b442U, 0x3b46d01d3cfe6f22U, 0xbd290421bd0599eaU, 0xbc87d91e3d1d84e6U,
  0xbc33d207bd3191b7U, 0xbd23d4323d020d3eU, 0xbc6f6b22bd2d59a7U, 0x3b1ea7743cc83e50U,
  0xbc7f5195bcf1a1cdU, 0xbd294f3f3b23b03eU, 0x3c477c543d31fb0cU, 0xbb671682bccbbdd7U,
  0xbd17cbd93cfcb9cfU, 0xbbdf3175bccc3a5bU, 0x3c5d28b03c313eccU, 0xbcb1f634bd38af27U,
  0xbc9a211cbc5ce8cfU, 0xbb1c16013ca8d911U, 0xbca60a3d3ce2b6a8U, 0x3cc8ff39bba3f155U,
  0x3b103bb6bd10a0f3U, 0x3baf07ad3d37720cU, 0xbc06e0d73bf08a9fU, 0xbc34a353bcc1d9c6U,
  0x3d23c69fbaf1db78U, 0xbc370548bc92f58eU, 0x3a9081e9bca8c58bU, 0x3d0bfbfc3cfb14c2U,
  0x3d08f7a83d027d92U, 0xbd02337fbd1ac065U, 0xbd07ffcabd09c2ceU, 0xbc642baa3d0a59d8U,
  0x3cf65ceb3b143c51U, 0xbcb490393d273dd7U, 0xbd094262bcfa74a1U, 0xbd39ce78bd16613dU,
  0x3c7b74c2bc8cad57U, 0x3c21d137bd2c7921U, 0x3c032e373d347522U, 0xba8f8dfe3ccce48fU,
  0xbd17027ebd2911aaU, 0xbceffc023d234f12U, 0x3c8191243d137319U, 0x3d2f28083d0fe5e8U,
  0xbcd39eee3cc34ac5U, 0xbccf23763baa0904U, 0xbd12da4d3bfadeccU, 0x3c956437bb76a4a2U,
  0x3c301141bb1fbd0fU, 0xbcc5de663d174213U, 0xbc2bdbbfbb18a085U, 0x3bd86d6c3d10062aU,
  0xba940ba93d39ce22U, 0xbb472ff7bc3dd659U, 0xbc3d3023bc504783U, 0xbd2455d5bbc1e93cU,
  0xbc8a2ea3bb097715U, 0xbcd60e973d16cd18U, 0x3be90b2cbcc64d64U, 0xbc73ca0abc17fe2aU,
  0x3cf0af953c7c3ba6U, 0xbc978ca03cede2faU, 0x3b34a24cbc8bab17U, 0x3d04e6a3bced21c7U,
  0x3cdd88ea38efa3d9U, 0xbc97210e3c5209acU, 0xbd0953183c43e39bU, 0x3c48081c3bb88d2dU,
  0xbd3aad99bd3a71b3U, 0xbcf08ad33d0ffc5dU, 0xbd1346ea3ca6b8c4U, 0x3c31d7a8bcdd1691U,
  0xbcc71235bb0d8706U, 0x3cfb375bbd34e6ecU, 0xbd0d39f6bbe9c341U, 0xbd225bc73d34c7cbU,
  0x3c0025e3bc8b4adfU, 0xbd188a2d3c807d77U, 0x3d0c022abd2b0c3dU, 0xbccb7fd2bd0f9efdU,
  0xbd392625b83b80f2U, 0x3d08f9113d00f98bU, 0x3d29e576bcb12eeaU, 0xbcd186d0bc43e47fU,
  0xbcce5cecbc21a5a0U, 0x3cd04c3f3c34c696U, 0x3c6156c1bd25eeddU, 0xbcf8d2d53d35c327U,
  0xbcdc39dc3cc326a4U, 0xbc7d51c73a1f9588U, 0x3d27c08cbcba809cU, 0xbd304f573cdf7641U,
  0x3b9bf5183c4d757aU, 0x3d05ee983b2ab598U, 0x3cf5986c3cd42e8fU, 0xbc2ca03e3cf835a3U,
  0xbbd0e513bc4e127eU, 0xbcf8e04f3cb5ebc1U, 0x3d26956abb206d6cU, 0xbd11e4543c2456fbU,
  0x3d32a14e3d03e0b4U, 0x3c1c76adbba5b017U, 0xbd1f473a3c6eda1aU, 0xbc72529fbc9e5e84U,
  0xbc354d0d3d2e7eefU, 0x3d1ecc38bcd473c4U, 0xbd0224edbc997d69U, 0x3c5c367bbd0896b4U,
  0xbb9fc5513cba60acU, 0xb9e421d43b4b34f4U, 0xbcf883bbbcd4e666U, 0x3cd8c387bd11e936U,
  0xba79b22439761365U, 0xbba862733ab28c5cU, 0x3d1c80b83b1c412fU, 0x3c8848c9bcbfe88eU,
  0xbbcad4483d12ca9fU, 0xbcbe9d35bd2ce785U, 0xbd0c2da43c999900U, 0xbb79c106bc38833aU,
  0xbd179656bcbed2c8U, 0x3d32e7fd3cee93beU, 0xbcaa9a363d19724dU, 0xbd06120fbd21de9eU,
  0xbc921a75bc388fb0U, 0x3c8773383bc07604U, 0x3d267fcebca8228cU, 0x3d36577fbce2d034U,
  0x3ce162c53cec8778U, 0x3d39f2e3bcc40c09U, 0xbc52987d3c54c0bbU, 0x3c9652e83c7d5a45U,
  0xbd1f200bbc99956eU, 0xbbe39d0d3cdffd0dU, 0x3be768fc3b8b9d8bU, 0xbd37fdf13d0905f6U,
  0x3ca3ce61bcd64af1U, 0x3c254d4cbc41e59bU, 0xbcaf0d7cbcd1c0d6U, 0x3b09449abc2226afU,
  0xbd1d68c5bd13eec2U, 0x3ceece0abcc60b3eU, 0xbd277ec2bc5bd912U, 0xbd28fd173c1bec1aU,
  0x3d317508bc7dc094U, 0x3d2b56f1bcb81857U, 0xbc3685e4bcd8c6d6U, 0xbd13e1813cb00bf5U,
  0xbd36ff583ca531a6U, 0x3cf3b064bcd32948U, 0x3cb272a7bc90480cU, 0x3d1f29193cb02b28U,
  0x3cc6fffb3cbcdffdU, 0x3d278fbb3cf2a880U, 0xbbe9b021bcc5b97eU, 0x3ca941e6bd044b96U,
  0x3c5123edbc0b6180U, 0x3d0339bb3d016040U, 0xbce8b3be3c9137bbU, 0xbce99e4b3d2f8852U,
  0xbbec8163bcaf3f91U, 0x3bf0eb1cbb7471f1U, 0xbc7988f93c41a618U, 0x3d196883bbc558b2U,
  0xbb93a7623d23ca0dU, 0xbd14bc8e3c070847U, 0xbc0bafb0bb72f25aU, 0x3c20aa213d245078U,
  0x3d06b9de3cef3151U, 0x3cab9e1dbd36dfecU, 0xbd33b86cbcee887eU, 0xbccc050bbc149d03U,
  0x3d1b1e393c1255ceU, 0xbc3687713d05baaeU, 0x3c60c0683c68d033U, 0x3d2bf19f3c70d36cU,
  0xbc65e79ebcbb0277U, 0xbcb2c362bbff9f61U, 0xbae30679bd1595f7U, 0xbae32afdbd34bcedU,
  0xbceaf30eba052f00U, 0xbc8fb93dbc9488fdU, 0xbcbc3f473ca7c31cU, 0xbb5951003cf2295fU,
  0x3b9a81253d1a9038U, 0x3c8836dc3d17f347U, 0xbc8715233d20c2e3U, 0x3d2eb8903be5748dU,
  0xbcd2a9c73cc5a20bU, 0x3d02f705bb3f4665U, 0x3cc0e6e53d111cbaU, 0x3c3a5d423c4c2186U,
  0x3cbacf783ca88d69U, 0xbc8013a43cbcf7fcU, 0x3d39250d3d012ed0U, 0x3c104cda3cee6489U,
  0xbd35e143bd1ae2e2U, 0xbd30e0e43d37aaccU, 0xbc18ba08bd142cf7U, 0x3c8dd80e3c1b6568U,
  0xbc90ce143d235743U, 0x3ce851443d2e5cd5U, 0xbc9ca0423d1d3865U, 0x3d09a0f0bbb843bdU,
  0x3b17341abacfaee1U, 0x3c484bc1bd1ebee7U, 0x3d238cc23c8c8053U, 0xbd23b2523d21e4e3U,
  0x3d28c7253d060987U, 0x3c96f03a3cb5dd8cU, 0xbc65b0c7bbd0d958U, 0x3cba70c2bc8d0ea4U,
  0xbd1a02a9bd1e0124U, 0xbccb997fbd196958U, 0xbc7f612bbd25eafaU, 0x3acfec683cf0ab9cU,
  0xbc1f9babbd33f93aU, 0x3c66b740bd23ab4bU, 0xbc6975dd3b9d34ebU, 0x3ccc4592bd0d6d9eU,
  0xbc6937903cc51e1aU, 0x3b9de8aabcf2f58cU, 0xbcfb5aeabd11dde3U, 0xbb971c98bb224fb1U,
  0xbcc979dbbb8f5d56U, 0x3d3329fabc4feb6dU, 0x3c68d8dabd11981cU, 0x3c0916b53cc6f215U,
  0x3d151e713d03433fU, 0x3c2aababbc4b7d06U, 0xbd182556bb8f2deaU, 0xbce530a83c2a085bU,
  0xbb84ab74bd36cc9eU, 0xbcca485fbd326f72U, 0xbd268a03bad13c87U, 0x3cbc68443cc50a04U,
  0xbb73a5d2bc0d06e1U, 0x3d15c3ac3c9deb1eU, 0x3c1a1dfc3d14605aU, 0xbd32d1d1bcadbc82U,
  0x3c90873b3c1bf2e1U, 0x3c484eca3c81f3a1U, 0xbd21d3123d0109beU, 0x3cb9bad93d034d81U,
  0x3cf19450bc0c9ce0U, 0x3c5b2a8d3caf5aa8U, 0x3d0faa703cd70db4U, 0xbd2c431ebd31454dU,
  0x3d1a31ab3d38378aU, 0x3b55b085bc9968b6U, 0x3bf9c9263d2ab706U, 0x3d3565b1bcd8af9eU,
  0xbd24db443b40bc7eU, 0x3d2468823d05b13bU, 0x3ba10ba0bc196c22U, 0x3c819632bd05879eU,
  0xbbed60d03bfa447aU, 0xbd1449bdbd17956aU, 0xbd21ccbf3cdeddbfU, 0xbd046b8fbcdaf027U,
  0x3d1003343d3668ceU, 0x3d09af39bce56b43U, 0x3d07fbe83d3531adU, 0x3c7861e93cdf2c6dU,
  0xbd2c47c63bf075c3U, 0x3c353e4f3a02c00eU, 0xbc36dd063d00c0dfU, 0x3d1158ca3c363a3dU,
  0x3cfb205dbb2fc4afU, 0x3b1342bdba4b4b80U, 0xbcd7f86dbd367af0U, 0x3ce29293bc021839U,
  0x3cd1c74b3b740dccU, 0x3ccf10d43cda6678U, 0x3cf4d5c0bd056714U, 0x3c8929633c875914U,
  0x3d2fe9d23a4ae542U, 0x3c8a9319bc58ca54U, 0x3d0d5bd0bc4e6d3bU, 0x3d10de603c054d60U,
  0xbc785004bb092634U, 0xbc272fc5b9f0ab7cU, 0xbd12ce53bbda7816U, 0xbca3c2acbd2bfc93U,
  0x3d0de2e63cb7f007U, 0xbd2cd4853ca9309fU, 0xbd04bbc8bb37676aU, 0xbd0687063a9b4accU,
  0xbbaca49abd03bcd3U, 0x3b3f047dbcf39b24U, 0x3d2602cc3d204ff3U, 0x3c34b6213c5d5144U,
  0xbd1debfcbc60f0e7U, 0xbc8afa643cbaec54U, 0xbd2d3e803b1056a4U, 0x3d1c4365bce207ecU,
  0x3d1531c1bd24c9e3U, 0x3cf08582bceabd6aU, 0xbd3102abbc8b501fU, 0xbcbaf093bc19d5d8U,
  0xbca8009abc86149cU, 0x3d2a08bebccc9ef1U, 0xbbd7bd313c00cc02U, 0x3c9e0938bbd682fbU,
  0xbc8b62edbd2cf001U, 0xbba6c936bcf5c05fU, 0xbd00f9d73bfd3035U, 0xbcc6dd8b3d084a55U,
  0x3cb38177bb9ab7f6U, 0xbac3e05d3d252c23U, 0x3cd24fc23c5594f3U, 0x3d026d77bd2e4fc4U,
  0x3d34402d3d1632eaU, 0x3cd67ffebc8302d5U, 0x3b758257bc84e0c1U, 0x3be376b6bcc39d59U,
  0xbcd3279b3c70954dU, 0xbbde8e3dbaab022fU, 0x3cd386d73c69108fU, 0xbcf06d0ebb76a5a3U,
  0x3cbb2f613c8cdb7cU, 0x3b6c438abca800b4U, 0xbc2a4ea03d2c61f3U, 0x3c5dd6b43d04f046U,
  0xbce60f22bc455641U, 0xbd2c00ddbc791d01U, 0xbd3736ca3b6f86e9U, 0xbc9044593cc27568U,
  0x3cb36005bcbbb57eU, 0x3ca179313c6974cbU, 0x3cdf6fccbc9874ceU, 0x3cd1cc9a3c542cf0U,
  0xbc4609043cc649e9U, 0xbd00b2c03c48ab49U, 0xbcc1b1383ce5ba83U, 0xbd152eafbc98a04dU,
  0xbd22a7bc3b2dd9edU, 0x3cf928473cce04ecU, 0x3bf8f78d3cbcf8c9U, 0x3cdd9bf3bc9e8163U,
  0xbd3895a8bc39a25fU, 0xbc40b8683bca2173U, 0xbbf2227e3c9bd906U, 0x3cc1ba2abb40094bU,
  0xbd35de71bcbd77d2U, 0xbc906fe23bdce9b9U, 0x3afdf3043cdfc53bU, 0x3b942b6e3cfa1d5fU,
  0xbcb45457bcf05535U, 0x3d0eb24cbcff64ddU, 0x3cbeac8ebca38fd6U, 0x3d03e9f0bd061ed7U,
  0xbc8f372e3c9d3866U, 0xb8569200bd0af14cU, 0xbc407cd7bc751ae4U, 0xbc83c8d03c9f0407U,
  0x3d10a5343d0914bdU, 0xbaad1000bcfa87a4U, 0x3c7eae96bd26a144U, 0xbc04b0ba3b4af940U,
  0xbc3eed58bd1a3570U, 0x3d287d383cb532faU, 0xbc59819cbcf38aeaU, 0x3b76225e3d24a5d9U,
  0xbd2c1d1b3cb6bba6U, 0xbc962a373bc5f1f7U, 0xbbf82dc3bd2153ffU, 0x3c9f5b013caba0afU,
  0x3c3f8ccd3ce5b9c8U, 0x3d2e90403c272a62U, 0x3d0e319b3d1b9dbbU, 0x3d39f6813ca2c5d2U,
  0xbce341f63ba8bc00U, 0x3d38f43bbd36ed0dU, 0xbcabb13abc5e4e62U, 0x3c51405cbc8fa4dcU,
  0xbcd5c67cbd213321U, 0xbcd00bedbc9d6e54U, 0x3ce78ebfbd2f3f09U, 0xbc4059be3c46db34U,
  0x3d31cab63cb804d1U, 0x3bbe933fbc55390cU, 0x3c5d32fbbd1d5a94U, 0xbc01f56c3d2fa0cfU,
  0x3cf3323e3d18c443U, 0x3d0865e93c94ae59U, 0xbc93adc63cf946c7U, 0x3c89b4cbbcdee7aaU,
  0x3cec0dddbca2fe36U, 0x3c2ca6d03c58f91dU, 0x3b737c493d0f7edbU, 0xbcc5964e3c990076U,
  0xbcee4799bc650069U, 0xbc9e4b5b3d27576bU, 0x3ccf666fbd11cf9bU, 0x3d1e3ff9bc50ca36U,
  0xbbfe44cfb9dcd731U, 0xbcf80d033d289388U, 0x3c1a2494bba570b1U, 0x3c8718de3bd924ddU,
  0x3c7e9570bd112ab8U, 0xbd0e819fbd0878c2U, 0x3c0fa52e3cd2176fU, 0x3d29ba04bc2c6aaeU,
  0xbd339d80bcd60244U, 0xbc9b56f03cb2c0ceU, 0x3cb48828bd230c54U, 0x3bbd1d27bc6d6b6dU,
  0x3c63b123bc8047aaU, 0xbd2298ac3aee26d0U, 0x3d223284bc7e541fU, 0xbcaadef9bd16209dU,
  0x3c2b8f9d3cd826e7U, 0x3d327bf53d048650U, 0xbc4a9bd83cbe171eU, 0xbc61388abd0996feU,
  0x3c0d65d23bcdb806U, 0x3b8df10ebd1fdfaaU, 0xbc992875bd2a0a90U, 0x3ca1ce773cf68a20U,
  0x3d3a7da03ca3ec35U, 0xba5026773c82b3c1U, 0xbcd6deeebcbeb6a1U, 0x3c897dffbce0208dU,
  0xbd2e617a3ccf74d2U, 0x3cdfa86dbcb7abbcU, 0xbd325eb6bc2767d2U, 0x3d245366baa0169cU,
  0xbd2573413cdf8ae3U, 0x3cd31b88bd195651U, 0xbbe918debcea1047U, 0xbca6b12bba1a7070U,
  0xb9d031c9bcb9978eU, 0xbd3358a03c59495bU, 0xbd00ffe63cc4a762U, 0xbcd608d7bca9fa03U,
  0xbcdb00c7bd38d440U, 0x3d146b4f3c83d3c4U, 0x3d2ef383bcd28503U, 0x3cf1d0f3bd1735c6U,
  0x3a9b6343bb8c8dd0U, 0xbc9b084cbb307e46U, 0xbc01912abb70e75eU, 0x3cadd7733cccb121U,
  0xbc7c250f3d337b77U, 0x3caa78b83bdce30fU, 0x3bca308f3b803d59U, 0x3c5985be3c4361a3U,
  0x3c33ff3cbd01e27fU, 0xbc4de26e3d35dddfU, 0xbc9f1d5fbc0979fbU, 0xbbad5dde3cc65eabU,
  0x3ca427c93b41f0f3U, 0x3ce1a82c3d24b583U, 0xbcdcf12f3d02e128U, 0x3cead7b13c1eb37bU,
  0x3c4cd6003b521a2cU, 0xbd14f7d5bc4dce3bU, 0xbbb4b6bfbba005e7U, 0xbd0265ae3b72adb4U,
  0x3d227c97bccb4b3dU, 0x3c86466bbcd4d70aU, 0xbcfd8f9a3bfed473U, 0x3c6edf31bcfc03f7U,
  0x3cc39b71bc323e84U, 0x3d167b8f3cd225fbU, 0x3cd7aeff3ce335a6U, 0x3cc6da423b8a6540U,
  0xbbc322a03cd3f116U, 0x3d1a17853c8c3078U, 0x3b0bc72c3bbb1fdcU, 0x3d34cef7bcea0483U,
  0xbd08a5b03d2168e0U, 0xbc0a9ad03d00c988U, 0x3ca8a378bbe640daU, 0xbd2c83593d190363U,
  0xbbe70af6bc8b4e9aU, 0x3d00fbe8ba462669U, 0xbd123bfbbc2d9305U, 0x3a1d32a3bad22ac9U,
  0x3c4195003d189520U, 0xbd1e1f7f3c27b862U, 0xbc9653463ca00342U, 0xbcfaaca2bced4131U,
  0x3d0d79a43c17a338U, 0x3981dbd63bb4af7dU, 0x3d3679e2bcfc4e77U, 0x3c304fcf3d23c286U,
  0xbc8954563c908865U, 0x3cafbcf03cc2feabU, 0xbafe4818bb60669aU, 0xbd3278ccbbb9da54U,
  0xbbafa3debcdfa553U, 0xbd276bb23d1b8683U, 0xbc3037d83ca07203U, 0x3d3142223d388177U,
  0xbc42e643bcb40bfbU, 0x3c66f40cbc5aea61U, 0xb95f92d13ccc96a2U, 0xbcf3821e3cf19f9fU,
  0x3c430f9d3b5b5093U, 0xbc6f40ea3d254e07U, 0x39296967bceb409bU, 0x3d06bf423d227b3eU,
  0x3c6be2ea3d0e6d14U, 0xbd291e853cc86e40U, 0x3b971e0e3cbf6d17U, 0xbd113c2dbcf8103bU,
  0xbd31fcdb3c7e2701U, 0x3d113906bd2b895fU, 0xbd0072043c07fad9U, 0x3cf89692bc895534U,
  0x3cdd59353d0fa720U, 0xbd33f6e9bd205500U, 0x3cfeb74b3cd26b2dU, 0xbd2ac90a3c18453bU,
  0x3cb77a0a3b434415U, 0xbd3a856ebbcdb728U, 0x3bef5692bcc67a3cU, 0xba48b5dabd0906eeU,
  0xbd166f4c3cdc0e91U, 0x3c4129da3d204906U, 0x3ba50663bce12bbfU, 0x3c460a513d17b2d3U,
  0xbcf82c7fbbf5bf0cU, 0x3d05aae93b247913U, 0x3d1cfe60bcbcb0b1U, 0xbc8997e9bcf66e46U,
  0xbc9466983bc59157U, 0xbc953ae83d1b6dd3U, 0x3cc84acfbd148c9fU, 0x3d27726fbd028bfdU,
  0x3c6a10753cb6a3e4U, 0xbd36c172bd30e53eU, 0x3ce6301a3d1d3ea2U, 0xbb7390193c782f4aU,
  0xbd37bab63b87009cU, 0x3a526ce1bc58a230U, 0xbd0a082d3cd3da9cU, 0xbcfda2acbcd02e9dU,
  0x3d2ffe6dbb2de3c9U, 0x3d0343ea3d103bf9U, 0xbceaa7d93cc85840U, 0x3c3889fcbce4c299U,
  0x3d2fd21f3c8aac34U, 0x3d3acd663c9d1004U, 0x3d21003cbd07dc24U, 0xbd132352bc896a76U,
  0xbc4265ccbd347e56U, 0xbcb348e73d11db99U, 0xbc140d4ebb50f194U, 0xbd21f9dcbd288a14U,
  0xbd0d85dbbc474660U, 0xbc7a4c943b2db194U, 0xbc4943d4bcb72720U, 0xbcaad4dabc8dd851U,
  0x3d14d2febd22608cU, 0x3d34fb883b1e1507U, 0x3c4ad46b3d3a3bbdU, 0xbaa8708ebcbfd2c6U,
  0x3d36fb7ebc1b8611U, 0x3ca4207ebcb5140eU, 0xbcc0d15cbbb1ee7aU, 0x3c9c81c2bcc31e53U,
  0xbd10a96d3d0801eeU, 0x3d25f66d3c606da7U, 0xbc48a4993cb556f2U, 0x3d228b91bc70b748U,
  0xbc469d853c61dfe4U, 0x3cb54aeb3bcddcc5U, 0x3c1288953d1232caU, 0x3c3074583d11e639U,
  0xbc85b1f03c680c0cU, 0xbb9b8f2c3c1403beU, 0x3d1ecad93d261dcaU, 0xbd2c8e29ba9ae174U,
  0xbd3a18e5bcc41555U, 0xbbaee4c23c8cb978U, 0xbd011850bc25d403U, 0x3cd35df2bc5d88f9U,
  0xbcb435273cc45a67U, 0xbbf929f13c5ab309U, 0x3c9c05af3d2998efU, 0x3cbe86cc3c5ce2c9U,
  0xbd20407dbc50f72cU, 0xbcbd300c3c172ac4U, 0x3d09f1513c610e5dU, 0x3d118c00bd183b98U,
  0xbd056a373c5f8bb8U, 0x3cf53f823ce3539dU, 0x3d188387bc16d587U, 0x3ce444b9bcb7508fU,
  0xbba056ec3c7dee39U, 0xbd08e305bcdecea4U, 0x3c2e2072bc34ba83U, 0x3c9cc734bd320ac7U,
  0x3cb237483cff8e0fU, 0x3cfe584cbc657dcbU, 0x3c6d88803bb7a13fU, 0xbcc2e26d3d1e27f4U,
  0xbcfaac773d211f9cU, 0x3cdf511dbc9bf18fU, 0x3bdedfd93c8fe636U, 0x3cabfab1bd0cd826U,
  0xbc62e3cfbd09820cU, 0x3b92862fbbf32df6U, 0xbc563cb13d1e387eU, 0x3ce3a686bd369016U,
  0xbd1c3c48bc3e8c0eU, 0xbb5a549fbcda0663U, 0xbccadb5bbd3750aaU, 0x3c99f6323b47d1e9U,
  0xbcccd492bce949faU, 0x3d1928d8bb380a74U, 0x3b15e3583d0ae4f0U, 0x3d12b8f43c8b821dU,
  0xbd1a1b6cbd36a3d2U, 0x3c645c243c4c006fU, 0xbcdcbc403cd99a77U, 0x3d093501bcc7c466U,
  0xbc94b4283bf5b963U, 0x3cefd74cbc6e6c3dU, 0xbcbceaa53d1562cbU, 0xbd2f4fa3bba1c93aU,
  0x3d399e98bcb30513U, 0x3d119eec3af2fc1fU, 0x3d0693743b1e870cU, 0xbbedd5053c85e49aU,
  0x3d1c1dd8baf02349U, 0xbce454eb3cd84074U, 0x3c952f96bb40b09fU, 0xbce32a08bd11c030U,
  0x3cd585803cca6584U, 0xbca4e5bebcb0a067U, 0xbd1dda863a6a8f8eU, 0xba6b9bf03d219686U,
  0x3c9a687c3bbec724U, 0xbd14c19d3b8305e4U, 0xbc46c3093d214af9U, 0x3a3a49d63d30c039U,
  0x3bb86009bc1920eaU, 0x3b9e8b6d3d11c183U, 0x3b87766a3c9c366cU, 0x3a993ccdbc1ea503U,
  0x3cd145c53c4f2521U, 0xb9cf2ae1bd22e586U, 0x3c9c0d493d146997U, 0xbc4fd0f4bbf8e707U,
  0xbd327d983d264be1U, 0xbbd2e763bc832614U, 0x3bc09f6abca42018U, 0xbd15e5dcbc5bd68fU,
  0xbccd3a073cf5aa8eU, 0xbd0d68c83c24d46eU, 0x3d2ec3b63b755527U, 0x3cc702963cd10acfU,
  0x3c7c9f163c999de9U, 0xbb77b4c3bcaa7c2aU, 0xbca5be4f3bad3382U, 0x3cd7210cbca6b1f4U,
  0xbd0cc33a3d223eb7U, 0xbc9eba59bd2e16e8U, 0x3c3172833cd9ae9bU, 0x3c114206bcc47053U,
  0x3cf433283c73a725U, 0x3d1e4e573a89f180U, 0x3d2203683d1700e2U, 0xbcdfc97c3c74c841U,
  0xbc0a01453ce28bddU, 0xbc005a383c9c38e9U, 0xbc388577bd09d07eU, 0x3d25b466bcef9428U,
  0xbc1c41bbbd276c4aU, 0x3d2ce90cbd1e663aU, 0x3d1a78b53d394be5U, 0xbd2559f3bd386c5bU,
  0x3ab8362e3cc5b3caU, 0x3af27b68bbdcc440U, 0xbaab9c47bc957bf3U, 0x3d1d421d3ce66b18U,
  0xbc4cccbc3c272956U, 0x3c1935913ca77f71U, 0x3d19369a3d199e40U, 0x3d21e0e03d07e011U,
  0xbd32d15e3ce6bd75U, 0xbc317378bc956338U, 0xbb855a733d0c08ecU, 0xbcb93a77bce7bde5U,
  0x3caf1d12bd2572e3U, 0x3d1c2695bd1e0e47U, 0x3b7b6ee53b23a4edU, 0x3c98fdd03d163775U,
  0x3d139266bc5095f9U, 0x3c9f8efb3d0a45a6U, 0xbd203988bcaa012eU, 0xbc1808a43d2e2882U,
  0x3d23b6073c11ad26U, 0xbb1b63153cfe3f14U, 0x3d1d7193bca43acbU, 0xbcbe3b303c7dda64U,
  0xbc658f463c95570cU, 0xbd0575c3bd2d7441U, 0x3a026d2bbd05dae9U, 0xbc9ebc10bcc02cb7U,
  0x3c9e64bfbca9965fU, 0x3cfbbe623d0c45c0U, 0xbc9bbe443cd4732cU, 0xbc93bcb93d12e668U,
  0x3ae5c1eb3d078353U, 0xbcf1f655bd2fd4afU, 0xbc66749c3c310408U, 0xbc911144bd2a238cU,
  0xbc8921a93be3db7eU, 0x3c22a32dbcc5d239U, 0xbc8f17a33c32ae3aU, 0xbd382bb83bd8fa18U,
  0xbcfdd21eba906b74U, 0x3cf3c4d0bc19c6a5U, 0xbd2bcb243d3ab11aU, 0xbc9815cf3a960593U,
  0x3cc07e56bb9d55c8U, 0x3d3a67c53ced6924U, 0x3cbb92933ce33f79U, 0xbceacb2abd36b20dU,
  0xbbb3533abd05d71dU, 0x3ca3b9bdbd3ab000U, 0x3bb99c9f3cfa8e9aU, 0xbc84d4373c7a91e3U,
  0xbc9b00acbd11a841U, 0x3ce6cdb5bcaad8f2U, 0xbcb197b3bd251cfaU, 0xbd00c8cabcf0517fU,
  0x3d0c08e7bcfbadc1U, 0xbd11cd2e3c7cd841U, 0xbcef085dbd39de0eU, 0xbd1b59373c3ff0e6U,
  0x3cd20dffbcf1b201U, 0xbbb0bccebbc8205fU, 0xbb8ef4093d0fc146U, 0x3c9968d9bce4e182U,
  0x3c1c7e75bcaed89eU, 0xbb1dc943bcd72b62U, 0xbd07be943c8ff20bU, 0xbacc702b3d29d917U,
  0xbc0a8a62bd113b00U, 0x3c6db18eba335c50U, 0x3bd7b1763d3a6dedU, 0xbcb7af4ebc93c4e4U,
  0xbcbbbb8d3b3e44c9U, 0x3c0e15803c7c2c50U, 0x36577002bcbb72fdU, 0x3a428117bd2d774aU,
  0xbcbcb50d3bfffd73U, 0x3ce2d4593d0e9b41U, 0x3c3bde31bb519f7bU, 0xbce30682bc9e4254U,
  0xbccc62f7bbc10808U, 0xbcb7a92a3cab4276U, 0xbcf4a6173ac6fa32U, 0x3cd3aed9bc8cbd05U,
  0xbd21c0e4ba6b7b13U, 0xbcd6385ebcdbcebeU, 0xbcacb5d23cb2cb76U, 0xbc4a66b1bcf47d17U,
  0xbcc31d433bfb49ecU, 0xbd17f3cbbd315bcfU, 0xbb15f89d3d252862U, 0x3d2e7dffbd29a321U,
  0xbd0cd7c1bc27ac0fU, 0x3cdc7c423d07aa04U, 0xbc3e9dd0baba7807U, 0xbd0f8eebbbd21f31U,
  0x3cae91ff3d3492d0U, 0x3d2826c13c5fec64U, 0xbc3ba1b1bbe334c2U, 0x3c6870f13c65bae3U,
  0x3c3773ac3cbeecf2U, 0x3d2e965bbd352edeU, 0x3c61c588bc29d75bU, 0x3d2c7a78bd28c352U,
  0xbd071ddfbd1dbee6U, 0xbd302a12bc326b8bU, 0xbc720c2c3a97a4c0U, 0x3c881c3a3d06cbefU,
  0xbc9ad9313d26a298U, 0xbd0efaf53c93775eU, 0x3c9c91d63c2cf44bU, 0x3bc7bf8fbcf46f82U,
  0x3cddf2603cbc2cadU, 0x398c15f43d072389U, 0x3d1711b5bd3a3f57U, 0x3c5acce43d2f2c7eU,
  0xbd031e623d34fcdfU, 0xba80924bbb8e2f8aU, 0xbd35ba163d22ea75U, 0xbc384735bb76e3ceU,
  0x3c1a6de23cd38e6eU, 0xbbb039e63c7ac71cU, 0x3cac04963d0f2c00U, 0x3bd6afce3cdd85d6U,
  0xbcb2648c3cc3a2aaU, 0x3b2285473d23d003U, 0xbc63ce99bccee9ffU, 0xbca46c1abc2917bfU,
  0xbcd341c5bbd4246dU, 0xbc8d517c3d3459c4U, 0xbd075932bd066beaU, 0xbc9cdabdbcc29c2bU,
  0x3d0aa5bfbd12ccd6U, 0xbd1a8897bc4f4cf4U, 0x3ce6d50b3d09ae90U, 0x3ce113d5bd142f69U,
  0x3cd31bf7bcd0e1bbU, 0x3d271a673d2a5af1U, 0x3b1d0d353c5ba483U, 0xbd07a9cf3d186137U,
  0x3d2e631cbc975372U, 0x3d06fe283c7010a9U, 0x3c91d52b3b8da02dU, 0xbd09bf563c9c3452U,
  0x3d3ab985bb89ed2aU, 0xbb2370fbbc473ca2U, 0x3b76aead3d19b755U, 0xbabd2a29bc7e277bU,
  0xbcc03e03bce6a21eU, 0x3d118d43bd24e88cU, 0xbce910a03c80bb36U, 0xbcf10ba83cfca75eU,
  0x3ccc808b3d2e802aU, 0x3d250ab93d377600U, 0x3ce1a9e23c8b34bfU, 0x3c685577bd187687U,
  0x3c6461fb3c8dcdaeU, 0xbceb2ddbbd0a24caU, 0x3d072e75bc76cb74U, 0xbd19209c3bf07c0fU,
  0xbcf54a3f3ce8e853U, 0xba336285ba53fbfcU, 0xbc5652543d0b39faU, 0xbc909d00ba7fd5beU,
  0xbbb9163fbd38777eU, 0x3d307e90bd0464eeU, 0xbd0c4c753cda9ce3U, 0xbd0d5b883b06a12bU,
  0xbd1c14e7bcf685b0U, 0x3d140d91ba89bc8dU, 0xbcc600d33d33f45fU, 0xbd274d34bca1b0ecU,
  0xbbf28494bcd9a7e8U, 0xbc6fa2a33ba0a9c4U, 0x3cc3f9e4bbf477f7U, 0xbbe18a5b3b8c804dU,
  0xbd1d504c3cc9cf0aU, 0x3afe3691bb8ad413U, 0xbc8a30bdbce481f4U, 0x3d2558823d211b49U,
  0xbc893d553cdd6bf4U, 0xbc39a4ca3cb83a1bU, 0x3c84d269bca809a9U, 0xbccf16223b022e2eU,
  0xbcf56a6abc4e44e7U, 0x3d0dd2bc3d088c35U, 0xbd065de8bd25b56eU, 0xbce6a212bcbd4cdcU,
  0xbc26c55a3d095adcU, 0xbb5c489abcd6d310U, 0x3cb2fc96bcd67ed7U, 0x3a8ed598ba3542b0U,
  0xbd0c834fba7b8d91U, 0xbc9f33ae3b76170cU, 0x3aeab49ebd03a755U, 0xbb7ab21d3d040215U,
  0xbd091f003c833126U, 0xbce83aafbc1a0562U, 0xbc6900e13b9787e7U, 0x3cb5c3f93c890bcfU,
  0xbc66c8eabc18bfcfU, 0xbbb419243c7114ecU, 0xbcb169913d08e91aU, 0xbd39b757bc04798bU,
  0xbbce472a3b58fc61U, 0xbc5b1b03bc6e003fU, 0x3d0177a83cbe4480U, 0xbb6c0690bc4cddfcU,
  0x3d1930dbbc92b6ddU, 0x3cde3703bc56c727U, 0x3c7fc1743c4233a8U, 0x3d3414103c88eabdU,
  0x3c68a6c2bd233247U, 0x3c0a33d7bc615caaU, 0xbcf0206bbc9e4806U, 0x3cdcd2b2bcf74cfdU,
  0xbc0b4894bd0cfeaaU, 0x3b5c3c013b1a53f5U, 0x39f0ce8a3c4cb3d6U, 0xbccaf17bbbceb082U,
  0x3c64d2733d121b9aU, 0x3d1d161c3ce03b75U, 0x3c7c13df3d2af3a1U, 0x3d1362b6bd3a06faU,
  0xbcecef58bd2b8f49U, 0xbbc4ed6f3af1aa8aU, 0x3ca8adccbd1be153U, 0xbb5cdd203d0f77ebU,
  0xbc3671b23c417896U, 0x3bd458d3bbf97bf7U, 0x3d219bcb3d2c2e87U, 0xbc267c303c8dfa81U,
  0x3c187eac3c5bc604U, 0x3d32e4553c0c36f9U, 0x3bd5a15e3d0d6babU, 0x3c85f84c3d2628c1U,
  0xbcb92e67bcdc55e2U, 0xbcb8176ebb345ae9U, 0xbc6ff838b9e7166bU, 0xbc653b6dbc2bd353U,
  0x3bfefd933d0f0035U, 0xbc186384bd249049U, 0xbc9d3ebbbd111f82U, 0x3cd1b5bf3c7947e2U,
  0xbd0e1a843d18eb7dU, 0xbd0db2473c59bc03U, 0x3cb95643bcd7d932U, 0x3cd8b4af3b8bceeeU,
  0x3b47b325bcfdd284U, 0xbd29c880bcd1f825U, 0xbbbeedb63b7959deU, 0x3cc991d53d32c896U,
  0x3c63c870bcc02370U, 0xbd294fdf3be2434dU, 0xbcb9bd70bc69bae1U, 0xbc9f9d01bd12562aU,
  0x3cf36bdb3ca779a2U, 0xbd3294653cec8e37U, 0xbd01406cbbfe130fU, 0xbcb14c66bd0d61d6U,
  0xb9e8a69f3cefa289U, 0x3cf218f1bc72b5a0U, 0xbca86270bd066ef7U, 0xbcf7f0eebd30780fU,
  0xbcbf3c8cbc87b8e8U, 0x3d201f90bba9ba9aU, 0x3d0f9329bc9e6b31U, 0x3ce97b5abc3c98acU,
  0x3be5242cbcd5256cU, 0x3cb0d2f1bd016016U, 0x3cb03f3d3d30e26aU, 0xbd38c1163c626a42U,
  0x3cf8e27abbf4d465U, 0x3b8ee069bc77617cU, 0xbd344151bba5ba39U, 0x3c7dca2a3c3ca813U,
  0xbccf43debc91fe62U, 0xbcb3d79b3cab6b62U, 0x3d3623e4bcd4b08aU, 0x3c8ca5c93c4b562fU,
  0x3d0dd958bd0699b4U, 0x3b8f294dbcc492bdU, 0x3cea6177bbd00cd0U, 0x3c7a547f3cea312cU,
  0xbd1835f2bcc05ab6U, 0x3d066b09bb79762bU, 0x3d130ae33d0e667fU, 0xbcbf10bebc51cecbU,
  0x3d0491d9bb8daf0eU, 0x3cd4e5653c4db35fU, 0x3d1e4d9dbc716e50U, 0xbcc097c2bccd0e9cU,
  0xbc7c5351ba952300U, 0x3c6739ed3d0ca855U, 0xbc0203e4bd39ac93U, 0x3d14e5b93d28157fU,
  0xbcaf4a623c95daa0U, 0x3b5f2776bc509e71U, 0x3c2fa3233d036f1eU, 0x3ce18e13bd1d5f97U,
  0xbc36aba939ed3141U, 0x3cd50177bcee9ddaU, 0x3cdba0a2bbf27f26U, 0xb9564d5abb0f57c4U,
  0xbb6e68b93d2ccceaU, 0xbaa56ace3d008bb4U, 0x3be08fae3cc28e05U, 0x3d2e467f3cf520beU,
  0xbaee4d563bf83b69U, 0x3cdb589ebcee3b32U, 0x3cff4a90bccafbb4U, 0xbd07c3ff3caa5168U,
  0x3baae5b4bd181118U, 0xbd047c0fbc34b7a9U, 0x3d28c3aabd040a2eU, 0x3c72a6723cf1005fU,
  0xbcd22cbabd1adcebU, 0xbcbb7ea33d25543fU, 0x3c8c6c0f3cdec095U, 0x3d1e9053ba99fe83U,
  0x3c43da283cfae9d5U, 0xbc6aa447bc169f59U, 0x3ca3b4943d324c77U, 0xbd0e534f3c573853U,
  0xbca00385bcb579f7U, 0xbd11ca0fbcfc85a6U, 0xbbc34c1d3c82218cU, 0x3d074deebaa32e9eU,
  0x3caecab83b295092U, 0x3cfc4d33ba1735beU, 0x3d21b2953c666485U, 0x3cb4d7a83d336867U,
  0x3d01683d3b5bde58U, 0x3cb649273cab3e3bU, 0x3ce602663cbfa5eeU, 0x3cba37babd11ceccU,
  0x3d1656513b8da096U, 0x3c8676403d0007deU, 0x3d282649bc4952efU, 0x3ce35c4fbc01b320U,
  0xbca9f7c93c31cbd6U, 0xbd37f707bbfd40d3U, 0x3c8a97953cb4b737U, 0x3ca417cc3cb40826U,
  0x392274f03d08d6ddU, 0x3c0e8a71bc932adbU, 0x3c26b4943c64e417U, 0x3d1de6573a5daea1U,
  0x3d0cfef53d366a27U, 0xbcee7a233cc8f098U, 0x3cc0c7583c2e51ecU, 0x3d06c108bce84f8eU,
  0xbcb02311b80ef4a1U, 0x3c3618c23c7d7b45U, 0x3d1dc8ef3c943457U, 0xbca4f9813c49a327U,
  0xbcc9ea273b193b6fU, 0x3a3c7e5b3b44b022U, 0x3c9fb7bdbbf79414U, 0xbaec0e0cbcac3b58U,
  0xbbdae55bbc4dd60fU, 0x3d1095323cf3a4f4U, 0xbcc7ae43bcf57f02U, 0xbcccb1dc39b37120U,
  0x3c5c1b3bbd31507cU, 0xbc7dad34bc51b2e1U, 0x3c4ce801bcf1ebe4U, 0x3cfea4a6bd06131aU,
  0x3cd23a4b3cbe10ddU, 0xbbe28c84bb45ad75U, 0xbc86f278bc8552e0U, 0xbc964178bd1d7fecU,
  0x3cb3f8d0bc4eef9cU, 0xbce99dbf3d2d02ebU, 0xbcea00533cc84b3eU, 0x3b40ac9bbd1bd5b2U,
  0xba523c503d31a117U, 0x3c78246d3b996a7eU, 0x3b73db51396df20dU, 0x3d32de8a3ce99c2fU,
  0xbd2dadb0bd2b77deU, 0x3bc5b032bd2177b1U, 0x3cbac7d0bd0be52bU, 0x3cb233233bac35c7U,
  0x3c8c16cfbad62272U, 0xb9cf5ebbbc8619fcU, 0xbd218bacbc516786U, 0x3d2783293d2ca75eU,
  0xbcd17c6d3b82cb6cU, 0x3c83480dbc12a937U, 0xbd0d07e33ca916beU, 0x3d2438923cf86b96U,
  0x3cac4032bd17a28cU, 0xbbbe2c5dbc1a6221U, 0xbd29f28d3d063a28U, 0x3af949b6bceaf6d2U,
  0x3b44caf9bca564e7U, 0x3cd7bd7d3d032da4U, 0x3d2c9b023cda89d5U, 0xbbbc1d80bc804d7fU,
  0xbcd474cebc049da0U, 0x3ce1a2143d31b93eU, 0xbcc25e503cbaf54cU, 0xbcff9a393bae8a3fU,
  0xbcde45583a02bbacU, 0x3d2f0067bca672f7U, 0x3d0f11e2ba52182aU, 0x3d30922bbd04e77aU,
  0xbcd9d0ff3b1faa12U, 0xbd2a72b7bd07e02eU, 0xbd28ac973bd3e3a8U, 0x3c9af919bc9158edU,
  0xbc00e1bcbcfaf538U, 0x3d18e187bba68d5fU, 0x3ce7c700bce8f5caU, 0xbc3c3868bced86a7U,
  0x3ca952a0bd213a3eU, 0xbb9a28dfbcc7bf3bU, 0x3ce14e183c17b91bU, 0xbd043cd23cb36abfU,
  0x3b2d6c793d217ef9U, 0x3d0a457ebc99e81aU, 0xbbb0a02f3aa7aea9U, 0xbd076d8b3ab0f1efU,
  0x3d1f95af3cf1f00bU, 0xbd0e784bbd303498U, 0xbce5a2f53cf4980dU, 0xbc9a99443b869f7bU,
  0xbd15ef24bd24b7b3U, 0x3ce66a17bc687eccU, 0xbb645c123c53aa60U, 0xbcfd3cbabc4e43a0U,
  0xbcae5d9c3ca8151bU, 0xbd0d7193bca067b2U, 0xbba1cb8ebcce0cacU, 0xbcbcd7e93bf198d5U,
  0xbb8badbf3c82cdc0U, 0xbb52a6f03be4b161U, 0x3cf0f8d93ce99f6cU, 0xbd0f8d033cb66a0cU,
  0x3c4a1829bd224ca5U, 0xbc488b79bcf0004cU, 0xbc09c5fa3c54da1cU, 0xbc8126473d09264fU,
  0xbc50431cbc709256U, 0x3bbbd72a3d332605U, 0x3c5d6e913c995325U, 0x3ca474f2bd2beb23U,
  0xbd06d6923cc25d52U, 0x3a9074f33c41acfcU, 0x3d26e8f3bc9d8b90U, 0xbccfdfea3ba01f54U,
  0xba798b703ca0a960U, 0xbccafdc83cb86e0fU, 0xbd0384cc3d1d0768U, 0x3d346374bd15f5e8U,
  0xbc4495d8bb4e9817U, 0xbcb6658b3bf27763U, 0xbc7556ef3c15daa0U, 0x3c64e5b5bd38ac70U,
  0xbd055f143cfa1ef8U, 0xbd316d953ccdd551U, 0xbd10f108bcc4d2adU, 0x3d2afb833d0f6058U,
  0x3cab1f463d2541cfU, 0x3d0cd3e9bce767d5U, 0xbcc645763a0b3563U, 0xbc4456bebc244967U,
  0xbb3c5e51bb9026f2U, 0x3d1232f73cbe8099U, 0xbbf429183c3e0c4dU, 0xbcfba0cbbcef038cU,
  0xbcbfe4873cea8349U, 0xbc40af2f3c683d35U, 0x3d00749b3d2539c4U, 0xbd218df33d3a4005U,
  0x3be3de0d3d190231U, 0xbcdc5559bc83d750U, 0x3d220ec8bd0b953bU, 0xbcabc5763cda2379U,
  0xbd19517f3c6ee003U, 0x3d2d4cec3d0d24c3U, 0x3cc697a73d03bcf9U, 0xbc3a9d4cbcc05940U,
  0x3ca4421cbca8976bU, 0x3d0f2616bb06504aU, 0xbd386fc43cebc088U, 0xbbbe2c00bc47a646U,
  0xbcc92dc23c5a2fdbU, 0x3d06e7d1bd1c141dU, 0xbd0008253c4d23c6U, 0x3caa26463d12c225U,
  0x3ce8049f3c4d2857U, 0xbd323eabbc24020fU, 0x3c6d03d6bc4e1fa9U, 0xbc992b18bcecb60aU,
  0xbcbc9dabbcae1d09U, 0xbd126d163a8617c8U, 0xbc8c0d7c3c085505U, 0x3d25776abc8bb7fcU,
  0xbd237cc3bc02c946U, 0x3d200b1b3cb20945U, 0x3cb2f5b23d28d77bU, 0x3d29c4873c6ae170U,
  0xbc3d3cc8bb87c8d9U, 0xbd30716c3d2f8d10U, 0x3b0dc0cf3d14b0c0U, 0x3c597229bc954ca6U,
