/**
  ******************************************************************************
  * @file    network_data.c
  * @author  AST Embedded Analytics Research Platform
  * @date    2026-01-22T14:56:12+0000
  * @brief   AI Tool Automatic Code Generator for Embedded NN computing
  ******************************************************************************
  * Copyright (c) 2026 STMicroelectronics.
  * All rights reserved.
  *
  * This software is licensed under terms that can be found in the LICENSE file
  * in the root directory of this software component.
  * If no LICENSE file comes with this software, it is provided AS-IS.
  ******************************************************************************
  */

#include "network_data.h"
STAI_ALIGNED(8)
const uint64_t g_network_weights_array[3945] = {
  0x62d8cdad1f504de8U, 0x4fe090e881c6bbacU, 0xe681ba0aeb61b1eeU, 0x4d2d8160bd621707U,
  0xa0810da3a010039fU, 0x9c81d3b69cb925c1U, 0xbc68efad5f7eb163U, 0xcd556abec481ed79U,
  0x5a81e6e1d20e8df4U, 0x497d35f09684b5bcU, 0xba4f7f2ef8c2861fU, 0xd09d6cd7ac81fc35U,
  0xdc8187f90669387bU, 0xb812011043815913U, 0x1d837fd8f2691d16U, 0x89ef348477b6eebdU,
  0x11eadb175481fefdU, 0x968120d25dcf6fb3U, 0x7eb341101e32c258U, 0x9e59d0777f161073U,
  0x2109d71081016dc5U, 0x75a039c33e811e8bU, 0x0U, 0x0U,
  0x0U, 0x0U, 0x0U, 0x0U,
  0x0U, 0x0U, 0x5d72a5a334e4eaeU, 0xa1cd0dba98e1becbU,
  0xc3b0fa8eec958430U, 0xcf33ea551a28f3fdU, 0x1c5de4ea01cdc2ffU, 0xcee218d4b9171862U,
  0x414dafdff044f227U, 0x33017d3ec039d8c6U, 0x9952717708ea6920U, 0x180906a5a8947eceU,
  0xc83a2b97595855a1U, 0x343c916faae74d4eU, 0xfc6254bb3bf23fe9U, 0xa064673674462334U,
  0xc4ae6dbd25a218a2U, 0xacf94884bbe4bd8fU, 0xbe8facf398083daeU, 0x87d0f5041c72f42dU,
  0xbfba8ce7c60f0e9cU, 0x9b00db6c7fe6946U, 0xb76aabc32fa0ce6fU, 0x5371b1b7931f09c5U,
  0xaeaeb5670729f0b3U, 0x28c9a01617522c9bU, 0xd5b35711ac8df235U, 0x4f4cabfe3b635be6U,
  0xa88e90679e58c7ebU, 0x53fae3d47c416da3U, 0x76bc81b0a68952cdU, 0x18e558123b039078U,
  0x4bc2f40b5f03dc58U, 0xc0e82ab584da5095U, 0xb7a2c6a3bdf13b4fU, 0x72a65223d7137720U,
  0xcb298cf43ae4f1dfU, 0x28a111908dc9c087U, 0x24319363f3ae7422U, 0xd466dcf181f2d6f4U,
  0x603ec0987ecde495U, 0x58fc2983f886175eU, 0x366cf4e2228f0522U, 0x6916f1e2b0500508U,
  0xab87bd5db616ff03U, 0x8eb88f23becca8c2U, 0xdeba193c54aebe44U, 0x5711c0fba3701bfbU,
  0xc2ef62d1f2accc90U, 0x26cb895de00dd15aU, 0x3fc04cb85abfc2a1U, 0xd25a9bec9bf3bd36U,
  0xde939db053431b3fU, 0x709a742e67753e43U, 0x673079a65985b072U, 0xf77b4141126dbaf2U,
  0x3e0939f54251293fU, 0xa0a41e11c8942d1aU, 0xaaf51e1783df0feU, 0x5a5b22c0b70f8f0dU,
  0xb54be351fa321eb2U, 0xf683c7776adad93dU, 0x84193292db78a68eU, 0x7df6d62535fc295bU,
  0x4cca933c1d7d5c69U, 0x1a983741fe1bce71U, 0x9bfbe7a9415b883aU, 0xc4f02bda9a29c21eU,
  0x2c23865b4d96da87U, 0x2604a37c210dca43U, 0x379a62702342fabcU, 0xc2fe6dea7ea2aeacU,
  0xc0ac60beeaae021cU, 0x71364889b166180cU, 0xa89c596215e4f248U, 0x267a54023ff73b03U,
  0xfec90eac8d760c54U, 0xb963a8c91a99229bU, 0xebe2fb6d841a06faU, 0xf4ec253c55ccd8bdU,
  0x4823b77e83c739f0U, 0x6b2da52d995acf2fU, 0xc9199303a368e862U, 0x7cfe3560a3eb13b6U,
  0xfa5caa346e8b13e1U, 0x726fd132507c0654U, 0x70272b40c2636325U, 0xd793d40a2009a443U,
  0xbae082a4d39f020bU, 0x33bb900bf77e8a47U, 0x9e092cddfc02bf89U, 0xfc66d1511aa5ee69U,
  0x70f9d2c1e85ead6eU, 0x5b77d75f395ed105U, 0xdff7fa7c246ddb54U, 0xff4fd55e6bd7ab33U,
  0xba0df392631ba82dU, 0x47a93ea2cdffffacU, 0x836c24ba2589a433U, 0x9548eaadf260a764U,
  0x709e45296c533e4U, 0x551a0ae1c422739dU, 0x9d94a384a9610daaU, 0x2e4567c06e1a60ceU,
  0xc11d55461179a73eU, 0xb8892c8fb8e6c1eeU, 0xee45b7ba5f1ec2c1U, 0x281b020f89a7cef0U,
  0x383c2350f9c1fbfeU, 0x4d1760aaf2d51bebU, 0x2da0df93af3ef4f1U, 0xd68eb372ceda0d47U,
  0x33b4834ee38ee0ecU, 0x601f62a035e3e48U, 0xf4a9bca67aa3c85dU, 0x3ffe7f03c6ba8fb9U,
  0xd980485b30365eeU, 0x61363ba31929837bU, 0x74cf740a7056c149U, 0xe1a057af3e6f5be1U,
  0xa0950454e5cc2c19U, 0xf6e214035a5dcc1eU, 0x952365cd60ef4d2aU, 0x251b1081204cb543U,
  0x76456733894552faU, 0xa1462e18c8ec164U, 0xfbbc9b8d9974633aU, 0x36feb229f9321fc5U,
  0x76516fcb85eae326U, 0x71299015d5549231U, 0x85e8e3cd2e57f124U, 0xba34cb249c600fa5U,
  0xdfe5e90a5522d7f8U, 0xc809c64b4fe5aa66U, 0x5b39f07e688ef5c9U, 0x4405ada2908875cdU,
  0xec251e36d6ef8fccU, 0xa0ad6b0058828105U, 0x3802dfaa2c8e3ba7U, 0xc6e079f33f7e50cfU,
  0xa065ef1b14c18ccfU, 0x1564fb24d1624997U, 0x1613c157b5641384U, 0xe25895aa1665cda1U,
  0xfc3cc687e3af101eU, 0x5c57a0895af52440U, 0x9de2e238ef5d2bdeU, 0x3a51a1df43ddd9acU,
  0xd2e20035f66ddaceU, 0x1aade382dc1f5020U, 0x29d320b429eed358U, 0x11f2cf529ca69f7dU,
  0x29cb0582d352062fU, 0x5c98f8d3d679f1c5U, 0xe6a7ab8c893222c4U, 0x7b0210eb6702117bU,
  0x69dbe9949e4bd4acU, 0xed7cf2001f176d4U, 0x8dafb6533f4b3cd1U, 0x22b3dc891f5ea0aeU,
  0x1f730718d0543bc7U, 0xb845470d006ebabU, 0xcaf6d684d24f8159U, 0x52c08e02401419d4U,
  0xe102477e5cb114d2U, 0xd42587bfce80a96U, 0xd352e78502f5933aU, 0x1632e80345a54c42U,
  0x8782a2d79c7c6721U, 0x837a23dc010219afU, 0x8e1c710fe4a97868U, 0x47ff0a6b6743189cU,
  0x284b720af72e6d6eU, 0xc1418226ad8b3a3fU, 0xc0d43a8108b45730U, 0xd1bf653cc2a5e0fcU,
  0x872b18488762c6d6U, 0x4a143bd6e2bce4c9U, 0x6c32227b5e2e3163U, 0xc4d7f74f53555e22U,
  0x4b6b942a3f748c6bU, 0xf31543019dd3696dU, 0x9c2adc4f5e66eb7cU, 0x941596375e350094U,
  0x58a9f9d2cb4d2df8U, 0xc95dd3e8d825a437U, 0xfc4ed37e4535eb3dU, 0x859aea0eef41acf4U,
  0x264f1c4d91bff10cU, 0x347c1bd3f942be40U, 0xbbaf2d88bb56ea08U, 0xe139640ce63c5c56U,
  0x40d3a0a5628f4e6eU, 0xaeb9840494dc5a9dU, 0xb69ece948a50fad4U, 0x67cb319821d091b9U,
  0x1bd33495e0c996fdU, 0xf83fe09853cee615U, 0x3999ac977edc54b4U, 0x29f851651bf01f1aU,
  0xcdb7e01139bfe8d5U, 0x70de2fd3b074026eU, 0xdd422e7a0616fb08U, 0x59dd38fcf45d0fcaU,
  0xd289eb2963a02563U, 0x5af6a85f7e3a1081U, 0xa87625c9163411ebU, 0xcb7c6264133b9be4U,
  0xe49e78e69a710026U, 0x56f2d228f8a946deU, 0x6cb1267b1a38fd86U, 0x6429658d33d8d57aU,
  0x46dc81b9aa9f960U, 0xf854b72b89eb408U, 0x7dd5fd42a01ef695U, 0xbce42a06c16a66dcU,
  0x70f04826df4ae4afU, 0x85b85d784dbd49b1U, 0xdca724371d3c89d0U, 0x2c12a5a80ba3eedbU,
  0x24725983fdeaf500U, 0x43f3b3b36d83f78aU, 0xa79098b08d6c0faeU, 0x82cd50f07e5288ccU,
  0xdbda4421c3cd52b2U, 0xca0edf941e5d6738U, 0x9503cce47967b7faU, 0x25f5d7087700d2b3U,
  0x5f2c5c0b1ea7b46fU, 0xec6d3383e8e8e45bU, 0x6e7612261f1d51b3U, 0xc2ef72ae76246720U,
  0xd605ce2a654ee6bcU, 0x41d53bb98e764b41U, 0x9c867ca4738b5bf2U, 0x95ca592b4bb20648U,
  0x543c7abf09f7f2d4U, 0xe8b58f8e68ace79bU, 0x86df6a3fb305de27U, 0xf583826cb3d0b0b9U,
  0xb450a57ef2e809f9U, 0xf7c90f30569f1556U, 0x760e932ed66fb270U, 0x62a99269eab05cafU,
  0x352be9c393cda1ffU, 0x339636998a32cf3dU, 0x9661b60c51e2c738U, 0xb97dc5ab0c1d9fc8U,
  0x6d13cddab7f4ece9U, 0x5d256c56473c4178U, 0xc7fb6bdee269f3dcU, 0x63c421656bb782a6U,
  0x730423d67cac3d3cU, 0x2f9117061a66acf6U, 0xb260135d5d28d656U, 0x50dc04a7f3f1368U,
  0x55b4310b796b6084U, 0x648e66e497e13989U, 0xb5c45b3f1368741U, 0xdb002b43749d98deU,
  0x3988c12352d6102U, 0x21ce3b28401c2b19U, 0xcfaef91c01b78bccU, 0xbb097cb00983fcf2U,
  0x554e5a8ef7078808U, 0x115022333658f491U, 0x99a057f401474c34U, 0x532aa3355462351dU,
  0x66816191d7092a90U, 0xc960d1fc8531bcc6U, 0x555e1b879a310e67U, 0xff95d461e83abffeU,
  0x9ecaf5abbf846bbbU, 0x3ca84e39de34e4f4U, 0xb513d335d5aeeb6bU, 0x22bccb785d3fc46cU,
  0x5ecdbaf3b240c013U, 0x9166ca432af0a3d3U, 0x221bb448d1788efU, 0x95e665d5ec324bf6U,
  0x3cfe4af4a6a69968U, 0xb58df3a958613d7U, 0xf2793004535eb86aU, 0x8fed08121588cf1bU,
  0xe42b2f0fc5d70e64U, 0xe63f2c2ed30c5ca6U, 0x5c6877ec1c66471eU, 0xfb8cd0934bfaf678U,
  0xef305d81c62928b2U, 0x795fac1446eb30f4U, 0xbc3f5fea5e7baad7U, 0x644f1910fc30e9dcU,
  0xe8147931ac8e5b9U, 0x6fb30b9798f0d00fU, 0xfcbeb6d346710976U, 0xc8d3bd39127bf806U,
  0x8a647531af534605U, 0x573c82a8ca68725cU, 0x128d308156faf275U, 0xc8b89296cc6ca99U,
  0x4e40289e88e4e6edU, 0x5946677374317e58U, 0x66e7ced2c123b376U, 0x4dc9e0adc40f22a1U,
  0xff2b583c5016b311U, 0xd7d6da78d554c32aU, 0xcdf3e9fc773d516bU, 0xcfe010b2d9a1adefU,
  0x444802cf966e7159U, 0x63331b3a9cd11018U, 0x59ed1166090616c1U, 0x5ce19cfbdf8cf4fdU,
  0xf2e5c9d87aec1d0fU, 0x8156c85f6529b612U, 0x65ae3a719d30550U, 0x1f7abdd0d1bd4115U,
  0xb8c3d0f364367ca3U, 0xb927656649689494U, 0xde913f5227e33c77U, 0xe4c77277499ef55dU,
  0x79fa321282fa68f7U, 0xe799a23213a5a855U, 0xa608c1cc415a344dU, 0x9847d6de26eded8dU,
  0xd86d3819c46bfbddU, 0xaff6fd1ecc332096U, 0x5485e5c424a9727dU, 0x501c7df4df24950eU,
  0x521003a3408bc3fcU, 0x6bd2a02d2d10968fU, 0x3c070e1fa860f135U, 0xb9cc4b748f2cf951U,
  0x19132453f266111U, 0x77cf534bed32e888U, 0x3e6c6355b96abe5cU, 0x1be07a75cda60760U,
  0x5d661d2cc8e40adU, 0x1195bfd504749a62U, 0x1388534300cb278dU, 0xfc6194b7adeb7d59U,
  0xe031154ebe67b69U, 0x9826fae38b30a7d6U, 0x77ab0dec2a368be2U, 0x9d51e0ca93828cedU,
  0x26b2f74cf5ef1131U, 0xa4b27818d8328a53U, 0x760086dced900b31U, 0xfdcb4305e800a767U,
  0x511ac8150977459U, 0x3d2d63b2e7faf737U, 0x37a4d9712240b661U, 0x6cb74ca50afb0fdfU,
  0x9bca86d7500a46c0U, 0xd465103db789eceaU, 0xd6ae192cf3bfa932U, 0xba21fc69f331ff6U,
  0x16f6bb7b06a97985U, 0x653afe9d885d8535U, 0x65c5665abd0dca8eU, 0x777346020ea4238fU,
  0xb5cfa80a18ac269aU, 0x9fdaf0c465987fbeU, 0xac751b9819dfd388U, 0xde7e6f7ca76d8da2U,
  0xe5b089558ff4a4dU, 0x72c4446dc2dfbdc0U, 0x459408dc6559a429U, 0x4b993e2e55c973d2U,
  0x94037e71cc3b52c7U, 0x170d79120eb8be7bU, 0xa076ee11b421a9bfU, 0x1afb820002b1356aU,
  0xbc2ed3902409d774U, 0xb06097b70e3951a6U, 0x13cb09fe3acd2c06U, 0x77379349428bf302U,
  0x7767b41973b337a1U, 0x893247ab14ee2b05U, 0x17dce0c8232c69aU, 0x812608c2e36d2031U,
  0xf7fa25dca9603c5dU, 0x3a67ec1394595e9bU, 0xe5c024ef4906e736U, 0x959984d418d72960U,
  0x7f25006c3ecaed18U, 0xe27746f537168c5bU, 0x4ad1494375e30f0eU, 0xf9b5b74b108ed629U,
  0xfb840a834b215aaU, 0x14fc2f7ddb8355baU, 0xd7ecdcbd13dc3924U, 0x491e18b1ec856349U,
  0x2f856e50266e20c5U, 0xbd43110acb60b688U, 0xf5300460686b9cbU, 0x1dcfaa1669bd4aedU,
  0xad4fe832164fee16U, 0x4f8e3dc98cf2c9caU, 0x5c688b6f0e78d088U, 0xb99f9065b8614610U,
  0xef8836dd58a54826U, 0xeaae48378d2602d9U, 0x4d0585753e2a53d8U, 0x8b37f19fb9dc2e41U,
  0x2f46b7120601235eU, 0x64359db3690f64c4U, 0xae01e07766a80849U, 0x8e5f1f6e988602d5U,
  0xf8a7776e9fc4de23U, 0xb9c06fa38389ea64U, 0x4258033ddff30342U, 0x88e11a0395d5e7b2U,
  0x54199fce36b6c26cU, 0x854625374631050cU, 0xe7a098d6d1ef5a7aU, 0xeabc4a7490331534U,
  0x42d5ecc9b4b8af2aU, 0x38553bd96cfed7e2U, 0x431233ea06c8621U, 0xa6c2571745f6aec0U,
  0xcfd270c73340afe9U, 0xfc60b0746fc7dbbU, 0x8d75ac9bc53cd77bU, 0x9264cc086f3f2cd8U,
  0x3e5ae1b5d7d4569cU, 0x91b5c8fe8c4bef17U, 0x41bfe75c67efd69eU, 0xc98b39d4fd847e32U,
  0x6495ec29f95cbbafU, 0x499ecb179f0b105eU, 0xc707dd454b90b789U, 0x4bc69017070c363aU,
  0x329f827f69a65c85U, 0x1a2e8fccf62e7c0cU, 0xe9c0279d3069c245U, 0xb5b8e5e132da0e6cU,
  0x39454f4e8690d883U, 0xeaeb9a4cfb6a737eU, 0xbc31a6702c08838U, 0x3119a7768dab7e77U,
  0x29f059ba9cb6040dU, 0x630b9822279038cbU, 0xf52af3cbac62690eU, 0x16edfa55d852acb1U,
  0x527ffc338fa8003cU, 0x529ff0bb0ebb307bU, 0xd48689d9feb084d1U, 0xba2cfef4cddc3428U,
  0x9eb9dd506515fe52U, 0x302e0ea76a37de83U, 0xbb79a09c3bad1f6bU, 0xf8bcab10d66cee3aU,
  0x1635a905c4d75cc5U, 0xbd41815ca4ece961U, 0xacb4ed27a3f724ddU, 0x31b4f38a50a96822U,
  0x48ffd646b1ea025aU, 0xde85f963c2ca5ca2U, 0xd8f1ce1d163ebc11U, 0x59743353013edaf8U,
  0x399fd8189deed245U, 0x7317179e60c70e9eU, 0x25a23c55c6171f1aU, 0x97f7444ad784a96eU,
  0x21c7d185628cedb8U, 0xe0ef38e0e5b36c30U, 0xddc86a0f0a8bc9bfU, 0xb39ffaf16ee72cdaU,
  0x3a98436b18a202a3U, 0x6d760867feb2f2d1U, 0x9e2ae7e6c3fdaf0fU, 0xac603ac5d78e824U,
  0x1895759504de4897U, 0xef97955a6ddc9622U, 0xc6311d692d54440cU, 0x270120d4c39a998fU,
  0xce9d0354d09284edU, 0x5cdde21d3e86277U, 0xa1062e8719c40fe3U, 0xf7365bf790034d58U,
  0x3c360ec45c867f91U, 0x887378fc1c66fc17U, 0x29d9eba2781fe74cU, 0xcfbaa7a22fb2c9fdU,
  0x34c4dbe1c86efb78U, 0x4e8bce4a09e0e4e4U, 0x34b015bd6ae87542U, 0x43686e2c77477334U,
  0x1181aab91b0a6256U, 0x2e69a09e510cfb58U, 0xa7d2dc8bf8b88841U, 0xa05c01f587049a90U,
  0x9a9c66a82f086b7cU, 0x18f84b37328df081U, 0xbc220ba305586cf5U, 0xaa73a8e60aabb82aU,
  0x2a4b831967e4a9b2U, 0x4ada124b0c9d9962U, 0x148f5291541d5856U, 0xed326f52430672efU,
  0xc7e3a710eab863caU, 0x5caad4382b3402e0U, 0xfd578225cd9c0538U, 0xf285e12f3139b6f5U,
  0x3e09a62afbb4d36eU, 0x1ea66bf4b367cc6U, 0x83ad3c7d992ffc23U, 0x9042364346e1f2fcU,
  0xc0a6424d02c79c92U, 0xada65ae13989c8a5U, 0xa6f750bca0a9171cU, 0x6c6ab8424c5c9859U,
  0x77c6a5d5a09b3228U, 0x7bb54d4583587240U, 0xc7e75f25452b55caU, 0xc92e22a21428f63eU,
  0xd5142ee07d7692dcU, 0x3b527d3e2ac036b1U, 0xa76b0e12990a3289U, 0x33aca94b9e551842U,
  0x38527d500ceea4acU, 0x1d1e825b62b67a1dU, 0x29bd25b28ed3faa4U, 0x68dac7d320afa52fU,
  0xe562ab045315fe4dU, 0xb1d4b5c44e5d3b6fU, 0x1a797b3e5777feabU, 0x307dc64d016be140U,
  0x2a4d7ab35a4687bbU, 0x418e38f79a6344b0U, 0x22a9463e0867e08U, 0xc8cb6127427eaf18U,
  0x64922526874d0b9dU, 0xe80ace893cc3aebaU, 0x1075716c093a0ff5U, 0x9542f90375fd3d30U,
  0xc00e0b3effee8c41U, 0x761246e414bbef8dU, 0x2ee0d7301d54c5d5U, 0x28d1a63faa4f1156U,
  0xd306eeae3af60c16U, 0x4f7028a18d7b7457U, 0x855f4edf859c970fU, 0x87dcc4df6cdf0764U,
  0x6f28a6fbc45e550dU, 0xb104b6b85d91309cU, 0xf487514f391b24f4U, 0xf7c81af267c50cbeU,
  0x9070d3d506d5a53U, 0x5a1a418294218c99U, 0x42e49765b6de8f76U, 0x2cfacd20f12f11cU,
  0x6dedbaf37295d48fU, 0xc5028c428dfc2284U, 0x1a11ed1bd260848bU, 0xcedba56b3ff9309fU,
  0xf715daf8bd671274U, 0xe06365c2ee1932afU, 0xcee618be20881d9aU, 0x141317565bcca69cU,
  0x58451b09603523dcU, 0x5071960538ff6b4fU, 0x2cf2a2266118406U, 0xe5c5efabaa33c52cU,
  0x88c47da5c4ad96fU, 0xbb75e7562bf9775U, 0xc61b089b1c4eeab9U, 0xae7733159efdd5f1U,
  0x886cf08fdc4e13b9U, 0x83995c4abeed210aU, 0x40efe67b2520f759U, 0x90bae6fbae2236daU,
  0x1e1730313bce6308U, 0xd2003ea34b92e89cU, 0x3133adad048240b9U, 0xd7ed49a391f5dc15U,
  0x4a3944eb06e87716U, 0x4f9bd631c0fdc64bU, 0xc9ab84b33cfebdf0U, 0x71f0e67ad1a62055U,
  0x57b601a4ca747f75U, 0x9797e676325d1cb2U, 0x19b09ca3dadf6173U, 0xda2096564950cb51U,
  0x7dbf4f816b31d7a0U, 0x404f9d7a063fc67cU, 0x25aae6752fb1344U, 0x49c5ceb16d965be2U,
  0x3a99f0e56f566456U, 0x1b125250dc658f63U, 0x10657432be7a1147U, 0x70b08628fe31c42U,
  0x7cda5ddae4e6f315U, 0x4b91c21b0321df89U, 0xaa26bef24efd833cU, 0x19e7e09131cb0fbdU,
  0x67891a15695167afU, 0xaaff198dc85ac628U, 0x424ba36fa9a2b0caU, 0x78fcc6088619f153U,
  0x446a8507220812dbU, 0xddd54c7df1377010U, 0x193557a80931fc30U, 0x59187cac56c4902dU,
  0xbdc2dc54813be431U, 0xf5a9db9c33fb78c7U, 0xc8bb4c0954e57feU, 0x165813f570f49bcfU,
  0xce30cf82540b2d58U, 0x8a13bc2b17427c3fU, 0xe24ab79ccf51fe99U, 0x5ae2b34d42b64269U,
  0x3deea561033d19bbU, 0xc7459704b6ceea4aU, 0xe88c6457b324b07fU, 0x42a76ba3c41fff1eU,
  0x62734c60bb9e6350U, 0x383674077d5570b7U, 0x414784d36e972154U, 0xbc3e840d55568a88U,
  0x365c28a91d9546fdU, 0x5c3df1fd2617f204U, 0x11bad621ed524bU, 0x5299ab67efc12d40U,
  0xedea9c9871cd1f9cU, 0x330a4602bb05de41U, 0x64a8b8f03fb81fd3U, 0x125d6898b09a4963U,
  0x65c2b1304610fa15U, 0x389f211ebaef017aU, 0xc56718d26994febeU, 0x971b319b0885bb3fU,
  0x364e827490d35474U, 0xeb56a3ae155cd92cU, 0x21697c061519a17aU, 0x7e83283bd1541e5U,
  0x44d974e3c461b18fU, 0x215e795d8234bba9U, 0x8bafd1f730e7e9b1U, 0x510a759ccc694054U,
  0xa68eedb38864e38aU, 0xabd2f1e3257f3092U, 0x7176d8ea754a5d37U, 0x825090e3ce69bd57U,
  0x3227d561fca11c08U, 0x97ff92a91ea50c87U, 0x7eae8162255477fdU, 0xb3fc868387ad12cU,
  0xbf0337e631e81eeeU, 0x7ceb9c148e99fc75U, 0xf4e539714e851644U, 0x3c543e27a0e234f9U,
  0x4ffc762512b8ecbfU, 0xaa310385b9c9d792U, 0x9989104de6d19faU, 0x223aa0f1c0e28e24U,
  0x1cce667822992efcU, 0x8988e7c7dc1bcd3bU, 0xd344dad4ddc903e5U, 0x5e7eeedf9fea1f38U,
  0xcc576965aad0ea49U, 0x89ca7d75c9ddf8a6U, 0x5b190c3879e1390U, 0x5210412a05fe41c9U,
  0x29ee355d7eafba0cU, 0x6817667209d450fdU, 0xb7a8961265fe6fbdU, 0x8301de71f311c328U,
  0x6fb0e96240a3b4afU, 0xb5a65e09547ef32bU, 0x6afa02dbf60a9c1bU, 0xd979933c3559c43cU,
  0xc337419e1c248b93U, 0xa5387b9c7dad5391U, 0x115b82093c39ee14U, 0xb0880fc9590f8432U,
  0xf820c4304530a749U, 0x1e09d9cd2472c6bU, 0x38209e83492ffc0U, 0x3767621506946968U,
  0x9eb56c799614313dU, 0x445a8c37f6977897U, 0xc4e9ba2c6755f548U, 0x96e903e2e43fd8cdU,
  0x8bc2356186a24396U, 0x59240d0ca4c94aecU, 0xee63adbb955cfa32U, 0xd207768e3e53f6c8U,
  0xa46c816dca8e73f0U, 0xfe5a6d3b7508b60cU, 0x59dd9ae30ce7c856U, 0x584986f33b208657U,
  0x7b1d36e82b86fe60U, 0xe10f952fcaec0317U, 0xe757cb7523df3e8eU, 0xb3573f3da5de6a38U,
  0x6673af833a665f8bU, 0xd797f7256c195474U, 0xdfdedd4b527288d8U, 0x4105da773051ea9U,
  0x1ca023e6fc872f67U, 0x36ce2f5fe60afc8dU, 0x3de1dc9677fd6854U, 0x85bab3330afa597dU,
  0xecc2ad1ad669cde4U, 0xd1219a6b7b510be6U, 0x34871bb8f5351364U, 0xb1c0efbef2d4edc8U,
  0x66ac27875b1938fcU, 0xa93f6c8f85e92354U, 0x21a4b34a3d9b4165U, 0x2febb27be9c1bdb1U,
  0xb6fdbb5fd9562616U, 0x46e42d0d0c69888bU, 0xaacec17271595131U, 0xbd3f12cd77e0155bU,
  0xd7b652fbcfb252d7U, 0x667842510ec3da5fU, 0x8192046c224e333bU, 0x1bca5efb2c1e1aa2U,
  0xfd589eec96d7d52dU, 0x8194464763c2ecedU, 0x5fbf25d742e99aa6U, 0xc8db7025a96fe8b2U,
  0x7df41f0916442c2dU, 0x6db40559801a26eU, 0x18f6960bb13ba7a6U, 0xed697bd7017c8160U,
  0x3444bde0a5a492c0U, 0x841c6330da5c0998U, 0x58e38694f5082686U, 0x6cca949cea7777eeU,
  0x9c447c8c4f72384bU, 0x894b7b4ffecaa34eU, 0xf67d4d62b21c6f3bU, 0x1e2f85faf35aa1cdU,
  0x2355df0a60ebcc5cU, 0xb0af03b50a398691U, 0xa8d80ff31cef0a48U, 0xabd1103edc8aa34fU,
  0xa2e1f7d08ae26406U, 0xaac1bcb249b731d8U, 0xb1a27e3e5f04c7b4U, 0x2289ecc816c42cbbU,
  0xed603eef545c42cbU, 0x636507e5d069f611U, 0xc0449d508d93ccadU, 0xd58c851d5f7f2b8aU,
  0x75e6f0c45a2aa05fU, 0x38b7b26cf1a34c83U, 0x4e3fc5d651f239a2U, 0x7c2257317daf7e8cU,
  0x5a43d5b4b1c648b2U, 0x2b8b19a3590e8945U, 0x76a96b1a958b9efU, 0xe5a4b2972af799f2U,
  0x5bc063d40eb7200aU, 0xf583eeaa322cdcedU, 0xa9492517ecd1ef0aU, 0xc77051a3d7e4caedU,
  0x1c3139a1ef6d06c4U, 0xa868c55220add5c5U, 0x30513bdf11ec073U, 0xa7510988235275U,
  0x9211750f7d52f320U, 0x98ab5d4e0a4bee4fU, 0xc0883bf94ddc8b3dU, 0x8d04aae8b01041f0U,
  0x52f20a4655f62f69U, 0x1604abefbdc8cbd9U, 0x9d050485ab4f1c30U, 0x9e3c684ca5e07c79U,
  0x6aa524fdbbab1fdeU, 0xf4e12da05c633a30U, 0x504ab3a46c9c45b0U, 0xe74f051bea03a80fU,
  0x574f0682d4f4dcaU, 0xfbc1b4a20414c6e1U, 0x503792fcec8be61fU, 0xce9a2b9712fa78b2U,
  0xc966c74be2d204b5U, 0x663e543f26ef3608U, 0xe87ce0a0bb4938bbU, 0xd208447dc8aa6173U,
  0xf73bd5a1fb6d2fb6U, 0xe4c877c3f4b98cfeU, 0x694a15e32e3f70fcU, 0x4d67c7226317df8cU,
  0xc88ffcf20a268bd5U, 0xb589a3c5b5bdd174U, 0x82e756935ec33efcU, 0x3bb5667061c3c214U,
  0xd28d522ffc21eacU, 0xcdc505a1bc95ba29U, 0xce7cc50283a03ed7U, 0xb87690fddc16b0aeU,
  0xc47c62103e3a4eeU, 0x349155cc2846bb25U, 0xc44c816393fee6fcU, 0x13befef2ff0973b3U,
  0xfc0be11117316e00U, 0x1d72471675423800U, 0x9ac69b3d3a3c34b1U, 0xff2543f5d5f2619eU,
  0xb2111b33fb69badbU, 0xdead4813c0283b18U, 0xdf7329b0e8e901d7U, 0x1f085bbb126bab4cU,
  0xba2e4ccc5a74ee0cU, 0xb9cd37395ef44faU, 0x79830a3494dfdf20U, 0xdf00f8edb5409692U,
  0x71d45baea76e5c5fU, 0x1bfb1d2b32d29348U, 0x8f1b77bfd4e0bac8U, 0xf01b6545226334a6U,
  0xebd63c5bbba0b0e1U, 0x84abadf913e7146dU, 0x2e2b744ba8a22487U, 0x29b9f76f54610cbcU,
  0x49f56acfbcb07da0U, 0xf0074df45705c0a2U, 0x581cab694dadc564U, 0xe908c849b2d7025aU,
  0x9409884d59d70e6bU, 0x645a8a1b688fadfeU, 0x6d45da3f56ab9fb5U, 0x4e420a124712f36bU,
  0x4a0151be79b28cd8U, 0x332819202dda2136U, 0x5b6bf8cbb3c82c7aU, 0x8bba044547d48e00U,
  0x9adda8f0ff564a87U, 0x85a6687e2381cd47U, 0xfcb0a982877df7cfU, 0x1ca3d78d30676cb7U,
  0xdcce547d4419018eU, 0xace9d4406135843fU, 0x1497f2dd5eb378deU, 0x1ece6157690bd3b3U,
  0x74be421b2b769d66U, 0xa4b4fb647d2c908cU, 0x54caef013f3f0aceU, 0x368d6e0215f9fa8bU,
  0x4cb435b76b3ee4bbU, 0x48fce6023b0b07baU, 0x8f5f2721dfffd5f8U, 0x54bfdfa6cd4d1b4eU,
  0x798f956e614a1cfU, 0xebe5ed38210f3c38U, 0x2ca2b66335bef258U, 0xcd8ac72e216d9992U,
  0xb8bb5e799329ea8dU, 0x7dfd9de80f5ea391U, 0x75c6f32de81c4560U, 0x24689b1e99fcbd4eU,
  0xf53c7e6c5acb4f15U, 0x47a0406413bbbe22U, 0xf959c118e6058339U, 0xb9c8f2e7acec61b7U,
  0xc8a6f2f0f711eccdU, 0xd7530bde87365ad4U, 0x9ef67fc30c2066adU, 0x3c06a26ab3b9afbaU,
  0x4d5b7e858ce89494U, 0x57713d452a6de618U, 0xde9c07e3522ab12bU, 0x9cb13b1de47607e3U,
  0x65ac2cb15a7a210fU, 0x969ec6c6a6925b15U, 0x42d143c2d42cfd49U, 0x4d13e60265b1c766U,
  0x500da3ea3bd3a989U, 0xebd82e115218e09cU, 0x9302e4ab5c0fa184U, 0xcfc6d82d48894a1eU,
  0x4c246110652688d6U, 0x69c0470204631c21U, 0x1bc57227149e2d6dU, 0x4a359ec21eedbbfcU,
  0xa7f9aadc8e90700eU, 0x3cf754bd02cb0c2fU, 0xce703e4504aadcd4U, 0x521b372cfd16d3b1U,
  0xccfcef3c75be748bU, 0xb43383d37bdfa01aU, 0x4e0f564f134c5c7aU, 0x13ed2d2e5f6ff164U,
  0x7533560f873839e1U, 0x25d402405243f265U, 0x83bbcf44cbc90813U, 0x5867ede2471352cbU,
  0x33543a61ed79289dU, 0xd3f935e95fb8c6bfU, 0x8016f6650a83975U, 0xccdb925511b7960U,
  0xb1659db9b04be49fU, 0x545e30b5bd9b90a5U, 0x6d43a3bad336c27aU, 0xeffb2a3acc3e57a7U,
  0xf563d59c087c89d1U, 0xd5a51738a66db6f3U, 0xe7e6e85ab0264bb2U, 0x218f9e20c1c013d4U,
  0xf509babc6346f2ceU, 0x26b021bcb6e03046U, 0xbc56b8515438185cU, 0x67b8f80b993c5d6dU,
  0xca015017df9441acU, 0xdeadfe1d430feeb6U, 0x4dbe8f002fe5d001U, 0x10c2408c4430f4bU,
  0x5c6c0bfe5d7af2f4U, 0x7011d3abdcabbae2U, 0x923ac86b40c2a2e2U, 0x20f64f5b8b32df60U,
  0x5b4d5fd223a4b45fU, 0xcd6397ee274c78a5U, 0xafc926ec5f587f0eU, 0xbaab24c16a366ef9U,
  0x63583e5cd70072fdU, 0xb6c7aca134519ddbU, 0xc1e8ace4937dad19U, 0xebd55ec4dc621816U,
  0x9421abc058b49a87U, 0xaa75fd6a7541dcc7U, 0x97fb87ea8402ab62U, 0x6900e4271a90c96aU,
  0x66605883ab6eaed0U, 0xd8beba62fd6d5d16U, 0x7cf6ed6aa8babdd4U, 0xfb02d70aeeaa3b8aU,
  0x3debf20d6867ac6dU, 0x3d0279fd4d1133c4U, 0xe2e02267892178adU, 0x69922420bd94bbc7U,
  0x1eb586fcd7b2dd42U, 0xdeac45ac27f3a00cU, 0x4cbcf44153562108U, 0x5a48ba054f0fb714U,
  0x33491dcf702c43edU, 0xd27869b36cb6d629U, 0x397bdb6be6cc16U, 0xd9545dda852f7bbeU,
  0xeb33effcb1ff36dU, 0x7f8dd4ccc62d0b7U, 0xbd5159e616befcbbU, 0x42b5a0c425ffadedU,
  0x50260d9a0f450cc1U, 0xb2498c17556aaaeeU, 0x88afc120f0c05e19U, 0xf1be0d4c37aceb73U,
  0x2e028637c148870bU, 0x88941566710ab7cbU, 0x1ba7468964540a82U, 0x2bcd8384028a2894U,
  0xd75dcf6b09b44410U, 0x7c086f9194eb59a6U, 0x12a4564f40cb38fU, 0x46c8ce64d6ef9550U,
  0xde2ba0942148c434U, 0xdb2b2ba4a007c2d1U, 0xb080210bb304037U, 0xbd7370d81dfc5c18U,
  0xfc8da4f7c27bbc68U, 0xafb3c6ec1c86fb10U, 0xf5206731a43821acU, 0x2effaee6ec94cf6aU,
  0xb1e4a792b4385008U, 0xe9ec63bf1fd37b99U, 0x7d5e399f8d08b88aU, 0xa915415ff063e2a1U,
  0xa022893ad576c467U, 0x4722edfeb17d7c3fU, 0x9c3a776dbc4e4872U, 0x29d26127e7203283U,
  0xcf39126d38b334d7U, 0x8554519333837167U, 0x1a2f06b0fe493d91U, 0x289ec85c8dd70edbU,
  0x20b54696f7bd0c78U, 0x737b84d7b31619bbU, 0xca7b2c2fd781dd07U, 0x8b4e0e6c0b34354dU,
  0xab712ccdebda617aU, 0xc402ae8e77101171U, 0xfa98350512089afbU, 0x45603f79898ebfc6U,
  0xb8d3d618d335e8a2U, 0xc46e9d0666e77f4cU, 0xc77361b32f23564bU, 0x749a2fe7d43b969cU,
  0x5c74f7f4ed9d8842U, 0xa0f11b92cf6e57efU, 0xf9151ad7d6cd032bU, 0xb6d5d284135392eU,
  0xdfb94057305179dcU, 0x14a6aad19cd29642U, 0x857cc56b0351b6f4U, 0x70db4d3a2dbb60f0U,
  0xfc6483ce1b7d4f5aU, 0x195749134f139b84U, 0x50c7f07a719d14b5U, 0x2cf8937b14a10da6U,
  0x7604f82284ca0993U, 0xc60655bf21147ec1U, 0x8e2532828a9a3faeU, 0x6f5f20e2d6d58ca5U,
  0x76fa1fe7aa2f1e03U, 0x7c79d8d7f3458e09U, 0xd0f7b9f455123f4fU, 0x4b32dfd16b1ab2f2U,
  0x1a10cc9c996cb173U, 0x57771ab36afd2fafU, 0x9bb1d2981baec6f4U, 0x5571f28d3bcff5cfU,
  0x7961d48d62792065U, 0x1f177f2addb2a868U, 0xb348068b428b0068U, 0xce292091a2b6cbdaU,
  0xa6d23fbe0c253462U, 0xd14109ddd7992fb6U, 0x1119b059e8113f2bU, 0x417cf2dbb695bb07U,
  0xf2616e34cd4404ebU, 0x140e592a944a4d0cU, 0xe64d2d571a92502eU, 0x31594f7e5d837117U,
  0x438fd05f04aeee22U, 0xf51fcaa8af5ddaadU, 0x46d0098686acfdc5U, 0xb823e6f58f2bd0a1U,
  0xb32b2a8bd4ab19ceU, 0xfa7c9fe0bbe155a6U, 0x1a31aaca9f85dce3U, 0xe6e3f362022f2dabU,
  0x699f42663667d4f4U, 0xac9bc7e6c95cd4feU, 0x169d6692c965891aU, 0xc2225d8df188caf3U,
  0xdb5b18995547936cU, 0xb133de81fd0e2d0U, 0x5c544db9abf74747U, 0xf38d6a5295468223U,
  0xaba906bf64238954U, 0xbbef6ff795e39346U, 0x6da95c7298c1dcb4U, 0x8e9d5bac5749462fU,
  0x9582ac9b938de7a9U, 0x981b2220a4131aceU, 0x1c88d109ca60e19fU, 0x1797fb0b9ab89b1aU,
  0x6d70a4eac33d2b55U, 0xbcaf2bece2581f0fU, 0x9aa452cfc51af22dU, 0xd421a30ea18316ddU,
  0x11be5771c328b4cfU, 0x9fc083076e3878aeU, 0xefbc001a1e18ef22U, 0xf3cc241fc68acf90U,
  0xf474ea12980890c1U, 0x21533fc65ab483ecU, 0x476a7f7c2d5bec05U, 0xfed9c5911cb52caaU,
  0x921ad4ef0211da46U, 0x9820e6d31220fe38U, 0xe1c1acdae77a0778U, 0xebfa539cbec7b502U,
  0x4511a1116fbaf104U, 0x2ad7902634ea8d04U, 0x1fd4070593f2f1ffU, 0x639101228f1c1afeU,
  0xf10d2aa3aeed9bb7U, 0x31782713518d67e3U, 0xc4553cf3888bcd5fU, 0x2a1c13c6501ed3c3U,
  0xa0c2dd96d89c6e04U, 0x4576940a957c8fc8U, 0x5dff49f4d8a5aa72U, 0x63f56b39b1762364U,
  0xc761b957fdaa3996U, 0x6062f7f9b9dc9517U, 0x5f71fd18f65ebf22U, 0x66e417db8e86a9cU,
  0xb81b026713b7a690U, 0xfdc9411af843db92U, 0x5fbf3c3f798ef3f9U, 0x8146d14debd6b202U,
  0x28d56a51d08d0c73U, 0xa97cf96dfa444147U, 0x978a84f420a685bfU, 0x734553f5fd471734U,
  0x8fc9e8e792908a34U, 0x7c4f50c669689821U, 0xddae3a260d41ffaU, 0xc8ea4c2ee192be9aU,
  0xbe1c5fb3a1a13ceU, 0x97b7c9b8f2ffeeeU, 0xab8fbda2f838c19dU, 0xd6b1529cd9b69684U,
  0xc9f238fc76c1b2a7U, 0xfaf08a25914f66e7U, 0x9603ec06ce188286U, 0xf93f9ed39129af99U,
  0x5c6c2a5cfc8e098dU, 0x96c1e426fa5e89c6U, 0x1ec1124a37472dbU, 0x6f72c70fb4dd8c79U,
  0xe1b9f141dbe1acaaU, 0xf954300e582c5c96U, 0xe7c0e76047fbd22fU, 0x74cf6a8fbae95c01U,
  0x85760cc7abf90463U, 0x286cff114dc9d91fU, 0x4c7fb20e6f436533U, 0xa88e9c227b148777U,
  0x6dba3cda656c1d24U, 0xdeb11efd6165357bU, 0xdf25674cff0fbceeU, 0x1ef3891a60b0e437U,
  0x8d29a9ce8f49b230U, 0xc0e8c247a679553dU, 0x468c86b0d1cfc96eU, 0xff03bb481b4ceab7U,
  0x65b58f5113f0f35cU, 0x2eafd8db9954d7ddU, 0x20d1cd6523942328U, 0x7d0dd815f843bd06U,
  0x1736ff83b6d33ff8U, 0xf2074d31e8414b9U, 0x2cbf9f93e3b613cdU, 0x867a69270a8353d9U,
  0x613af91457247334U, 0xec283617b7026b04U, 0x5c9ee3769f980908U, 0xf0bbba943e96851aU,
  0x346d2d211f715293U, 0x425a311de28446d7U, 0x1d72b410e5e10f19U, 0x63f126046e496f23U,
  0x7c2628292b6de3daU, 0x751dced03002e5fU, 0x39a23d2c008d9520U, 0xb49e3856cfa7b09aU,
  0xc3c902ba22f5c81aU, 0xb7aa7af9bef46b17U, 0xcebe4f5b94f20586U, 0x5a9f4648e5491d53U,
  0x85ec32d5b19860U, 0x128ce586994cf9f4U, 0x75aada129450f9e1U, 0x43da17b97a56b3d5U,
  0xaa7c584f3a59886cU, 0x735d203cd46fdd84U, 0x9afe83897edd9af3U, 0x5e7e43a4f0e9bd63U,
  0x1516353acf071c9bU, 0x17f470a4f4e5e143U, 0x88c05c4aa67e9cddU, 0xb98867a531c1596U,
  0xfb0e38164e061a92U, 0x161c317493f9e41dU, 0x8dfe3f9ae2428b1aU, 0x4c4fbdbd92e67f1bU,
  0x5ff634a666be9888U, 0x1b70dd48d4924adfU, 0x7e6468e3b50dafb8U, 0xcaa36566d1410e1fU,
  0x11865800e508b110U, 0x245cec2b4a88a2b6U, 0xde67f3df7b52cc3eU, 0xa9028995449d9ccaU,
  0xd61b87956e22d5bfU, 0x5f2ce0087b351c6eU, 0x7abed7c450129c36U, 0x728116ccc88922a8U,
  0x59c1c561cb0da14U, 0xe145ae59ef6c1decU, 0xe8d99928870c3a12U, 0x23abe994f934f457U,
  0xb756942c501f5cbU, 0xbac5056c46f30ceU, 0x89df3e0ef6b700ebU, 0xb7e478c03cac308eU,
  0xdcc35931e9e06270U, 0x86741cdcc51385dU, 0x12dce41bc6e6517eU, 0xce74f45fbcc7231dU,
  0xde6be1f4328ea413U, 0x56f077978f4e3286U, 0x9c97d6789fdc5519U, 0x9ae00e985edbe047U,
  0x6da04124ff659a14U, 0x762aa6ecbe5fd7d1U, 0x21b2287161e1d536U, 0x8624918f30817298U,
  0x581fb41a27cefc10U, 0x4266d58baaad6824U, 0x32c0112703db4308U, 0x623baf2dedc1f79aU,
  0xa1279c7bebe45e09U, 0x763cd5dae2c55e9cU, 0xe079741c630caaaaU, 0xeca8e2ee00f64607U,
  0x51e84003db2e8e96U, 0x24e2f651048eeb6aU, 0x5a683ad2d177f59U, 0x1faa531bf5242a04U,
  0x77f378c724050a8cU, 0x780da1aa3ce962b3U, 0xe742a3d4b648692bU, 0xc1f9cd3711109d34U,
  0xc2a53c58bbc8155fU, 0x69a66f63f7214cb7U, 0xc5d54a9ed2793ebbU, 0x7633d79bb7ea4c01U,
  0x42f530e6d94828fcU, 0xa03fede6d34eb0b0U, 0x115a7c486b531456U, 0xbbf9680bdc2e19b9U,
  0xd84c146fd1200b40U, 0xcb55c52e7c73102dU, 0xe53e4144183aea67U, 0xa15cd2bb1fcad96cU,
  0xbe61f93ac1a4697bU, 0x74187c7416a2a592U, 0xc528a01f39f4407eU, 0xb4a96e23e8a76930U,
  0xce34ebb8ec11dedcU, 0x857d6347a3c7a9f8U, 0x42694d40718bc9b4U, 0xd10d6311847a8f72U,
  0xdbb3c761ad65856fU, 0xb4aa557866d19f87U, 0x12c05ae290ad068bU, 0x816e95ec0f46a6e0U,
  0x2ed4d0e95219846aU, 0xae2c0a2c0ccd2072U, 0xd7ba6c14b8b396e3U, 0x7dec4bd1ee12f701U,
  0xb0273af55604ea3U, 0x5ffc239923ac146U, 0x48fb20f0a6aaf988U, 0x8b75d3fb41bd5f2bU,
  0x4f52a88ad6ded007U, 0x8625667b79d43e82U, 0x88fa7bfa674ebf23U, 0x5ae1614435b9fdd6U,
  0x441bdb1077ace28cU, 0x2eb3ea394551745U, 0xb05b5d2574373737U, 0xd44f347f9afc23ddU,
  0x43178b4e9218b71U, 0xfc7904e282f46c5dU, 0xd0fbfb275a2a2b81U, 0x97d1313196a2bca7U,
  0x7778918f90e00bc0U, 0x63453dff37278f89U, 0xbece8659f0d30088U, 0xe130b801c97c2c3fU,
  0x515511fb78885c66U, 0xc704dbbb2f51bd0dU, 0xb9e5a74ba1764894U, 0x84df18761228c12eU,
  0x62d6650cd9db6d95U, 0x430bb6d115799d4eU, 0xa1d05dfafa364ef1U, 0xa729e94f11f1a2d5U,
  0x65532bf9214a8764U, 0xc1b0ebcd99c03944U, 0x845aae2a062aab08U, 0x4f650b8bab466975U,
  0xf28ab304aec5b248U, 0xc0fb7f8078a8f3bU, 0x9378f29a56729b93U, 0xb10f8999a8411c23U,
  0xfcef273c67821fc4U, 0x3c3ac43b723050a4U, 0x1784d2edfa9d6771U, 0x32f8d473c40511adU,
  0xfb8f9f3e77ac9713U, 0x399df7f418e4e1a6U, 0x1f043efcbc0c4734U, 0x6d9a0f0d05dc26c3U,
  0x3c72be21f98cf0d6U, 0xc3c397b37f08d73eU, 0xe8a8fd781114cac6U, 0xeafb90a4b3abf634U,
  0x4d506c2fc6fff775U, 0xb754903c67dfeb12U, 0x775f77afcf000006U, 0x72da38b5525254caU,
  0xff24819ac4f9b513U, 0x6a360286a1a10b31U, 0x48094bb27de07975U, 0x792a56993928f6b2U,
  0x9864d81650d31594U, 0x6208f26cf2f35b94U, 0x2ee5ace91272d451U, 0xeaa488b2791a4c4dU,
  0xb3e5ea148c8e74c5U, 0x8231bd1cf4f0c0dbU, 0x3a95ccfb65c7ea2U, 0x7a2ec3c3b5b65fe2U,
  0xee7fa1115d1d0cbfU, 0xc78f23f27b890401U, 0xc06ee81d067b1da5U, 0xdcbad251fdaacbbbU,
  0x128f9dde5c475355U, 0xa80c545fbae448faU, 0xc1534aa61ef18691U, 0x5f9ec3487977aff5U,
  0x230ff95aa41cb09fU, 0xac223919093cb883U, 0x2bda65d0a5eda818U, 0xcdc4b48eb4f111dbU,
  0x84204904956853edU, 0xead9ded4f38af048U, 0x555e02cad89eb128U, 0x2f0438fbab2b8f46U,
  0xa2ae58f1bc6b8648U, 0x3c6ff38cba140783U, 0xd69d2bac77d336c1U, 0xa00044178c0c0afeU,
  0xc2d0a6f8817abf18U, 0x30879244c488bb4bU, 0x90c3768492529a84U, 0x8e8c116cb0f8ecbbU,
  0x56337835fdf4a3c7U, 0x5789c0663ed8ecafU, 0x882a7946a83b16e5U, 0x9529aa6dd4f03e6bU,
  0x9e412cf4e41c8288U, 0x9a253e9709315547U, 0x9501b29e3234e54dU, 0x87b33969a2eb6aa4U,
  0x9d92b270ed89e9edU, 0x8f4a1b0495464be2U, 0x1e932695d811f7c1U, 0x1f1df1b9ff7831f4U,
  0x704f725ca9fc74cdU, 0x2ef2bbba62c22e6cU, 0xd467e1486e19e6acU, 0xdc54f4d99d4fe2cbU,
  0xc6abe02ac36f3c43U, 0xdbcd20c1346e4d24U, 0x92312445a333dbeU, 0x75e2cdb549551f61U,
  0xcdaaac6a697c9be6U, 0x7735b0346b6beb47U, 0x42605da8f70f1ea1U, 0x4d015a71163a4695U,
  0xbb0227a0e8891c97U, 0x20b5d69126c99197U, 0xabd7742dc9c1e666U, 0x75f279fe8ba3449fU,
  0x34d88b2c3d8d330aU, 0xb3ea2f58d97d0152U, 0xf041c95716ef97f2U, 0xb50785de1ced62d4U,
  0x522e707f72fa07ebU, 0x4d0d8987e965665cU, 0x251dfae3350733d9U, 0x62c8dc99a91343c1U,
  0xe5ab2ceffda9d458U, 0x3ba7352847731c64U, 0x21cff30483577a43U, 0x75ec1042838c5a70U,
  0xece1a99013b03724U, 0x1b8e620708f048ebU, 0x10436837f1aac5adU, 0xc6de06173c21adedU,
  0x5ba123f586d6d195U, 0x7b4656ecd9994699U, 0x512c0ab721698cc4U, 0xdda8d6291c61befU,
  0x2da70de5430ca5bbU, 0x972506e21ec3bc5U, 0x35bc84f0074c4fd4U, 0x1a6d21838d1530f4U,
  0x2f1c977bc8768678U, 0x9492a48fb36dd5d3U, 0x514083cb07225371U, 0x364eb5d69dc9d86fU,
  0xe12079eee0d8168aU, 0x8a2143f543398761U, 0x6db04d2786bc7d62U, 0x1dec57bea5747f3aU,
  0x4d510449eaade4b3U, 0x3b78fb27525959d0U, 0x7f2c03b976391153U, 0x1ff723f3584f450fU,
  0x4b2f146e224d330aU, 0xff7fe6272d4899f6U, 0x26232548a171b98cU, 0x69da3875b50e5514U,
  0x7164db5d8883ad79U, 0x53e0225f4466902fU, 0x386159ea1cb57c56U, 0x6561f358d44fd21eU,
  0x86dc9151c93d6236U, 0xbbd88d4f0a945141U, 0x43410d38a391ab3eU, 0x664950cac1752662U,
  0x5ca23bd02d201e37U, 0xce3e5bca19946020U, 0x5e931a32181d521cU, 0x145aed62b51eecd0U,
  0xcc5b9a40780096ffU, 0x5f0ddd5bd07332ceU, 0x5d6f898f5c3c261bU, 0xcc60181ea1605985U,
  0x2351c6046d703a4eU, 0x9d5befbc3dc140b6U, 0x22377732ef0748b5U, 0xd0b881c8d3d420d2U,
  0xc9c18b5adf57c28aU, 0x1cbe2ef77c15c484U, 0xd48bffd2629aeb11U, 0x35a42dec03008a91U,
  0xe7edaa06c303b0a1U, 0x5fce84b02d99a930U, 0x9fd7bdd3c9968bb3U, 0xfa9521937f414c7aU,
  0xe6907bf270509205U, 0x79784685a6004db4U, 0x39a0e363650c63f6U, 0xf465a6472af30a1dU,
  0x65e5271bc299e8b9U, 0xdd89f443191c1b0U, 0x2f3a4fc94bad5134U, 0x469d0da5e3195174U,
  0x7a3ddc9adca8e214U, 0xd4cc2a3b37dbde44U, 0xa087ca7dd6520200U, 0xf01508f5ffe89d91U,
  0xcd72cffb5a45052aU, 0xede7f32349bbbd1cU, 0x844f1df5e6e10ddeU, 0xab51983feb9100a4U,
  0x95ae6c77f2225626U, 0x6bdacb4fe4a5faa1U, 0x11873b0049770ab5U, 0x74f5b0e1717f38ceU,
  0xb7277fb09bf329a2U, 0x20f24d18602855efU, 0x35cc781130d90913U, 0x5e048bcf9d1bd4baU,
  0x9df41c715d36bfd1U, 0x7f5f9cac15325ae2U, 0xa4fc27e85e4f5289U, 0x4ae4d8a7ba5ca4e3U,
  0xe0266e532cd50a8fU, 0x6d472e83151d2f49U, 0x76e8fbc176e3b5c0U, 0xfc195d0c5b444e8bU,
  0xf8bfba2f1bf0410eU, 0x6d9a660393d95a06U, 0x7ebe4df6a19836f9U, 0xa25110d265623b4aU,
  0x5abad164b1903117U, 0xfbcddfeb8c729852U, 0xa4e7ada0ee69c9d0U, 0xdef7a99401540545U,
  0x2e1b722ccc8d046bU, 0x5a75d5b0a686f7afU, 0xe8e470f998e7e119U, 0xe9c700cbcbc870d9U,
  0x25745edad8316bceU, 0xb05afd1484814b57U, 0x37662f4bcb6c0552U, 0x76c27946a80476a7U,
  0x4a9c76df9a0018c6U, 0x7db673992ffde0bbU, 0x74a1de588ce1498dU, 0x6fae42574b1dd6b5U,
  0x59e891fac4ccc70bU, 0x768bd0059e49c6a3U, 0xb609e69d28f22d20U, 0xa28f02bba3b85b5cU,
  0x28d687c4633a16c3U, 0xd9adb6f1d519aee4U, 0xbcc4f29f06cf0225U, 0xa47fe8dff96e5e48U,
  0x26066cccc97e0b06U, 0x8b902a2ab4724a66U, 0x33df1ca82e4ab1fdU, 0x864ea938a0509658U,
  0xebdfcb2703dc3496U, 0xe815639e56c28aafU, 0x8bae5ff3f2f65ce7U, 0x7c2dc16e00eb00eU,
  0x29fa6628da52498eU, 0x1fafc5b2d850a398U, 0xa9255c4f49ac739cU, 0x7b3e602decefc7e3U,
  0xe6bc53af3ec8067cU, 0xcb26a4590d9d0f60U, 0xdeae60eb3bf41914U, 0xcad4d9ca85a12c8dU,
  0xce440deac1141b87U, 0x135c37e98442051cU, 0x127f0a6f411a7fb9U, 0x515ec234345cd1daU,
  0xc2d49adf92c11b01U, 0xbd86d6bc0558eb24U, 0x78fab84805946d56U, 0xb1b25dc7108be2feU,
  0x1305a0b118929e52U, 0x5eff551e90a098f8U, 0xd1e2b41e1036575U, 0xd7c9631465dc316U,
  0x6a08fbba2beb3e5fU, 0x858731e945fceb86U, 0x8e176781f4b8957bU, 0xc7ab29b84c43f526U,
  0xf7281e9caeda18beU, 0x82155d435728db7cU, 0x190774a317bc3dcfU, 0xe7a82fdc5f94966eU,
  0x7e1ce6142b84419bU, 0xf383881c36490bd0U, 0xb1881c61485a83a1U, 0xfb4afc873488560bU,
  0x8b2f51f2a5aa4f23U, 0x3468f34027ddbd01U, 0x1a4af5403fb6961dU, 0x25f5ad00f78fe66cU,
  0xd700a05132c5f7b8U, 0x3e23f983fffd354aU, 0x3fd53f314fd54572U, 0xd57f002875e5b853U,
  0x5a398536dc48f43U, 0xd962135a1ec83851U, 0xd620e4e6ae494123U, 0x5560668177453bbaU,
  0xcca7903fdd5bd048U, 0xdd0e75940454e2f8U, 0x1c09b8fcc1762a32U, 0x7a7604baf6649342U,
  0x1b666b8fcf0d591U, 0x2756fd7bb42fcac8U, 0x7123bdbd297f742dU, 0xf500652292d6b36dU,
  0xac5466e543212bafU, 0x3dd5008ec09d84beU, 0x1bb5a3fb2d71f69eU, 0xd00a682095bb5b10U,
  0xae518e8f5bd9027dU, 0x606c87f9672849ecU, 0x3049a706be93e5f4U, 0x143262cdb5ebdf66U,
  0x38363ba49913c7b3U, 0x1c26ff4502ec21cbU, 0xa7d3ba4899647514U, 0xd324319c2231b1c9U,
  0x4e2aaf6a6066bfdcU, 0x13d8948881571ac2U, 0x272444fd414d2f1aU, 0x6929e2915bebc3e8U,
  0x7436eb5dbfa25070U, 0x58ff9132fc46d38fU, 0xb15d184f90c35c53U, 0xfbca0451e444c937U,
  0x2e3fcadbcbd8af8eU, 0xf474b98f40d8fc3fU, 0x9413996b9a42f5d7U, 0xaf34b984640e06cU,
  0x92bda12a7729c024U, 0xfc94c8017610c7b9U, 0xd24d3c6ab2ce7d23U, 0x756cc71b59e72fa1U,
  0x1363998ed2979a62U, 0xc5cd701e76fde8c4U, 0xdbb947da56866d9fU, 0x3af752d2afead236U,
  0x5b530f7e2ebde7a0U, 0x1f971c6bfc4ee623U, 0x50e441e53e8cc4abU, 0x7d3422275222e66U,
  0xb2f0d0d870ea09dfU, 0x18e81c8879df5d5aU, 0xb6cc25c2b6b4a0f7U, 0x1976318933207ca9U,
  0xed69d79fbbe86c54U, 0x146b76bb7088f01eU, 0x871efda35705bb42U, 0xa4c0698143fdab22U,
  0x88dea593119ba8baU, 0x4385f47d957f93f2U, 0x4d9acf53147f1598U, 0xd26945be78d7f8ceU,
  0x31f174e2472053c9U, 0x78cd0785f2c85f0cU, 0xd2b8398a3b86d0d5U, 0xdb9be70c996e5bbfU,
  0xe06840212df8f64dU, 0xf95587ff75ab113fU, 0xc521c25336d504abU, 0x36ec9f365aae4ec3U,
  0xd9788ccb608672bdU, 0x5f2734493c5d33ecU, 0x42192d9220efceadU, 0xeabd845ccf60e506U,
  0xdab3f9635e151ae5U, 0xd45f6172fbff8755U, 0x42b9e899baeeb46fU, 0xd0c6f5cb34f5dd9dU,
  0xf9ad562c3066b3efU, 0xfe269f4cf37e4b6cU, 0x9946d88bc70d5282U, 0xad0831e60f7d7d75U,
  0xbb127a1f997a3753U, 0x4c18f8c7fbdb24dcU, 0x6bdb00904304fa30U, 0x8c3ecf14446806a9U,
  0x8a3f235aae842361U, 0x94032da5e1907f96U, 0xe9c76ecf6ae596b8U, 0xa4ef51c69f75edb7U,
  0xd78c37f8f0ff0c5cU, 0x339dfd5d33d3de4aU, 0x270a633bfa29ca07U, 0x3e3e2dea1f3d4cfbU,
  0x88ac6d537c7e35a1U, 0x81c35f94ffa19152U, 0xd3c76af837a502beU, 0x71d6a7341aba6aefU,
  0xc1b833c174ecb7b3U, 0xc7e2cfdfbb4763d4U, 0x3f3acd22b70dd89dU, 0x885a5deec77976baU,
  0xfcdbde432a0cc520U, 0x33bc7920ee40a0dcU, 0x467f3f5d5812c3aaU, 0xf9ceccd8f0e305c1U,
  0x1a45ccabd7dc3687U, 0x44c24f4397f63c84U, 0xc9b405df3aef5ee4U, 0x1230321b2b5d6004U,
  0xb0655c2f5e2e7186U, 0x1870cb50288c9036U, 0x6fafabdc0e0c9d37U, 0x86fbcc7568780f1dU,
  0xff46f7345002a9ecU, 0x9156f1fdfe17e042U, 0xc49fd2fcd11526a8U, 0xabbe8bec73964bc3U,
  0x1d7e232789379685U, 0xcc7adf7a71ede107U, 0x83507ec668c9d12eU, 0x4d244af09535d5dbU,
  0xe677d28b4e0213b2U, 0x8f277da1046d8f76U, 0x5335331055ec96b0U, 0x9e88ca29ac8efb8dU,
  0x8c5c1fe19ba0f864U, 0x69708b82b2cc8ae6U, 0xd00557893997ec28U, 0x326c0f34ae63b061U,
  0xdc589da3625c5dc8U, 0xad4fd6916542611U, 0x799804ad5c5ffac2U, 0xcdcccde35386d542U,
  0x47abf02fe8565ac1U, 0x2667430bd77797daU, 0xc7843f12998b5573U, 0x319d8be48100c29aU,
  0x1ae4e494fd25eca0U, 0xdf5a2b7c7ab955f8U, 0x4db6f81022b36015U, 0x1cbce148a23f0e4bU,
  0xc338008516637eddU, 0x5e03c12604640b83U, 0x78711287bec7b275U, 0x782c6e077de79aa9U,
  0x9a2af6e2bbd85abaU, 0xb3f724fd98617d0eU, 0xbfbde75c167b83b9U, 0x1235f8d53e2d5160U,
  0xfcde3327c8306f51U, 0xd2b482d01e5b208aU, 0xdd5bd2b4ddd76448U, 0xa47784d80303eb6bU,
  0xc9741538fd2c61f3U, 0xcf7cd7001227ce5bU, 0x410a782bd271b27fU, 0xad83a9296c0279dbU,
  0x47cda1ecc0c2fc18U, 0x50c8b837c9cd9668U, 0x79a624a8e90d50e0U, 0x474bb8ffe2ca6062U,
  0xa98ce187c1a061e7U, 0x229de7b3d34762daU, 0x24b5ca4126ebb208U, 0x681a393da8440fedU,
  0x308dc866000ccc84U, 0x9ec3b3b92d7de8fcU, 0x3229bb219ff4389dU, 0x255ad7e055268788U,
  0xad76e5469d6218b5U, 0xb1a51a571bc8dc1bU, 0xbb752984405bb19eU, 0x54ffbeb4d977a06fU,
  0x2d6eccbf8870ad95U, 0x6764cea0f163a77U, 0xd0dd73972dcd983cU, 0xc6050bf1203d9e09U,
  0x9db05d8e951c28f6U, 0x9a86bb8e1c2cebb9U, 0xe226c22de7c27caaU, 0x946dd96ef1a0b6eaU,
  0xa11813d308e6c10aU, 0x747e3606a8583249U, 0x167094ee638e08bbU, 0xb622be0ef0cf536bU,
  0x109625abc1ac38b8U, 0x58f7989ccdf352ddU, 0xdc1578f3cbe4fdefU, 0x34a49170be1b0778U,
  0x8daba5afaa6fc17cU, 0xdcb3ce3c8b13d8a4U, 0x1d378a228ac73390U, 0x15ce6b2b3dc93cU,
  0x5205678f977856e9U, 0xeb621fd96266704eU, 0x57783f195e0126a0U, 0xae0cc69ce87e01b6U,
  0x536dd700f628bd86U, 0xe6bbccb2f5b7cfd7U, 0x2d734316ec7a5ca1U, 0xb52cfa0142c0512cU,
  0xc0bbed7a134ef22bU, 0x36972de26d652352U, 0x4a3c9948bb95964cU, 0x75d48ff9e30d1fdfU,
  0xe2b24bf96b42271cU, 0xef8a568d92593cedU, 0xfb202fc5d52d7a0bU, 0x6d40785724d821cfU,
  0xb4071ba430f26583U, 0x7a33c4ca07a22996U, 0x6df0383c214109daU, 0xd4cc6af370db709U,
  0x42447e73fb364c27U, 0x2900a8ce59cd20f1U, 0xd7daac19a19067d4U, 0xbad6764291d4a2dcU,
  0x47bd8715ff81189dU, 0x49b36526b8574169U, 0xe111ddf5bcd29b47U, 0xacc865dfdcc66e03U,
  0xfc27eefb82730e06U, 0x6b73ac2e12a9ee0bU, 0x2da3a013d3de899bU, 0x7901c7edb2e81d67U,
  0x7c6f935aed5fb4f3U, 0xa86ac93d4a9c0cd9U, 0xdc7c3e6aa2c733eaU, 0xf0edcf437b6c53dfU,
  0xe677797a5de24d84U, 0x83ff175bc273c663U, 0x571f6529b9bacbddU, 0xcb4c26b0285a6050U,
  0x976c3309410f2af1U, 0xd0c87212fed215b1U, 0x36917500c39b71d0U, 0x23b915495f6f8b5cU,
  0x84c840d155b896e7U, 0xe6e68ed3b09f7edfU, 0x6a8ba377935e5b64U, 0x87dccb6e438a3ee7U,
  0x899231a79305a1dcU, 0xe3747abdaa90d750U, 0x37ea8a8e7bfac971U, 0xeb875dba79c0aa97U,
  0xfda8b4fde1350ab6U, 0x8aa38785faf014e9U, 0xa103b43d9e3315b1U, 0xeb8e4799a242e533U,
  0x596d19883923fe0aU, 0x3f74cbe84d70f121U, 0xae258aacec776f4U, 0x60733f88c8f6bd8cU,
  0xeda7fb99a1c1442cU, 0x6cf360d4b65595e5U, 0x91a4e07e04f1a850U, 0xc96986d0b6ea7860U,
  0x9803644c83eaab66U, 0x2d59f02b730945feU, 0x7f93616f043e09b5U, 0x3658510152f6da00U,
  0x7a15ba9c15fb9af2U, 0x27291aeedb3b4fb5U, 0x9c436adee3e0056U, 0xcf15daa26d0f5948U,
  0x1c2ae0a5905ce151U, 0xce087991d768ff16U, 0xd45ce1a715b96bb1U, 0x5cdbdeac45db8bbU,
  0x94b138ca86a46dc4U, 0x13879cea03f93e91U, 0x6543cf4b5aaad2eaU, 0xa0b61bf628ee3451U,
  0x688fbe9a6bc35f25U, 0x2022e7e022cf513bU, 0x1af272d9d4e6c238U, 0x5593d22bcab13c78U,
  0xcbfbc820687416f2U, 0x34e60242890ce666U, 0x7bb5f1eaab1c0af2U, 0x902aeb0ee5fae35eU,
  0x3d7181e3b38623abU, 0xb666fbb0bdc3b870U, 0x2d93428bc9c962e5U, 0xaad83ece3db78d2cU,
  0xd29faf57b53accb8U, 0xf674581c96290755U, 0x95e28a55b7a9e0e3U, 0x3b5329f62f147986U,
  0x2a22f3cef81dbb2fU, 0xc428daeb48cd0cfU, 0x978483a5646b8bb8U, 0xcd2202acbd8e587cU,
  0x78bfdf5053b3093fU, 0x9e6da80deeac93b3U, 0x32ea29e7b90589e9U, 0xa38ab8feab7c65c0U,
  0x9104bda83b4db9e5U, 0x16bc8af9da1c53fdU, 0xbe1fde1e36b7f724U, 0xf924359e406ff521U,
  0x4f4bba64fb96622fU, 0xe73a255a32b37f42U, 0xc4cd35001eb1d9dbU, 0x94a2b03e23b245aU,
  0x7a14c5f2e44ec921U, 0xa004da0b6303b2dcU, 0xe5470d7fffb4a8b0U, 0x6f4927e98a531d56U,
  0x8543be251b241595U, 0xd028ffa46f8c5453U, 0x4c74411d47949bbeU, 0xd88609e1b2d92ff5U,
  0x9fc1b290d9b80003U, 0x3a788a353d82a408U, 0x4ae39db3dd6cc90fU, 0x4342cbb0aa105be3U,
  0x5d0010dec79aff64U, 0x15d2d4d48c6812cU, 0xa955911c35ecb835U, 0x603daeda295dc1f9U,
  0x4ae7646abfd87a65U, 0xf0ece147574a411bU, 0x12d087ca31368d9fU, 0x34fd0a54ef17781U,
  0x221cf61fdabfe997U, 0x477adb685aaa9feeU, 0xbd6ddbdce037fff9U, 0x2cd80c6d13518eeeU,
  0x9f64a5fc051aabd5U, 0xc6cd8c0040aa1553U, 0x4b2d3f04f8d1ff2eU, 0x84b5df7104cab021U,
  0x317a4edeb1584f41U, 0x21878bac500179c5U, 0x67c07d0a68d374caU, 0xb3ae64bcad6a0225U,
  0x60e3db2eb42921ffU, 0x710085058e6d538U, 0xdb797bbf8f17390dU, 0x363b6a282cb5c952U,
  0x20d18479be5cd973U, 0x3d0dc9481aa5616dU, 0xce41dcc4c4890190U, 0x850831d6bfcb3595U,
  0xcff23e42557bce4dU, 0x95efffb5c3b0e81dU, 0xa17e020ef6b27282U, 0x301b394e3bed9d10U,
  0x9cbcfabe0f11a414U, 0x1090035cf29b6428U, 0x56a1bb19e32f05ebU, 0x1a1ac19a7c9291dU,
  0x2e8f48ed8d5cdb47U, 0xcc1dfc431929d1b7U, 0x7fb4ffaa5b018d0aU, 0xc474bd609eb07902U,
  0x579390d224dee97bU, 0xdcce49424a69edc0U, 0xe89341af4689d163U, 0x21225077d4355caaU,
  0xd2b68ad9c891b1aaU, 0x92657869ac76b06fU, 0x372d588d769909fcU, 0x832cd6e929a93d15U,
  0x4a159af1c241738dU, 0x41aff05f0298b3feU, 0xe59be82e68f8e7ebU, 0x154b4514b79fbc7aU,
  0xc0cf5a2a6de98607U, 0x58d6e90100595250U, 0x22831d0fe07b119aU, 0xb34a7a48c3aac59aU,
  0xe79f305273b0ae5fU, 0x88e45c6430f3ce41U, 0xede20c39e8689119U, 0x78f622d1deba26c9U,
  0xb5d98fcf6d61ae85U, 0xcf11d1c37a2d603dU, 0x6a020a90231b22ddU, 0x55cda25d17a34251U,
  0xf4588768c1284779U, 0x425daf51d8fd5febU, 0x7843a7534027f77fU, 0x292b48952a0c9ca5U,
  0x7ae1caa8d760a4f3U, 0xf47e8aa98295c7f1U, 0x4279cdc0effbd10bU, 0xe190fe67a51e2ff3U,
  0x7d8a2bc707c95bc7U, 0xd877f450f389932aU, 0xffff92f400006889U, 0xb5ac00001721U,
  0xffff74fcffffe0ccU, 0x736600007379U, 0xdd7ffffecd0U, 0x6cb20000b317U,
  0xffff72d00000a05eU, 0xffffa7aeffffc379U, 0xfffffd3d0000a615U, 0xadacfffff5c2U,
  0x7b1900009ac1U, 0x893b00004d6fU, 0x5ee1000008b0U, 0xffff91f6ffff4979U,
  0xffffbb5bffff64d8U, 0xffffebefffff8781U, 0x598a8c814c8ffef8U, 0xc1f7b12537b476abU,
  0x477a6b8f9ce03057U, 0x35e9b63bc1312190U, 0x6abe392e528f997fU, 0xb9a1314f8674b8c3U,
  0x5d1c762343afbe78U, 0x301977d63588c100U, 0x9be8d37826d120beU, 0x453eeb2f7f015530U,
  0x187e96c4015be3f7U, 0xde0b56841d21df62U, 0xaec5be3d98aeace1U, 0x63eaf489b3e9e0eaU,
  0xeb9a5d51819a3f24U, 0x4dcb35cd157ba5adU, 0xaeb7dae570447d58U, 0xc2e58f93d9c58a7fU,
  0x259a10f0f05e6783U, 0xf32064e8fabaaf76U, 0xae6c2179d45a0c05U, 0xcfde609db3c51681U,
  0xbf216c78e7ac5cebU, 0x7dc11a0ab5155466U, 0x34ba9959c17acb44U, 0x7f75a992093a44adU,
  0xdbfc46a7eee63558U, 0x6485cff8fc3e93fbU, 0x8b658df6815d846eU, 0x1877f68b5da298e2U,
  0x882ee2a19fda7067U, 0x456ce768afbd581dU, 0xfd6bf41a9393f03U, 0x1eef5b6a2b348f34U,
  0x6fc5937900523ef2U, 0xe17fb5c3cd754c10U, 0xc842a4454f87d824U, 0x4f7fd4677466083aU,
  0x5730a78a1d9c0c74U, 0x1262d949a6da6246U, 0x27f0629b8bb6a371U, 0xdad911e9115f7fabU,
  0xa119e3bc6f7d2f14U, 0xfa60f0f60e547b37U, 0xecb5b77fdfed89fdU, 0x46a91cfe352f3b32U,
  0xda9ae15995488e1U, 0x9d30f02ef5012b7cU, 0xb90bd9498d27412U, 0xc88cf96c7bb3a227U,
  0x817b1b9244188f9dU, 0x10a68a671a40b73fU, 0x86af9020c043462bU, 0xdec16ed786b50940U,
  0x3a5af48dc86318a0U, 0x8f6d90307f054a17U, 0x3c8e279e1aca35d3U, 0x9f7f843e4aa12283U,
  0x938ac5f8a64df997U, 0x2870b34d8cbfdf10U, 0x8fbb3c70b937bea5U, 0xd0c3a456d60a59dU,
  0xb5bba4b33b55c0eU, 0xf8927fd7d55d01dfU, 0xe1d4fae55e04b689U, 0xa934fc0297e3381U,
  0x7a248a618ba19a89U, 0x7955e347a482b969U, 0xc9ccf068897f7da4U, 0xb6d765db687cabdbU,
  0xdeb582b89058dbeeU, 0xf7898db5ad2f8308U, 0xa4a32281e650a1c9U, 0xf8001c87f8ef38e7U,
  0x4826785e47c4d35dU, 0x6ed9f4e27611f53fU, 0xe362b1b3576fa2aeU, 0x1eb21010a408d1bU,
  0xce319b7f8f7bed82U, 0x91b289cf0c7e5940U, 0x7f4d409740f213f7U, 0x91ed55028a05f82fU,
  0xedd3d29209c04ed2U, 0x9391b9a10809e58aU, 0xc0cd3b81e64b617bU, 0xf5bdd74423f5435U,
  0x5a9dc0d870f9f3fU, 0xbb12f4677f52adccU, 0xc3058a61b4e5d934U, 0xc379f0cc6cb0c577U,
  0x938b815c9b9861a5U, 0xecd0594e9f9a5c8U, 0x8a4c9e8e817b5630U, 0xc23f2e46fcd134feU,
  0xb87a905079f4e37U, 0x303f4d7f4b965a37U, 0x1bc22df6caddcfa5U, 0x32a7ecdfb2dc8144U,
  0x5a9425ff6ada96dbU, 0x537f31538dc24ddaU, 0xfcba825f03c1fcecU, 0x997bc87640f825a8U,
  0xbd12103775d02379U, 0x7fb5be8e1eeb2dbbU, 0xcec13ddeb693a1ceU, 0xea6f20056195a3ecU,
  0xf685665d38ca0cf9U, 0x7ffb6f3232760188U, 0xe6ceb7be68ec17e5U, 0xaffc8a590508d002U,
  0xc30ad8b10d7fb93dU, 0xff8c7f883d3ea958U, 0xa4479cdc8ce25b31U, 0x35c3c34f5e6740daU,
  0x761070e8a86de659U, 0x7f08515affd75aedU, 0x30e32bd8dfa781fbU, 0x538e7eb78d0f3e56U,
  0xe0bc8a1ec2115aaeU, 0x60bdb7cd98814615U, 0xff4a9a8f434498eeU, 0x9425b2f773d3b710U,
  0x2660819d1eecdd90U, 0x8a5f3474055a8df6U, 0x1cfad0894ce77be1U, 0x13c2aee17c6f8731U,
  0x815a52dfe711a907U, 0xb1cbc339204425b1U, 0x4ef8d27c296e9dfaU, 0x9573d73961ef871U,
  0x7f11ab5b69e33afeU, 0x7e530d9fa36d1b32U, 0xd48793af34a97fb2U, 0xf330e5159d052a6eU,
  0xe411ec7da441a45cU, 0xa29bb8f96809ea51U, 0xc2b4fdea7d8ce992U, 0x653ff882a5467865U,
  0x4353862084e881d1U, 0xd6c9eed0336c7521U, 0xc8fd5f27e879223eU, 0x7434ce6ce60d217fU,
  0x8fd7ffa5171e2b14U, 0xf1110f64656de8c3U, 0xcb87f59bca11fd9U, 0xdbb13ca615a79c46U,
  0x6c6cf95fb600d373U, 0x99a722a4eaddc54cU, 0xc99358d302ea666bU, 0x6cc5b6300e1c3e76U,
  0xde7f12869051680aU, 0x8faf7994223db9faU, 0x954f3d75231c2278U, 0xc5bf3aa58186c82cU,
  0xd1d8d84caf0663eU, 0xb6ffe61a0f686fcaU, 0xeadbef09c2354381U, 0x1706ff2a87147af0U,
  0x57943e957933dbd4U, 0x5c143cfdb92ad62cU, 0x944fd2a0199611e6U, 0x6ce4999f21796296U,
  0x757f1f98b4b01c3cU, 0xc435a26acdca45bbU, 0xf95ec60ecc716f11U, 0x87fee1d47d8c047U,
  0xba1a82fae269715fU, 0x7ee8c0bfc6c6e56bU, 0x52ba31fe3b7d5536U, 0xe4f80551ce750d87U,
  0xa26873295fdd3a25U, 0x56eb357f200e38d2U, 0x1b7fc493fcbd097dU, 0x9b04f841824ad64bU,
  0xc3ae93f8c2b74c49U, 0xf6fe5366baa81d07U, 0xb027d731d6818915U, 0xb628bb14160d295U,
  0x5555093a21d8fcf3U, 0x7042ad565f7de71bU, 0xd73640eb60306b81U, 0x62afc58ab1044518U,
  0x4de4dd2c094664c9U, 0x2cc1d34445b3a9acU, 0x58459a67dcdea81fU, 0x9ba754415e8b2fe1U,
  0x4ee29cea73815126U, 0xfe533f40304a74d5U, 0xeef68e16bfdc5fabU, 0x2a4086ca593e6b81U,
  0xb44fe6fe087861b4U, 0x3e901ea3e3e3bad1U, 0xfde3c94f589a3f1cU, 0x2b6e7b54867c606cU,
  0x5e6041b9a4d6d7d6U, 0x81d33dbccbe6767fU, 0xcdc58473d589fd4bU, 0x231c57d7d3a081dbU,
  0xae9f47d1467f77cU, 0x55b80500778619e2U, 0x9bd06c499b0955dcU, 0x305218b80c1ea220U,
  0x6619f2894341b115U, 0x7ff6e4b0dfb95188U, 0x476e46ca20bbab52U, 0xb1583e4f8d08d94U,
  0x9249bba4994900afU, 0x40684e7fd9658dc8U, 0xd566129b43e7d2b2U, 0xe04857b238c07863U,
  0xea1a814f79cc29bcU, 0x5b115ee92e7bb547U, 0x588f064c094736ceU, 0xe62e9f0391b381eeU,
  0xf9446214c82a8d2aU, 0xb2d046c9f9cdb04U, 0x81918eded9a3aca9U, 0x3ca888f6b747498dU,
  0x8cb18c70d45b5a32U, 0x1ed761a3ba7957fcU, 0xa374dbeb39e6ea4eU, 0xaf411bec42c27fc4U,
  0x22a4c5588badd72fU, 0xfd887c38356b4a06U, 0x2b5d8acd342edb1dU, 0x1bc44d0a47be347fU,
  0x44b5fac0fa27924eU, 0xd9cc9ed375560bb7U, 0x1e0fb2fd7b233ff9U, 0x12766c87e61d81b5U,
  0xb538b93c3dd09829U, 0x61d4e9efcc5d3554U, 0x2101f3d5a5d3ad67U, 0x8a45820b9a6dc29U,
  0xecee293a3efa7fd5U, 0xcfdd63705285fd72U, 0x73a5ebbdd6220392U, 0xc0adc5fc06e7b4cdU,
  0x3233fb5e4e1bfc7bU, 0x7fae96b3e71ed1ebU, 0x4ad0161224e9fd7eU, 0xa698fb3b4582c117U,
  0xf97f9242d20833b0U, 0x4d2a7625492f3f41U, 0xde4f67e98adbdfe0U, 0x17ef133dc0fdff55U,
  0x7422fe4776563fd0U, 0x7f93b1de4e469d07U, 0x5fd143efe8da9876U, 0x970590f2d8f8089cU,
  0xc2097f0fca93cb51U, 0x414078184cf411a7U, 0x45332aa98d7f915cU, 0xcf2838ecc38c6eb3U,
  0x89de1df4b83e540aU, 0x62c4b94eda9cc09U, 0xffff451400010447U, 0x2123d0000bd69U,
  0xffff95b6000123a7U, 0x8bafffff08b9U, 0x1777cfffe7994U, 0x2ce200001e1cU,
  0x1cb450000258bU, 0xfffdeaf800004f4eU, 0xbc1dffff5320U, 0x1b6e10000a8acU,
  0xfffde2b100022671U, 0xffff4009fffe05cdU, 0xffff4e6500006df3U, 0xfffe9a6dfffe82faU,
  0xfffffbbd0001bfdcU, 0x6072fffde667U, 0xfffe829c00022347U, 0xfffdebeb0000c0fbU,
  0x142a9fffef45fU, 0xfffde43fffff00adU, 0xbb4c000172e0U, 0xfffe18a400023e59U,
  0x5a56fffe01d5U, 0xffff0d7200012536U, 0x9240fffeb4dfU, 0x400ffffe4a3eU,
  0x1c1f400020050U, 0xfffe7897fffe2b05U, 0x2a7afffe5288U, 0xc5620000e674U,
  0xffff0eeefffe33afU, 0xfffdb7a30000134eU, 0xb04bf747f46af2b8U, 0x3dc0af28eb966515U,
  0x121d183d2679e7c1U, 0x3678df0dfcf3579eU, 0x1c819bc09c5be030U, 0xa1cf164af4a8f8f7U,
  0x1d8e2f42a2148c99U, 0xe4465262415720f5U, 0x91d15d7f1e1e11c0U, 0xf62c1bc9f2339ccU,
  0x46503d167c8ca3baU, 0xad58190555c89350U, 0xaf32207093a22124U, 0x1911230a5d5b8158U,
  0x83a595e2432b1ba0U, 0xc9c2870537d885b7U, 0x634e2e5972f1f371U, 0x922ac41622522aacU,
  0xf71fcad7e1266341U, 0xb313f34cb2f9b596U, 0x4bc965b104c299c0U, 0x9c778ce1ab4de0caU,
  0x584da0a102916c7fU, 0x8ff871a3b78e7cebU, 0x3e0868a8f1cd04deU, 0x303629e2e7f9d11U,
  0x6828fbf3ebe55a42U, 0x3fe8625a39c343c3U, 0x12701b48d227e934U, 0xc69558633c679f23U,
  0x172f233cd0e62fb8U, 0x83e06f91a278ff9eU, 0x4d6d64ed000e0554U, 0x5ef6443f812181bcU,
  0x6e4a4543b0da6a07U, 0xc160d54591f9aU, 0x216150c44c69b52U, 0xb5a4430c66822f0aU,
  0xceeb4e539119478U, 0xc604c9fc6e05fa90U, 0xf7fbaa8c1f747f38U, 0x8e387b8d84cbb13cU,
  0x86211e3731fcc57U, 0x7cde2c93eeb93b59U, 0x3f0e1b2724459c84U, 0xf254f207a79d5f51U,
  0x9805d5073cdb86a4U, 0x2efc5c47c5cbb61dU, 0xb82549ddbf678e1fU, 0xf5049fe0ed082fedU,
  0x1cae7a6ec7078ab3U, 0x63bafb7be63dd2c7U, 0x3a8341762b1f745dU, 0xf7eb481d6d58137dU,
  0x2f152ce321aad02U, 0x3f0812dd2539f481U, 0x68d707c5498e90caU, 0xe4aa8e9219f027dfU,
  0xc08bf2cea3d45af5U, 0x22273c45480d89afU, 0x67141a048e0f7deaU, 0xdbe2b79aeee2f2efU,
  0x2b59d38105bdd9d9U, 0x4efa19a42128d296U, 0x54aea5be60ff0f60U, 0x67c32fa159c79529U,
  0xc82af2cf81c6fe36U, 0xc63974723d155dacU, 0xffef146479a7b152U, 0x899968f3a244b945U,
  0x8d113602c0ccf02aU, 0xdca04a6566efad2aU, 0x1ca3aa7ce51b4f66U, 0x98eb2be278ac7c70U,
  0x5088c3b514868cabU, 0x5c51d67e5493af7eU, 0x392fcda58f9f12cfU, 0x41b3466769866e34U,
  0x92390e617f3fd9d4U, 0x9a182cd24376a1a3U, 0xd293fd45c34918cfU, 0x1e10ecbace17f433U,
  0x41c7413898f0554dU, 0xca71c2fb7f4e2a65U, 0xb48ec411d9706a78U, 0xcac65c163e25cbeU,
  0xb2589f444cc91c43U, 0x3708aab6bf89ff8U, 0xabb72aa5351c28f1U, 0x94de36264e78d7fdU,
  0x7c748dafaabd9aebU, 0xf2437feeddcbbcc3U, 0xf3ff08d1723d8a84U, 0xa3fc9254b9cac820U,
  0x40ef2a046378cba8U, 0xbc411eb92d747bdfU, 0x308d3f46688b8cfbU, 0x2808938cc758bb05U,
  0xc8324946e83f5f02U, 0x233e833f74817842U, 0x4f8b55cfd6a863e0U, 0xee83a657f1d98c8dU,
  0x6f9bc162ec479a6eU, 0xeecc88e2110a3361U, 0x7f825c2993674d06U, 0x6cd43017f7426ba5U,
  0x9654fbbd08c93f23U, 0x4075886cb3da524eU, 0x70102140ad540dc3U, 0xd2ceadc4f3efa44cU,
  0xe43761beb20cee73U, 0xa5eee78edb856597U, 0x9c8461196df7424bU, 0xb54673437a860b28U,
  0xc3090f6a6c491c75U, 0x2d4c07b80c2981d9U, 0x7ee0c75c49a62c5eU, 0xb46f9481504b4dc2U,
  0x3d5e449fd2b9638bU, 0x2b8597c19765243cU, 0x2fc646982399392U, 0xfd23bd36e70e4c2eU,
  0x37287956f1883603U, 0xbf85392e3acfbb1dU, 0x292f13a17fe2aaebU, 0x12a8a770c78a49e2U,
  0x72f237823ee630a6U, 0x9f0b795616005a7cU, 0xc114ef8166ad6448U, 0xcdc0e5ff593d3eb1U,
  0x34a19c3073235634U, 0x3522819e0202312eU, 0xec940ff5309be027U, 0x681900042442b81eU,
  0x8fb6c4d089a11b30U, 0x8bc0572f9d3ac710U, 0x257600cc827eb166U, 0xa6585485d1b52cfbU,
  0x207bf682d254673aU, 0x4cd871fa2c4bc52eU, 0xdf8c2a70814ba033U, 0xcf78868f3cf56f8eU,
  0xc69748070a1d06efU, 0x619518ec7c031e9bU, 0x5a35d8f242a7fabaU, 0xaa0d8e2a41b175a5U,
  0x688bcbf4d8813428U, 0xd4feeac8752836d8U, 0x2beb0417eff43c85U, 0xdb782781ee1ca804U,
  0xae99e02485ce8625U, 0xfacbd0c0ec563276U, 0x50b03cd17fe1caf6U, 0xd2e0407e95d893cU,
  0x4a65ca6ab9c6a3b9U, 0x7dece540930abefbU, 0x3e936250d2707703U, 0x2ce69bdbeca96703U,
  0xc0a45aa67878f417U, 0xa2596553b30b0414U, 0xc25ad6ffc0b29a7fU, 0x967bd425ac79c777U,
  0xbe51027cf6d4a419U, 0x42baac499a2608c9U, 0x99d93f5293b432e5U, 0x90bc35260393d5c4U,
  0x4593f73214754a38U, 0xf8939e6b241dcc96U, 0x42eb9107a60c27c7U, 0x1e1497ed1c9cbf4bU,
  0xba3430883bddea81U, 0xa805a850f62299b0U, 0xcd32a8528b4bd26cU, 0xacc20de218822c8bU,
  0x6df3ed320d3dbcceU, 0xf85287a8a470a66eU, 0x42595a4e1dc77864U, 0x30bdd0a52cf6bcdaU,
  0xe66a94d599a5dd10U, 0xc278c8543e0ba5d1U, 0x202b15cfb6ee8f59U, 0x6e1d3b41ddf25715U,
  0xaf62488242490b21U, 0xe67f102374526a01U, 0x77730e64b5a24887U, 0xd2678d1f897c61beU,
  0x4b713179ec4f6912U, 0xa439a10b3ce82dfcU, 0x8e0fb2132149e2bU, 0x5551b9118c7fdd35U,
  0x65a3d9ced98eb0a2U, 0x3ac098e7c4c82d4U, 0xfbd07e9f0bb77f69U, 0x6eb24cdc498db40eU,
  0x2b9c33441e67b7e9U, 0xdc0ed3c365b235e6U, 0xac5c681a02721df7U, 0x6ff6dc596a2a4b1cU,
  0x28cd81c75cf798a0U, 0x37699cd07286e513U, 0xc494d293f58e9235U, 0x88694097a7f91d8cU,
  0x4e90024560aaf9c8U, 0x666f4442c64e94b5U, 0xc8feabf98178a3adU, 0xff85a46336374954U,
  0x349a85566bcbf6e1U, 0x5939a8148f0a0a03U, 0x28dd472a49ed4eceU, 0x32786b2de5989255U,
  0x21724ba13651fb81U, 0x96ab0dd691e845aU, 0xa6e49c67a356719fU, 0x7fe0e5fe4411e657U,
  0xd57e5edd87d47291U, 0x9fa9eed38a391017U, 0x3d3caf8f05aaf9d2U, 0x5ecf42d978ef597fU,
  0x1104dcbb7a705fd9U, 0x6b27179706391816U, 0xb8967cd73e44f4adU, 0xe368707e72f7c81dU,
  0x386367016343e0afU, 0x7e5b524d51cebf2bU, 0x6fc6c1b64e3f078eU, 0xe18c14301b7827dU,
  0x612c1e959020b5eU, 0x50d2457eb1dd6decU, 0x3201cd120b552813U, 0xba2aaee74dd05d5U,
  0x205e8d2d5c425581U, 0xce94b8aca4875b9dU, 0x4fca7157a7c9946cU, 0xe0d3516e5db7faacU,
  0x7ea22610064df4a5U, 0x5ba3f3c33f190451U, 0x7332dff37cfc6f7fU, 0x294bc16f336c25adU,
  0x51fd5e2ec35c8b70U, 0xa70ddac8cb5a1ecdU, 0x8f2560b98c6c1c7fU, 0xdda4c88223151c89U,
  0xa323c61d63e67648U, 0x58d9486db4781762U, 0x9d13c6ca2d201263U, 0xd45f6f9bd82332baU,
  0xf0ffcade1cd6284fU, 0xd6b1eb99abe651d3U, 0x27ae769cc68627faU, 0x71984f1adcc9d9d8U,
  0x43b79f8ec00ea281U, 0xd7c0c8000ab01dc7U, 0xc6e5aaeb1e51aef1U, 0xd3ad345ac44a2aefU,
  0xa63d2e17b6570d22U, 0xdeacb5ae6a36f7aaU, 0x11f3792ae74389dfU, 0x72d14a49c23eb081U,
  0xf066a80f04e81f9dU, 0xab2cbd21644d6dbfU, 0xa223d53436662f65U, 0xd78a480d307a7120U,
  0xa41a9b2876da7936U, 0x6a2c5c0c1b92392aU, 0x6748ab128fa29550U, 0xfa3c16769198a97fU,
  0x47e98fdbe72b05ceU, 0xd3408f353cbf15beU, 0x58f6a0333150d675U, 0x19009556bea501d3U,
  0xd18482dce2350496U, 0x5228df847c1fe5cU, 0xf224bdd78c260c85U, 0xaabb57911bb44b3fU,
  0x51999d5e43e0e46fU, 0xdb0d97c5cb6b8b2cU, 0x7fcb3e482d4335faU, 0xd2425d6b256bd35dU,
  0x4b59ab1b2f3a0309U, 0x4c8da614d48f50baU, 0x99106014cc2b2f58U, 0x780922fa0e6057e7U,
  0xbee3895f9b449039U, 0xa97715775e08574aU, 0xd656fb1124fe42d6U, 0x5e1b0971c2a78781U,
  0xc8fe50fd9076fabfU, 0xd865bb08ef926dabU, 0x8c096348c92b71afU, 0x39098637cce122fdU,
  0xab97b9a6c6a261bbU, 0x1610cde96729089cU, 0xd0810fd4581f17faU, 0x8983958581bab31bU,
  0x4bf119f608e7bb53U, 0x7474897bfb814509U, 0x3cd3a31ead600a1cU, 0x325ea712165f0013U,
  0x8abcb30cb5424453U, 0xc6c10d4eec688657U, 0xf04ccec02d02d0ebU, 0x48bb4f89daa6f178U,
  0xc4f954a1008c21c1U, 0x4d7f3bd3a44f4b74U, 0xb5633a1991a21ff7U, 0xa9b226c5f4714e4aU,
  0x10234a73713266dU, 0x477f4ed3e4f1bd6dU, 0x7a6dcaeb98c431efU, 0x4ac4fe603da5b96fU,
  0xd01b34335e9fccc9U, 0x46d041aa8d62431dU, 0x3d2efe022817a7ebU, 0xafc46111e24b9316U,
  0x1fb1a271e7770f56U, 0x47a0b316297c9fc9U, 0x7ddedbc7d88982daU, 0xbb2ce1a3a0df94d3U,
  0x68194b4ed07f4faeU, 0xe5101d58d3162e96U, 0x1da436aa61b25defU, 0x72ace4a6cd15acd5U,
  0x951c7ef5c98e6924U, 0xa3aacdfca4da2610U, 0x9546e528b0589b47U, 0x9175ecbcb32e0260U,
  0x1a85a92879c076caU, 0x27f882fe7400431U, 0xc43022186c3f13eeU, 0x64764ae1d7661b8U,
  0x98d30f7ab7508569U, 0x6a25a83b4502b43dU, 0xe8fbd59dd76fb026U, 0xe4ce0ed9405d72a3U,
  0xdd10306dcac90a7fU, 0x62fc3532447f5af4U, 0x25e4c2d595836592U, 0x473336d31204cd5fU,
  0x22c9386538e1361bU, 0x94593c1357dd4db8U, 0x2bdeeb659b83b3f0U, 0x1dc937d58500e67eU,
  0x817c5d141ad14cb1U, 0xc6256e53f95b7f5eU, 0x1a756de25ac78664U, 0xa68df99717c9c04fU,
  0xdf04182b31a0db8U, 0x81298c40cb62d029U, 0x8bf5eabb4f09741U, 0x6dd4961c5e5e67fbU,
  0xc24821dcd83ea0dfU, 0xbd3664e1b682b87aU, 0x3fcab2fbc7470a81U, 0x9201b95daa1e041aU,
  0x35c308b43fc47ce8U, 0x6341cebeb1b81274U, 0x9d159d334a2716bcU, 0x2b8f510c543911eU,
  0xfc7cdf689206ce82U, 0xa8e2617df1c8978eU, 0x84f894a39653d260U, 0xae05ec8886ad828aU,
  0x2b5278c3e4f908aeU, 0x1d88dcb833851c57U, 0x7c0d67b26790654fU, 0x8a10c47ae1a6f78eU,
  0xfa22beb383790d38U, 0xdf12b2e3f7d6077fU, 0xa32c9507d08be462U, 0xc53224b5d7563954U,
  0xa1aa127ef43cad89U, 0x4a13f6cd9b69b008U, 0xf3c0ada148bd76d4U, 0x87d1c60135406b7fU,
  0xb53b9cc11425239fU, 0x1713cae55b02c0bcU, 0x36c0cfa8be20eab7U, 0x69ae7beb12c89ae1U,
  0xb377365087cca2d7U, 0x8b6e24476b24bef6U, 0xed7f2b93ead964d3U, 0x749a78ec761291U,
  0x6491b4e8636cd997U, 0xf5e364b6a550ca2dU, 0x4bda94ad923fb0d1U, 0x1e18727e731719d6U,
  0xc4d061dbc9107501U, 0xc477283773bd5196U, 0x938b785872513e52U, 0xe08a5b79c9e90a99U,
  0x9d17cda3fe41b2e2U, 0x81da426e4e7ba937U, 0x3ce332d21024f06eU, 0xe977dfafb09e126cU,
  0x6ddcdd525e506bdaU, 0xe89d905f8795717dU, 0xe5f4bd4468f8e2a7U, 0x7fdd0c71082d785bU,
  0xdea2c91fd46fc7d7U, 0x5f59c29421e841f8U, 0x9a706e2365536a44U, 0x4d3645b73e7f14efU,
  0x53ac5ee41d894af6U, 0x3bf492c8850bece6U, 0x6e83ee58c4e673f3U, 0x72d5d19c52e6b8dcU,
  0x7a7a0709192e6f39U, 0x6f0c6d702231db21U, 0x267f84f792d02794U, 0x17acadb41b937e3bU,
  0xfbfd59d8291086e6U, 0xeb933ef15865aebdU, 0x7b034529c061480dU, 0x1b5e3f8e64eb2008U,
  0x39146cb179f54600U, 0xe4389d327b464b23U, 0x132fd06728b3bb5dU, 0xfe5b87b7911a667fU,
  0x15c8c8c8ebe3785cU, 0xab47f0bf58e5f095U, 0x8445ae4182c65684U, 0x6424b3996efc8d6eU,
  0x9ba7a78d97ba36eU, 0x506118023a7c7f34U, 0x8ac85cd17a6800edU, 0x58722083e1820521U,
  0xbecc2535630bc7a5U, 0x8484be1eba7c179U, 0xd2c8106756626405U, 0xbb7f44a84c8a8d53U,
  0xe9fd7af956487240U, 0x5bb6a9229806338dU, 0x1173c68d8d23fd37U, 0xbcb469fd49c4b00eU,
  0xd050242749935e4dU, 0xeab62a2da8f38a9eU, 0xed339bc5f71d59cdU, 0xf845c390efab4a0fU,
  0x65cc3dd67957e64fU, 0xd27f72e54652f26dU, 0xad1ef889bcbc415U, 0xf9f3df4cdfd8abaaU,
  0xab5810b0579ba238U, 0xbf81c6951f7e5d91U, 0x974d0825e5e35664U, 0x79b6582eacf86264U,
  0x317347a6409d0f7aU, 0xa809c4593eb26a74U, 0xf5ae8374945ba2dfU, 0x3d9c67165f177155U,
  0x69134a5281e7db6aU, 0xf038b9f52c5b4ef4U, 0xbbd783475f8d0ed1U, 0x6f83c9f632e9c5U,
  0xad3a7749ff2a4cb2U, 0xfdea6a6db1f62519U, 0x408167cd7439627cU, 0xa998bf984fc12351U,
  0x25b55695196e46b7U, 0x7cdad31250d22b43U, 0x73797e349d47990dU, 0xeda93e04d1e83e2bU,
  0xf650292c3395b3d6U, 0x87ec220a3aad404eU, 0x73faa4be4b7b095aU, 0xa859e55658ce7e9dU,
  0xec47fef2f75acdffU, 0x5a89f1816cb505bfU, 0x9eaeacf506078ce8U, 0xa55a877dc277ab0fU,
  0xb2c301d5c64ffb36U, 0xc34d0ac04c7b9e5fU, 0x1f5f8174fe29e739U, 0xb950c0221c6c0398U,
  0xf81e56f29ede0381U, 0xbfa6d23a9c24d602U, 0x4b8b9a9367042c5aU, 0xf5377c9d74a7d4cdU,
  0xd71c16188d3dafc2U, 0xf23c9fb5d544fbebU, 0x9fd0b22c7a28a019U, 0xa7c82bb464870cf4U,
  0x90d211c9c8869e1U, 0xcb2060023b01f78dU, 0x4eac694c9426c60cU, 0x71238b9f81e3b055U,
  0x9665992ade7504fU, 0x80904c74fb814cdU, 0xaee1eeea7fbbc083U, 0x2c21bc17532d4c89U,
  0x87f85d5c8230ec7cU, 0xf8864de68d41474cU, 0x43e952ed49dfedaaU, 0x154535c4002daa64U,
  0xd28dcb312aa4cf82U, 0x17983276305ba4a7U, 0xebd67938abe93f6eU, 0x12e907c8cd3e61f0U,
  0xbcb04b82e87f085cU, 0xfc0db94a4912dfbfU, 0xae6b7d9e5b82401dU, 0xfe787e118a9695bfU,
  0xfbeca44592489b04U, 0x510ed1a5f4ba3e92U, 0xf82b9289b38ab2aaU, 0x5d639bd4a7997667U,
  0x5467865f2a35a344U, 0x50490ffc8fa2ebf8U, 0x2a61de90997a315dU, 0x877ffef4b745dc53U,
  0x2d20cd5865a0fc65U, 0xa83dbe5684679046U, 0xec91a73d8dce96b2U, 0xe0d4bc9aca2c89deU,
  0xaf886b6041819ef7U, 0x8d2ec6db43ef5a6U, 0xa84dab1b09999163U, 0xb96ee53995982279U,
  0x819338d32d004a2fU, 0xbfe9fdea2aafde30U, 0x58d5a77c0782a7d5U, 0xbf1316dfa4302372U,
  0x12fc5cde5f14d890U, 0x76c8eccd2127d186U, 0xa77e81b7d70da627U, 0xff4df3e201cddbebU,
  0x147bce43445f88c9U, 0x59bbf43f30dab66U, 0x5058398694b9dd32U, 0x9a3675a9dae35d46U,
  0x6256caca9e2c6e5aU, 0xda6bd32f98b11e3U, 0x1c4cef717c2d3779U, 0x6ca17209926faf3fU,
  0x95d3975c86963148U, 0xb95f313e1fc91281U, 0xc6e22fd036cd56a1U, 0x1c2b40ae23bdf926U,
  0x1f47ccfc6bf49693U, 0x7c298a040f7152U, 0x699834f09d4f6185U, 0x17ac593a1acdbc0bU,
  0x291bf1d10bf91c84U, 0xc15235dd9511857fU, 0x747b6411f422593U, 0x28a3e2fe25d892bbU,
  0x701be1e622f3a8faU, 0x1ba8ef0ed10e6479U, 0x87b5cc8393475540U, 0x7be105f5eebcb5b1U,
  0xa5619af79492692bU, 0xdf5b5c7f8dd07d4fU, 0x2d03d515f0bfb192U, 0x9a519914109af1bbU,
  0x4c5ec8ea52c94b25U, 0x8b91e67fde8c711dU, 0x560ba3c222f03256U, 0xfd8774aa1914d8d2U,
  0x8162587f4a4ec326U, 0xd14b2f447c18d59bU, 0x4bd8f83516ff2ae7U, 0xb7db881c2ecd4111U,
  0x2a1079eb937befe7U, 0xeefc2144d7b2aa1eU, 0xba11ce121d76eadbU, 0x7f82462195d98451U,
  0xadc5130e79244647U, 0x83578500ed589cbbU, 0x113c08060b8da56aU, 0x3ad1ffd22145d5a2U,
  0x7eb0b9482ad49045U, 0x7ded36720ca77111U, 0x7c9218f99cdb23f1U, 0x6cef13e981c691f4U,
  0x65d6c547d365d912U, 0x2deb9060ef233c45U, 0xc8d7aeb365721d22U, 0x7b7afef159b9d4b1U,
  0xec973372057e9d82U, 0x4ac223f7f206c63aU, 0x9481d9bd2c69d3a0U, 0x35749c946a3c9e49U,
  0x4c3683f55f91a4c7U, 0x914254ba956b6ed0U, 0x72a4cdf0dd6fd8b3U, 0x3cdb18105bb6124fU,
  0x6b48d25a8ce0b188U, 0xbf7981aeba3e6b9fU, 0x452195c538646f19U, 0x28fad8d4948a2a51U,
  0xfaab42e9b342bc83U, 0x678477fc0da5d36dU, 0x352b183536ed61c2U, 0x57dcd92a5e44179U,
  0xad7d7b85cd6653d0U, 0x30992210ac4fc615U, 0x3e839f5bee03987aU, 0xb951b3cc6a497b3U,
  0x703ca303e21e681U, 0x5e2567f16674f3eU, 0x10e971dde346551U, 0x348eba6d0c3d17ecU,
  0xb77f893667fd6628U, 0xf21ed3fb3652d52eU, 0x1f91456564c35d19U, 0xcd417544a3300ea2U,
  0xfb41d9ddda993016U, 0x2bb637212f15e62bU, 0x315e1246799f6946U, 0x82cf9cef1b81225fU,
  0x104c0f3e912298beU, 0xf6faa2e815f571a8U, 0x57f4163f62911063U, 0x79a59ca608ee114fU,
  0x2a041df44999e8a1U, 0xf37b43fd2f79ff9bU, 0xea904490da1b8981U, 0xbc2d54ef4f3d2ed4U,
  0xb6cc123c82bbefaeU, 0x3725e1c0bad484eeU, 0x2df4f69ddf09e30bU, 0x99196c7c4100eef6U,
  0x57cb9f5cb94a1e88U, 0x45596901c37b3c08U, 0xfa5f96434722002bU, 0xe9fc874ae56ba035U,
  0xed4c438fabc6a72dU, 0xb4450fda06909098U, 0x51c0e7f7413eb8adU, 0x873c3cf798eb51ccU,
  0xc1bfc9e2448c8af4U, 0x458e7fd368309eedU, 0x6cf9a8e1ef7001bU, 0xc5e2c68b24402243U,
  0xa168c3bc83d865acU, 0x8c761a7aeef982adU, 0xa811410e20621ec9U, 0xfe71bbf88930745aU,
  0xdf8170ce76b20853U, 0xf82d9861731e3aceU, 0xa2893f87265bd136U, 0xf8722e32e8f61ca2U,
  0x81ad839516dca7fdU, 0x60573662c99fd53fU, 0x69a6536502d0a718U, 0xab46c385f075efeeU,
  0xd5f99babcccc1ef8U, 0xab5aad664eb0051cU, 0x4d023c1e9616a7d5U, 0x2333846f0296e7fdU,
  0x687f9ca2b45cca66U, 0x3330c1e3163bf4baU, 0xf0cbd0071da9e3d3U, 0x489b0f77e611e5c6U,
  0x94d95e0602e543f0U, 0xa5814ccabab767e3U, 0x5e97acdb3a9cbd8dU, 0xdf72c8c224fb8c59U,
  0xfeacdaaf17c43ba3U, 0x6462da7647664825U, 0x2eb21ca64e8aeae9U, 0x4a375c6781eecc39U,
  0xaede2b583c8b22e3U, 0x903d24c070a62b89U, 0x8d8ffbb9518a97b5U, 0xae0e2378058fc84dU,
  0xdcc0826ee6dbdb64U, 0x7d9b10440cd66ddbU, 0x31343818e7957db9U, 0x104e43ea12a5373dU,
  0xdc8186364df418c0U, 0xd030d677e1a2b7b8U, 0x251cd57c8f58244aU, 0xe5dd6e227ec44391U,
  0x2329866ba1b76b30U, 0xa696e2af27b355a4U, 0x22571b81389978c5U, 0x81e60b621a68ff6dU,
  0x680d188d0401d94fU, 0x7aa0aaf8a724b551U, 0xac9e8129f5fa6c55U, 0x1c9f0343f0ad0f57U,
  0x4401c92837b1a7dfU, 0xa93a2a11309a1176U, 0x38d7b418dd12ed6cU, 0x84b3b8da6ce4d138U,
  0xeab42426f8293c13U, 0x990a6a6de20ace86U, 0x5c346e29154f9567U, 0xd273eebf917ffee0U,
  0x26736862650efe40U, 0xf84ad585c41af66fU, 0x719fa011a79613c1U, 0xf6af08317775e5ffU,
  0xaf89caaf093dcc2fU, 0x368bb3e3e9b7665U, 0x20e95534ab08c2dcU, 0x2973b57fee179870U,
  0x59cddda06057bbU, 0xd4b4f13f75367200U, 0x723b36725e7984bU, 0x3b3e88c8363bdeffU,
  0x41ea87e906e5b737U, 0x4da4fde34df78407U, 0x8d9d4eb340310c01U, 0x81d1a47d1a5c0f5bU,
  0x875e2c9e14705df0U, 0x2dabb98c0c9d821cU, 0x5c35ee5484383e53U, 0xbcb7efefabd9408eU,
  0x556b41c3afd17370U, 0x77acd7dc92163914U, 0x7bbaf06171fa4121U, 0x1aaeecb8f00f70dfU,
  0x706e28973cbb696U, 0xb8fb031e3ce0a316U, 0x8aa1dad06db9ffffU, 0x4c477d490281db2dU,
  0xd3069892d8bd2ff2U, 0xf1163009386bc963U, 0xc4e5057fe8a1ab38U, 0x718615dd859a85f5U,
  0x91a71a477a03b213U, 0x38dd4d78f73746c2U, 0xe2fcb902b123c75eU, 0x287c346441bb50d8U,
  0xd5bed4dbf135b092U, 0x40af5030bc2f2bfU, 0x7b8d83bce2a7d99fU, 0xbb7f8311d090c5bfU,
  0xeadd488daf556470U, 0x5e4d75a23a618330U, 0x9615126130469611U, 0xab3838590487ff2bU,
  0x5cc5adf450f2a6eaU, 0xe0bf0a7f0c3ffddcU, 0xd70e2a47c7ddf58dU, 0x5cd8b31233dfc5a2U,
  0x871150fcc6dc37c0U, 0xce100f7986fc0298U, 0x615675197f56b65cU, 0xec3e74a93fd59aeaU,
  0x7d3d2a6037dc8977U, 0xaac91d0e00812767U, 0xbe9f9803cd9326b1U, 0xe048a42ac37f7dd8U,
  0x3c57a8a657a5dc7aU, 0x2886d309b4560d34U, 0x84afa152ac7d8e71U, 0x6861fc2842c2c30aU,
  0xa76662989083560aU, 0x598c271cd7b3cb5cU, 0xbcd54c2567544005U, 0x2b3018b3d13b6fddU,
  0xad0c4f7ff583567cU, 0x9fda0333177a6a03U, 0x8f2ab4dd557487d0U, 0x7b2a5d2afcdf3046U,
  0x12ec49b4afa86c93U, 0xe710281af70b3798U, 0xf7a6454419c3b611U, 0xcc670366e5b7ff6cU,
  0xc95d2028ed81779aU, 0x3b102cdeda013133U, 0xf42ab46ec5048fe7U, 0xaff681ac98c3ae08U,
  0x520f5a4d9da87206U, 0x49ca2b75b8bdcfaU, 0xdf755f56dc753219U, 0x3d7e58400fdcb618U,
  0x9abdc161b1e81c2fU, 0x851b7fd63e07056dU, 0xad793c74e5d8edf2U, 0xfdc710f0fc3db222U,
  0x975d1562559ff8c3U, 0x20090c48bb7d3eafU, 0x3e5efd5c98db98ebU, 0xad64dd0fb67f44f7U,
  0xda99c48927d4472bU, 0xfcf4e7993c50084U, 0xbc64ea6eec669907U, 0xd523254dd74b327eU,
  0x9472007afb22d11aU, 0xc8e8bc70fb0a38cbU, 0xe39de273db9b5816U, 0x95cee31e7f670a9dU,
  0x6b506a8a7ddfbf5cU, 0x2af8df0a89ae4f37U, 0x5eccc27037fbca69U, 0xacc791db46a701f0U,
  0xfd0fe7c7278788bU, 0xf8c72cb7b3492ca2U, 0x65365a276089ee13U, 0x8b89cdde5b1092ceU,
  0xfa3ac6a25b208839U, 0x2484c7e14a40c111U, 0xd47ced558a9f18d0U, 0x4d58be06a11644ceU,
  0x4d8134b076352923U, 0x9870bd824719fab2U, 0x98aa1829077d113eU, 0x61b46dd5959a6a9U,
  0x4daecc89eceb79b2U, 0xca92f641f818633bU, 0x4d06eea28ddbdad0U, 0xd411feed3cedda04U,
  0x9ce535c523814dfdU, 0x2a22e6598a83311bU, 0x69d1f547b7ba6733U, 0x8e2e697b7f72e3bfU,
  0x4b9b3cf0ede142a5U, 0x4987389b32afaf2eU, 0xe37cecbbe1b30799U, 0x9f45f291d908401cU,
  0x26a9ab1aa9059550U, 0xae5f6ee27fd775faU, 0xeb74c1feef2fb056U, 0x3352b476d848e922U,
  0x72ee87f6d5171a8bU, 0xfad2eef845ac9a8bU, 0xe8484d9646a382fcU, 0x53195e0b0cbf1024U,
  0xa952b031c486ba9U, 0x7694a6a5d0da7f49U, 0x49244181eeb2d976U, 0x8cd22c8d3e7dac71U,
  0x673bfdaf174aff8cU, 0x2b918c568c0bb478U, 0xc70f5bde07ec14b3U, 0xf125f90ca3ef7f8eU,
  0x88632ebcfd8a183fU, 0xd0a863b8084741b9U, 0x8a358fb19076985bU, 0xee76d07e9336186dU,
  0x96cb0c9176594ae1U, 0x1782145c86deba5bU, 0x853a221e23a296d9U, 0x7c014bf1b8d27fcdU,
  0xff6a49a3d332a216U, 0x9823d8a26a12c799U, 0x4fc459e65725fa81U, 0xb3c260b990b5a476U,
  0xc6d98918d399ada6U, 0xe159c232a1916c0U, 0x649a48f1c5780b96U, 0x2f10cca235db69fcU,
  0x25b5e40ba1446b42U, 0x512c12e7dbf4db19U, 0x40d80531c894aa35U, 0x269e3133b441ba9bU,
  0xc344e7e996d340cbU, 0xe6d52568486f4133U, 0x93788ab11c6f5e2dU, 0x7650c1dadd81dc33U,
  0x65f5a22b2dc485ecU, 0x13a4f2b4e9bfb618U, 0xb17fcc1384e97963U, 0x400f346478bfb585U,
  0xb840244689978592U, 0x41d7bdb5f7e617ccU, 0x84d99145de9e2653U, 0x7533b8884a143888U,
  0xb81b6d70f2bfa7d7U, 0xc7b3de676b1d610bU, 0x161f97a4c0a0ae51U, 0xb8ce9f30dd1957f8U,
  0xf463b32954e5befaU, 0xbf39340fbb307725U, 0x9f59afacc93dc1deU, 0x7e66aa617dc0ec4fU,
  0x7fa6f64b4f0253caU, 0x47f070c7cad8604eU, 0x2f640d6403d666ebU, 0x367c98c04d0fc0caU,
  0xc126d99ada68bc7aU, 0x1dbf97bc463d171aU, 0x6887f963fed8ceb4U, 0x6d5691386d7f7c15U,
  0xea84ff4dda2c7b62U, 0xbaad89204a92c3f3U, 0x985377de68fae297U, 0x1610383d28385472U,
  0xdfc23408fbfdda6U, 0x966ba40bb8664b9aU, 0x44ded5f1a60567e2U, 0xaf6a9640f7764fa3U,
  0x2c65ccdaaef4f1c5U, 0xb9f987a16eeaab7fU, 0xf1959adfe2d3b505U, 0x7a7f34b3375d6565U,
  0xf117fd580766cc70U, 0x3229dfd5a62ba8afU, 0x103f8c7616b8edbdU, 0xe520cd134fde3ba4U,
  0xe174cec0af586458U, 0x44efd376cbdd068dU, 0x64fda4df4dfd9563U, 0x328f5f9e4542b022U,
  0x20737b0ab56b8183U, 0x70b52e28a045fa07U, 0x2c1244b8f867d7a5U, 0xfff515b92b252a75U,
  0xcbc44a95eb8b19c0U, 0xa2d401d3166b1000U, 0x1d0d7e83ab8caed2U, 0xe0de8c4566142b26U,
  0xa2fe816828afd4daU, 0xd31fbe536ccfb5eaU, 0xc9fbd6080ba9332cU, 0xd5e4a88bbc189bedU,
  0xf5d798fe008ee97fU, 0x74f69f8d0c0d58c0U, 0x5b7409cf4228fd41U, 0xb97297a66b9d16e3U,
  0x34e54bed34a9e7fdU, 0xb563a1cc8b84e00dU, 0xb79ed7d78555d28bU, 0x185d7fbc7ab99558U,
  0xa79326fb7705a2b7U, 0x18673675bae10452U, 0x7a4bd703b75ee6edU, 0xb3b8ebc735ba2bd3U,
  0xfeab7d44a7dd4c7fU, 0xe29be4b87cd0660eU, 0xa53324826c2505f2U, 0x234848ee570fe0a1U,
  0x2897a6221887abd3U, 0x6862e7f6fba4f7d2U, 0x79db9b3ddb129570U, 0x4486f7409cd5be16U,
  0x3861eb8146ee1956U, 0xdda29a9cd1ceb869U, 0xc53e27afee55ebd5U, 0x2ffb35f7c5083a33U,
  0x1d0d778773d81ce0U, 0xc1fc70e72b818aabU, 0xd1d6614a4e3cdfe8U, 0xc75bbdfa9759f6aeU,
  0xa083ff6c87f36cdU, 0x41e617e62dfbbe77U, 0x5d9307174c2fd16dU, 0xec584d5aa410b61aU,
  0x78e8430329bb6f12U, 0x407a23747888033bU, 0x3e99d00b3dacc657U, 0xb9b49f0985e7207aU,
  0x1c81572ec2b65e0aU, 0xb1040ac50f3eae6dU, 0x1ce9015010fc44a4U, 0x69ffb67bf1430416U,
  0x817a54b70eb6740U, 0x7d79b819f69e51dbU, 0xe42ec2bdb92668b1U, 0xa8175d870531165cU,
  0x7a6171c581ad25eaU, 0xeb0f77affc1d42d5U, 0xd2bed9934b8fb571U, 0xf88e9afb375f4ed7U,
  0x40c2f25fb3bdb493U, 0x6efc3c9f38268bf1U, 0x554e81c6640febbfU, 0xe124e5d38d86282dU,
  0x1de6b84eb8fc06eeU, 0xf0a31e1c7ac04996U, 0x54752729fe35d534U, 0x3b382220f8984178U,
  0xac5a5584b15f7111U, 0x101c36e57ee628f6U, 0x749f00f3caf8c82cU, 0x1ba4f84ef4652536U,
  0x8b0f65bbe8ff8a4dU, 0x27e07ca15584af04U, 0x5244f8a73298095bU, 0xe227bbd2ad67c20bU,
  0x7f680108ba16c58bU, 0x8e705c1b8b5eeae1U, 0xc83cffd39bdf6039U, 0x7c947f9afdc2cd59U,
  0x3fd0accdb80d6740U, 0x1e7d60aaffe64ba8U, 0x3604ce13d554145bU, 0x1e0a9683dc07f351U,
  0x784717a33184f357U, 0x1529bd2e9c72a14aU, 0xca67d904d73257b6U, 0x248d40a37c3c4e9dU,
  0xbca40c062bd1fa87U, 0xbf593b8fa98a85c8U, 0xa2875c785dec1e76U, 0x97da39d7021d827fU,
  0x9e2534e224c5e376U, 0x75b08822c11861bdU, 0x64e90bdd738bd4daU, 0x9c59e62374b4f6d5U,
  0x6484574732d41fd7U, 0xe2e891e1de5d1686U, 0x29d0ab539bac91U, 0xc0dcbc242228a310U,
  0x7c952f28abc61d3dU, 0xabd69b0c553481e7U, 0xe5fec2d9d2f60244U, 0x5a05a785e278fa6cU,
  0x890c88d1dafdfefU, 0x7fcdbe66bcd95276U, 0x58c570fc7bde5c3fU, 0x50dddf5558a5298dU,
  0x1abae602f34ee576U, 0x91442e7ba11c40d2U, 0xe7223264126d3ffeU, 0xc0f6a160f72fac6aU,
  0x7f22092e8466ba46U, 0x98c1e9b99d0fd9eaU, 0x3e1fa5faa26096ceU, 0xaceadd4617fd64a8U,
  0x1d8df29a2d8545faU, 0x3fe18e70483572dU, 0xb9ff220023a5064U, 0x2ccbedca91c95396U,
  0xe2fcc6a1bbf8b9b9U, 0x5128465cb3db9a29U, 0x200c7fcc3fa989f4U, 0x4ae7e17bda6d2fffU,
  0xb0075b94c3e41f4aU, 0x752b9fb9c13b3302U, 0x185e2fffdf83cU, 0xc25900016cfaU,
  0xfffeed6dfffe4445U, 0xfffeab89000060faU, 0x199f3fffea967U, 0xfffe6652fffea143U,
  0xffffb3f2ffffcfb9U, 0xfffef6df00001883U, 0xb9cb0001644cU, 0xbd1affff0da8U,
  0x2d230000d0f5U, 0xffff4c44ffff68d7U, 0x1548f0001dd38U, 0xa8ebffff111aU,
  0xffffef96ffff9f97U, 0xffffd35affff19b6U, 0x178000004bafU, 0xffff451efffff6bdU,
  0x14adffff908bU, 0xffffb5220000bc0dU, 0x1e1950001ea41U, 0x1d4a000192a1U,
  0xc660fffe39a2U, 0xfffeb4e000013d90U, 0xa7810001d5c3U, 0xe17000002863U,
  0x15fd60002061eU, 0xffff3a1dfffe494bU, 0xc3cdffffd5c1U, 0x36ccffff3fd8U,
  0x1136affff2b22U, 0xffff6b900001c201U, 0xfffffd0f0000b286U, 0x1e151ffffd8b6U,
  0x81edfffff0efU, 0x138dbfffdf0c6U, 0x1356efffe0745U, 0xffff786e0001bed8U,
  0xfffe40a4fffff3deU, 0x48dffff36d8U, 0x18e1fffff084U, 0xfab0001d919U,
  0xffff4b5affffa5bfU, 0xfffdfc3c00019d5aU, 0x65910001e757U, 0x18401ffffc426U,
  0xfffe2a0400011a40U, 0xffffbf5bffffad6aU, 0x1e38b0000ee08U, 0x1a28200017d1aU,
  0xfffe86f0ffff9a8bU, 0xffff6b970001f675U, 0xfffedfa2fffe877fU, 0xfffdfbf3fffe4fd7U,
  0x1b4b7ffff4f93U, 0x1b4860001983fU, 0xfffff14afffe8473U, 0x1de63ffff78feU,
  0xffff112d00011a64U, 0x1df96fffefabfU, 0x1642200006df8U, 0x17ca3fffef118U,
  0xffffa417ffff6588U, 0x72c1fffe7493U, 0xc76692f1a9b9d8b7U, 0x4b970bf3ecbf5083U,
  0x704f2434cd221014U, 0x3a50015f8b7d9060U, 0x153ebc30af3c886U, 0x4c932bfe0611b69U,
  0x817fb4bd6f901025U, 0xbbd1bc0b67be5beaU, 0xccff8be1911eb801U, 0x4a92f897abfd552eU,
  0xf3617004c7441f72U, 0x10e12aac8cbd311aU, 0x26199b0cd7ed9091U, 0x17e05c13e2ffd4e9U,
  0xa271f3fdde3b1532U, 0x103d8255700425a9U, 0x5caaaa64ce278b86U, 0x760b539e7f1e1d6cU,
  0xa0bc221efbe5748aU, 0xceb3954243ad5672U, 0xf24ae94bda35842eU, 0x70b89e98530c979U,
  0xf6de383f97c9633dU, 0xa0261cd82cfff555U, 0xd5a7900bb7271972U, 0x513586215cc86040U,
  0x51056b62a6340fbcU, 0xa714ffa74baa20cfU, 0x140cfcb7d7a80f0dU, 0xc428e8456b8b43a2U,
  0xe17dc64d1ae12ccU, 0x1fb402a4e5266ee9U, 0xb8c5965610068692U, 0xf5fe2b6d14b42000U,
  0xe42167029f6890d0U, 0xc8f2e6e2de11ea4bU, 0x7f1ff06cc2b04da8U, 0xd145e7b8be716ce9U,
  0x6bd17a2ed8bc5bbbU, 0x505032e0c98f8629U, 0xdb99030eba9edb03U, 0x81122750271ebee4U,
  0x1ca7bb0e304a28d9U, 0xdfeb7687909746c6U, 0xe583eaaaf6a586daU, 0x5df0e0925462d4e0U,
  0xed1dc70574041bd1U, 0x6a343df6e0da5f9fU, 0xbe6dd42544c5a270U, 0xdefc21f79a628d4aU,
  0x39358fa287734da9U, 0xc08fe3cf6c345ed5U, 0x54ec86f7b526abd2U, 0x860bbc7befc8b579U,
  0x462f77ff00013320U, 0x972fbcdf6501154dU, 0x330a076c4ce361d3U, 0xce2942bc2ddad691U,
  0x67db3acd24e87f54U, 0xc6b0f0c2b0b1c698U, 0x867d3f73dd7b76f0U, 0xaafa30fcbf1d117U,
  0xf12862ada4c1e323U, 0x668972632be4bd1aU, 0x29b7713dbb5d7f98U, 0x273411d7e928d6f2U,
  0xcc955d53ea0654acU, 0x9830244fad7a7c3aU, 0x69dd11cd1889d4b1U, 0xc41220329da8933dU,
  0x827484bc3e03d653U, 0x2b6add02621f5474U, 0xbe59c0dc3032e342U, 0x8f98c98a8fbc4d50U,
  0x9b07f474f4d2af82U, 0xd5f0b249e8f206f1U, 0xb5336f87b6f093daU, 0xbe1d05e14970bedbU,
  0xd72dcacc8eeb4afcU, 0xde029a5fa89b758eU, 0xffb2c94e959c8c48U, 0x6c22042c25da6852U,
  0xaba702836b1681f8U, 0x678245b41000063eU, 0x94d7093375f5c11U, 0x3a0f3072dfb7e0a3U,
  0x6a9168a54264fc2fU, 0xeb62868125d6b896U, 0x412a6f15765835e5U, 0xd53973b630ab0ca3U,
  0xb881afb9a8cfb97cU, 0x1cf57bab2570aeb0U, 0xfe5b4cadf4884df1U, 0x3cc168d619835049U,
  0xadafff992618741cU, 0x89989cc5a8f1f78bU, 0x3d754d403bd9b619U, 0x92a72a562620cebbU,
  0xde4682ca2c5c862fU, 0xb84e916967959facU, 0x971eecc8f2a70b24U, 0x9de8aefc723c417bU,
  0x5df7ffbfce459bcU, 0x12e691ca3b1d4e8dU, 0x465ec9eecc0b40e5U, 0x1753869125434fffU,
  0x271d1a01b95f874aU, 0xed78056283134250U, 0x5adcf82ef1c8579bU, 0x59295854e3a14221U,
  0x623b1c9132db5f7bU, 0x5c420415035999a5U, 0xa08177bab8963f85U, 0xec0b6227b2fa934fU,
  0x37367b8794099d25U, 0xc6d64490c25cda71U, 0x3df1df79f9cddcd6U, 0xfa72534fa67b1619U,
  0x15151717e4f4114dU, 0x62a0e4b86749c219U, 0x5f464c1e8be48e2cU, 0xbfa40ae1e27544dbU,
  0x90e4c4a9c16c6340U, 0xc72601c85c33c48U, 0xf1c145cc3fc51fc1U, 0x50a4ced76e00e944U,
  0x48f8bf0fb26af69U, 0x331b0d8d0f133c03U, 0xec44d6e8056c6a3eU, 0xd80f9e87d51d3688U,
  0xc0f31570748e4150U, 0x55723b50579fe18eU, 0x5f6f8daa0b5f7329U, 0x972565a86ae7b932U,
  0x8d699dcc1313b687U, 0x2edebf3647e0ee3U, 0xf9361fb207aba3b3U, 0x6f241312b0ae614U,
  0xb66d735502420591U, 0x3116484f1411816eU, 0x6a8c709fd22292f3U, 0xcd0df7810d89b2c9U,
  0x84a375c330610352U, 0x85f1d2f0ca3aec1cU, 0x367d75935be5f93cU, 0xe39440a844402fadU,
  0xb1512ff1192a7381U, 0xaf95c5c007eb962U, 0x76e97cd6238739f4U, 0xab07e63bc435148aU,
  0xbe1c4c46c45f2738U, 0x2daf2eec26c6449U, 0xa57c7a8d471ab28cU, 0x5e76f25c3e03a7f1U,
  0xa9734b4fc9dc8bcaU, 0x29addaacca5a3482U, 0x459294d07491cbf1U, 0x8d8591f03b2165f4U,
  0x47960d840d195bb6U, 0xb89366038d2b4727U, 0x9771a50ecfc4a19bU, 0xcc8f0d43a5df4ebdU,
  0x6371b360a701859cU, 0xb9ba4912f82cc9e9U, 0xc212640ed78be5cU, 0x74f69bb7a106434aU,
  0xf69f4d96f84a8f8aU, 0xd6f64b6ee913637aU, 0x8c218447d3de3b92U, 0x1b6b441848ab626eU,
  0x8914b0564b98e1afU, 0x36f9732332e3f301U, 0xa9d8401f1fc36ce3U, 0x7c06c4ce3a6a6d8bU,
  0x818cab9975d0b9b2U, 0xdb81c12dae1644f2U, 0xb63ab9a428385249U, 0x7c834d76ab11b017U,
  0x37dfd10afb5985ecU, 0xb6b87f705a502c5aU, 0xf197c41e5c355730U, 0x7c1c4aef7c8ed71bU,
  0x9d6ef41cf694618U, 0x120e6d1e484ff5c0U, 0x994f3fb749d8da9eU, 0x2e4621303879e423U,
  0x13467799fb68a6f5U, 0x27b430ba3210045aU, 0x1e1c72985009d4bfU, 0x5627d8a4d5f7ff1aU,
  0x23856cb5ee5c6726U, 0xa3ae27b2de43ddedU, 0x504ed93b4be990U, 0x548c647265e24fdaU,
  0xcce32e979444f40U, 0xc03802c6de360c82U, 0x100a312da4bba132U, 0x48424362f3ba9a34U,
  0x483792857f6e47bdU, 0x623930b70c456cc4U, 0x2c8e65591f382ed3U, 0x5beab04ed1339fccU,
  0xeb2a674cb374e037U, 0x487b9e9682f3a08aU, 0xcf9670d3fd549f6U, 0x311ef1dabe7a7da6U,
  0xe16c50e321fb47acU, 0x81928d2a936b863cU, 0x7f29427115900641U, 0xcb65dfdfa503ac77U,
  0x6282146609e610dfU, 0x27628ca2b6a94ba9U, 0x62beb3b5fec537fbU, 0xbd56c249005decb1U,
  0x69e7a50f2a666353U, 0x429c6e4b0382b304U, 0xeab7aaa6f6fe2f68U, 0x389caf6e62aac711U,
  0x12a4a263f914ff0dU, 0xdc9e92afd930d1e4U, 0xb520065fdbe35d3eU, 0xc7b831479b2cf899U,
  0x48a77e6b1cbf2225U, 0x3d7171752cfc75d3U, 0xbcee7caffc9b76e0U, 0xd25250e4d90f513fU,
  0xd51ecd7881f76268U, 0x3520c272ce5e7766U, 0x96ab73ca797c0456U, 0x3e8718afaf0ba3eU,
  0xbcbe5642b28ab205U, 0xe6d1819d8d128f5fU, 0x6f53cb9b556161a5U, 0xdded9c611be5d309U,
  0xd22cd60fa670d1d7U, 0x70a3a7f6c5c2a172U, 0x51074cc2f7ca5514U, 0xa4fc715182d62071U,
  0xe7e4bdcc84c9d696U, 0xa18cdd655f0ddbefU, 0x188ee2bf864d513dU, 0xda6b5d7381f7655cU,
  0xac4ccf283f737f78U, 0x6de3987cff84edbaU, 0xfc8b087d38b7fb69U, 0x59769ffb3db368b4U,
  0x7c342e72b0843879U, 0x7fb148e4e94dfc8U, 0x15554876dfbca402U, 0xf4ab4a4bd8b07c4aU,
  0x3e5133de8bae2c7bU, 0x512155d62e38a7dfU, 0xf719873c4f757464U, 0x9b5b3b9528ea856eU,
  0x31d3d502b1d29314U, 0x6f0ced28c4f3bf7cU, 0x97304a53f90f2c00U, 0x92163a7e6250cceeU,
  0x71d102107e5b2b8eU, 0xf446dbbe8a57ca0aU, 0xa683afc63d6589baU, 0xbd71d5ecee996279U,
  0xfa32ec2788c83c84U, 0x6e3540958d6d4599U, 0xa1dbde7b654cf60aU, 0x96dab701c425f737U,
  0xa95bb77f42ccaf24U, 0x774039c0f78a4e6cU, 0x5cf0347b30bc149aU, 0x5d9fefba5286b5a0U,
  0xe0335533d9e108d9U, 0xa1519a39e848a06eU, 0x92bdd4ce398ea3c0U, 0xc0adbb3d375edfe1U,
  0x1198bf691f9b8b2eU, 0x52caf6e71ddae97fU, 0x4c51f9ee9612fc39U, 0x8fe8320f6692c1d3U,
  0x6226e490948481U, 0x701caaae0d416e4aU, 0x2c4b2a226309547cU, 0xc3110e397b17069dU,
  0x761f730ced34941cU, 0xd827c4c975722176U, 0x613189097cb27b4fU, 0x6f92557c6e8d85bcU,
  0x2434047c64afe7a9U, 0xf3d8b4eb46159e20U, 0xc1ca04ca6024b270U, 0xff92c1ed39aa9864U,
  0x1792f6e33f587bbaU, 0xd27d9f56ce24a3abU, 0x1ec4980fcce81e55U, 0x7a9ff8ecbf2f2e9cU,
  0xa6696ab39675ed0aU, 0xff30bec8c3a64538U, 0x3256bac43a741aaaU, 0x7e41606de6537b96U,
  0xce43ee2bfb35c3efU, 0xd1c07cc01b724ac0U, 0x772dae5a5b579c32U, 0xfbedeb18f5f37f94U,
  0x4f16a7d89032d44cU, 0x878234770f2a68e0U, 0xe95e0db6dc8ebe5eU, 0xfbb0b948e126eb05U,
  0x3731fe6e08c77389U, 0x6e0bb6aa8727346fU, 0x1cd0dc8a5caa3e06U, 0xef0c62920cebacc9U,
  0xf838e92d016999ddU, 0xf8d7dec3d2366f47U, 0x1cfa4f176a18c594U, 0xcd5c443a9636763aU,
  0x36577eba224db5e5U, 0x7fb45bd76ad61c83U, 0xe0bbd93d90943756U, 0xf364dc7830a8025aU,
  0x4271e9b2668bca7aU, 0x6995a461b8e12977U, 0x92d5e368d00ca02U, 0xc3e4dfafcea2a7ecU,
  0xd675a7f9af585c0fU, 0x9c0dcddad624fecbU, 0x4681c7e9c27cf916U, 0xf458348d703fd454U,
  0xe0b55e4c46cb33eU, 0xb00c3765ff27db67U, 0x508dd3a22dcec041U, 0xa83cf0743b8d7b83U,
  0x82549c72abd18931U, 0xc4b786e5484168eaU, 0x5046afae1ccc92a5U, 0xdda7177434e5859fU,
  0xa796acdc6ef2531fU, 0x614e67a5d44c9b62U, 0x1dcc24da361cb654U, 0x3bc00f72275c1c73U,
  0x17eb7c1d1dc9402dU, 0xee55ed8f217c0fbfU, 0xf5655ef70886ddU, 0x60933aa02abace7bU,
  0x3c8edaeeafc4f3beU, 0xa881db7fb697a550U, 0x3bde38f520cb7846U, 0x4c1c5326256afa5dU,
  0x2b4bb89db4088188U, 0xa5ab2266ba3aa569U, 0xa1aa4753d991d5f9U, 0x82ef52e0307903d2U,
  0xcbd51ee19ef430d3U, 0xf27cb25976c6ad04U, 0xa71712dba30f5bbaU, 0x58775206938811a5U,
  0x19cd7bf85386b9c1U, 0x666711791c075da6U, 0xd173c5b2726ef012U, 0x795e7c3a4439409U,
  0xa819e796c2a777e5U, 0xe0aabf7bcb9fa1c6U, 0x5f1c6ff978a4f52fU, 0x63062267bfe5a596U,
  0x72a967c35d07f2d9U, 0x3d53bd282ba539c3U, 0xb299e213042a752eU, 0x75f5651ff692415cU,
  0xf49bed9e105448ceU, 0x401e756645337ff0U, 0x9e6f8c112f2a9439U, 0x9b7f7b72fae827aeU,
  0x9e813ca71eb933b2U, 0x86c507fd0371bb7aU, 0x3dc5a9269e815e6U, 0x664442ec9274c8aU,
  0x9da32001f5cec2bbU, 0xa6c03f6c3ccf030dU, 0x85955f1977f7a56U, 0x25d00a8c3b09718U,
  0xdad891b3d1aff60cU, 0x8632d78547897723U, 0xf97afafe65cd425fU, 0xea50370a01cc6cc1U,
  0x8e51d845f50368c9U, 0xb56dbf57cf2be2e9U, 0xd60ffbf063e6cddcU, 0xac54790750d259afU,
  0x7cbd7873e6b3e4f6U, 0xab6bc8eeb2db7643U, 0x87ab7eabba604b05U, 0x48b0607fe770d22cU,
  0xd4114f3bcf87e5e3U, 0x78f9945f1523213bU, 0x7f0848a623fe6904U, 0x8f5b042ab352a6c1U,
  0x6e02725be8ce76faU, 0x3e09296005ed3fbU, 0x9da3673ddc3eab33U, 0x84ac1f850569ae52U,
  0x816e4f6e27430b6fU, 0x765c59b635b9338fU, 0xf2c90ac1f0f2d397U, 0x56ec2db70d4a792bU,
  0x45e6bdca04e373dcU, 0xbbf87c4c9fc10457U, 0xab6551f17fb23e7bU, 0xedb5e99d96635f78U,
  0x285a1f6e8d4f5fb1U, 0xe6bb9b83b80860adU, 0x7b0b451c07173e86U, 0x33aace3ec7bb052eU,
  0xcf822d3c9bfe6855U, 0xef33d472b795d587U, 0x44c95f2615e2eb26U, 0xbdddcacd0eed8a73U,
  0xd6b5f221f7d3b4ecU, 0x7e8a73b576b2ce27U, 0x91ae6e7d5e776d43U, 0xbddf78017126cad4U,
  0x79f4be6f15dbd78bU, 0x7051cd27eb98fc9bU, 0xc301e4c381915dceU, 0x40903922168b6f5eU,
  0x8ba8df069085f2a2U, 0x21db84f3fc67926dU, 0xf1da339715de41c3U, 0x304dc84c0b3c352cU,
  0x5f4cf08f65c52d00U, 0xf65f8211b9950cceU, 0x6a3603c291f0defaU, 0xfd6c92d9cb192650U,
  0xb1e7dca2221aa17aU, 0x8723e4f9a6d5a8bU, 0x5982f0a453c1106U, 0xd3cef6c928883720U,
  0x7f07f668dedf1ff4U, 0x89052510e229af32U, 0x559a03b253838b93U, 0x25a88a59dc8a4fe9U,
  0x84c03e91717eabf8U, 0xd23b0ff1f98b8c3U, 0x316a38a51dfa0457U, 0x95a8e9fd95fd3e89U,
  0xd196c5490496d239U, 0xb767f1111a3a033dU, 0x8d10dc92e24b3649U, 0xb1acc3a5db81a0b9U,
  0x6e57f3b47544acdcU, 0x8acc37e019c87cd6U, 0xfce6dcc72127c06fU, 0x69cc4681cce38951U,
  0x2d298b181893e59aU, 0x7f184197505ad9a1U, 0x206f4ea8d80c5d01U, 0x79986937d3dd4895U,
  0x412fe6256fdb3af7U, 0x1d2c6d8411fb2d6bU, 0x7e999a622ef7d96cU, 0x7cf45ccf811824dcU,
  0xeb44ed0df285c39aU, 0x48e7990cd3bddcb6U, 0xaa736c7daba308bbU, 0xdcc27a2f93dceb9eU,
  0x63eb9fa011172305U, 0xfb92fa6ba6da8662U, 0xf47b46f8d216cd23U, 0x8f10ccfed923dbbcU,
  0x4e57df2be048d1b4U, 0xe518711929bd7ceaU, 0xd90a4c46e01df93dU, 0xc12596935ce47bd4U,
  0xd189cede5ee24da8U, 0xdfb0c884d9958513U, 0x969d4ec1d9c40688U, 0x853e949f9ac042ebU,
  0xcbeab473cbbf24daU, 0x25c92664ee3fed34U, 0x505bb5d9637f45bfU, 0xe3f8f2f175d6c5e0U,
  0xd44026a568ba263eU, 0xe199252bfe358ddbU, 0x72f26b48e787cbc0U, 0xfd1caf6ebe9e2145U,
  0xf2870d5aea25e695U, 0x36ef2885b7c99fbcU, 0xdf320186de06ecd4U, 0xf4627498cb69336bU,
  0xce6b2ac56c83ba1eU, 0x2581f3652734aa4aU, 0x35efe59e95d89a35U, 0x28cf50f1338b4a33U,
  0xe56dc3f84a52ba2dU, 0x41ed16d12379264eU, 0x706da06dc79e8e0dU, 0xf094f20cd5614c46U,
  0xa61b3794bf79bbfdU, 0xa5006d32a0eb8776U, 0xc4bc49b7c403e8e1U, 0xda5bbf48875bc03cU,
  0xfc10528837b0156U, 0xd452c9dbb3de48edU, 0xcdaea34ae11aeacdU, 0x86a10a9481361b00U,
  0xd25a779e540850a6U, 0x4afb147a2a810ad5U, 0xaa1bb999f98da5d2U, 0xbdd7cb478f60c3d0U,
  0xa4a60005387dd33bU, 0xe4af039d3c06ea21U, 0x2eb1366efdf11321U, 0x20d982def0dae433U,
  0xcbb80e42be9b8d9dU, 0x6ec3f77a5e097d6cU, 0xfffee8930000c5ceU, 0xffffea36fffed30dU,
  0x542affff9678U, 0xffffd4320001c240U, 0x17f44fffef299U, 0xfffedce2ffff424bU,
  0x18bb30001970aU, 0x144beffff2989U, 0x1784d0000d1e2U, 0xab65fffedf45U,
  0xfffe59e2ffffc2c7U, 0x1b871fffed895U, 0xf0c40001e0dbU, 0xffff80c300018f33U,
  0x1602c00008da3U, 0x1c5e00016fd2U, 0x16feaea3475a832eU, 0xdba5b83d0643c916U,
  0x85da283127387fb9U, 0xbaedaa07d453bebdU, 0x7440d9a453a503f5U, 0xa67cf454c0ba0266U,
  0x819f192fa09be866U, 0x43c77fb1b0c14f50U, 0x8c86342aaf558190U, 0x4ac3158d8358faa7U,
  0x76a4933f8a53d2e0U, 0x74f16daf3ae63f51U, 0x517ff1773e09023fU, 0x1a3dc571053ad376U,
  0x2726481f3a8aa8f2U, 0x24493d58ab131a9dU, 0x8d2d9c5f5f303ceeU, 0x5d857fac29bbd5b2U,
  0x268d20ae59658b22U, 0x94be8a8505cb7064U, 0x6ff47da039d47174U, 0x28ed588ff12fa1a8U,
  0xbc48c80610704fc3U, 0x7f6fe894036e8cffU, 0x2ff781afcaa7d73fU, 0xf8aa06dbb046f217U,
  0x3d21fb150421eddeU, 0xb2ee8f4593e8f8d3U, 0x330bd872d9c697fU, 0xcba6aa5a2e95706dU,
  0x87af611e211330d6U, 0xc42394b7b343bc48U, 0x9f372fd6bd408af0U, 0x128d9efcfa46e8d1U,
  0x2fdb712a91667593U, 0x750d81e231fa0893U, 0x45a8aa2d066ccaf2U, 0xd401b2bedd574127U,
  0xfc7b107d3900a77fU, 0x7d1bb76e2b1f039fU, 0x2bc823a72836637fU, 0x7ca90096f0d2cb31U,
  0xaf5b9aafa5934860U, 0x5812988d2ad6c25U, 0xc9fa7fe25fa0ed52U, 0xd55953681e583acdU,
  0x5ede02e1354dbf3cU, 0x9aa22150c439d6e1U, 0x15bb4b81b2fbb5d0U, 0xb87359c624ed14caU,
  0x5604219dd6b7939fU, 0xaa84b8641ee94d0bU, 0xc89e067ded758372U, 0xad0d29e2c4d1b97fU,
  0x49c97c40f8f36ea8U, 0x32db1f9de5110522U, 0x81707cde7927ac10U, 0x3dcda3e75c97bcc7U,
  0xf4a961bbfed3f709U, 0xe9f46d4eeed03f6bU, 0x36b5f3e2c1e10693U, 0xef4a62c6e278959aU,
  0x1781e9468b0afb94U, 0xfc8ae8afa1aae4dcU, 0x216e60002ab01U, 0x2df6efffeaf40U,
  0x2e80cfffe7e51U, 0x23b68fffd9d3cU, 0x2e71700011d23U, 0x8644ffffbefeU,
  0xfffdb33800018f4bU, 0x112c9ffffa27dU, 0x4948f7d976fc119bU, 0x4ccb93081939f37fU,
  0x18fddU,
};


