/**
  ******************************************************************************
  * @file    network_data.c
  * @author  AST Embedded Analytics Research Platform
  * @date    2026-01-19T21:01:06+0000
  * @brief   AI Tool Automatic Code Generator for Embedded NN computing
  ******************************************************************************
  * Copyright (c) 2026 STMicroelectronics.
  * All rights reserved.
  *
  * This software is licensed under terms that can be found in the LICENSE file
  * in the root directory of this software component.
  * If no LICENSE file comes with this software, it is provided AS-IS.
  ******************************************************************************
  */

#include "network_data.h"
STAI_ALIGNED(8)
const uint64_t g_network_weights_array[329] = {
  0xbe9bdf5c3e5501d0U, 0x3e8b2634be968bbcU, 0x3e4e15e93d1a9ae9U, 0x3d669caebe130ab7U,
  0xbe96f77cbdfb745aU, 0xbd70a68bbe7a88fbU, 0xbdb33ff3be895108U, 0x3df5c457be623f3bU,
  0x3e99df31be44d460U, 0x3e435cd63e4fd786U, 0xbe7b2df63e7c9c48U, 0x3e783919be9e94b1U,
  0x3e8dbd1dbbc4bbb3U, 0xbd59a39e3e896e23U, 0xbdf9b9283e9236deU, 0xbdb8dad0bd0d81fcU,
  0x3e6374793e7c1b96U, 0x3e03f37dbe86cc61U, 0xbd978a7cbe3508f8U, 0xbe66c7103d0d3b12U,
  0xbde2cd563e3cb8eaU, 0xbe2256f63dc31b58U, 0x3e632b443ce09837U, 0x3dbe636abe5396d7U,
  0x3e4b66483e95cc4fU, 0xbe5965f13e3239fcU, 0x3e590854be118684U, 0x3d2b0c4c3e042cb5U,
  0x3e519a333e5e780fU, 0x3e9400a8be903c41U, 0xbdea8a07be8d6f0eU, 0x3e048205be61c269U,
  0x3e0b70d93dfd627aU, 0xbe4318a3be8c8105U, 0xbce69327be4db9dbU, 0xbe9d65ccbd6cc675U,
  0x3e3ef3363ea0d223U, 0xbe9be50f3d834dfcU, 0x3e81c15d3e81d626U, 0x3dd1f5e8bea0e0d2U,
  0xbe65b5483d56bc34U, 0x3d7c47f2be825dc7U, 0xbcb17abcbdfc147bU, 0xbe440050bcfd6539U,
  0x3dbca598be245a8aU, 0x3e0eb3c53d6f81eaU, 0x3ba073243ea01a3aU, 0xbe39b107be1cfa67U,
  0xbe864489be780602U, 0x3e235097bd9860cfU, 0xbd4cb0e1bd00177aU, 0xbe434d613e581ac3U,
  0xbe33dea5be6502fdU, 0x3ea11fd53ca5d242U, 0xbd9aab79be078716U, 0x3dc3b86e3e3036faU,
  0xbdcbbb3fbe110141U, 0x3e73a0a5be2cc5a7U, 0xbc4bace63e7ad7d9U, 0x3de3c602be712594U,
  0x3d9c5c3bbea0de01U, 0x3e535b16be9a60cdU, 0xbe8b950cbe675116U, 0xbe7faa6c3d646397U,
  0x3d5d1ca7bdafd3b9U, 0x3d6b37b2bd92539cU, 0x3e7c0ba6be53e869U, 0xbe268920be598bd7U,
  0x3bb479d33c9cedbcU, 0xbe9deb123e466f09U, 0xbe9822673da95050U, 0xbd77761bbdc6116cU,
  0x3e83399f3e879162U, 0x3cdc414f3db73094U, 0x3e6641d83e300fc9U, 0x3e9047143c9758dcU,
  0x3e2ede153dbe4990U, 0xbdb156823dfe3ee3U, 0x3e7a2f383dd726d5U, 0xbe7e46993e3d96b5U,
  0x3e14fdc8be271f20U, 0x3e0b7b02be50ee82U, 0xbe48cae93e02f789U, 0x3e79d9953e440adeU,
  0x3d23a8bdbe6e6aabU, 0x3c96e9ddbdafe091U, 0x3e2c3e3fbd30a140U, 0xbe6327cebdecd140U,
  0x3c25e313bc38b7feU, 0xbcffc561bb3a92afU, 0xbca4431a3cf4072eU, 0xbd0dd9333bfd9673U,
  0x3bd8ecffbb97ccc7U, 0xbd160faf397fbf1aU, 0xbcefa59bba84cef7U, 0xbbc14cdcbb8b71baU,
  0x3d217eee3c206e8bU, 0x3d0ee73fbc1a639dU, 0xbc84feb8bc931dfcU, 0xbca667483d006f32U,
  0xbccec4b8bc32b8cbU, 0x3d2fbdc73d09773aU, 0xbc5eee513d06c508U, 0x3cc5dd88bd224767U,
  0x3ae22d36bcb5a7f6U, 0x3d2213983c7921a3U, 0xbcc92aa73c43eb17U, 0x3d14f619baaa39b8U,
  0x3c570f453c6b9a0bU, 0x3d0adb47bc07253dU, 0x3c974c4dbb2c6d82U, 0xbc87ad0a3c4afec0U,
  0xbc4f3408bc9ab4f9U, 0xbc7d2059bd16d04dU, 0x3c9c758f3c20c1d1U, 0xbc5b53ffbc2f9863U,
  0x3ccfcf643d03bbcfU, 0x3d1ec30d3b6bc432U, 0xbcd0f9cfbc003a1cU, 0xbb594afa3ceb9714U,
  0x3d1bd4bf3c71c38dU, 0xbd337b383cf45965U, 0x3cd3993c3cd71aabU, 0xbd2b2add3d3243b2U,
  0xbc98f88b3c7d84b2U, 0xbcadee113cb53236U, 0xbd16b3913cb3fba4U, 0xbcc9843e3a2cfd32U,
  0xbbc824cc3bd743c8U, 0x3d07d0523cc3a617U, 0xbcb16543bd342195U, 0x3cb34e6dbcf43a8aU,
  0x3cdb6439bc356b73U, 0x3d0c8fe63cda63fbU, 0xbd1139ef3be66ddbU, 0xbce3e79c3c093578U,
  0xbc9ccac9bcbaf171U, 0xbd14da16bd199423U, 0x3cd91fc93cae8641U, 0x3d2c8b103d321925U,
  0x3d36d9833d1ee0d2U, 0x3cac6f2f3ca92aadU, 0x3c14cf4abd0a633dU, 0xbcaf771dbb0ade06U,
  0xbca25e293cb76187U, 0x3ca508a93d1fd27bU, 0xbcfe1e603d26b422U, 0xbc9193573d0b655bU,
  0x3c9e2db93ce98f67U, 0xbbbf153d3cdf1b5bU, 0xbce223263d0e7c4fU, 0x3c83101d3addddeaU,
  0xbd0549d33d287792U, 0x3cdddd3b3cef3777U, 0x3c754c9ebd368efcU, 0xbd1ef8bebc77518eU,
  0xbb7d978c3d01c59fU, 0x3c082748bbf0d505U, 0xbcc41d843bc0c6a0U, 0xbd1a01cabbd90761U,
  0xbcab5dc53c8f1443U, 0xbc99630a3d301f37U, 0xbd1547a13cbd462fU, 0xbd2aecb33cbc6266U,
  0xbd0ec00b3cd412ecU, 0x3c8924863d057849U, 0xbc1159a53c482f0bU, 0x3ce89f1f3c0f6c14U,
  0x3c8fe74b3d302a2bU, 0xbcf985a1bd18e948U, 0xbd2480873c3fc402U, 0xbc9ab67e3d01b9a5U,
  0x3d2eaae9bb0e5bd1U, 0xbcc54cd7bcb35378U, 0xbc0a69d63c529069U, 0xba31f501bba0d0beU,
  0xbc66172ebc042d9dU, 0xbd182902bcc65af5U, 0xbc964ffc3b3507cfU, 0x3cf350ca3c0edc8eU,
  0xbd0fb0ffbd07989eU, 0xbc73251b3d279eebU, 0xbb0cdf833b66b706U, 0x3c7ba6f73ce58025U,
  0x3d2a24133b2c5f16U, 0xbcc84956bc4e11fdU, 0x3c8c55683ca1b5fdU, 0xbc99886c3d2b4094U,
  0xbbf17fc63d0a9074U, 0xbceb4006bd2e2c06U, 0xbd1873c23c6ca812U, 0x3b80b47a3d2dd220U,
  0x3d0e22383d268c29U, 0xbcc4feffbc634727U, 0xbba38c6a3aa10e5dU, 0xbc978cafbc85781fU,
  0x3c727c743acbd815U, 0xbb46f5a2bcb3a113U, 0x3ce754123c452559U, 0xbcd365a63cdd863cU,
  0x3d1642953d1aefe9U, 0x3c9e24983d174452U, 0x3ba0fe06bcf16671U, 0xbc983be33ca692f3U,
  0x3c377181ba8921e9U, 0xb9d28670bd12d76dU, 0xbd09db843b8b16c2U, 0xbd1d37ca3d157d30U,
  0xbd25ee6bbc2339c1U, 0xbd24b20abd07a175U, 0xbd163134394670e7U, 0x3d1fd808bc940d2bU,
  0xbcbebb723d0c7a02U, 0xbbc0fc353ceb5e75U, 0x3d2fe2fb3d18e59fU, 0xbcf6c6263d1edb77U,
  0x3d3330e33d043a39U, 0xbcbfb815bd14fb31U, 0x3d137b35bbb5cef4U, 0x3c7c90863c2def09U,
  0x3c10be06bd08868dU, 0xbc9f9aff3d201512U, 0x3ce1183f3bdbd257U, 0x3c1410a33d078b07U,
  0x3d275a51bcc8230dU, 0x3c95698bbcf94d57U, 0x3b1758cc3d3047c5U, 0xbc6dd1473ca5d9a9U,
  0xbd19db75bd2f6744U, 0x3d2db45c3cc4b7edU, 0xbcaccf5bbd2e5d83U, 0xbc8b40af3c7df434U,
  0xbd1d9e20bcc7571bU, 0xbcec45e73ced92fcU, 0xbcfed06fbd396c90U, 0xbc93076a3cfc61c6U,
  0xbd2e3c1fbd0c92aeU, 0x3c8188c7bc12727dU, 0xbd12b2483cf4a082U, 0x3d09e36b3d362252U,
  0xbceceb3f3bdac724U, 0x3c9517ec3d2cd235U, 0xbd2436babca2fd06U, 0xbcf36525b97b02cfU,
  0x3c7c7a7bbd36dc20U, 0x3c87faf7bcec13d2U, 0xbcc04862bd094907U, 0x3bd692a3bc4f9f51U,
  0x3cc6cd8c3d2df6b1U, 0xbce0e3ed3d2c1c04U, 0x3d197bbcbc890003U, 0xbd32d34d3cb85d8aU,
  0x3c8bfff3bc1188ddU, 0x3cf25424bc92278bU, 0x394dd173bd0d1298U, 0xbcb722413d309f00U,
  0xbc897761bbf653c1U, 0x3c66941bbcd00852U, 0xbd02d2303c025404U, 0x3ca2e32bbc1be767U,
  0x3d21de62bc7a3e16U, 0x3c488a323bff1fc3U, 0xbd282e103d1ba794U, 0x3d37ef693cf5d3e5U,
  0xbc8c01a43c8bb926U, 0xbcbdf251bc0477feU, 0x3d2fe300bcd554a1U, 0x3c6a0a813cf1d7e9U,
  0xbcc3eeca3d20c9c4U, 0x3d297f31bd09d338U, 0xbd19e730bc8983daU, 0x3cd738703c2a9677U,
  0x3ac86c46bc853145U, 0x3d3a2dcd3c4fe639U, 0x3a070fe6bd24deebU, 0x3d27a7b7bca55990U,
  0x3d009fea3c7a4d37U, 0x3ca513f8bc6cf1a6U, 0xb8a203033bbd4ab4U, 0xbcb73f603c047a40U,
  0x3cac169dbcc1be4fU, 0x3c5e679fbd2d2d79U, 0x3d165ad93b9bb3d3U, 0xb9ccba7a3a0591f4U,
  0xbc5b93a0bcd8d62dU, 0x3d00bd31bcff1861U, 0xbc571331bcfd8b41U, 0xbc2fb897bc264041U,
  0xbc9d4e66bc5e7b05U, 0x3b80edce3c6c653aU, 0x3d063b1dbcf6f1f1U, 0xbd3344bbbc4f3413U,
  0x3cb5f1293b839d61U, 0x3ce1b6a4bc286aaaU, 0x3c98de0fbc21f3bfU, 0x3c3c01ddbb6dee37U,
  0xbd17a9363d1167c1U, 0x3c9026653d28924aU, 0xbb062d533c7c0495U, 0xbca4d6cebcee04f5U,
  0x3c996434bcc7ab4bU, 0x3ce1b8d23d338333U, 0xbbf4859d3d385d2fU, 0xbb65e23bbd136f6eU,
  0x3cafdc0ebcf64292U, 0xbd23f09dbc831cf1U, 0xbc9e78abbcaa9510U, 0xbd0e37cfbca7b93aU,
  0xbd0a6b493d0425f8U, 0x3c4c1ef8bcc87645U, 0x3b252b16bccb136bU, 0x3d0f4a78bd333442U,
  0xbc2ec5bebc11e35aU, 0x3d1baf73bc1c3141U, 0x3cbe3fa63ca4ca41U, 0x3cf2731cbd2e8bf0U,
  0x3c24240b3bbee42cU, 0x3c6610adbcc177d3U, 0x3d32a4183d0cb655U, 0xbc886120bc13d065U,
  0x3cc29146bcf45ee5U, 0xbc251b7abc84ef1cU, 0xbc120a4f3c721368U, 0xbc9a0085bc19177dU,
  0x3ce43abd3cb384e6U, 0xbb7d288abbe07f4bU, 0x3c0926d13d252e48U, 0x3cdac063bc75f2fdU,
  0xbd2ffbb7U,
};


