/**
  ******************************************************************************
  * @file    network_data.c
  * @author  AST Embedded Analytics Research Platform
  * @date    2026-01-22T14:22:06+0000
  * @brief   AI Tool Automatic Code Generator for Embedded NN computing
  ******************************************************************************
  * Copyright (c) 2026 STMicroelectronics.
  * All rights reserved.
  *
  * This software is licensed under terms that can be found in the LICENSE file
  * in the root directory of this software component.
  * If no LICENSE file comes with this software, it is provided AS-IS.
  ******************************************************************************
  */

#include "network_data.h"
STAI_ALIGNED(8)
const uint64_t g_network_weights_array[18577] = {
  0x64bcbdc05eb607d2U, 0xb619ca4eebd27b6U, 0x4fbe1acee9e804a7U, 0x5e212459907ff3bcU,
  0xe3813be031b2d572U, 0xb331f2252d977fa6U, 0x773028c840877f12U, 0xebaed3fc7fc29397U,
  0xa3bada81b82e1bc7U, 0x5da67f28454e5705U, 0x7f5c09529abdcc5dU, 0xe322fd7fe203ca2bU,
  0x286859b307c8156dU, 0x777fabee34209e3cU, 0x81d6ffb24e4e2dcaU, 0x125754c405522ba1U,
  0xb981eb9e528125d4U, 0x63d8d63366168cfbU, 0x3d81c78b1ec6fd73U, 0x734a5ece81e7a5cdU,
  0xade8810f410d4026U, 0xac5cdd1af606ede2U, 0xe2d100a8977fd826U, 0xe4dbfd627ff53b71U,
  0x5b0b87ff9bff771U, 0xcef653db813377b4U, 0x7ff379538c417665U, 0xaa13a5f3398295aaU,
  0x1a1768679af83a81U, 0x96846aab1959de81U, 0x884ce83cfcdd5f76U, 0xdc1ff79581f1e4bfU,
  0xf970f089ec81e935U, 0x45ada5813adbf8fbU, 0xce3f9021192117fU, 0x96f05d44776b4174U,
  0xa881b12772b581bcU, 0x78db9dd3084f3994U, 0xc893b77f22319b05U, 0x16cd87b0b1f3537fU,
  0xde8db04b926f71f6U, 0x8bf57fed167f67d9U, 0x2dbd290c4037f749U, 0x5b567f71ed475971U,
  0x0U, 0x0U, 0x0U, 0x0U,
  0x0U, 0x0U, 0x0U, 0x0U,
  0x0U, 0x0U, 0x0U, 0x0U,
  0x0U, 0x0U, 0x0U, 0x0U,
  0x317e384a73dfe0f1U, 0xb02393deed8517c6U, 0x6f40ff40d8c072aaU, 0xcae3a5b98dc4642fU,
  0x2df4b073058eb440U, 0xb25545ccf52c4f7U, 0xb3a0266e4e1428b5U, 0x8d8441b891b97a0fU,
  0xe7c35d44a0e25a9bU, 0xf90569c165061523U, 0x9866d10f144d1ad2U, 0x3b5f6cc5c51a435eU,
  0x83b318055f23d425U, 0xdbde298f5cd2a5ecU, 0xc99adaddb79926eU, 0xceb93c88ed4d68afU,
  0x9ce7f3841cdcf044U, 0x8ae457f0625cf3ccU, 0xb2b288ca8d05c0e5U, 0x590f0773e302635dU,
  0xd74636378c07e6faU, 0x763cb2ba66cfd449U, 0x2e70636ad30e8ebU, 0xf62839b392bf36b2U,
  0xa82c0120269c33c9U, 0x6d491b9bddc25003U, 0x2edb639c3fb02dc6U, 0xb2779aa478448f19U,
  0xcba5f07363b31b1dU, 0x19fe01276bfcca99U, 0xfe3137607ad0e450U, 0x85afe2e9f4597347U,
  0x2dfe86bf322e30c2U, 0x576a9526aabbf04aU, 0x39e69ef251433479U, 0x45a448d477723c6dU,
  0x72c377acad6bbc5eU, 0xd5c97e6c5f8df6a8U, 0x1a0c335d37be2906U, 0x2ae8cbe83b01bb12U,
  0x2eced9cc454529bbU, 0xc9030aadbe31d1feU, 0x765d2a1f65983004U, 0x21acf1e854655385U,
  0x47bee1b89db6bc85U, 0x48b2633648d0e6daU, 0xce96b8b8eb558d64U, 0x100c5310e38f54fbU,
  0xc43b93ca4a502c12U, 0x6aa66afa5990ff6fU, 0x6fa9de572b5095f1U, 0x397272fb5b981b76U,
  0x3e6c11dc74179f4fU, 0xdb39b51baf6d5e68U, 0x9b29a7b28e0b651eU, 0x23a7c63e3e87793U,
  0x275fc9b6d4151ddfU, 0xb8ca58dcdd52717fU, 0x888ef1e8cbf4dda3U, 0xba32b3487b3d5b34U,
  0x9d9e0074ae05d544U, 0x956771e5f57ee18aU, 0xfbe39db3828e8f98U, 0xd9aed88f3b9ba3a3U,
  0x82f76d3409ea83c5U, 0x5cdedd25b8df40cbU, 0xf22f3ce8b3f7fdfeU, 0x651dd9c9f27f3125U,
  0xd478170cfc8ec7e3U, 0x28c2eea7c07b74b9U, 0xf2a9d126cb5f1d04U, 0x188522af34d7ec5cU,
  0x66bebb21fa32dfe8U, 0xb60e46ca8a941fcdU, 0x603e74a26211ce1U, 0x2472bc61b2cbb64bU,
  0x307c35f81be83dfeU, 0xb4e9f4677cda8c0dU, 0xba9cf070632a5999U, 0x6f951c5deeddf145U,
  0x8d5e8e56bf831bdaU, 0x3c1fd382bce460a6U, 0xcd466c6adbab602eU, 0x9e19486e17c6b5e0U,
  0x57b1734acfb70eU, 0x225563ea0bdb69beU, 0xded36cb6ec6bc8bdU, 0x829f6d6db5a9c684U,
  0xc9b9ebdfadfa7f8eU, 0x961b93cc13b2f43cU, 0xc492609021bd9d50U, 0x8e10a9d24a39c86aU,
  0xd198bd3317f0b6c8U, 0xcacdd2cd092d6cfaU, 0xb76160e0bb9763b5U, 0x746f02793ec7c95bU,
  0xbd9373366fac7979U, 0x2bad9e5d8563152U, 0xaec9245f54ca01a4U, 0xa6a2a8fa1fdfad4bU,
  0xd70eea7f24aa6efbU, 0xb08463e85c424b75U, 0xc3f5c32b58249ccU, 0x674cd5b88ee51e05U,
  0x2424efd41dbc29ceU, 0xb63aac59a08b24b9U, 0xa39099025cd24d1fU, 0x227a9c33c098a950U,
  0xa8fe45ecdbeb0728U, 0xc103f6f589551603U, 0x1e681063d973d18eU, 0x492a7f0d09ab7b5fU,
  0x91fd9d3463cfeabU, 0x5712e5dc3b5948b0U, 0x91e8d49c68b6f231U, 0xa59138e0d52eb277U,
  0x4679d4d8609829afU, 0x74b754eca7c0dc5bU, 0x49c6e6b25164ea8eU, 0xa0b771694d9ea60fU,
  0x30fa7d84f975999fU, 0xcf13dc0ae8aac35bU, 0xb3fa1beb82b14c53U, 0x6adb8dbef94dc262U,
  0xe096ac619ac89ba4U, 0x6bbca7771da6265aU, 0xf1bc2279b2dcd9b2U, 0xb2d8e13f431f509cU,
  0xa46243a4563b39a0U, 0x890b179434ba45cbU, 0x7877cd5f1f2c6cabU, 0x57643533b46883a9U,
  0x7c106ba74a334cc2U, 0x522eaa134aaa3fb8U, 0xab7b974bc70ad2a1U, 0xd02ecd42b596f821U,
  0x71061f9b36e985bfU, 0xb86f522501e0abeaU, 0x89b1c0da8f727d8aU, 0x40c5d59750751b03U,
  0x815fbb8677c7c36fU, 0xd40ec8ff535fd137U, 0x1451e291d8dac090U, 0xfb20b4188eaba9d3U,
  0xc2ee63f73c4aa50aU, 0x8f43c133602ea142U, 0x6d7f6ee14bd9191fU, 0xc856ec7ecd596ed6U,
  0xdaab0c635a9ee912U, 0x52b4c11b4b91c3c3U, 0xa31927256dd00285U, 0x35da9ef46911e0edU,
  0x81ec0b97e0ceb2U, 0x38663f537074a558U, 0x148c3cf7c3794ae4U, 0xaa27248907fbb467U,
  0x92562a6e8e87aa73U, 0x8ab00119641a0c64U, 0x99108df7f970a5b4U, 0xbcd7129871ae8865U,
  0x43bf889e2fb7efd4U, 0xc2beb088d0e40465U, 0x5eb9811535584defU, 0x548b95106c626cfU,
  0x457dd6e0f6ac8cebU, 0x29f859fb641f2d4U, 0x52860c82216dce9dU, 0x41cef1dabeb94bebU,
  0x531ad2b8b5e61608U, 0xd47bd5691db75261U, 0x756dc900c758b9caU, 0x9c9121b2ea09a864U,
  0x5cd54f5b713bad86U, 0x67f57488a605d49aU, 0x398e01c48c647d7fU, 0xdcf1f923765bce68U,
  0x34e80f0de33485d3U, 0xcf4b0b38a246948fU, 0xe138d3a6dd867b85U, 0xaf19b93300f3e285U,
  0xe4409f4a0f9d5228U, 0x6e74364dce20f6fU, 0x76c4fd6723cd583dU, 0x12e6e88844a5f5beU,
  0xee40dad3643450fbU, 0xb4e70c3968b9065aU, 0xbda254f108d6d304U, 0x9fdfec8b11a8e5bfU,
  0xed741b53a68ed9a0U, 0x9bdff14c15e72f7U, 0xc12f3ca79fe1b212U, 0xa95b09d9fda0f247U,
  0xd8ea54c4fab792dcU, 0xbe000c075589cf62U, 0xe325a5fe2b740342U, 0xbbe19be3d43533acU,
  0x6f42a2c6a60e7bbfU, 0x5d6f11e6ff2da50fU, 0x9e7b8a04a06a0c73U, 0x51b5ea40b30ca229U,
  0xefdaa0a1258a3c5aU, 0xc6ec04c2040b1ba7U, 0x70184204380104acU, 0xa8152593d559984fU,
  0x2e2da028d5074f4aU, 0x95aedd01da090460U, 0xbc4fc995cf558e35U, 0x66da72b919b1ba3aU,
  0x4be0a3c81ecab84fU, 0x11b8045f98d24799U, 0x9fc028c6a2659246U, 0xef92dba81d985caeU,
  0xec1b314dec68f5dfU, 0xeb7157a7cb96b216U, 0xead36fdb686781cU, 0x565029516ec830b5U,
  0x745ef9b334365e30U, 0xf02a35a34fad8707U, 0xaf515c3ffb648daaU, 0x393d061cba5aeddfU,
  0xb6dfa3ab69e6e00dU, 0xcb51f09d51bb336dU, 0x2dbb29ec26ee5368U, 0x55b0597fb210e434U,
  0x2535a6b2c739cdcdU, 0x960fec9e949948beU, 0xcd3a73762ec00567U, 0x7bc339e2116ab055U,
  0xd4f937432e17a9aeU, 0x6d0d03b988da452fU, 0x5cbcbf350124b4eU, 0x3a5c43ec7d6073cU,
  0x2cff88c1621ce62eU, 0x436bcb9ce3e1a354U, 0x3573f39d40b7244dU, 0xdd65cdb207555ab2U,
  0x72e3c27882f6d4b3U, 0x8707bd82f95ce8cU, 0xb1663354798e13f5U, 0x1bb784da8e14289eU,
  0xd9144efaf83e3c5eU, 0x79edea47bffaf382U, 0x7ab308a16adfef02U, 0xb594b572b182f9a5U,
  0x87ed02385b890d7U, 0x47688f17aba426a3U, 0xb297a046769c8b7dU, 0xc5201a6cb5466555U,
  0x766aa5ddb114eb03U, 0x42f0dc17717b8aacU, 0xbf7023061d0a65c8U, 0xe4f4e20536c7b254U,
  0xea30654b00235898U, 0x3e072c86315c969cU, 0xdfc22ef0f1c7aa6cU, 0x2ea29c151ee8c05bU,
  0x1cf1c6d7321e9ec5U, 0x481c81b50b97e0b1U, 0x5b0daca0b8e751b7U, 0xeae4fbbf460807e3U,
  0x6df4c43739270fbfU, 0xccbff81370d50966U, 0xf9b03ecf26b26a7bU, 0xd9d439cee7510bc2U,
  0xd0ac8f68586889baU, 0xbefe6b49a8fef7c0U, 0x89bdad58bb0543cU, 0x85e4db15e8c9acadU,
  0x1a09f59bbc87168U, 0xbab4f6842964df85U, 0xfdd2cd49fb30d1b4U, 0xd08752cb18f5c77aU,
  0x93b884d7d78c8fdeU, 0x50baffa03f3d0ba3U, 0x6553428cc8d3b83cU, 0xb21ec03f55d044a3U,
  0x911bbb97e31f17a6U, 0x192f40fb4057e186U, 0x532bc846d37748c2U, 0x89ee1fb2c317a6beU,
  0x48c660e26ff4b79fU, 0xbeba9c34731001U, 0x5f41fb6bd6907b32U, 0x7c99b3adc6bcf5fbU,
  0xeef4cbffdbe0ee0cU, 0x1fcd8b39bdbb7d4dU, 0x90d07cc9bb2ef11cU, 0xd52643299a25e061U,
  0x6d4ad2d1b1a217f8U, 0x1f906119843dfcf3U, 0x5def02bec742347fU, 0x2030c2242883919dU,
  0xb77f66c7e0d3e1d7U, 0x60af4df53f4b2fb0U, 0x15e34ea906e3c4c0U, 0x34b2ee78323896dfU,
  0x146b8cd810d100c5U, 0xe83fa834b586ede2U, 0x55daa3a64c7393edU, 0x615af2ee57da9d45U,
  0xc18704ee2f044ba8U, 0x59a010eae6ddb252U, 0x4e759fc3763712fdU, 0xd164d6d5e4c433ddU,
  0x9e9f4e1250311506U, 0x1282e2f096686419U, 0x7be3076095122556U, 0x36fca9861b0ad5c9U,
  0x864d61d07031a9f9U, 0x468587cbd54cbb13U, 0xf9934e39bc2194baU, 0xaa5cddb6aa2ca24bU,
  0x8d4b585ea28eaedaU, 0xfb044648606aa52cU, 0xd2d27a38507eded8U, 0x8d09b7371dc6daf9U,
  0x4c07e93d214ac75fU, 0x783c47d0396ac418U, 0xaf592bd392a0bc72U, 0x5758105affcf66b6U,
  0x1ae00e202588944fU, 0x4a4fd1475bed2acaU, 0xed52dfcf4840e1cdU, 0xe84e37ca66c118d6U,
  0xe72e1af0e4074f20U, 0xd42965acbcc19ecU, 0x36f91fdcda010c4U, 0x25f53a711e37208eU,
  0x8a37b0978b4cc040U, 0x4166e0bc2772dbaeU, 0xe7ea1f5cfdb493f9U, 0xe4f77ebeceb34f50U,
  0xc03a7a41684731fdU, 0xd35ec6ca5d2501a2U, 0xe8d7acb0d84875aeU, 0x155ea31efe434de0U,
  0xe7e926f3496f6555U, 0x3315ef52ccbb8429U, 0xb39eec7ee2f46047U, 0x71a1a015ea6d9854U,
  0x4edc49a6e749a83aU, 0xce3a3cc1cb6fdc8fU, 0x8e83e23e8806406eU, 0x69baf738cabf7dbcU,
  0x1fb01e89a15f5bb9U, 0xe43ff2b49926066aU, 0xd2f8937de6d66877U, 0xe9b93efe58527d84U,
  0x406fb1fc0601d3c1U, 0x4e4455a3e6986b68U, 0x7cad73c4d027d309U, 0xbd7515239cce77c0U,
  0xbe41429840ce2c31U, 0xf8196add50f94362U, 0x8fac534c3f2e2a3U, 0xb8d9e35569981afU,
  0xc0f7c382721c4008U, 0x3cebf7c155f5f696U, 0x75931f2017877818U, 0xce7384580e11e8c8U,
  0xc1efbfd06f7ae879U, 0x90cfd8d94e03c322U, 0x8e548bc016fd5ba0U, 0xe37317bf6b6aa5a7U,
  0x7b30253052efa7dcU, 0x1be221dd66dd50b2U, 0xb7552ce8839b750fU, 0xbe3fd1ea8b6fee84U,
  0x762d3ef8b3cf0566U, 0xc9955cb99bc7519fU, 0x875a9c8fcf5b999cU, 0xdc1db9023e20ba58U,
  0x3a6e44e735cadbddU, 0xb206dee12e6314ceU, 0x8b23e92f088e6262U, 0xa3d13275ffa192c6U,
  0x603671e76d84c9d9U, 0x3e6f1250d9870179U, 0x83c0f483c9dc6e99U, 0x5c7c350326b21177U,
  0x700ae5d8e95f8dffU, 0xf5b3900c1cb8336cU, 0xcc8de7396ab35c3eU, 0xd1c1c024a09d3e07U,
  0xb9296dfd94e19f2eU, 0x2139ad1377d0aee6U, 0x96b8514c054ca74fU, 0xcd792a66c9f19c36U,
  0x6402ab82e2784566U, 0x89545dd32899186eU, 0x51af9320fb533685U, 0x2fef4e6fe551308U,
  0xf16e699c55cf796cU, 0xb33a2cdbcb4b1944U, 0xaa0baa45414a0f38U, 0xd58ea68a7e361438U,
  0x5d17b0d8bd822e9bU, 0x23c6adde1005a764U, 0x3620af5893d319a3U, 0x689dd1977f0b4958U,
  0x4c12151f228b288cU, 0x3769312be5ce4364U, 0x4dfa4093b9e73e28U, 0x962ccd47b4d1cc57U,
  0xb9d230b05cc812d6U, 0x96c4dfb86f4e8b5fU, 0xda2352e2685fd98fU, 0xbb0b0ace1ac92245U,
  0x98d67b750ccdd3b6U, 0x6b5927d78585c085U, 0x194ca544ef41525U, 0xa5df92237b4de845U,
  0x72d338d4641f0362U, 0x292a239f329ad07U, 0xb83b6dbb1ecc9298U, 0x4ed20f234bddf5a2U,
  0x969036bb4ce93b13U, 0xa406d2a34a1872e1U, 0x3666d57e9d867717U, 0xd418208dcea1c966U,
  0xc6fdefc1ece05f6aU, 0xc599cd262f3f1288U, 0x41bbd58d996e1a7U, 0xb8b192f6a42bbafcU,
  0x5b267bc5bb1c5578U, 0x1ee87ccc6534a8a1U, 0x13caf8bf053763aU, 0xb8e90697c5c5aac0U,
  0x58ab239e86e6e033U, 0x5847d8845f6a4652U, 0x23c6d91f10c506d4U, 0x16b89c25ac2ef66cU,
  0xa503dcbc2468a2d7U, 0xa090423fc154f8e8U, 0x1fa6fc68926b3ba6U, 0xb4f0fb9230e0bcaeU,
  0xf8291a12246aac93U, 0x61feb4adf6342292U, 0xfb25f8384e9224c9U, 0xb59eaf2f12addd58U,
  0x8cc9df8110b35429U, 0x175541f1a4f06bf5U, 0x2fb54d1cf0fe58a4U, 0x557895647218731eU,
  0xb4fb4988da6a387dU, 0x1caca1758fa8d66bU, 0x6ced7e54fbc259d0U, 0x1a5230d656bba7f6U,
  0xb6a364e1586f7489U, 0xaa8265f13aa86e2eU, 0x4bb4e2b5558a578eU, 0x635ab8b189ad578eU,
  0x2e636c49910e61bbU, 0x3e49234034fbc6f1U, 0x251bc6c21e909b33U, 0xa82e27604aea2bd1U,
  0xf30e751136290a1bU, 0xf42ef7494e14d7b0U, 0x8cc3de1896b1df20U, 0xdba3bf5eb2341623U,
  0x8604958cd2816d79U, 0xd8a4d5a11e87dc70U, 0x658f70d2aa77ee12U, 0xaf4e1af6e6847cb7U,
  0xc58b07bab8eb710U, 0x5cd62683a4b73fd4U, 0x1425ce8c9a2c0b11U, 0x491d477ea0bec705U,
  0xeaa0bc316c732a45U, 0x2eb94f67b1d3b2ecU, 0xdc8a88e48c5bb148U, 0x1c39c6550efe6679U,
  0x6a99fbdb7250b39fU, 0x3fdf514f59cfa344U, 0xc93771f532489083U, 0x6b6283973e684b29U,
  0x24412278bec83f00U, 0xdcb09966e9dbeb98U, 0x1d51a9145076f23eU, 0x70fb9d4aff275f2cU,
  0xe1a1aeab2310f8ecU, 0x3a995d893d906a8U, 0xfc8c44c677cd7913U, 0x615b5d541cf03ca1U,
  0xf3c64490ed24ec4dU, 0x6171c3365aa573cbU, 0x8b073c8c8e6c5201U, 0xe06c87b9964542dbU,
  0x8c12dec41ffbe439U, 0x7bd0ff555db8a89eU, 0x3574f548e183d0c0U, 0x1c00f6fab7ed05c8U,
  0x9c0582690c7d89fcU, 0x695da39f096b6be1U, 0x67d50cfbb95f85eaU, 0x9e75b12d3de7ec00U,
  0x4306f55983cb69d7U, 0xfe0f11b2951d2b6bU, 0x33612fa8f9fbfdeeU, 0xe40a6029c8e5648eU,
  0x15469ab4685346d7U, 0xce02125afa85a47cU, 0x57c82d60d490606eU, 0xafb78b4168e5b30aU,
  0xc32a7cf06075e6d5U, 0x6000f549a1de9ae3U, 0xdc2928370c2d0a2cU, 0x6c8878dd6cedab7cU,
  0xfb118dcd31490263U, 0x69c832a43687bba5U, 0x505d43c8bf09de2fU, 0x114248d185783119U,
  0x5f6b689d336108aaU, 0xd251c6237866340U, 0x5be7e7827cf4c6b8U, 0x4ac1f75a7b9ffdecU,
  0x42b6a86a47fa0d3aU, 0xa1aab75b17d09936U, 0x5b30e7227bc5a79dU, 0xcfca4756dc262318U,
  0x50bc0524f849eb2bU, 0xde7f4ce41c828eaeU, 0x3acd70683ebedbe2U, 0x3186c2acfff77b44U,
  0xcda4f783d21e9a11U, 0x43f32be136477185U, 0x60d4dad25f0db9f2U, 0xe55f66e2cd14f18fU,
  0xcc021abb9be1204cU, 0x707bd615fcf1474cU, 0x15b7a47c1dd1e0e2U, 0xca3f961b9b4d079U,
  0x9c9c7e69732d30a3U, 0x6f519b8b87ecfc88U, 0x2dcef407bc0ad546U, 0x344950966765cd7U,
  0x37c70e0406c91d1cU, 0xc04e21d398f5a37dU, 0x2ddc8209844508f5U, 0xa3ced82da394de7fU,
  0x4199b4f600e1b465U, 0xba4016ef271f97a9U, 0x2d7d9cc5251ea3c9U, 0x37db3febc2bca973U,
  0xe571aeede5648dbcU, 0x1d086e88917958baU, 0x7dc6795bbccc26e9U, 0x55f74d04460368faU,
  0x9a8f09d991f7989eU, 0x9d2bb469287442a5U, 0xf6d2f1c84a7e6cfbU, 0x50bf4bcc9a1a0179U,
  0x439f4aaa905ba005U, 0x54d40a3e58f009e8U, 0xbf950594320210d7U, 0x1b343f5e9d491b55U,
  0x2c37af609f1f9645U, 0x974a012693a4bd7fU, 0xed710590c5d7ba40U, 0xfe5aa58a2c180532U,
  0x71e0b56bb1f7fa8eU, 0xaf0a4bc6d65705caU, 0xc0b2eb45d6b89829U, 0xcc6e22ef202102b9U,
  0x3f258259a1163361U, 0x23b5ccfa4fd0dd59U, 0x99b3097da4c3122fU, 0x637125c4af8dc4acU,
  0xbfb1944b697f3703U, 0x63cd54e6bd871df0U, 0x4ead498a0534af05U, 0x750312aff13550e3U,
  0xc93491e55a84240fU, 0x555c6f128363f50dU, 0x145997ce84154f1dU, 0x9ff2d755dc958f6U,
  0x6e9aa726735af2d5U, 0x6ad6dbe6ea710eeU, 0x53494779b012fecaU, 0x1a946ae68b7b4320U,
  0xa819747712619276U, 0x530bcc0c40f56c29U, 0xa06d76b5361d0e2dU, 0x287c741f7d5265a6U,
  0x81da309124fd08d1U, 0xa0e74216639155e0U, 0x7839b93f9fd06afaU, 0x5d093ee7b4ef695aU,
  0x2be6286469360d38U, 0xab06e887a6d72097U, 0x51df20ee333616bcU, 0x64976b55fcb01a10U,
  0x24e2a1fadadc720dU, 0x962f00f30d638c1aU, 0x42209c3cb940c5b2U, 0xd94725bf06c93628U,
  0x3001e4a4c22fdcefU, 0x37bbf9b4d746f141U, 0xcadfb75c176c3d0U, 0xa86835eab9cffc55U,
  0x7d93732069397f8dU, 0x3f1be74fdc35f96fU, 0x63578413647c905U, 0xa0e7f9a5100a4520U,
  0x2639d4c6724be50cU, 0x5d6fd71a3c063561U, 0xc7a61828ecb1ef3U, 0x2c97971934573919U,
  0xb4eac4c5b5ab697aU, 0xeb95c2b429372729U, 0xecb797632c92cb24U, 0xa47c5f46de3f8620U,
  0x197b3c65d9608ae3U, 0x775e05b2aec84e38U, 0x84b5aa1be4d19577U, 0xb471fadce19ca889U,
  0xb599347698a1593fU, 0x9ae1ee713e2c06d5U, 0x29232757d67dd84cU, 0xd0a0a57382c1212dU,
  0xfed2c23fe3cbe29U, 0x5cbcbde06a5b9393U, 0x4d734ba2ef3db2daU, 0x79b81337521727eeU,
  0x2ede57bf37cda53aU, 0x7cc7160d4a10b2d5U, 0xbcedd55ff5962eU, 0x8547a16393f3763cU,
  0x1009192dec9e8efbU, 0x273229cc2bcf8761U, 0x92f8ddf8869735e9U, 0xf693785631b37695U,
  0x7edf4c95372e9042U, 0x183f190a3d0f3109U, 0x6b928b4c4d7e73a2U, 0x586b7824f3328f23U,
  0x1a2cd498364fab6aU, 0x47c5b4770ee54861U, 0xcbc71c5669286d92U, 0xa84cac14be08865dU,
  0xad4c861228325635U, 0x652b58f252af2f91U, 0x6c542e713165c02eU, 0xf6cee04507b00edeU,
  0x38f293394b062617U, 0x3a29aae814651de1U, 0xd33e50a15f4ac7c3U, 0x406d920ea42593c5U,
  0xe6243a03d4ab6411U, 0xe4611a2c1cb7b0d0U, 0xa3be88bc4a4bf244U, 0x5739a7c7a7ad48d4U,
  0x719fa944046532d3U, 0x5ffa00c773044a65U, 0xec9046176d1b86aaU, 0x4d3ec1fdfba0a8f4U,
  0xee3763afe455b5d4U, 0x3c420439192103dfU, 0x9086685d46ad8a61U, 0xfaec10a7e99bfb37U,
  0xdefff25b7c183b32U, 0xc413b72cdd2ae87bU, 0x858493cc2a234333U, 0xf30c503782b4987fU,
  0xb329b9e573f20491U, 0x7d4a08296914fb7dU, 0xee3403f44cd8c641U, 0x1fbb26dc2752a3f4U,
  0x8d3fbb54df53d1e4U, 0x4ed55d6faf828d1bU, 0xbfb73bc6e185bb16U, 0xa51e7a4f5f9a89cfU,
  0xab189ff7c43e99faU, 0x4277603b043d12baU, 0x584fcf0389506df5U, 0xf3506359f65c906aU,
  0x578db1621575b0ccU, 0xc2a22d1a51e8cd63U, 0x6b54b41537000bc5U, 0x20393c7834eb384cU,
  0xda1883c32c96eca0U, 0x993ab80a72674f0eU, 0x1764258e7b3ebb16U, 0xb824b5537f71bb1bU,
  0xca5a480c9035b598U, 0x2adb9d0908db6334U, 0x5ba8c4af73bb0e2eU, 0x235cbb6242a94912U,
  0x11da81f1bd6d9f90U, 0x52e2d86ba62bcU, 0x12eb73990ec68500U, 0xd5b9c788f9960bddU,
  0xd1d632dd8f6f3d41U, 0x2dbc7e977db1f631U, 0x2de678123ee88275U, 0x9b711f2f8287b3a7U,
  0x146d99faf7e0c9e0U, 0xc7cbb61ed7df7399U, 0xd2ff340a2db1891U, 0xf38cb3bb6b5028eeU,
  0xa010c38cd35bc1c9U, 0xc20e42ddcf174316U, 0x1cd4bbe0dd8dc8e9U, 0xfaa4ed3cd8e8d63aU,
  0x9efc8241c57cbf3bU, 0xc807666d6ac7e68eU, 0xe9b399f6a346392bU, 0xea6281cacc6bc1d4U,
  0x59718bf81a00dce9U, 0x33518ce7ef97a69U, 0x13d40defe33ebed2U, 0x1d61ca46097e0ebdU,
  0x9f4a27695ad4ce0fU, 0x7a731f1435c3f256U, 0x73ce6e2d6b6b6c4cU, 0xb5f509c3b29d771dU,
  0x31279a7c75357924U, 0x1d0996bf52d7d456U, 0x2a43e1a45d066384U, 0x680510fead82fe0fU,
  0x79e51c86d186b53eU, 0x1f488afb9a3b3ccdU, 0x6cf133d8a09df144U, 0xe263e8cf18c2a06fU,
  0xfc1a156d59ee37deU, 0xd260405add82afd5U, 0x84f265204e98a88eU, 0x7bbe76ec88bf4be6U,
  0xf529cf1151f6aa6eU, 0xa5bb677f2c9b321cU, 0x3ed1f1ee965b2bd9U, 0xd8c32c8ddea682ceU,
  0x49488536f2b75dd1U, 0xac4f731ba0296edeU, 0x4fc83156341556d1U, 0xfeaa1591591bb16fU,
  0xf709b3ab872c703aU, 0xfd5cf36da61cf367U, 0x68319635c3a9eed5U, 0x23b35e8974c2378cU,
  0xf4bc9e3e42583e37U, 0x1e4b3a2fe9517b4aU, 0x7d0ea84b9227ff0U, 0xbbb185aebcf081ebU,
  0x71ab1c56545173c6U, 0xfbd7209968f1da68U, 0xa67ffce3f28f3df5U, 0x6bd49c84eefc6e9dU,
  0xe67c8627fb5e5fd7U, 0xb750460b3ed70f8aU, 0x38ef9ccf7d290077U, 0x52390332f341a195U,
  0xdf069fb86ad70a0aU, 0xe3f7aeae085ded0eU, 0x4d47d9ab1ce865d9U, 0xd61c6341719868a8U,
  0xc7d4ea33aeae6a3cU, 0x72109c4630f21c2U, 0xa7d733397562213bU, 0x3affd084b7f63fa1U,
  0x713f9422d56a5804U, 0x83996fb6fca25e9U, 0xbd3ff2a639b29bf1U, 0xd95a847278f1fc20U,
  0x2fd0d92bc2767154U, 0x5a7be6b31f7e16ffU, 0x6fffb195cf120612U, 0xa42f7dd275b8394eU,
  0x422a32a9ff7a974dU, 0x1b7220626e8fd636U, 0xc0a205153a53a045U, 0x78cb1832e2e8b4aU,
  0x8cb302a1c74d770bU, 0x33b1e964027f28cfU, 0x365558da05cac25bU, 0xcdc7c7cdd667b399U,
  0xf5fcd3eb48e860d7U, 0x3789fb67df83b637U, 0x240b18e3745953fbU, 0x59b5be11a9392d8eU,
  0x9bf27f0d43701c0dU, 0x354a71fb5281a2cU, 0x99eece62d1d56ab1U, 0x13d93f5dd42e8b8bU,
  0xa8f71b3cdbb722afU, 0xb88f5bde9e3b48f0U, 0x25c6e360b97b9d4dU, 0x48e745d5b5bd6bf8U,
  0x47c7b4359482926cU, 0x50c5265c1ef77bf3U, 0x5006b244c20fa9f9U, 0x9be2f00fefa4ee5bU,
  0x5a1e777f0ccb9e45U, 0xe1115e0d6c023cd3U, 0xe1f1353e40e2f747U, 0xc8d3a59e40cc33a1U,
  0x5851c696bdae9a29U, 0x2bcd603d91841d7cU, 0x11b55b94350d3ef4U, 0x682a1c5d1f206799U,
  0x5fbceabd3fd03cf8U, 0xd1350dfd6d991e25U, 0x1bcd6877131f0d4cU, 0x4d5b206f25bcc37U,
  0x422343719ea4e2acU, 0x8b58ba9ab0ecf830U, 0x4a715f7210b4024fU, 0x723753a0377c1e33U,
  0x776da7839b90232aU, 0xb66f9b3ac366c756U, 0x21f57ac0419ba26cU, 0xcb2bda2cd3d30e7U,
  0x84ae8c32eff1496eU, 0x1310655e240c57fbU, 0xcf7551ddaafe859fU, 0xc0ebd3579f532746U,
  0xe3516296232489a8U, 0x478fe61c2f9c50faU, 0x2c2f06510772373eU, 0x72a5a445ce670819U,
  0x52dc97ccd8feb881U, 0x8e216d6229e5d173U, 0x87ebd089468b4ee0U, 0x7134cf16d2fb4034U,
  0xa588dd91c772e975U, 0x679c2b7a003b4fb4U, 0x12d07d331753acacU, 0x34f7dafbc91e7dd4U,
  0x9d1cfcd1116cb111U, 0x970f94f2f8beb7dbU, 0x713022558216306eU, 0xe6ecef44fb2325e1U,
  0xe9320578bbb2afbeU, 0x860b491f7bf2cc3U, 0x655fcbbd90b6d70eU, 0xcd1291f7b046e1e9U,
  0x4b41a3365252c62eU, 0xc62057e1e13c24c8U, 0xe9b5937e7af09308U, 0xc86badd029077e68U,
  0x460d261466e31cceU, 0x3d9e7cd2040d7861U, 0x97f0fb56635c82f5U, 0x73a2863214ce08baU,
  0x5c1f8431f91a9f96U, 0xaa88e61587ec8521U, 0x212b40a6e7946933U, 0xc8021d17e1566441U,
  0x1c1f6c6cd6a95114U, 0xeb23f6b35e3f1294U, 0x1ff822caf68fa3beU, 0xb648da7f1ed80c97U,
  0x732652eadc086134U, 0xb6b7860d167a013cU, 0xfc47409fe7955669U, 0x398950be8db0276U,
  0xc03c2048d49b07e1U, 0xc900931e8b1ff78U, 0xa9cd51f288b403d8U, 0xdde2cd9172cd946aU,
  0xa0527f7490c45e53U, 0xa66e969470b5ec9eU, 0xdfae99463b1dd8b7U, 0x2bb6aa67988c3743U,
  0xe211a72549640966U, 0x502dc164c00177a8U, 0x5767a8b75efd79b5U, 0x5866bf4fc8cb6f7U,
  0xeab3d9622988d710U, 0x18894c4e57d213b4U, 0x925cb831835b8823U, 0xa301a02384cda14U,
  0xeb13d89404dc3302U, 0xb0a1f48a6eaa82adU, 0x9933a15510a1854bU, 0xe6bc6c251644cd3aU,
  0xb3064d058f9958eaU, 0xd54b62fc3b86f5ddU, 0x9b0f1f18e77691b9U, 0xaf8b1f9035d6a7b9U,
  0x1051ba9aabf874eeU, 0xf7246b1c068ee97dU, 0xb960cafe812aaa8aU, 0xb66f9287d81b2b90U,
  0x6d0a024abf2f0a0U, 0xe80a2e97e2b0221eU, 0xdee41f07c41aa5e7U, 0xf53efa76de3f451fU,
  0xae3a05b552dd30e7U, 0x6badfa613f9bc5daU, 0x63dd7d56961d3275U, 0x5c9d9fefb8e4d4fdU,
  0x13040dd8b39f4bfaU, 0x63dae92b0e5575a0U, 0xda27fc3645798f4aU, 0xe5eaa334c2c9195eU,
  0xfdd15ab8d555de17U, 0xf2112758fe537d34U, 0xb6d69368076779d8U, 0xdf09ccbcc09bf075U,
  0xd292e1d74a1278b2U, 0x9e0e278ac9b73084U, 0x990b602c62a29497U, 0xcd70be989ba80abaU,
  0x1d9cbe7f0bebbfcU, 0x562bb95bd3506793U, 0x6902f996b1d00bbfU, 0x53bd9c75e919b0efU,
  0x46d40ae0f55e60f0U, 0x1cbe07fa56e79025U, 0x62dd3f5b2fb5f4fcU, 0xf1ea06a9e0aa1d13U,
  0xc6706a233f7e2c17U, 0x8d3adb58b9a47f30U, 0xd109fed30acf00fU, 0x80a67df8c1570bfU,
  0x145774e7fb9b2719U, 0x4f3331e29b2fede4U, 0x940deecd07cc1b7aU, 0x425f905a3269e38fU,
  0x445183dbf564d92eU, 0xbeebce1b82e0d111U, 0x9e1e91dd92dc0b66U, 0x7be44caa1121c9b6U,
  0x1c660c28f889e4d4U, 0xc1cdca27d0fbda79U, 0xb0be584e0031e9d6U, 0x6de6bea3f93b7ee7U,
  0x2dd841a9198b8cb3U, 0xbf45f77c8f257fc4U, 0xe6221d0f69ee1585U, 0x5dc0e85baf8ca363U,
  0xdacb348663fe471bU, 0x46eee75d14d011aeU, 0x71a9fb57ebe4c58eU, 0x8fa7c1d6c217aecU,
  0xb7effa1d7f42c297U, 0xf1a7f117589ddea7U, 0x21c64f81b0e4af9dU, 0x869231fefba81792U,
  0xb0fd9f5ba0c06782U, 0xed2f4a5d3aede014U, 0x66a5ea7dc390becU, 0xe4f1c3b75c9e11bbU,
  0xc3b3f10d9f9c22cbU, 0x2e7d6948e2b707e7U, 0xc38b43f1cdb70e25U, 0xce0059323077d487U,
  0x245851d16363541cU, 0x20b88793dc72c1f6U, 0xcf594d61266db8f9U, 0xbb2861e8f8d42993U,
  0xa479a990107197fU, 0xad47bceb5bfeeee9U, 0xcf8ca5102a3b066cU, 0x87a3bff878256077U,
  0x2ed16e5ad1875bbaU, 0x22aafa439024eaeaU, 0x84a3fae8df11efe2U, 0x5d4760cfe00c760cU,
  0xfb967ef364f8d8e2U, 0x50cbaa67e0b77f0aU, 0x24d60368ece54d1bU, 0xefad7d73b3a3ed5dU,
  0xd248b4a47a7eb3f8U, 0xde63d549b2608282U, 0x11458b348fd41e5dU, 0xc760884ab78d34a5U,
  0xb89a29e055ac5177U, 0x3ab6a42e990be235U, 0x78b9d33d99d2f1fcU, 0x9819b1c8898b28ffU,
  0xfb3594230ce6e139U, 0xa9c71e357241b94bU, 0x328260ef5914a882U, 0xb9c1c9001712aaaU,
  0x1ee6ff65c04e7302U, 0xd00b2a3a6d96dfcbU, 0xffd1146b82ce4facU, 0xb45f5956c7a07d71U,
  0xd6e52465304be62cU, 0x1de348c50c49b962U, 0x60e6872ae418254fU, 0xa413a6cc965f781aU,
  0x33cc7e9de33fada6U, 0x147d4e0fc6605a1bU, 0x93f2bfd570ed48aaU, 0xb585ec8e4b4435daU,
  0xc4f38b0af2bbeedaU, 0xdfc6147f0b4992b1U, 0xa8689e64f4eb3c19U, 0x5eac8a58c3c6a34cU,
  0x65afecdf61354037U, 0x2cd71a7dafba145cU, 0x8c4ec7f6aa4f9f49U, 0x161068e1e0b89d25U,
  0xb7b783dfd9550ea2U, 0x3ed635498b75b915U, 0x9c56b823a8d9d6ccU, 0x1b2ab478c1927959U,
  0x1ea706dde030f35dU, 0x921019331deb8a3cU, 0x77788aa2a38835baU, 0xe1403e38107778U,
  0x4e72baeab5813c88U, 0x647bf636a51ef358U, 0x2cdc55d4ee1ff655U, 0xd73925c6d30d1349U,
  0x6017f6d96fcbd2cfU, 0x9d12dabd8c7924deU, 0x42f6b15cf4820e67U, 0x2a6550eea0a743cbU,
  0x209d015a2a821139U, 0xee6bf7d831bd27f7U, 0x1820882b451b2d99U, 0x25e9c243dadfd139U,
  0x5251e7f1dd3b6b96U, 0x4456dce5eb026129U, 0x87a776fa1be84f93U, 0x2f44fdc5c270d689U,
  0x15fbb54b4d04fd2fU, 0x643004092ba71c8fU, 0x8598e5bc420bb4b7U, 0xcd17d7503a2d42beU,
  0x66298b795cdfddd2U, 0xcbbbe54af549e7cU, 0xb5cff95a0f67ba4fU, 0xce3c553679c4cb7bU,
  0x5ca1fd32d3be367dU, 0x8acab2c9207b3395U, 0x185b868511f0151fU, 0x641726e7dc9ede91U,
  0x82481f8b5487b691U, 0xd515fb120da01883U, 0x2c607bb9316d3490U, 0x34446c3f3758d26eU,
  0x23a20f3638b9e220U, 0xe37cf36d68a2bb54U, 0xa5d486de604970cdU, 0x12e3455377b86918U,
  0xee3eb937a71c055dU, 0xe08102dd7461fff6U, 0x56e2bfcb5ddd1f19U, 0x640798d1cb20184fU,
  0x6b09ddb5f1d6d143U, 0xc159eccea8d5fc74U, 0x416cdde6066653d1U, 0xf69315d785560b9aU,
  0xc74ebbd7c774194eU, 0x2b16df8e3339cfffU, 0xdb11c9a1a68b47baU, 0x2c2285ac6885c5b5U,
  0xeae12fb020ca3753U, 0xf5f3774bc7d6a9U, 0xf8b51705bb2eabaaU, 0xa02cc31a6fa127f1U,
  0x589066aba8ceaaadU, 0xb5a2be0c585d701aU, 0xff3367187c971cb9U, 0x4d5b2e10f0bea1c1U,
  0x3016357bc7ffedfaU, 0xb0f10436f27be1b3U, 0x6ee0768f21421b37U, 0x4bdf2ed8a23d0902U,
  0xcc27b23dfbd45ee8U, 0xb684c109893c7457U, 0x5a0c028ace34b690U, 0xa9971ffcf875d26bU,
  0xd041d63b6f24c721U, 0x72c016a7391b2217U, 0x976436a3f7e8fb3U, 0xb42ef110f834e1fdU,
  0x283758b8d1a2b969U, 0xca00ed24f0e608cU, 0xfbb2b7a7f5aac606U, 0xab43e2f406ac9982U,
  0xcfce8d6eb616ed4aU, 0x76cdae764eebf738U, 0xea40d80f755c0641U, 0x101328d789f2d50eU,
  0x8dac6c37b28fc709U, 0x2cbb20fdb5c7187fU, 0x4403d203a4e6373bU, 0x8c6894e0aee6a310U,
  0x479a052a542f74ceU, 0x31281c1b889e6089U, 0x42f616c87b9177e1U, 0x1c9dc69395675e3fU,
  0xad5e541e421a490fU, 0x5f9c862e339d2dc4U, 0xb4ee76c39a7af288U, 0x8b74f405888d198fU,
  0x207c25c96e10db19U, 0x201033865cab4f9bU, 0xf9a39049e0bf1f46U, 0x3c12ce18ff47c547U,
  0x59b0d088db33fa5eU, 0x1b5c16c02c2d931aU, 0xd7eee517f5385bf0U, 0xd004bed50dcba3aaU,
  0x8433c1c419088d92U, 0x73022549d6e46170U, 0x76a971ac70b7cb32U, 0xa92fe294d9ff203bU,
  0xfc966fa83dfa3b0fU, 0xd9c519ddf52a5647U, 0x83cfa0959a94bb2cU, 0x31b9347b3b9783f1U,
  0xcc666948f6c63159U, 0xbf74e8600ec56030U, 0xaa4b6aec8ea9f9aeU, 0x7d7de68c220168eaU,
  0x7009c5f4259a062fU, 0x9853247785228536U, 0xcbd1dd9bcb91ff96U, 0x88b3cda3655f3076U,
  0x7a6f825b16a4c1c7U, 0x957556500da6366bU, 0xbc45014da3083b7U, 0x8e027bcd52031457U,
  0x84700ae5831ecf9fU, 0xddce926c8b193b84U, 0xa7ee561b6993bc0dU, 0x76cdc7712222bac9U,
  0x5a216f2843bd62c2U, 0x3234931b735304d5U, 0x46682de06f480fb3U, 0x1b063f1cd91d52aaU,
  0xb44c39688e475626U, 0xe1e743ef11498501U, 0x436af4ee05d868fU, 0x7a3f75bda4bece96U,
  0x7516a5cd8ab35338U, 0xf6d27b60da8ccd16U, 0x468b2e396b7edee3U, 0x305fc0222fcac279U,
  0x3432fa1ddb964247U, 0xbafdb00eeb177a6bU, 0xeb9875249ce97a20U, 0x12cbeea54cb1a1dbU,
  0x1e3a38a84d977954U, 0x7ff1f8f7558d9f99U, 0x5d141695e89867f4U, 0x8ebbaf45d53dd713U,
  0xd90db5645bdce08eU, 0xc17d8779ab45da6fU, 0x42d1e3fbd5859893U, 0x9939193a932666a4U,
  0x34ceb9f45b5347efU, 0x7109f23cf34b5704U, 0xd873d64d5cb41b5eU, 0x6aa1d9b4769edf1cU,
  0x7dffb892766c6892U, 0x5a53dbaf17ef0465U, 0x81109ad6a04b2f82U, 0xb205565fbc1263c5U,
  0x278f684fda4cadf7U, 0x3103b25937822ed9U, 0x211b723c150ab71eU, 0x81ab7b5937e3aa8fU,
  0x103c161fec4bff2cU, 0x794e4125d4299e6U, 0x913dc1f9d1f6400dU, 0xf245372edde6e8aeU,
  0x8cef019661028476U, 0xd5d25942a2e822fbU, 0xaada283b8c4d073dU, 0xac925f3cf13a7e2cU,
  0x391def8e1cc7fa38U, 0x216bde828e87bf2U, 0x710d5e7cb0fd0a07U, 0x6f62d2fdca0e97a0U,
  0x443ec057815c069dU, 0xb5f7ad1f3972484dU, 0xa9f1dd7c4a6dc80cU, 0xd51e208760683426U,
  0x23362a63f7f2a866U, 0xb051e06a3de77975U, 0x745146821361f765U, 0x594d91a92e3f4a1eU,
  0xdd7eede120c74436U, 0xeaa3a1acf8f0283eU, 0xf3037bb7a34c7859U, 0x71b116875e73242eU,
  0x1577814c2a4cca34U, 0xd1f29c4c2054b5bcU, 0x444a5c09f51a6b70U, 0xae818c8804a749f3U,
  0xdd84688e4efbfc6fU, 0x497ed63b586ff632U, 0x57cf37c0453a2c87U, 0x123edf01cb19408eU,
  0x582c913e8dde0a6dU, 0xc8ba3ddd7171ba08U, 0x99900ee6e8f7f7baU, 0x1f533c92f6a00b7cU,
  0xd68a8aa3196fc29fU, 0xae11b9df4d8dd83aU, 0xbfb9379a1eee0a7fU, 0xc900573c3cdeff0eU,
  0x42ae33c4560b3255U, 0x7cfe89bc1dc90047U, 0xc222e6e0453e1f92U, 0xeeb4078bfdc5cf09U,
  0x711589c3a4a9f349U, 0xc800b27913928d09U, 0xc22278b36410b185U, 0xd8de73c546a0e866U,
  0xeaec5fb718704bd9U, 0xf9fccd2cc14f29aaU, 0xf95fccd004d625b2U, 0x9eda0a13d2af6f91U,
  0x22483f7485ba41ddU, 0x192d2c5a2f3aebaeU, 0xd65029a0fafc464aU, 0xbf9eab14c64ab37U,
  0x77921f47ac6c45fdU, 0xdf5e0aaab1ccdaebU, 0x1514cc01459924b1U, 0xf1abeb1f6bda2097U,
  0x346f220fc99b5e19U, 0x126b5c79c2979568U, 0xc6bd5c87eea353bbU, 0x4dd161db60d59d0eU,
  0xd263bbefde916ea4U, 0xbf7cbdb966e2049fU, 0xeb5cf5f18b0894aeU, 0x6cb5e5ec79ca6894U,
  0xcc36cf00cbb6048fU, 0xb577350cb341c557U, 0x427691db7993e335U, 0x91fba78bb37ec31eU,
  0x2d7d5dbff3aa297aU, 0xfbf07391a7a74f46U, 0x24b4348adba82f69U, 0x39ae7db2a6fdf0c4U,
  0x3f7395101c351a7bU, 0xb56b8b890ab92633U, 0x9e36982bc1e2bdc9U, 0x57b87683b82bfb99U,
  0x3ce4359c8e11237aU, 0xa75b03b220912f84U, 0x5d1911ed476b6cccU, 0xe3ccd85ae0c07f6cU,
  0x9fecdda3febf51b9U, 0x2701544ecb550cb9U, 0x8bac66a704becb1aU, 0x341fa4ceaaece756U,
  0x859dc431b2961cc1U, 0xdf6e6376f957294fU, 0x8f29cc64e916ce8fU, 0x4ce561adfd8951U,
  0xa1bfb78f4f858ef2U, 0x4b1d949dc3509a58U, 0xbe9b713adf082830U, 0x84f307493b3f1dbdU,
  0x3d0c7a7a8c26771fU, 0x2bccb8a4c310c7cfU, 0x6dd526bb1503ec5eU, 0x991f4e06209633bfU,
  0x1f1d39ca2765b3dU, 0xdfa723cfef9952e6U, 0x1e9ab68af1456ac1U, 0xb96bc0b056b232c1U,
  0xb76a6a2271e8f710U, 0x1a362fa6fec66db8U, 0xea0e735733c0ce76U, 0xbd5768629de25c24U,
  0x668a58c8dd71c075U, 0x48e5b42d31b55218U, 0xa6b69acb379c02a2U, 0xaefdf732a97bb9a1U,
  0x9f63c3a4f923b696U, 0x5727efb38acbfc7fU, 0xdcf09c0d9dca41e7U, 0x8d769178b6941ee2U,
  0x932234810ff6ca95U, 0x3a00c6ab514f4234U, 0x867d283065a4b995U, 0x8592781c070ca66eU,
  0xbaa56a26c58a1216U, 0x86e8f74096e5436fU, 0xe6f59f51535b4141U, 0x41fa54bd60261418U,
  0x685c0264dcdba134U, 0x5fcc00bee730bd5U, 0x273416922c316dfU, 0x2c208f44bf252e47U,
  0x14c9bf16bbbc953dU, 0xb1d3ee2fddfe1edaU, 0x9551321433ea1d64U, 0x79cf2545ef9d4b9dU,
  0xf7a1a65426046ae1U, 0x6437ec0dd426f719U, 0x8b2879a797f51d3eU, 0xca746949f56be80cU,
  0x28496dd61aacad3dU, 0xcd524c175d896d45U, 0xd45685b05b50152eU, 0xb93f54d312f1ea7fU,
  0x202de22f9544045aU, 0x1e9489f83cec931U, 0xc4396cd955e64c0fU, 0xa9607693865a5349U,
  0xbe1aa8b7211bd4b5U, 0x479bb0d2e32357e1U, 0xce3907863d25f747U, 0x28347b4fa4f0c15aU,
  0x2eab71be193cf354U, 0x2f21689f6a4545abU, 0xc80f7847cecb9601U, 0x88c34aa51ae5c527U,
  0x81c9f532efac0183U, 0x8207620cf6d3ff05U, 0x5771e8488a688f17U, 0xc70ffd9689d642a9U,
  0x997d9cc741614dc8U, 0xa16ddb8493d03795U, 0xd6e3c833b65d0ef3U, 0x893e1d11fc72a4f9U,
  0x45420bb3c624e2b9U, 0x2d3c88d33582d643U, 0x886f11d474ec0c6U, 0x14e218c56926a89aU,
  0x44a82ba5caf8bb6aU, 0x62a4ccbeec36c588U, 0x5633620900512756U, 0xa8188940b8045c82U,
  0xe05ec6300819b7ecU, 0x8db8bfaf2301e69eU, 0x446bec075ec73665U, 0x3d534a225aad6a0eU,
  0x503823b15c7cecdbU, 0xd139a21f5411877aU, 0x6932c005e9f7e16dU, 0xe26f3495b93b6bbeU,
  0xa1686ba05b3b574eU, 0xde9ac44ff755a5c3U, 0xa257d278ca5fd1e9U, 0x69607f6358dc64afU,
  0x8c139fb746ac999cU, 0x81b6d3853c476886U, 0xb47b46c03c8f9bd9U, 0x1268d835a845ed8bU,
  0x7a17744f10affa6dU, 0x658f4ebb26ad3843U, 0x5032afbb168d0814U, 0x515c4797493ca20eU,
  0xd4509d5bc90a1568U, 0x74023fa1ed54dd58U, 0x16e49b3f71533120U, 0x20832198ffadb517U,
  0xa7b5eb44b22d6c93U, 0xe92618672138b2bbU, 0x64d781f5aed9f7f8U, 0x68abb52b8d2fda27U,
  0xb88a5ce4381b7b82U, 0x9fe8918ab65b229U, 0x45e5da25c492c5d7U, 0xef496e7483c25093U,
  0xf1de565ed4182b10U, 0x8744ad6ba2872e0bU, 0xec72b66c65d166c4U, 0x67546ec5e071ba49U,
  0xa6429a0b66d3f1d6U, 0xcbeaa25cf6a46d0aU, 0x5675863965174f43U, 0x7afa2b3e890409aeU,
  0xcfbf76e3078257b8U, 0xb9243aee7b7ba806U, 0xf3b68fc4b7183470U, 0x5a9c0b767bfef11fU,
  0x8ab0165024ba5a62U, 0x6d06f3da7aa3be1bU, 0x759320cc30701c02U, 0x181eba6961f0d48eU,
  0xddbebe7e408aa365U, 0x19c6184a90e3a264U, 0x263779afe3bc26cfU, 0xc8a246fb6d3778d2U,
  0xc4da2ae8dcfa61a2U, 0x19ed8dc89cf1b71aU, 0x7a6728dce928f3cU, 0x989a5e329ed00a8fU,
  0xf639e6322c4e77dcU, 0xddb143c0d4f801adU, 0x4fde3663d35e6ba8U, 0x12020c73df94d69eU,
  0xb82c43d26fed0321U, 0xe02a274aa6b958f9U, 0xb0dba9b9dc6421c0U, 0xfff08704b2e6ea02U,
  0xa5be18e9151667f5U, 0xa7c86ca6fea62d40U, 0x4d38dac42977723cU, 0xb4c39d29020c1127U,
  0xd3930ff6b9436b37U, 0x3e65d7974aa800baU, 0xbbff4f6bb14f443U, 0x69a3798f9ea9323U,
  0xd8c41ce46b409711U, 0xaa481cced2134f1eU, 0x5e312e8dfdef9945U, 0x9a259094bcbf6988U,
  0x37185ed05fcd7aecU, 0xec53d2551c2538b1U, 0xc18611a60e7ee84fU, 0x310932a4949e98faU,
  0x532461e255473ed8U, 0xaa369c681559bb50U, 0x40a9af892a4bfcefU, 0x18bf2424d22c67c3U,
  0x49e8828e2283a24cU, 0x38ba3bf7421e8755U, 0x4cce2bc1360b3c66U, 0x1fcc376ec13a4b31U,
  0xcfed1bb50daf6fdfU, 0xa3752d180ded7473U, 0x2719634a75f28a9U, 0x709602c0ffecfb07U,
  0xc25d168d6e114b15U, 0x462939f9a9c5378U, 0x47eafb42ff9f2218U, 0x94b86643200be5e7U,
  0x6e697d0d4d98a97aU, 0x189590796b32f8f3U, 0xb4f3da77aa19aeb7U, 0x1fa0b0ff572c8bebU,
  0x1e675e7c687b5ca1U, 0xfca1dc26e4c060d5U, 0xf43456f6b52bac4eU, 0x3dbba4896b272f25U,
  0x43e3304df44c7838U, 0x53a91c4bfc454447U, 0x799ba97dd0a209baU, 0x78354356f7a3a60aU,
  0x7dc7f3b061afa0feU, 0x8b7b03d76c1a76c7U, 0xff029f7d6a8d7744U, 0x278ea05f9e26e0d5U,
  0xf932ef75eb10a631U, 0x36836d8f5f93df92U, 0xf0264b7c7bc6c6ceU, 0x46b668442fac1b2eU,
  0x5169260345819223U, 0x791c9ae9cfcda0a7U, 0x69266bbb2d8d1538U, 0xd773fffcecdba948U,
  0xfb04b940df3400b7U, 0xaf0c9390db95605bU, 0x5f39d7bba4e8288cU, 0x5457465732b5a5c0U,
  0xcd50dc74e28fe894U, 0x9a1739aa9000f68bU, 0x91f91f23d01703bdU, 0xfc5972c2b8536810U,
  0x156e1bc1de348f57U, 0xc61053b44050d7eaU, 0x8e29c35fdc49e06fU, 0xe2dc47f4957a6755U,
  0xdf2ce869865f1ccaU, 0x149ecc4fdb54c1b9U, 0x6761217b76c167e8U, 0xa1632d0d4373da0eU,
  0x59239c59b47aee67U, 0x3ed17a23ab3d0edU, 0x1994dd235afef24fU, 0x1549fe3466b3ddfU,
  0xc4d42fb132bac035U, 0x82aa6f9f36bc2a5aU, 0x79d8e0ca07457920U, 0xde0f924b8f954745U,
  0xa911c1452a5640aeU, 0x8f595c41ee1723d6U, 0xb7fe76c468bb025fU, 0x8aee1483aae9428bU,
  0x94560982d61fd16eU, 0x5e4eb8b7d7beab3eU, 0x5b1f6945513b0160U, 0x50f07b6b37ce22acU,
  0x933aec7023de450fU, 0xcaf0c80f59b3afaeU, 0x4bf74b7f04e3afefU, 0x4f064c523da4a56cU,
  0x785f83c35ec5d875U, 0x7adb661934d86538U, 0x46812f85c28caa84U, 0xdaaac1a533eebc45U,
  0x4e83be5d22461cafU, 0x5ed0b989482183afU, 0x9a081b3e9f52673eU, 0xf7ec748c54aaadfeU,
  0xbcb8ca9f83861a70U, 0x2fe905e0e00d2e6fU, 0xa41f471325a6ae86U, 0xfb8c8c54624a71daU,
  0x93211012fb32d0aU, 0x98728242bbe92107U, 0xc672d80f21d91c50U, 0xf5722442a5cbea0U,
  0x15704602428c2dfbU, 0xdef0a64c9c37edd6U, 0x88582c4701a3badaU, 0x380f775abd400082U,
  0xe314fecf994f3012U, 0x435474e94f982e35U, 0xaeeb3140cd193c7fU, 0x7f6053cdc670107dU,
  0xdc67c072d051e56eU, 0xc75ac1d6a779ec53U, 0xa62bc4a331c6ae7U, 0xece739427625529cU,
  0x27ba88212353d9b0U, 0x3de0257fd5329179U, 0x90665df59eb6cd7eU, 0x8fe97aff359963d4U,
  0x278758e1e7604709U, 0xb7ccc7e3afcc2993U, 0xa04dc45b8a308feU, 0xd9be0976abcf7588U,
  0x1687455dddfe89b4U, 0x79e51e5410a99b99U, 0xaf9db047f831685cU, 0x47ef439c90d45843U,
  0x296e37284e22374dU, 0x79ba4499ba7a325fU, 0x1e6931da6a77373eU, 0x9274a6decd9159f4U,
  0xcfa957f4b6357bb4U, 0xa05e7af9211b892eU, 0xd4700807d29c5306U, 0xea4873c6cb942848U,
  0x9a8ba3ed9e1f6f4U, 0x6237ca518b31e5f3U, 0x51a8309236fe466dU, 0x33161718cffd50d0U,
  0xc02c512fc49dea73U, 0x53ae295acb665634U, 0x2f730a89e4698828U, 0x300919a3ff3b01eaU,
  0xb74966b5e6667b16U, 0xb3e33291dd47d68eU, 0xefb6df2d4d009aU, 0x3c1d7e38a71600bfU,
  0x671f93d126d594aeU, 0xd4a4cf48d79b833fU, 0xad8a8ae71ea0d88U, 0xb7edf821591ddc97U,
  0x8394eb4e3c50af0eU, 0x7d835db9f30a7228U, 0x5af8371b1e822447U, 0x2b41e8e0f44d3de4U,
  0x52a0286138a293f4U, 0xf53bd57563e56ddeU, 0xb92b4760a268847fU, 0x5012c33bbb83ec11U,
  0xb95e203c7d46be0bU, 0x6549322a96e79fc9U, 0xb406987c686aca77U, 0x427f0bab1f07bab4U,
  0x2d016c5973a4d8b8U, 0x6ffa9a2b874da518U, 0x15f99379225d175eU, 0xcc233db6bb86691bU,
  0x11d7513dcb265c4eU, 0x26c6462143c67612U, 0x6ff4029b03f149a6U, 0x35146a61dbafecc6U,
  0xbd6af0ea6913daecU, 0x7c5ff62d2bfa3048U, 0xe4b193ec95a7ad60U, 0xaeb48ead1b644882U,
  0xdf79e3324e1a6d27U, 0x8598b01604004a62U, 0xbd9a5874a1ece4ceU, 0x6f1cd28e652e8c12U,
  0x9ebd913a06d46e26U, 0x4513486ecd6d9679U, 0x2ff617bf6acbae3fU, 0xd8ceab8327b6ff64U,
  0x31f8ab4854fe2b4bU, 0x91e851d2403ac984U, 0xdd57563c4f63395cU, 0xc654e810ae7fc8b8U,
  0x7a883d314a50b4d3U, 0x23f05f39d2470945U, 0xcda1a0e8bbb39448U, 0xc5ced3fb32d7945fU,
  0xc6f398b946b8922cU, 0xbc2c0e5bc09a14b8U, 0x8ee8daa281cdb9c2U, 0x56272875319472d8U,
  0x665c8a1df2911e4cU, 0xffae03ba965a9183U, 0xad22f09e3d06e4faU, 0xc4d8d457b3963250U,
  0x616b17e73c2ef6efU, 0x13ba6bb71d56e1a7U, 0x6c8cb02892de931fU, 0x5ce739fcd0e67e69U,
  0xc767c73124c5b2d2U, 0x921f3f3ad657a551U, 0xc409298ab8ab3a94U, 0xe0d6c892453af2c9U,
  0x3365150305f34502U, 0x644c3581c60a9350U, 0x6dc6ea71f06d10efU, 0xe33bb8f7e2639270U,
  0xadecd157c112cf95U, 0xff3205877d9ea685U, 0xe4c371ff44d4604cU, 0xe3194099d087f1ccU,
  0xb17035ca8e8b03b0U, 0x1de907de9d9a04a3U, 0x500f164ebfc37915U, 0xcdf09ff8544ef38fU,
  0xac7924382a3b22c5U, 0x1e4798fab562a98dU, 0x58d796f51209a1f5U, 0xc45e53e053a0f3bfU,
  0x8e041d73d24ab78dU, 0xe9a252f10340b02fU, 0x10089dba6f48275aU, 0x3bdc4fcec12fa65cU,
  0x2f54a5321fba6eedU, 0x7b816946ab1a56e7U, 0xa7888cb27ae541e4U, 0x21fd568a9917ea8U,
  0x1bbb3e43b2a329baU, 0xeb839311d0fe255fU, 0xeb64e571141f5df7U, 0x7ce59aad740b2424U,
  0x2c739c96b076be9eU, 0xba3f83977bc00ce0U, 0x3d8c53ac40a5eedaU, 0x68ccd32aa6c0fa23U,
  0xd784ef519b3a9fcU, 0x6254062056b4444eU, 0x3ad3f44fb98a7611U, 0x5a77f0d915106f96U,
  0xf7c357b7ff671962U, 0xd00ca4acb33c20b4U, 0xc7f2ce21cae1751aU, 0x553265540e41cc78U,
  0xa4b014aec4c7368bU, 0x276a51497e8a4044U, 0xcbddae8dea20fe0cU, 0xaa7a05f458f97399U,
  0xe6ae4a654172f69cU, 0x916548e8de07e964U, 0x5e9e084c74d0003U, 0xa17b9ee42247383cU,
  0x6945e91eb5991c8fU, 0x1bf870639b69fb3cU, 0xd6a1992734e229baU, 0xa2a1ed30c46479d1U,
  0xf46643764cc3e21bU, 0x122d0d2a526a2a03U, 0x13c7e04dfb672a15U, 0x1f79de18425b2d94U,
  0xe2952c124a45b5caU, 0xd655d63c103de757U, 0xe4ebd4008bc0565U, 0x859c21fd67f77643U,
  0x9cde18963c9c131aU, 0xa6098a08790100f3U, 0x17471ffbf63ed3faU, 0x1910196bf3572b53U,
  0xa1ec368d9600132eU, 0xae95e3fa009920deU, 0x33409490e6d3c199U, 0xe540fcc8b0575bbdU,
  0xa398a7d6ffb14622U, 0xd572153622bc946U, 0xc8d2f617c6b1d110U, 0xa33ab4c7d6e17faU,
  0x1cbd92ed56a724b7U, 0x5a0ad8c33cebdfe5U, 0xb6b28d39c22c5affU, 0x6b0fd06127c1fc2eU,
  0x6e14795727595cfbU, 0xd56e6d003752fd1aU, 0xacee78cca2ffed2dU, 0xcc8288b7906b2ad5U,
  0x3cd35b873751e0aU, 0x49445af65ba64784U, 0x64b224c653c1490fU, 0xcc5281db303d5e01U,
  0xff47602b466d5979U, 0x70119778d24a33bdU, 0x616d6b31bb2a1d74U, 0x594764a7c6101c6dU,
  0xca1a200caffeaaeaU, 0xb06167694597111bU, 0x4a88566ebfc63b1fU, 0xd667d6a2faaa33daU,
  0xb5af79d214901a92U, 0x5b2d05b5dc4efe50U, 0x301b36ed631ca184U, 0x7db2742cb281136eU,
  0xda5b0f1748da0fdcU, 0x2fd3ea93cc759ee3U, 0x8d855ad4a3e89ab1U, 0xc33002a3ad9972b7U,
  0x6b7244d643f3f9dbU, 0xb8023a862881879dU, 0x2eb461a2aacd1385U, 0x4fbf9d51e06ac89bU,
  0x43e214a0b0b0f32fU, 0xca56efd5120f66d7U, 0x642d698e54da7c3eU, 0x96f3a4a0be2c8572U,
  0xe6d8ff42293e7091U, 0xa93f2237eac8d3a8U, 0xc0d233108427a1d8U, 0x59a8518754cdad39U,
  0xaf38282b3d3ae801U, 0x3a56e4bce7566f18U, 0xd0130897299cffeaU, 0xd773b755c247f399U,
  0x20211deb0404b301U, 0xc7d54047cb18a7ecU, 0x52832b5e00d30db0U, 0x5f43a4631644f3d9U,
  0x6c44dca85a7aad20U, 0xd213898ff81db824U, 0x4ced4fda1c29b472U, 0x3781be1f917a3665U,
  0xcfd032115c59e6c7U, 0x8e8c978c0b5d8557U, 0x157a186bae78f4c9U, 0x60b4dba1716e1b94U,
  0x9fa3fa2ec3c3efd2U, 0x3032c52fdda1ded6U, 0x75a51695538be279U, 0x448db2e4bf003e51U,
  0xd517231e605e41b7U, 0xda55baeaa99a52eeU, 0x6fc13821e76d929aU, 0xdea6fc551a6db661U,
  0xbe0066115d4ac947U, 0x47a4a8316aeb7f99U, 0x81182f3f685682caU, 0x93fa90da6c5d8227U,
  0xa597c98bec240e56U, 0xa21496ad1b13ed18U, 0xf79c097b36e779dU, 0x4742c5f881d12ebfU,
  0x77164decfa82f019U, 0x1e62173261581410U, 0x326390581caa4139U, 0xfbbaa7f3d1125871U,
  0x43e2b8aef2ecef88U, 0x620af3fb6709b5dfU, 0x83400ae9d74d8251U, 0x78e7712e626ec2e8U,
  0x608f744a4a6fa671U, 0xe1613fc3d509ea04U, 0xf492d45d7bfe2fceU, 0xb4a6bad442dc97f8U,
  0x18e609f523501424U, 0x7228bb23d689ca57U, 0xa0fbd2e30bb4b343U, 0x1b3f5012c30d4776U,
  0xb9bd8c78a31be4e5U, 0x6bf2bf2a9aab24b9U, 0x8346c7b52bce4644U, 0x1a6b08cfa1a53090U,
  0x78a828d9b9c1f806U, 0x8374163e4ebd62ebU, 0x1b44076dbe2b1e04U, 0x6b187789cca95398U,
  0x668a83efa8637a85U, 0x37ad43ef693fe353U, 0xf04e1c4400533d28U, 0x6452a2e1e7928b1fU,
  0x1c8a52e59a9b4a2aU, 0xcafa73ad2986d3d0U, 0xb958c49772fdf0b1U, 0xcab3cba20f84c1dbU,
  0x90d80ef1faec088fU, 0xdcda1b05f1127030U, 0xbb61a8577e8e6120U, 0x5b0d43c9ea544926U,
  0xb33cb348d81f4cc2U, 0x3d8d3889d4571267U, 0xd81c553098bf94e2U, 0xccf9bca5c6e37f4aU,
  0xde817959e9e3d3e3U, 0xc8b65016a7f571edU, 0x35792644f618535aU, 0xe1c38eda24256edcU,
  0x5bbe31450bba2692U, 0x419b1e3f72a10f1U, 0x26448a06a3adbb62U, 0x973c0a591cc76fb4U,
  0x1e0f88c95e504f32U, 0xf556301dc9891753U, 0x612f9a76c9068aadU, 0x82c254fb21a44615U,
  0x3e56693175d82258U, 0xd74bf5c9c8ae042cU, 0x684bd995a9d74341U, 0xdeafc34387b79493U,
  0xd218f5f45e2308d9U, 0x5533f69c1cd4ed99U, 0x736cc69db0a48276U, 0x26c6eb48423ad5d0U,
  0xe93b28187ad54235U, 0x1c46deb11d152033U, 0x2e603a75fce7668aU, 0x9269038a1df839e3U,
  0x41212a8632441ee2U, 0x6f795538a3bafd9eU, 0xa497c45ad7e16c6aU, 0xa27c68a0409183baU,
  0x6babd7d53a04de49U, 0x2deda8450a883cffU, 0x2857d65498b2c0caU, 0xea5ce253b330c5a7U,
  0xce2710308a923b97U, 0x73ec477e489c2d66U, 0xf2785e7f03362e4bU, 0x5c37847ce2d2c30fU,
  0x57d09670ab5c4935U, 0xba448a9dab3dfaadU, 0x6536afebe895d3b8U, 0xb11298e840360e5eU,
  0x297356eec5d92985U, 0x425edb4f1c89e6b2U, 0x7867b523b1fab08cU, 0x5708e9e94ecd0625U,
  0xfb42060ff0829791U, 0xac16633d9359b2c6U, 0x82dc0ae032552942U, 0xb3b2c6075039b04cU,
  0x27ab26ab2e08b692U, 0xcbe96f57450bd79fU, 0xf4281384abca4085U, 0x7426206a0ef275dU,
  0x8957d693e6b0d815U, 0xe07bc20da931b772U, 0xbe466a3fe03ee748U, 0x92f9e6b707a9a844U,
  0x5ce42620854f9d07U, 0x2b77f984c96c90ffU, 0x35a3cce5aefebfceU, 0xeb0bca7aec1b2dd0U,
  0xb18bdf6d2cd565f3U, 0xf68494d9f3557ca4U, 0xb61a3b2a6de4d260U, 0xf046bf6a88749148U,
  0xc3cf9238dacfea2cU, 0x142c732e3f1db2e7U, 0x407c93afa585c04dU, 0x944859e6da82268U,
  0x9f9dccdbc54ee0dcU, 0xfd5276e7d434d493U, 0xdfd9f625bd21b878U, 0xb8e8c4ebbd06b35fU,
  0xdbb5e8046d7ba17eU, 0xa25ed43f4dd9245dU, 0xe2ea1c6807aa6938U, 0xd0bd4fd4ea46e54U,
  0x254ad7ea9bb4cd57U, 0x15dc7364ba38ab6aU, 0x269b5dbdc162e48dU, 0x6a59c17ef7ea9a07U,
  0x5c990577123a8ae8U, 0xc262b1f08eb51a8U, 0xc6c06030a4c613cbU, 0x374a9f95dfde973fU,
  0xfd37701f5ce66a76U, 0x10c1c96a886cc2b2U, 0xaf49e8f6df8994aeU, 0x667f3f4222ba7788U,
  0xb1ba3392eb427776U, 0x5f34f81f6ccd824aU, 0xe79b895523a8d5dU, 0x67192ec6d3e044b0U,
  0x20c9abc732c5386aU, 0xa96ceda1b69b6aa0U, 0x4be8816127cf3833U, 0x3392c34ea42fb6b0U,
  0x231d7af7fc0e94e6U, 0x4be38eef97f33c5bU, 0x687bdac044d6d669U, 0x14a1c0c791b5986eU,
  0x7bc2d2a546e295a1U, 0x118578f7958ad678U, 0x26067a4ff0c43f73U, 0xc8550afe8f73b7dfU,
  0xe7dd79663c46e2a6U, 0x9e055ffdfc073bcfU, 0x9a6565d134f27210U, 0xfcb2c906d14ec990U,
  0x42f7a3b4c1ebe007U, 0x2156f575de67d6a7U, 0x9a8a671c6aef914fU, 0xb685b31a1ec4c5eaU,
  0xe5c9344548fe0ea5U, 0xf1df4bbf06d4fb24U, 0xf10b46c0c2078874U, 0x360c27c99dbd4741U,
  0xae11ef49ae766158U, 0x73440cc732470b65U, 0x43952b0d0b5d7a62U, 0xf736e38690c13338U,
  0x873aa3ffeb0a1c41U, 0x6ca95997df31b821U, 0x8897e6c8ff4f3da9U, 0x860b0d640f133c76U,
  0xff305cf0da42ee58U, 0xe2be7673bf4cd76eU, 0x9cc0c688b55d7040U, 0x62698568fd6dae93U,
  0x54aadfa1ea487332U, 0x6fd883a3cfae389cU, 0x55ac8297f04bc723U, 0x33cb213bdac05081U,
  0xb7c786df3c243e0eU, 0xc78935a7414c0476U, 0xccbb53b2009da2c3U, 0x8ceb10830ead9c4bU,
  0x339c633b0764789U, 0xe1e888844371fcc7U, 0xe27c83ee8f4371a3U, 0xf6867b517407b2edU,
  0x6930a65e3a7505e9U, 0xaa0991b30fb10148U, 0x51fad6d7e64f0cc3U, 0xcfcce47afac16ffU,
  0x3f25e7a334cbdb10U, 0x77fd681158f6f6deU, 0x13c4edc3c91e61d6U, 0xf711af7254bb2fc0U,
  0xd2365b86ffb84134U, 0x98b65ec2d36ef8a0U, 0x25f47fb9f5099aa5U, 0x66e782704747fde3U,
  0xf33e4e25bf2bee6eU, 0xe04699a546661a5U, 0x975900d1546585ceU, 0x620855e39d7a7e9U,
  0x8681956bdfc9ea08U, 0x49b0f9537b198e6eU, 0x5fae1cb1640204a6U, 0xb3caca5d131e2a1eU,
  0x8558961bb77b5cdcU, 0x1ae35f656d0cbd8fU, 0xc74e635de152c1f6U, 0x72e39445a192bf59U,
  0x69c5f20941134b55U, 0x485f34e859593287U, 0x955613468a366ac8U, 0x94d50c78fb1e1e9bU,
  0x413d2c00e4dbf08bU, 0x3375a7dbfd10b311U, 0x57b592e2231734e9U, 0x22af2b0889d4befU,
  0xdecd253ecf58fb34U, 0xc20fd47f08587ff3U, 0x7a11b16b4eed76c9U, 0x45b8e5ac1191d17bU,
  0x158b8dda0c0a4ae8U, 0x8342e4d014d210c7U, 0xb7fda0a8b7672758U, 0x1158cd292d148ed4U,
  0xb6a59ed1e2c95578U, 0x41c3fed71d2d6087U, 0x54766e1107139852U, 0x54fcd471ac4c229cU,
  0xa9cad0c9489a3352U, 0x1168b6992e3d011fU, 0xe02beab130aec503U, 0x89e84fe0bb5a310bU,
  0xb31116fd6e5bbfcdU, 0xed4c7a34ee1d4671U, 0x89a366fce35a70feU, 0x540f3c8ad1301486U,
  0x5c4aa9a8063425e7U, 0xc56bd84f765c8d1aU, 0xe5865597ac665420U, 0x23bbcb64be4e4d28U,
  0x6d67ab8e3445d555U, 0xcf52c166d95fcd96U, 0x1618044c6110bb50U, 0x82f79c77c040cdc8U,
  0x18a713fa51f84b96U, 0x51a17430696eb27aU, 0x47f406ca18a4c618U, 0x98d58c5eac2c975bU,
  0x5e7ffa7001368b6fU, 0x687f1ffa6d7a4226U, 0x77e44d2566ba91a7U, 0xb9168a457e05a888U,
  0x2fd29831750ee6abU, 0x3da49f8775eab7ebU, 0xd1dddbf2c8d515b6U, 0xfe2e4b53178f522eU,
  0x566c73c90eea35efU, 0xe67eda8559555465U, 0x9305ca03ddd0e7a3U, 0xfb24248fa28d8f75U,
  0xceaf0beff21f5ff3U, 0x5c59f459ee0d50b0U, 0xb3edc3ab26fcacbcU, 0xd57eb1be044a9001U,
  0xe337af886ddfd293U, 0x6caf6a33e1183281U, 0xbe955d31973e256bU, 0xc42dc05e03314e88U,
  0xebc545659a58545aU, 0x8885e8a3431596beU, 0xff8f35b0e1e22efcU, 0xd556310fd81d4fbeU,
  0x9562397738c3cc13U, 0x2e191c47c620086U, 0xc835c8d7e22def2dU, 0xeb733990ce1826c2U,
  0xe7a30cb647f6b9fdU, 0xa201e63ab6c311cbU, 0xf1825abc2746fed2U, 0xc83b4b5fb46885caU,
  0xba84e23f65a7282fU, 0x5f208566ce49c107U, 0x8a4255814346225U, 0xc14e15aa1145068aU,
  0xd22423b126ff0ddeU, 0x8164b65cd3e894efU, 0xe95a60a8c88bbd9fU, 0x3ad63ca81385fc05U,
  0xf03302a941ba9021U, 0x2fb41adf67ebd336U, 0xee8dd11d4861bdbbU, 0xf38cccb2bf339fa7U,
  0x815a44878377fec1U, 0x47dfc3429395a69eU, 0x77e3aec917ad628bU, 0xc70894a4766463b6U,
  0xd66272c1641332ecU, 0x63034c16151dd0b2U, 0x70772e514f61e0e4U, 0xad285a55c4a68e35U,
  0xba27a4ae6dce62acU, 0xc2e0adfc0fde98f5U, 0xe904837a8caa42b5U, 0x3a88ab5eed6f2350U,
  0xaaa61b815d31e943U, 0x7975340ea5bd3f5dU, 0x6be2eef76ee25354U, 0x5135e1ddbb0cc04dU,
  0x3ac51dd428b07137U, 0xbdd2d03bc7fb0afbU, 0x897b6e43683c5ad0U, 0x1e0de5a651c4b827U,
  0xca924be09d6e1333U, 0x633225d9e143b9bfU, 0xc708664dfe362a4fU, 0xa67ac20d4b09833fU,
  0xd011491f7152fe36U, 0xb12be31d482304bU, 0x3abe1fd7a008105dU, 0x5f22ad3f032ada83U,
  0x7d1b396cb89aeaf5U, 0x1b7b844d549e22baU, 0xa7f399e0b61271ffU, 0xac22f2e15f48b21aU,
  0x3965d62f27d5ce36U, 0xa2d31ad7a32fc0c0U, 0x2de8054504f21206U, 0x5b408c195c61dc32U,
  0x9107292afcf71e49U, 0x9addbfd41622df61U, 0x71c8e16ab157c620U, 0xac96b277162a3873U,
  0x94b4850a42a7869eU, 0x23a75e214fd0c922U, 0x57b2e06db6c4f131U, 0xc7db02d6db95877eU,
  0x5e960345e9b5b28dU, 0xb7419d9147f49d5cU, 0xb29cdbcddbeaaf3cU, 0xb928d29d9f43ea5bU,
  0xfc1588a4e7aaa876U, 0xe54c4ef0e35bdf30U, 0x4d7648e7b611bf92U, 0x6fee9f4b90b97651U,
  0x7c58e93daa70cfc7U, 0x8b2ab5456e928c76U, 0x86b02f703a83fc26U, 0xbca716ed26437e5fU,
  0xb1184f0de23a6378U, 0x93a482891a795978U, 0x598503c0c2e79681U, 0x364e09f94554cefU,
  0xa835f48b77b18969U, 0x5fbe789b8200a316U, 0x6db099054403afddU, 0xee2a78c8ad67c0bfU,
  0x47656da617fcb3e9U, 0xf73e942c0fc28973U, 0xa428c8bb0dd3304fU, 0x4d3d2d5547f0353aU,
  0xb36ce3c3f14b0a7aU, 0xe28ce8623377b6c4U, 0x9bd20e9c52f4444cU, 0xd52d5d0df2b6d55cU,
  0x679fd45d681267b0U, 0x87486ad54ebf31ddU, 0x73dd8f6e752543a7U, 0xd0968d3091fb476fU,
  0x28508ed190cbaf38U, 0x2e95774111166ba7U, 0x4b6223344d3c2b14U, 0x76dc33f68a74b465U,
  0x7ea41da7b570449dU, 0x8498582c64a34709U, 0x57d9d728a7b7046U, 0xce3a3d1a525093a4U,
  0x491738beba94c3e5U, 0xaff71ebb44f584bdU, 0x26d711274caa2334U, 0xe72312c99503d598U,
  0x7d5f9ec1be669f76U, 0x867e3a79640b9a5dU, 0x451306fb6a9ed3c1U, 0xfecd70249614e4eU,
  0x93bb6791e8be588bU, 0x62259d37e6a3acf5U, 0x40bd95bc1783f782U, 0xb9be5945582b409aU,
  0x136cd890f66114b9U, 0x2e43723898c82b25U, 0x7447952028645165U, 0x293356c2d8ae004cU,
  0x6a62d97581c74c4U, 0x7734be771272db9dU, 0xfd0f22dc10e4241dU, 0x882c3b6a00e15beaU,
  0x85eb7bfef85f57e1U, 0x62c95aff64cdceafU, 0x64432e12b1304f5U, 0x4328c5712e5f77e4U,
  0x93ee95dcad7baea3U, 0xe43c9657b12f270aU, 0x500a10d26af96ccbU, 0x56cdbdcfdc7d6392U,
  0xd958e11ab1ea8a63U, 0x781d2c502fe888bdU, 0xe848d44a877e69adU, 0xd0ac7ba9c15dc689U,
  0xe924d63b5ca541d6U, 0xafeb131c7e90fddU, 0x39fee5a6ced6c04cU, 0x7794e7138ca97faU,
  0x31a355855e86ddcU, 0x6b00dfccacb9439dU, 0x5e348e143528246aU, 0x8a9b0312ad1eba9aU,
  0x900d56872397139U, 0x83384052255611c8U, 0x4b30cbceea005d4bU, 0x74f58dffeb085022U,
  0x55ff68431604e6a1U, 0xcda06a54a66677f8U, 0x2d7c07cd7fa56d28U, 0xdb40d029e5291984U,
  0x62a599d873ad9a19U, 0xd8e51ff0ef1e89f4U, 0x7c6c22cd6df6046bU, 0xc8400eab322f503bU,
  0xdb75a60011765938U, 0x178cb1f0b88f593U, 0xab2bc6339c755c9aU, 0x917f8967d002f119U,
  0x2e78b725e2f59084U, 0x34caf282d86f05d9U, 0xbe09c972d40b0d1fU, 0x32edaa8f9dd3a475U,
  0x2b22ad57f512dffaU, 0x1b9f0e5a00c6c1eU, 0x185fa10ee854cb40U, 0xacfb74525f18aa0U,
  0x293fa1c0ef9d97c8U, 0x39894102299160b4U, 0xe268d4f44f04da54U, 0x97d86e4d16061a4fU,
  0x56339a6f2ec40a29U, 0x347420ffdd210d0eU, 0xa86f4dd419e2cf9dU, 0xbcb57f536169bac7U,
  0x974bd8c050bf18c5U, 0x369aaa26683e1738U, 0xe98a42d5a0b40576U, 0xe1f8f6de12d11f37U,
  0xe105664e6ff60010U, 0xb1b5e4c22e4394ccU, 0x89859cb366d40bbdU, 0xd92e634067a43fccU,
  0xbabfb1bba646ff50U, 0x6cdc2eca905f482fU, 0x98fbcfac7cc0a9a8U, 0x3c3943af85d1d5a0U,
  0xfb6de728edaf5062U, 0xf8aa2ca7fdbb748eU, 0xd837ca81416e024dU, 0x74d1b420a476286fU,
  0x75e41094b81b8961U, 0x95d473b731d4dd69U, 0x5f66a85d4695d4ffU, 0x41d175ce5f86d2e5U,
  0xd70db34e1dcf88fU, 0x4a9bf161e9f9fc30U, 0xe5c8e6a433734b56U, 0x59985e4c2e974533U,
  0xc71667f135d7b2d1U, 0xab8dddbb8c7ca5dU, 0xe286dac85f27e5c7U, 0x8fe910aebc1aae4cU,
  0x9b4c7aa4f82f8193U, 0xb82bb5a8a6fcfe9dU, 0x6016b06e66edb371U, 0x74bbb29e3800df7cU,
  0xe72565149db72b3cU, 0xc00a7a3d165e4cabU, 0x636c9e3db4859b63U, 0xf09d66cb7791fa7fU,
  0xc6a7fb6200c8ed7aU, 0xddae2dd92a565727U, 0xe9268f63a7765936U, 0xf2d1afb60f1b6950U,
  0xc806a27e98f8599eU, 0xef9aeb32c52f7e19U, 0x25ecaa3945b05b56U, 0x2502dc79260aa614U,
  0x1fd61981b5511656U, 0x7f9ef9f37f2ff5f4U, 0xe1037cf05376f6acU, 0x307af796017b31dU,
  0xfb5683b4c9d4871eU, 0xf1f8a227d63e47b2U, 0x247c9d71d9d80b05U, 0x1c96503bcd0aea20U,
  0x5866ef9221ec1d6eU, 0x28f4959698689dbdU, 0x4d11c18242527cd1U, 0x68a3c3c7a455c0bbU,
  0xa61f517142c48edcU, 0x249bc006efd467bcU, 0x848f392492c7fde9U, 0x6254c6f6ef562c99U,
  0x1f5c7c674266cb60U, 0x3e04891a624715e4U, 0x40a1dd9a78f53de5U, 0x393a96cc761966edU,
  0x64ced3a98adcfc8bU, 0x9e67bb0be5ac9d8fU, 0x121e26fb4e6fd799U, 0x8b4277caf813250cU,
  0x24561c22be7b1813U, 0x71056458d40f1262U, 0xd29ffb9eec50af62U, 0x61cda64f6189d387U,
  0xc9000f5c909e823cU, 0xcd5e62ec60a519ecU, 0x14dfe0d89236aaeeU, 0xdf6db38a7ad4ca92U,
  0x97ac4465a0248bc0U, 0xbb2c6fadef759c12U, 0xee2178420a9d82ceU, 0xd60bd251ef08ac91U,
  0xd04bc063113aeab9U, 0xba1815e7ee9df98aU, 0x199fdf16448e3402U, 0xdd7cc8f807a4c65bU,
  0x8acd76725eb2bf13U, 0x30ec9b4c4bb3aa9cU, 0x8224c9142e95ca69U, 0xd8b9e60747071b88U,
  0xfca415c2cd7edb35U, 0x3c3267c9b04f5bb9U, 0x6a1d4f1662ae362U, 0x297362cfcee9edf7U,
  0xee3804cec4df917dU, 0x7a60b3e8f4ceeff2U, 0x915aa82cb083e347U, 0x1c3794cf902d9932U,
  0x587a05e356a94d71U, 0x5526daa6c5ce2faeU, 0xd2fcb4ef0118ecd7U, 0x9b091047ce7745bcU,
  0xc615c054373428a4U, 0xc787a71da016846bU, 0xc4f838f63e1dbc5eU, 0x753e12c0738f6b30U,
  0x6b0eba3fe2bb466dU, 0x816dbe9b11f114a3U, 0xfbf6959af6061b4cU, 0x6ed8396615e6b98eU,
  0xf41bffbf3aa4046cU, 0xef42c50c02dc49baU, 0xe2a9caf22eb7cc32U, 0xa4cc3c9a204c87cU,
  0x8f12529b028b1c56U, 0x5216c6be464381c3U, 0xf9995bc141ceead0U, 0x42fe27c8d54ae707U,
  0x13ea9bcc417b4764U, 0x792f64739219c2c1U, 0x31184a92c8637a4aU, 0x5153dd844eff7eb0U,
  0x9f8677a3842a539eU, 0x7c2a71c52734ded3U, 0xf642543f19e8c0bdU, 0x8550d7464b1fbf66U,
  0x39c7f4207528ce2bU, 0xe01c1b1977a43dd5U, 0xc004bace9c9441f8U, 0xf78eb6307ef00696U,
  0xa4582356da722334U, 0x4591701ce2d8d1c0U, 0x9c56a179e886b6eU, 0x1e4a19b185dbb0ddU,
  0xd73115fb3eefc2c2U, 0xdc7062c35b0698a4U, 0x2e724320a52296b3U, 0xaa8bb6d95fb451e4U,
  0xe2f532a6dfc6cfe5U, 0xb54af43136fddaa5U, 0xc5074ecb709952bcU, 0x115a60cc16c775c7U,
  0x1cc4468ea1d37509U, 0x4be988768366238aU, 0x649cc52f02abbba8U, 0xf42bb9afd3f9b72eU,
  0xef4f3178b23fa85bU, 0xd10c232c7ee00688U, 0xac0fecb3f0d6429fU, 0xe2501debafbfe34cU,
  0x4d60f2f0cade8d33U, 0x35ec5c841acd74d4U, 0xdba7b87a4a77a1f2U, 0x5e5364dceb2f3e29U,
  0xedd6e18a3df9cf20U, 0x3b1b0ccd644d2150U, 0xc74fbf53eabc70b3U, 0xa9a2aa8b617b58c8U,
  0x96663a5aad35b543U, 0x1743310c4f79f987U, 0xb84f38e2e20dc3f1U, 0xe6a1ddebdd960b06U,
  0x7618a8feb149c2a4U, 0x98ea1cf1a801483fU, 0x8b26aa4125a5fd24U, 0x4df1479742a491aaU,
  0x91d43de567b7aa27U, 0x639a06e4dfd714b2U, 0x6321f31d59d62056U, 0x43d48c17e7244b9U,
  0xdf7bb0e5ae98a57eU, 0xe7304738398451deU, 0xff35ce255f0431b9U, 0x5cffe0b9b1b27244U,
  0xfbf9c42c060b87d0U, 0xbc82f986e83fdffcU, 0x301f59d6c80646edU, 0x4388e91172eaa2b0U,
  0x9472c9fd329fc6cU, 0x66a048bbb6bc072U, 0xe52cf6dfad93fe7aU, 0x5ad592c99a87dfcU,
  0x74a212721369d06U, 0x7d371c3cda440f55U, 0x34028a5ae9521b41U, 0x21d370e6ffd06356U,
  0xbaabc1bd18bb2e5cU, 0x294adc6f629d25a9U, 0x4faae1a226fc5defU, 0xfeeae63c70fb0091U,
  0xa76f1c9a2681687fU, 0xd65a5b04309a9e66U, 0x1c26b479cb42c1fcU, 0x5d6f0e132dd81a90U,
  0x38aa3e20a52cbf34U, 0xd491e82b4b5ce592U, 0xcb9622b3f37cad24U, 0x5eb4e522d7f70a8U,
  0xbab5a141781f2bebU, 0x509a27d73ee1e5dU, 0x6933dc696e05add3U, 0xcce568712120c5b0U,
  0x89b1685ff51970c8U, 0x3f333f972303587U, 0xaf33c989e285d5a9U, 0x2601e003f1b0288eU,
  0x47e13e98104351e1U, 0xfcdf3c88611fb4cbU, 0x7ca421dd829f9dadU, 0x1a69c7070877b115U,
  0xfe2d1f4bc6a7facaU, 0x7bec5be82a8cb099U, 0x3a527b2f5b0c1dc6U, 0x5cc1268589178fdU,
  0xae2b61d8e9bdfddaU, 0x8c8928320d20d2c8U, 0xd7b667fc0f2ab3f3U, 0xd7b7276578156f89U,
  0x2a1f53c728087707U, 0xcf1bf8778bf9a989U, 0xc3c9cb431c287c45U, 0xfff6a6401b112dffU,
  0x553991c567c183c0U, 0x658e4cbbf783ff2aU, 0xd433b45820ded92bU, 0x3750bea7b8496f21U,
  0x8b34678800ca457eU, 0x27411695c9ca1f26U, 0x49f8fa000152af66U, 0xb4fa0d14eb589e69U,
  0xaebdce4eb2d2b739U, 0xbfa9e230f80304a3U, 0x879eaa475d727e71U, 0x2fa5306f18d0c10U,
  0xf1b5f49cd17995c8U, 0xce3009d036334ebeU, 0x9baab5fa29bb7c01U, 0x4af62bfd1850d37dU,
  0xd0ae6e9ac7513486U, 0x7cbc6097a5aa8dbcU, 0xdc144b4e89667013U, 0x332a1f794348c307U,
  0xb389f8dea47ce194U, 0x625acc29dc321a62U, 0xffa6261c7f6c7be5U, 0x426122d55d5a9b2aU,
  0xd34ae453a4f99627U, 0xcca5278ddbca3571U, 0x1fcddb69c2d230e9U, 0x6d369ce4439b357cU,
  0x5fedebed7cc7b8c8U, 0xa0911838070bdfc8U, 0xf8f2d204a0e762c4U, 0xb6a124515c0e7d21U,
  0xbf6ca402e95536f2U, 0xa7747414db12bcb6U, 0xea76000081c2b659U, 0xc20105e7c894b34bU,
  0x7d088a880bf7601fU, 0x4ed596164f24758bU, 0x4b6d6b103e2be322U, 0x5449481c09e1e2b7U,
  0xe35ae28f192baa7fU, 0x1d190affb75c03d8U, 0x85a0e69513fa62e7U, 0xe6dd5af9d2767c7fU,
  0xf6263b4a786409f5U, 0x53dac21714ac30aaU, 0x69d8ff1a9b3edbd1U, 0x4d9728cb5b2220aU,
  0x769d82eec4fa63d1U, 0xeeed6d499ffe9310U, 0x24ff262f033e612cU, 0x98e1c9b42397e34bU,
  0x36be47dcb039ddd0U, 0xe5ebe1d1c9aebe3U, 0xb2e6f6fa2cbaf18cU, 0x931d9fac96997036U,
  0x5d15408dda202fc7U, 0xb1a2ea5a4f7134fcU, 0x482659e5918ed82U, 0xe763aabb650c1cacU,
  0x3dade3eb49cab54aU, 0x2058f0538b916a56U, 0xd81f259debaffb93U, 0xc3d62a441ff979f7U,
  0x3f7c6d2f48f7cf8U, 0x1b33600768adf79U, 0x4fe8eb6ffc6d87a8U, 0x3c9820d7895aa011U,
  0xc694e3175d210ce6U, 0xf88761b5273b4b53U, 0x486d54dafa291097U, 0xea7e405288ea160aU,
  0xc02eb5ca2a64b02aU, 0x6911b2867f576ed2U, 0x5a5f56211739af18U, 0xb8f8a5a6f7d92462U,
  0x207a6f3d63efebc8U, 0xf6b1a16d2ccaa01dU, 0xc83bdfe4af647fadU, 0xf2b001f1498a1d5cU,
  0x33abeb39b4e8042fU, 0x5c128b95e7b41c51U, 0x96de7919fbf69ec7U, 0x562b9c152d4e5b0dU,
  0x65aa3e9769de6ab6U, 0xe2cc05b4bb4f2c5U, 0xabe50cb1d1f005dU, 0x5c760c19ceb25191U,
  0xd7550bd33acd200cU, 0x43b5447c2e6b8e4eU, 0x230704b7e4009126U, 0x2dad67d561b82638U,
  0x85022170e01d212dU, 0x42b824e306fc0194U, 0xcb401a4a7e493c70U, 0xf42d0a7acdebec49U,
  0xeb04fe215477deaaU, 0x7ba5497c3bd99b14U, 0x3027be79bba6d8efU, 0xf391f1e6bedc0b8dU,
  0x7a55abd1fba6c0e4U, 0xd1fc12afe3b1596fU, 0xa7ad1b3c4f157461U, 0x3533fbf3626e75f9U,
  0x90b4c21c233f85ceU, 0xa754e0c1b4df11e9U, 0x18f1fe3d53c7c78fU, 0x4d8fc449d15e46faU,
  0x4890310d70f623e4U, 0x76c97a70567a278U, 0x70d97f62389ae996U, 0x890afa81a1209f99U,
  0x5ae61d9cd4c0765dU, 0x7c9d4a711fd4282eU, 0x77953ca6e2cae597U, 0xa1d819fe258fc93fU,
  0x1fb75f4e74751d30U, 0xcb6e2ddc48147ccfU, 0x441bded6b6a4336fU, 0x3aac6bbe0833f930U,
  0xeb7dad0cbd0da9a7U, 0x5e624a91c1c02459U, 0xe77605814c12d915U, 0xc56db3568fb1e9ceU,
  0xaa4fb2cb54a45c9aU, 0x6deabfc02dcd7b2U, 0x1488b0a217ba395cU, 0x2af6d4b75d9d09a9U,
  0xca64714dd015f92fU, 0xe861130c4843f967U, 0xef83ff3f376ffd5eU, 0xe83c9c0265e0ea70U,
  0xd4aef3037e681232U, 0xb921e310c4841c41U, 0x3e1002f085c82334U, 0x5e77e53820bb244aU,
  0x177960b9cb2ed34bU, 0xd14b9cd0c4c2b901U, 0x7bd83755a1c9212eU, 0x87c27ca4b9e36f77U,
  0xe1f6e304cc754832U, 0x5f04b9a942cc2152U, 0xa06d665fb2b73f49U, 0xd7bf1c45857b07e9U,
  0x43eb075296bde1a4U, 0x35b7df8ef8e4fe9bU, 0xdbe602bda2e9760bU, 0x7c30f89cf7f8af37U,
  0x625a413fffc2bb48U, 0x298f87968c97757bU, 0x5bd5b1400c184a0bU, 0x65651eddb72ed9e4U,
  0xbc666a82f262fbcU, 0xa9d3ee194f482739U, 0xeb718dbddea5dfadU, 0x7f381de57c8c0499U,
  0xb02484b279782b5aU, 0x7aa1b9b898670fdeU, 0x10adf0fc636c2a67U, 0xeb22c058afb8f13bU,
  0x2af90b9e02d5da15U, 0xf43af6ceb913517eU, 0x4e6ef6e09febe206U, 0x11fc7b6567727bbeU,
  0x9353ecfe314928e8U, 0x259d95e7dea94e07U, 0x6d4335c7aa464935U, 0x97b6ca9a5b581bbfU,
  0xe40f937b15af6eb3U, 0x616a179c466d257fU, 0x2a497ad91d835e84U, 0x9785640a6a8865beU,
  0x74548ac9331ea4c5U, 0xef02f98105911205U, 0x4c3fa0273e96f00U, 0xc24b0dc3b4fd3f12U,
  0x63f037b8c872247eU, 0xe83ae34f90fa9346U, 0xd75a46998d30c0e8U, 0xc849d2277f7583ddU,
  0xf9e41161feb066a4U, 0x3ec785da83a0b100U, 0x98a229ff3b9d0d3bU, 0x99054f1277b12af8U,
  0x7dcd16267e2b95c3U, 0x4ed6243c33ab665fU, 0x67d06ebf96f9313dU, 0xf7b570cb945b1cb1U,
  0xbd70e2afa43641e8U, 0x4f35685046c34b34U, 0xdaa60732b944cb3U, 0x57fea3eee62c769aU,
  0x2aedaaac8db12a3fU, 0x983b7f25cd58085bU, 0x9726ee1747076314U, 0x55de0e1979b3d291U,
  0x3d02c938bbc01e8dU, 0xa1d3570352ac03dfU, 0x716f397ee248469bU, 0x2fea1c490987d075U,
  0x44bfa75422971d9fU, 0xcfd2b95d48e80625U, 0x4374e351cf9c4319U, 0xe1c869e4b62d889eU,
  0xb7518c7bf0a6d205U, 0xb7b27789297e3b45U, 0x17c8830116133b25U, 0x4eea21b2a01c675aU,
  0x6c429fcc047cd2b1U, 0xba4bc5759f4e8542U, 0xeb10e2651dc7011aU, 0x907d94b3a862515dU,
  0xff1e02d13c7ce8c9U, 0x5e5a79b569e3472fU, 0xa9dfa15cdb21e4b6U, 0x3e68abcc92824505U,
  0x23cfbc38c351927cU, 0xea0bd13485d5b78aU, 0xbce66d213136360bU, 0xe1cfdc2e0fe3e34dU,
  0x8778ea0006c1a01eU, 0x21e45c44e3575c7bU, 0x1fe7ceed5f549384U, 0xd13cd775b5e70956U,
  0x56479c5513f58b92U, 0x8b12704ae4cf9920U, 0x24b39a93b1b3a9beU, 0x52f970f35686b4c4U,
  0x226faf31e8682412U, 0x8a18bcc4bf6502f3U, 0xf830df13b6745636U, 0xc5e5d3d12eb0625U,
  0xd787ea3cb77816a0U, 0xdafb9cf845d41f2bU, 0x3da4f8f29940eb38U, 0x5d6d3f16130cae7eU,
  0x6afd63f6a577b74U, 0x22b618d23f7b828fU, 0xf9157523a996cf96U, 0xa4f63e29753959eaU,
  0xe8db7df9d12a5fdcU, 0xfc1ff4151733b099U, 0x8d42aeccfdb383a7U, 0x248a55bfa9fe9ee9U,
  0x645956305536c29fU, 0x57f2f00370c4f728U, 0x2869edbacd60c58cU, 0xd07444917090ecfaU,
  0x3e2f78001fdc1b88U, 0xf174fedfc789676cU, 0x4184ef3b283e9494U, 0xe289446518db9fa5U,
  0xd8ea7e4014fdd932U, 0x878afb0ffbc5b146U, 0x3649c06c90c06717U, 0x60f7c036bad831c2U,
  0x82405c09b5bb8989U, 0xcc4b695cadfa957aU, 0x71fe71c791b2e016U, 0xcaaf79dcdc8eae76U,
  0xd7d5ec795578150aU, 0xa45c46cd1aa919ffU, 0x7826b0d066de1790U, 0xcf34f0963200bb8eU,
  0x83d146fb7f469da9U, 0xaaad5ad6bd2c0de3U, 0xf67dc7ff49beb70cU, 0xa03bd33eb648b269U,
  0x1591175074f4f714U, 0x8e836130ac608e66U, 0x15a22f556dbdcee0U, 0x91d9926b432bd526U,
  0x397f79aea390e4a9U, 0x9c43a5894048b7afU, 0xee689f531871fb73U, 0xfe8affd3cb9ef90U,
  0x46425cc257df74b0U, 0x138c19595499afabU, 0xdc46d121998ecf82U, 0x3d4e2137e7f70a1cU,
  0xa1485f9f38f2832aU, 0xa0ceca2dfa6744c5U, 0x11208ab5eb5d45a7U, 0x90332d3eb1df3784U,
  0x1df9a73b187c47c5U, 0x5e72ab9b1dc37b4dU, 0x15fb435e7f519a07U, 0x127f04505e8be6aU,
  0x25d127774e0b5b63U, 0xeb661e4ffae6ea0eU, 0x9473766c98c0cdc1U, 0xc664d03956c32c2eU,
  0xde9b0cc9a5a2e560U, 0xa3cb8d5590c467d9U, 0xa8924c7c53aa9bf9U, 0xe3d22567c56c1572U,
  0x6215f7be1b0c6c10U, 0xeda0aad19a927c82U, 0x7b643fc0fcb6603dU, 0x9e4bea050b874e33U,
  0xceabc3cf05c04ed2U, 0x444c1a4649012cacU, 0xd79887ca5f9450f5U, 0xace19c6b747c959U,
  0x70fb2e3c537e3bb6U, 0xc25d8cd21c679318U, 0x7cd44c5ec66f9e2cU, 0xb76b253e3ea13deU,
  0x2b19b6cdc0aac074U, 0x647d7534643a1613U, 0xbe5cf79e92421c98U, 0x433bb1fcfe4a14b5U,
  0x8727f9dacdd943b9U, 0xbe77d69568de2363U, 0x475847e03d010740U, 0x2c4fa3db1462b9e0U,
  0x332635a9655536e0U, 0x9cd60e718a02f5bdU, 0x5bab1f2fea3d2a78U, 0xed82046878089f76U,
  0x9888a9b80c8cd60fU, 0xf8dfb2cdb817bbafU, 0x1cb9cd1c617fc1faU, 0xfd6b1189836bf032U,
  0xd4f6d2391458e254U, 0x862d75fef8ef7cadU, 0xfd38bf074e530cf3U, 0xe5200f3d30030403U,
  0xe90d820a68729a55U, 0x724c6a418ef109b2U, 0x92be20eeb9f3f342U, 0x931976d901b1120fU,
  0x784d67c5720d9c09U, 0x361f93e34bd04452U, 0xbac2ae8ff713ee51U, 0x25409d8f7771f96bU,
  0xd64910b09dce7d07U, 0x1048671d25e31f55U, 0x483383b92ff7aa13U, 0x5186e7a3ee26cbbaU,
  0x14e3ad5f6c19e14aU, 0x5ee43255c64f4faaU, 0xeebcb4cb4d4fad29U, 0xc36651106ac84212U,
  0x3be26a35638ebfc6U, 0xcf15c37d74108b9eU, 0x56c37a7e665ea41cU, 0xf4eb194a544ff50cU,
  0x5883a6598a2b8972U, 0x3be8019a5e3b1361U, 0xcf76ed01dbba6c87U, 0xc2167e607328925U,
  0x6e82a649b1d38827U, 0x4cdf256724db268eU, 0xc83a199e109fe0adU, 0x9d459ba1ca917831U,
  0x38be97b2fe21a700U, 0x3172739635a3511fU, 0xc8f9614b9738163aU, 0xa1f45da6b2d90b23U,
  0xa03eaa67a019d595U, 0xba2c71620244ee28U, 0x450b1a40d03c4013U, 0xd047b7d4f6a4cb3U,
  0xe653381475f694b6U, 0x5adb617d6f1a1db2U, 0x2883a1e3e5a87f99U, 0x1a456388a99fd6abU,
  0xd026ec72a4dc6e4dU, 0x8539a55a7af25f0cU, 0x6294877ac82ced14U, 0xc6415c19fc550f37U,
  0xf67cde462bcf2dcdU, 0xf2706ea50c42b09bU, 0x3d2220ff8368ba46U, 0x341eba8325a5d961U,
  0xca706db10679e04cU, 0x3e3a34a057825543U, 0x17b016783092b22eU, 0xc9ef625a86de88a1U,
  0x9bf19e58d7c86639U, 0xbef45bc29a59dba3U, 0xc6a22c3b1212d4c1U, 0x6d70e7aeaae4efecU,
  0x67fcb1ae53ddce6U, 0xd37cc97c1a930681U, 0x6207e651c9c03a1fU, 0xf85e7e11ef97c7c0U,
  0x924c814132f7f78aU, 0x386c6b1cfe3b036fU, 0x782cc7df344e71bdU, 0xb139506bc0579741U,
  0x15bcf597a71afd93U, 0xf67bd799b29e262eU, 0x2442786871772d06U, 0x9fb04984fb469cd0U,
  0x3e337647cc0c9011U, 0x9b2211bfca261291U, 0xf8c8ff96c9b8c7adU, 0xd70ef036d994a69bU,
  0x7ad103a98ec69eb3U, 0x90ede6744949d47bU, 0x944a4996c37af1bcU, 0xc219099571826352U,
  0x5be4ea64df1731e4U, 0xc39f0c7e5fcaed40U, 0xd1b872d082025586U, 0x210fa0279a34bd39U,
  0x9791f17a1737304aU, 0xf2d04f551b1f61ddU, 0x5ef38ad7c1bdf0efU, 0x9e90724c531781beU,
  0x7b4bcd897e121709U, 0xf2e785b91876de75U, 0xfa0679e0dfbde0feU, 0xd940e004d464fc70U,
  0xd93bb635308c90dcU, 0x24e65bfc9cbeb0ceU, 0xd6745be72526b95fU, 0xbf10ba7fa9c7289bU,
  0x83f32975e102fe6eU, 0xd474d2d7fef48fd2U, 0xcae384b060cfb44bU, 0x200fe511e17307d9U,
  0xbd2addd434212698U, 0x363c31069b25257aU, 0xb3a85d5b697a8593U, 0xb2f72964e0c25018U,
  0x452117c22483f1f3U, 0x3ba918867c86ac7eU, 0xf5df46b4b9ebc8a0U, 0xbfa556b9387d05c0U,
  0x28d970d4eecc52U, 0xdc89a7105c00b44dU, 0xb6dde9b6c4be6003U, 0x215e90b2c9c0e84dU,
  0x9a79b3a208ba7912U, 0xf2cf034092df0fd7U, 0x72b9316b2b6521f3U, 0xd704a5044d95580cU,
  0x19b37587c1c9cd86U, 0x7357653863133014U, 0xe78b130b2e25659cU, 0xd2dc76c4759e2900U,
  0x9b1bfd6de0646200U, 0x65120f43d17ef506U, 0xd1c1a95734a30a06U, 0xb2947a084e1cb423U,
  0x3f390200553bb188U, 0x16b548c13404b130U, 0xabe4dec912d91666U, 0x12b722094d05ac02U,
  0x43c52239945ecf1eU, 0xd2e87014aade3720U, 0x77add34d5a6195feU, 0x9c611c77eeec4b05U,
  0xd209086ff2077defU, 0x2931030529ff89ddU, 0x9d5ec29a2bd8ef21U, 0x9f221c328e9d3668U,
  0x507d8f10c51ce58dU, 0xe4bc581a6a36d23U, 0x31b20bceae12b48U, 0x328dfbbd9d234b7bU,
  0xd287bb0dbcc82f68U, 0x8338b6fa870757d9U, 0x5bb76a50ab011e35U, 0x5278c57df82d483U,
  0x7bd85a973bac765cU, 0xbadd0bede762659fU, 0x45847e13856fdf43U, 0xad8732ab55f25459U,
  0x3f7cf9edabfe157bU, 0x63a4f020c2a43d13U, 0xae928af01fda5f72U, 0xcab160ae177c74abU,
  0xa91d29400969c3efU, 0xb5124a83c51fc325U, 0xa01f1cf6d928e507U, 0x124220b2e20b99aeU,
  0x8157d02b50f6e44aU, 0xfd1838c4a378a80dU, 0x12df7eec88a4c98eU, 0xae2a9545b5a765d1U,
  0x702dfc636eddb45U, 0xc3668f39cd0505d2U, 0xbfe538abbc456beaU, 0xa8d442ed5e724537U,
  0x9186cbbe3657fe86U, 0x2c6163562f59ea95U, 0x124210d7e55f9d1U, 0xfdfef5056e25625eU,
  0xb700d6846b4effb1U, 0x1c922e9fac0ae46bU, 0xe9ad289d0ef4eba7U, 0x9a58a2e3b3bb7be9U,
  0x1a21b681963a66dbU, 0xb14b7e1dda6a75ddU, 0xecaf1f8916b05c34U, 0x83a092a2e47cd31bU,
  0xe234dc9246e6c11dU, 0xa8e731cb5258d609U, 0xbaaebc443b4d27e5U, 0x7be2090754e4ff24U,
  0x25da495572253084U, 0xe2a1d8728449984aU, 0x883ebee108e6f669U, 0xd4b5c2bafd45fc26U,
  0x55bcf98ab61d1883U, 0x4673daf3b532979bU, 0x7a401e5053e607bdU, 0x7d08c67425703f50U,
  0x2e0cc9a268431059U, 0x1fbb9729783e061aU, 0x462ce2113a7870d9U, 0x7258e4c37bbe0d85U,
  0x61f9028dff360de4U, 0xe415eca46713455bU, 0xbaa503152fe0ad99U, 0xc2c4aed3e9329db0U,
  0x25708df543c77243U, 0x533caa3ed9e315f8U, 0xf31d5563a904baf4U, 0x1893f3f1510e04b4U,
  0x7d640e4e0f3dbbf0U, 0xcca644776a643313U, 0x87c51a43524923eaU, 0x3c27f090bd420e2cU,
  0x943e57fbd9356815U, 0xfa6ec50e0cd5a591U, 0xfe68861d9165f7f4U, 0xaf469edb849d66b6U,
  0x1ee060fc8c3bdcecU, 0x6282160bb11bca1aU, 0x9ca11b6c49c966c5U, 0x36de162812f763f2U,
  0x3a528d78bc9c4542U, 0x3a5ff2898f086e72U, 0x8014ddd5c0264f0U, 0x89994d2671761a9dU,
  0x44d714162e89826dU, 0xa17c9e4d8fc22c45U, 0x42cb3599427b9836U, 0x35f2d41bd15d8a4eU,
  0x41bb1942867a061bU, 0xdd661e832f386138U, 0xb12683bbc4fbe0b5U, 0xc7c88bee873fea63U,
  0x5407abe8a84e5e43U, 0x39cf8b9fbba9d399U, 0x2227e4734819da6cU, 0x60b2c0d2c8bea85aU,
  0xa74400a8855d66d1U, 0xe53296dce6ba276cU, 0xe6b91545de272305U, 0x9b358598536a9649U,
  0x397b050b72f40d66U, 0x655a98fe3b37d4eU, 0x4a8588a228507138U, 0xd19c11dfb7dd1d9eU,
  0xf4d1f28ce1a1bc04U, 0xc94edc81fd3e94c4U, 0x709118f96876f400U, 0xb530e1f9664ef8cbU,
  0x15657dd7af0d522eU, 0xb323c0942a5b2a47U, 0x38095e2c94923f49U, 0xd3eecac6298a4d84U,
  0x7d219006edbae2c4U, 0x209accf34d007d1fU, 0xdd9d08cf2f533c28U, 0x8846954140f5d132U,
  0x5bb346be9fe9860bU, 0xa5bf664adc9c1e0U, 0x47205cc28809e148U, 0xb2d7b9a1579a1504U,
  0x15e2e4b1649bac6fU, 0xfb02260b5c4beae6U, 0xe039bc5d758cb392U, 0x2b7171ec7af7dd5fU,
  0xcb220efa32abe968U, 0x177826c2b4e9ab4bU, 0xe3b385262234826bU, 0x4eb6a50d16396f5cU,
  0x100df9384824aa52U, 0xeabce7ed12589ac5U, 0x5028cb933341acfU, 0x19295b4ae4e2eef0U,
  0xef9f6856a4ef6b3bU, 0xc25fd67a5fd65b77U, 0xdcf1193c42a0eb98U, 0x8bd6b5a31748e8f8U,
  0x2bb33ab2f45d6466U, 0xc565c32cf47dbebaU, 0x6adb931447b4c0aaU, 0x97f936e91e26b295U,
  0xb1d85395eaaf2cf3U, 0xca4938d001bec61eU, 0x736f4491e06058a0U, 0xb5011d7fa0bf393cU,
  0x4ce2a2fac11766d9U, 0x6169f795ccd69f7bU, 0x88dd5d52283b1dc6U, 0x9ef2fba5dc4d1d3U,
  0xa0c0582f63d52a78U, 0x521b2d4f8fd6f1eeU, 0xbcad21a4bdb3f70U, 0xcb73bee7c4662310U,
  0xb8c4a725259a4e40U, 0x10f38f29959663fcU, 0x7c3663afee49003fU, 0xb95a68caee848513U,
  0x2a6c21c82eb5d435U, 0xf3e894e67e0ca1e3U, 0x8ba3a49652483dd8U, 0x1f8944c43a65c77dU,
  0xbe54b5ae997e9482U, 0x7c257c128b5f9f88U, 0x5608043002503fa4U, 0x26d539ec4aab9fe1U,
  0x3f6685f92b92bfb1U, 0x79202fa4ee6571d4U, 0xcfb4050b2d15f42fU, 0xe60ce20576924030U,
  0x53d4ba72ff091aabU, 0x159b2c952dded08cU, 0x458e2da3065ce730U, 0x5d0c5e0ac618ed02U,
  0x52ec033ed5b564baU, 0x737363181f8a27a4U, 0x8830f881587747e9U, 0x606561d179f7fa99U,
  0xcbe1cdf557312d67U, 0x926add710c70e975U, 0x1c4d94043ac2b6c5U, 0xed1d2b61f93f6642U,
  0x2fb8562152bc3048U, 0x28f42187cd24893cU, 0xc8e59c29311cebfbU, 0xed1fb2ef3c05ff38U,
  0xa43d5850528539b8U, 0x843251149ad2503eU, 0x967814f80b5f4088U, 0x17ad01e8b7e2908fU,
  0x99b8be2e5deb15dbU, 0xf5c3ff0fa01903bU, 0xd7a21cf68f882458U, 0xdb426516ce23c59U,
  0xa462154369e9235eU, 0x73af60f7f35d1773U, 0x26ec20ea23f39b01U, 0x2682c748cb935adfU,
  0x3c37b8553f203301U, 0x29dce8c97c79817aU, 0x7b8fbb0d7000cf2cU, 0xde5874d6bda030f4U,
  0x722488b291536297U, 0xcd2ae6898984eedaU, 0xac61c22b9d3ccdf4U, 0x74b42701a01a2de4U,
  0x3469c994b2a42095U, 0xe6cf561cd19d3cdU, 0xc5ca94011e6dd01dU, 0xa9e042a7a9e506daU,
  0x54cf94f4f290450eU, 0x69e505a4fbd870ffU, 0xfd9857c126a11ea8U, 0xf2c15eca5124e0d3U,
  0xd7183cb2879d5686U, 0x9f18a33aaf2212bcU, 0xf2da496aba5efd7U, 0x8d3d7c77a513ac9eU,
  0x5c6916b5f6e8c031U, 0xf66646716ee9105eU, 0xb01571d9e1d99b19U, 0xd9dc289f91d8aa53U,
  0xd9b3e4e8596819f0U, 0x8d96db1264173177U, 0xb8adb33afdd86fdU, 0x1967fc786b892e78U,
  0x8d9ea725e1de8122U, 0x9b15921fb6d9e502U, 0x9fd3c54eadf2b80bU, 0xc4fab88147db605dU,
  0x28a2a3a588a58febU, 0x4dffd70d984a2dcdU, 0xe6fe1b4c41e48993U, 0xa2d4400277925ceU,
  0xcdbc9c96ee234970U, 0x2a5b4b07fe3f550eU, 0xab87876eadc3bdf5U, 0x16be0a81076fd563U,
  0x353cdd1d90f9d222U, 0xcc0d7ed478ec7845U, 0xdda5fdc53a9b2c09U, 0x1ce10f5fa5b4c9baU,
  0xe9e99906489e51beU, 0x2187b5827321a10eU, 0xd4175c12383ae9dcU, 0xfdab5c7a101c0748U,
  0xabfb5bffe91534d2U, 0x6ce1936a900019fdU, 0x4d782853a2065266U, 0x18e3a5d2a1968916U,
  0x9e0c3f6d6cc5569bU, 0x9ab9d39071b4a1d7U, 0xe768d9888661c905U, 0xaa758dee6e34d7e4U,
  0x11c8a7242563ad42U, 0x91fe0f5b6c83766cU, 0xf2c3b9ae2eb12e19U, 0xa9d1b53934efaedeU,
  0xf87aba8b1ec77d21U, 0x90e7e4cabb28573aU, 0x5df1f14c6b76052fU, 0xf43b8d0ae029d970U,
  0xdec4c69188e70fbeU, 0x9189e332cd1dbcc2U, 0x51d9f8ba39532b7fU, 0x9fcf2bd241c18fd3U,
  0x7aa4470e25432bb7U, 0xac5875131a5fb31dU, 0xc15d11b773e1666U, 0xa68d3da629e48303U,
  0x40ede6ad89df0a2U, 0xb0ac871a105b9623U, 0x5f02360b37ed546dU, 0x7e1a01f513e33eb8U,
  0x93ad558b1483da31U, 0x1e32c8bd6fdf23d3U, 0xb1104ad248268561U, 0xac548bff67c13182U,
  0x729bf9755118bc5eU, 0xf70b96200f21df61U, 0x21442d0fd1009b42U, 0x6f9c5a03dc620d5aU,
  0xdc62ac91636863dcU, 0xd9f718ae461a74c2U, 0xc04405135a6d8659U, 0x1c2f61ee7ffe6ce1U,
  0x2ac646a6f2e66a1U, 0x69a3a6ac33053f6U, 0xffcaaca22f0d9e2dU, 0x3ca343176e12a389U,
  0xa264d609174234f3U, 0x9311f15fba3c954fU, 0x7c9864bc5d6be56bU, 0x3c41790f6866a142U,
  0xe54b9543369d4534U, 0x219b948923ac1f7U, 0x2df584cd00d592aeU, 0x4e8325e605396200U,
  0xe43222186f8c2776U, 0x55875b7ac71e5b0fU, 0xd35eb8a405d3d790U, 0xeb8bc3ab08205e97U,
  0x956d0cc7c8b05a0dU, 0x2631d792e5b8ce7eU, 0x69e1ddb98250cb1cU, 0x42f31a8d9f4989c1U,
  0x89f855133b8e9641U, 0x72a2cb243354a098U, 0x47b58b8f6bb5d557U, 0xe1a16615fbcaf04bU,
  0x749407b41debf01bU, 0x5f45f5a61163bf7cU, 0xb4c7510b99e9a0acU, 0x10893782e22c9143U,
  0xd972b427a1eb63ccU, 0x5c6de7a951c029abU, 0x1f7de03890b8a91U, 0xa69636461806520fU,
  0x86c0d58998ba8c3bU, 0xc7130e54a556fd99U, 0x61dc0f551e1476fdU, 0x9c25b2a9269ebfa7U,
  0xe68a779077beaadU, 0xff2996fa751245a5U, 0xa90916169a4bdcc7U, 0x96098726793f032aU,
  0x58a07189b1339171U, 0xcef2008233ed4b40U, 0x20c9f9b7fdea1df0U, 0x144b933377df41a0U,
  0xcb952bcd83c4843U, 0x3a7ac0be2985adb1U, 0x1e1de2b30fceb00dU, 0x392e64b399195477U,
  0xb5c9916b1abe6978U, 0x27c2ad5582bb38e3U, 0x817d6c7640900e9cU, 0x1c52bc797c6ae54U,
  0x6fc686a73de7132aU, 0x1475faa2da12b7fdU, 0xc1a3996b9dd8259aU, 0xa1cfe1bcae4dbd04U,
  0x99d33a1307b812edU, 0xe0d928842b90c8dbU, 0xa16c9d0d605f3b2eU, 0x3b9b9c31dc7ecb4eU,
  0x14bf3f079867031U, 0x6e8b60350a8017fU, 0x40855ef8c6e1b85fU, 0xfec160a0c9e726b9U,
  0x74c7f23b3927d3fbU, 0xd0f8e1bc65d99196U, 0x783557b28d27e798U, 0x295660410d90d671U,
  0xebe633161168f8fdU, 0xea17a3625d3ad4ecU, 0x25348ff8bba5444U, 0x84e6e31fad773597U,
  0x44b5ee7d14a0ca29U, 0x537c33b3afc9cde1U, 0xadfbc9ce06a48908U, 0x1222876eed0806U,
  0xbd917ce4885e04d3U, 0xb1663e6c3f73b113U, 0x2254a27d7d68eb5U, 0x6d94cf172b45dab6U,
  0xd10a35cb8a2311e1U, 0xa998209ab996ed2aU, 0x21d4af835d13c327U, 0xc78d118f07248dc3U,
  0x646b6512814aa4f9U, 0xb81441ce592676e3U, 0x299dfbca9970cd96U, 0x167962e3e2f993bfU,
  0x986a0ddbe5d7d2d5U, 0x9a1ad137ae63f20fU, 0x48d6ebc38c1f4aaaU, 0x53062afc3b502a82U,
  0xba6505e30cc36c36U, 0xad539bf99d39ca3fU, 0x8953370bae298aeaU, 0x3a568f8ac1f77802U,
  0x3620098a2026a65cU, 0x6312a4fe48a3f5ebU, 0x47e86be77a3164aeU, 0x319ab108f6d89ac0U,
  0x85ffe19af39af916U, 0x38acc498a1aadcf4U, 0xedd1106205f89ac0U, 0xb1121e5838b7b3f8U,
  0x4f1428916b1df9e5U, 0x6b4f6f2d085dc071U, 0x70cba3b0aa821358U, 0xf4c0ea669020b556U,
  0xe1bc3072932cdcaeU, 0xcb7ad60164b1ac4U, 0x354063034f931912U, 0xf74f02ef8e1f4776U,
  0xcf7c451e64c58badU, 0xb8af280928efa6abU, 0x1ca5c2d94a21a418U, 0x3f87d8526c8a6660U,
  0x2ff19e555033b022U, 0xfe0bc30ed1ee77d3U, 0xb64a7727689cf65cU, 0xe01cd1f64990890U,
  0xbab486add2e9b1dU, 0xd6c7b1be31f16315U, 0xae5bdad33eec17ceU, 0x3dc75aa31dd29205U,
  0x424b01d94c0fb123U, 0xf97783ab298fce7dU, 0xffea0f2ef8ccb901U, 0x5449cf0fcbb546e5U,
  0x2fd75e7800b7d369U, 0x5145f776de362aa2U, 0xee70c152ad81a724U, 0x675bd802cb1d617aU,
  0xf43160f63baadb0U, 0x5367ffc02c2316daU, 0xd36481f491a5a686U, 0xd21360458c89909dU,
  0xa7b5565e3ea1a7e3U, 0x475b88a06945de0aU, 0x21457691a66af9f5U, 0x259ba58d1068dcc6U,
  0x5cf4fe7047e87138U, 0x8ac6d31e91d0706U, 0xd8d1fd31e76c665bU, 0x707ed6db0aa6643cU,
  0x9b9a4818a82ccc34U, 0x999e70695dc26ea5U, 0x6b5de815c0b71a99U, 0xdb3b73b6efd8e2f4U,
  0x5c7f6a61e92044f7U, 0x94d4ee319d9e6cc3U, 0x3b94b41fa44c3b19U, 0x8e310f5748a1f0daU,
  0xff44e1aaf76b1d49U, 0xa9342317a011faadU, 0xc5899e2191a96b6aU, 0x4fe2a21f7060f4ebU,
  0xb7ceebb5d2fc70ceU, 0xf502f61a7678e997U, 0x7c51f10d255c4c78U, 0x8a25d9ce3d959159U,
  0xdcc2fec343eae8f7U, 0xea1be5c484c125a5U, 0x36b16988f0f259a8U, 0xb4f51bbebc7de616U,
  0xc8106690048442f3U, 0x5d394c3052369740U, 0x396e18724628858fU, 0xd761898715c9db57U,
  0xc4b729ebe0b0f7fU, 0x1667303836f8d6a5U, 0xcad586f0a90f5195U, 0x5d6be1209011b797U,
  0x987e33606a9b7d7cU, 0x342819b5d75b26d8U, 0x2d8a4d663eab5cbdU, 0x6e9a8eec87bcf157U,
  0x9a12a2de8d078988U, 0x2436d4935c9658f3U, 0x31000afd07b91ba3U, 0x1b8e8975f04a273dU,
  0xe5b2bb546a4c9a49U, 0x42f4943e6fd5ef93U, 0xff49f951afa4afe6U, 0xe4f262f77110ca4U,
  0xa31ab29889d5be54U, 0x4d690e1612787311U, 0x5b4d9d3567fcf520U, 0x968b24ffef0f7558U,
  0x672819a3ca7deb4dU, 0x796a50d417e343fcU, 0xa373211bae2e6e87U, 0x5ee0f3ef343fb37cU,
  0x8a37253348a92cafU, 0x6bda85a737f9a94eU, 0x5d81ebdecbe99632U, 0xc396883500a033a2U,
  0x49a847592ad31908U, 0x3ee8cbd33c96cde2U, 0x3ba19d15b9ddcb14U, 0xd9c8242e4fe8136bU,
  0xbe3881ea9968c6aU, 0xfbd54752655cc16fU, 0x56c30e987653d4c4U, 0xd32ce00431bd11aaU,
  0x8cc2e9e57df864e4U, 0xf1557be1b9e14b9fU, 0xef921da6b2f68222U, 0x119f297415e573c4U,
  0xa16081e9d055858U, 0xc4479737ad0c016bU, 0x63e757017a3ad762U, 0x7d9e5c6a38e39249U,
  0xd700087a3b41ae31U, 0x1685864d4467b111U, 0xafcdf70794277694U, 0x4396caacd4067297U,
  0x83e75fe03e108ceaU, 0xe9f4125b501c50c9U, 0x117a8dbcb5efa93U, 0xd91c071ab8dba316U,
  0x2f0038ec008b74afU, 0x9600d25560f5d4f8U, 0x62aab455b23f3623U, 0x39b8cb15cda0723dU,
  0xfa9975d13ed14fb5U, 0xf7af1ee3b4669d73U, 0x51b1028dcbe46b91U, 0x65003bcd58430128U,
  0xa19bd04f2c607bdcU, 0xee346f7d1b0ed097U, 0x7847d4f0bb961db1U, 0xb584f6928aa6fca8U,
  0xccf4a8edcccf5558U, 0xae46d11ed98feaa3U, 0xcaa63b52dd5f5454U, 0x8d669f7971a2df67U,
  0xadf82b1986649af9U, 0x74efe4b0b0ae4ebfU, 0xd1487391a3620a30U, 0x2af30281be9e1f0bU,
  0xb1b4b1019abe5131U, 0x2cbfc98a17422937U, 0x52f546d3d3e1b2e9U, 0xabe11e02f476edcbU,
  0x4711acb6f60e9475U, 0x4433154cfbb28da7U, 0xe8a02a59e17395a6U, 0x236843a0e122714aU,
  0x97499e2e3104c447U, 0xf5e6bd85b68f9768U, 0x19f4dce4b627504dU, 0x258b20729ddfd220U,
  0x5eb31ecc96a8cc17U, 0x54d2f422022317aeU, 0x4e3d1a5253e739ebU, 0x703281a5cadd25cdU,
  0xd4077b58b258036bU, 0xcd708f576b305eb3U, 0x4935ff6817ca10a7U, 0x6ae2a08d8769f506U,
  0x4a66a28e7b9de428U, 0xa616fb0ede3e14e6U, 0xf5cdadc4ab33728fU, 0xbd50adb59a6b821bU,
  0x6ea227ce679c161U, 0x607828a8d34cf971U, 0xc31c15e59106c513U, 0xba548c04200216f4U,
  0xaa055fd3c4461a6dU, 0x214c559ce60e973aU, 0x92566c348e271790U, 0xa1184187a6bf6efcU,
  0x20160fb1a271fc29U, 0x5e0320fb5675aa56U, 0xf02a0ee1fad009a6U, 0x3bc7298213d43b15U,
  0xe9837979eb1b9484U, 0x7c98721b4f25a742U, 0x1f36468db9c53074U, 0xc7937e48afddb83fU,
  0x8206f6431a700bdaU, 0xaf7edbdb4c61aa4aU, 0x707a74390a9a118eU, 0x90a3db78dbcfe4e4U,
  0x75d3c1001d3b8288U, 0x2b740595095a7a69U, 0x9f0763b1b99e20a6U, 0x5eb9ad22098eff36U,
  0x6d46968c0f037caeU, 0xea83df1305cddfa6U, 0x3c75b9104c4e98f5U, 0x4945dbe7332670a4U,
  0x57220b9abfa56bceU, 0x94d0875468fd5ff7U, 0x1970481d3d73d43bU, 0xfadfa0d4d05498f7U,
  0x390d1f61394b715aU, 0x89bbcd26d6f3aef7U, 0x225d1959a89c7479U, 0xff087c6ffff2fd02U,
  0x37a50cfccc0e943cU, 0x32a4fe6dc8f92058U, 0x5aa56932624f2523U, 0x3485cd887e62753eU,
  0xfd0f6042927aa167U, 0x75e25d94af1cd18aU, 0xb2460e125c15412cU, 0x5693b2d1d2405678U,
  0x81e088254b017fd7U, 0x2c09ed37df5942f9U, 0xf1a7309ac803193cU, 0xe5dbc4035cba1befU,
  0x10718e52f06d18e7U, 0x1fae360e0ee90c90U, 0x3cfd9d45f7f9b8adU, 0x165d9d3c24447a02U,
  0x8491406582e554dcU, 0xe19634d08b973763U, 0x84e528ab4c987ae4U, 0xa0ab60a0e92ab4d2U,
  0x1b1391baf907832fU, 0x3c97eadfce5bb6e8U, 0xd644b083854cb840U, 0xa9941b193e7e6909U,
  0x43f02a96efa4cbdeU, 0xc1c0828678c9fc9aU, 0x6eec5b6900814f64U, 0xd819ee8693aac2f6U,
  0x883a78ed7221ac60U, 0x46a94d722b94791eU, 0x7f9d673d3fd08d97U, 0x3aaaed4d4357c5e7U,
  0x6fe0c7fe5d980727U, 0x756f7726f6ed42ddU, 0x30fe24c996270a5dU, 0xc185d9ae6722b8a3U,
  0xa627b0698df225d0U, 0x61020e1fe0fcd7fcU, 0x4d6a3b490fc8ec9fU, 0xdca67fa326d5bc1eU,
  0xac1df7cea3580c72U, 0x469148a00001c28eU, 0xfb7466d451b25f3cU, 0xb73b6e77efe218e3U,
  0x3c7419e8fcb88dc7U, 0xb4400a0219389c12U, 0xa950a2131058888U, 0x4525c83df3f033d6U,
  0xa8ac79d0d0a77702U, 0x3fb1994e785f968eU, 0xfe73066ab039e806U, 0x540ec769a50b3bbeU,
  0x88b5ac43cde46c33U, 0x8606d3674c487b10U, 0x307ae5489aae5d35U, 0xdae6544ac0a01dd6U,
  0x9c613b9fde5f0416U, 0x46bc71e1780659f3U, 0x2f3e0bf1c4307f5eU, 0xa266e02802ce226dU,
  0x436d178e2010dd63U, 0x7aae46e8eda834ffU, 0xf4b525ed2a37303cU, 0xc9faa516b0f32f11U,
  0x8e7899b858c53d10U, 0x2d1322b163be1688U, 0x1d4039952896e9a1U, 0xc4288f8955cd64d0U,
  0x12978816c7ebfe78U, 0x214f839f431a50cdU, 0x3206aaceae396d4eU, 0xf00317d1fbdf59e4U,
  0xde43ffc68771b1c2U, 0xfd426d00cf67e8f7U, 0x973fd4a5083d1359U, 0x26e4886b539ff65aU,
  0xfbb75149825ae3f7U, 0xed3dabb582923492U, 0xc30620b662bb33c5U, 0x1935df981e0507c2U,
  0x1bb079f1f89c8868U, 0xd0a635b07a615a1aU, 0x65d873dfbfb39aa4U, 0x6e3e1e892ff6b2bdU,
  0x5d673cff9bee1ce9U, 0xeea7d18d3b5f025U, 0xd769694a50b6220dU, 0xca436e04e2d41367U,
  0xef004faf1469e23cU, 0x332f25fa2f8ea8efU, 0x729bedb1d981d1f1U, 0x125f950ac7256325U,
  0xcba0284419bb4bf6U, 0xb8131ea55f7d4930U, 0xe0a6dc902a4b97ebU, 0x71d95bb49ce9a293U,
  0xb205f9a3d7519b37U, 0xcc393eaa9596b742U, 0x361118edd1679ab3U, 0x76f3d0236c918bedU,
  0x65ab98e06cd89a58U, 0x573d1d4235f7575fU, 0xacd5ebcbff7fb3f6U, 0xdbaca279e95f47e1U,
  0xfe7da46a7553210dU, 0xbe61be53c6aa69bdU, 0x3aaeb77e00c94864U, 0x9713ec2958df3997U,
  0xd2a6b5878eea2f3eU, 0xcccef71070580e9eU, 0xa54d163e356f48a5U, 0xbde457619b0df647U,
  0x7a397c8428f632a7U, 0x24dd7412da4ecf25U, 0x2a6ae171110fa257U, 0x9237f2d11e328f3bU,
  0xcb468f0670c279f1U, 0x649aef40d5b9fae4U, 0x3e501616a03fe73fU, 0x21b807e8e2513815U,
  0xec9b5b7903c79563U, 0x99d3170551a232eeU, 0x66693d9dd51e0a34U, 0x92a416e599602be0U,
  0x3de8b1dc296c4f07U, 0x6dc80a1b8139cfcbU, 0xb32a2f8759b8947dU, 0xb0bdef19411837d9U,
  0x443017e8e2ef5a2fU, 0xe9f204e5bc9671fbU, 0xe79f021916f54ceaU, 0xe6d2ecb6de079bd3U,
  0x9add7350ce23e889U, 0x749f89a7b6402430U, 0xbee6d3f29d0f3e52U, 0xed86d33ab85ca105U,
  0xd394ffdfe728e4f1U, 0x39f45cfd88060b94U, 0x2d299765cbfe7c70U, 0xe2ee8c88c22dc125U,
  0x103b66351fcc7d5U, 0x56f5e6ef87782ddU, 0xe9e9e9a5fe073f19U, 0x3ae58f3b3dfa963cU,
  0x4ac58a06824b8f18U, 0x169c825954f04891U, 0xa4eabf19b1c4df4cU, 0x8bfdc67489c08ae3U,
  0xe8f795b08a88846cU, 0xcfefe0aa91bc12feU, 0x5ad170fed4b6073cU, 0xae2f111bdab01ec5U,
  0xcab6c50d43d97e05U, 0xd8ca742eef364adfU, 0xf9c2305b1adec64fU, 0xdb0d6a0ba6fe2457U,
  0x870ba30143aba9c5U, 0xfca82f889219f9b4U, 0xed38e94526242b48U, 0x745f964643aacb19U,
  0x9ac9f2a023f81d3eU, 0xf6dbe43cee6b3deeU, 0x818b316de852b144U, 0x25ed0139b1041d6fU,
  0x259bab3b9e882c7cU, 0x93c99905e5000965U, 0x82afedb19543b68bU, 0x8f2fbde4f334e329U,
  0xde17c1397b062d85U, 0x40ba600a0a0d5c94U, 0x5166cf26090053e3U, 0x9106ad0027df1af6U,
  0xf31295e618765485U, 0xd0109359c996b40fU, 0xf1b846000a5f2423U, 0x599efc22c215b74bU,
  0x56cdbe602d6695b0U, 0x74754730f5a08792U, 0x76e04fc2b6eb994cU, 0xbd8f20b18207b68dU,
  0xca02e720c614e3dU, 0x5f5754193d89abfcU, 0x632814f35ef9649bU, 0x1bfdac301ebdbe13U,
  0xfdfe5f64b006354dU, 0x890015c8ef4a8e2eU, 0x270af6277b77932dU, 0x9dcd7d094e1dd8U,
  0xf9a7c8146bed89cfU, 0x7110376af458d695U, 0x246dc2cba97c251eU, 0xc03022df4529f6ccU,
  0x5b653e2e6079eee2U, 0xa2c9e45e60ff781cU, 0xfebd150f1df7d63U, 0x46e2d3d025e58508U,
  0xea96c13c88e8855bU, 0x1b0c107c48b0c58U, 0x915edf6d08421554U, 0x92d17f5abd6eb319U,
  0x92a6d14ccc2bb096U, 0x4211bb56a306138cU, 0xec631fcd8e1c613dU, 0x31adca909585faaeU,
  0xee3bd894d5e226c1U, 0x2264252890abebc0U, 0x483ccb10e5116909U, 0xef46e32fa1848974U,
  0xf11fb5416c5dbd6dU, 0x6cff4a4981e2477cU, 0x23f43679eaf84527U, 0x56d0126c43051266U,
  0x8f9886bc15876567U, 0xed94144386fb54ddU, 0xba6ecab5d78dc213U, 0xc77a79a06090a5caU,
  0x99e950b107ecc506U, 0xf8e46d6378d31ca7U, 0x25c995fb60cff1d7U, 0xfe0dfe03d106d0eeU,
  0xc31773342c6b7125U, 0xe804eb6effcbec22U, 0x2589cdbcc2d7b179U, 0x643212f64255a4d2U,
  0x9a1a7ada76387b35U, 0xd3826b5832d68d10U, 0x922eedb992881c34U, 0x742ff6e5b24051bfU,
  0x1266f0a72d9cce09U, 0x7196aabad14d7c95U, 0xaa19ba5b5c15c87eU, 0xe699d1fedb7ad4c1U,
  0x6fa510122b7c90cbU, 0x31cbe8aa2653f8c8U, 0x25d209bb3159d3c0U, 0xbc64391d6ba02a2U,
  0x5c20a39a2d4b235fU, 0x4d91bd8d311bd79cU, 0xfa3e98cf1127c895U, 0xf19bcef472faa01bU,
  0x1bdad9fe14a47c49U, 0x92be481041ca42dU, 0xec1c833a9127ffa7U, 0x753b65b001b5c53dU,
  0xa87817d77a97b366U, 0xb9556882cb2f0bf2U, 0x37ca5725a4183a98U, 0x5950ed2fe0fe406eU,
  0xe3b4917d0ed0c5d2U, 0xa3f954e636b8d695U, 0x882e3f0c6fdb7b4U, 0xbc535e68e337c604U,
  0x48f9a6b0925aae85U, 0x93d7ede0b19c06f0U, 0xea25f89a15ee02f7U, 0xf19c419ffa740d1fU,
  0x3e8e5be560beeda2U, 0x4c8799988f39f7e7U, 0xc2d64904467d583eU, 0x42feb1661bf229f9U,
  0x2ce6fbe1c6c6cc6eU, 0xf3a0bc890892bc1aU, 0x31154bfaa5ae37b8U, 0x7555db77b22f3208U,
  0x60aa2c67254c2b8dU, 0x8fb660102176913fU, 0x56125810ab6119eeU, 0x37a7590a9a89eb99U,
  0xdcefa8aed3bb6bf7U, 0x46db21a7fa11aa47U, 0x9001c8b5e8482cfcU, 0x74e03cfb71f3b4baU,
  0x871c6f83790383edU, 0xaf898c93f1f2e092U, 0xe7e7b9383ef070c1U, 0xa4bdf743497231b3U,
  0x3b10300ef77b8aeaU, 0x145e64d08dcda7e5U, 0x2302a423e593ad5U, 0x135317b7f4fc67ddU,
  0x1ceffcc9833c64fcU, 0x4997755bdf2c9144U, 0x1a4b66f079880d5bU, 0xf62f4fbf0ff0058dU,
  0xce8c3652e796b0ceU, 0xc89683f506117ba8U, 0xde613dca3b7b2fd3U, 0x33f710716bf1d840U,
  0x712922d184c66f96U, 0x8d04c1196082b2caU, 0xc32c3320d8c1202fU, 0xfae69c7fcc85084aU,
  0x30d3ad8bcd0a1904U, 0x2031d35d61ab400aU, 0xdd72830bdf5b2ba9U, 0x111b7290455656f2U,
  0xff097737af6916eeU, 0xfda545df0b4612ceU, 0xb9350fe51dacdea0U, 0x227064a63db6b5c6U,
  0x4f3d795e7da0809U, 0xf4aa94e73c816e14U, 0xce94141f112913c1U, 0x627c8b28d336fdc9U,
  0xb6ed2a8f951247ceU, 0xcfb173e215d85671U, 0xbb2cca1b16a0e173U, 0x5e303959dc2a9ed8U,
  0x16b5fcf698442b16U, 0xbd7e4ee6a9d3fe45U, 0xb98e7ffdc0eca450U, 0x4c27b8431844b774U,
  0xa729029fb92eb3b7U, 0xc9e3312e3b89dd5dU, 0xdae68a6e541cc2b6U, 0xfa924267f2c37f1U,
  0xac52ee8b675309b4U, 0xd77b180b7fe0930fU, 0xc332eb5eaf0fcb88U, 0xaa52718cbbe5ee1fU,
  0xe7bd19c682d4f750U, 0x14fc76e399b5d1b1U, 0xff5266b46e9f7eeU, 0x358ddeb96c850aacU,
  0x6f35f3a82a40ebccU, 0xe458000a2242246eU, 0x578a19c0d91825fbU, 0x63679cfd4123c442U,
  0x3705f4a36e0181c8U, 0x35fc71cb5778f6b8U, 0x21294749424edb41U, 0x3ec5621640ec778aU,
  0xa14f6bd3b933a138U, 0xdddc523b4752d8fcU, 0xfff0c2bee23c258aU, 0xababc14c2cf14bf2U,
  0x4bfde6539e6fd2c1U, 0xcb90eac4a0df090eU, 0xedab27b89cb4b9f1U, 0x996cc9bf7e06988aU,
  0x8b210099bd78426bU, 0xe6a7536555ac2dcaU, 0xed12668fa532e6feU, 0x9786ab178a27988fU,
  0xa3e383b046171b12U, 0xae56a8dd1b4b2de5U, 0xea99771a6258f745U, 0xcd6af01b5dc7b2a4U,
  0x5ee5da0886aa81deU, 0xd6f3f7ebd2ff94f2U, 0xf05ca001b6b74937U, 0x8e2024f377622c27U,
  0x74e15da50156a424U, 0xe91d5578e869b21aU, 0xa64f1b1b25ba844bU, 0x4bb6294171ee8c58U,
  0x12c1c6a3700bbcc6U, 0x65e81762d5185504U, 0x1ff4df2b57b8b905U, 0x9b43f7ed26dabc7aU,
  0xea4a856051b548b0U, 0xce9e5f4dcf8335f4U, 0xea5fbabf6c45d06eU, 0xfa0e23d28ad8e8d5U,
  0x6f19d0a7e5014da8U, 0xedac393db5bdcbaU, 0x8fbd1805e775521dU, 0x6932ee672538e2e2U,
  0x4bc271e3540e1677U, 0x261e2af3885cd369U, 0x13a8f8af4d902afU, 0xce3d7232ca2c828aU,
  0x89e40de4097b13d3U, 0x3b31eba0bc97ce1fU, 0xdb6131b83cb7a932U, 0x2f0f533b9b7d0b61U,
  0xf5a058a767d0e901U, 0xd06b685a41fa4b9aU, 0xafb1a07d36d45ccU, 0xbe0d9b70c4d40a1dU,
  0xf4d81e2d833c2394U, 0x8cfd654ba776bf99U, 0x73d1939042b5d3b0U, 0x9c47af425e0ef169U,
  0xe0c0a8e921000d18U, 0xc1e493aed5f3ec39U, 0x3f7d7f0e97fa3ad7U, 0x87349aca405237c5U,
  0xb9099de59f12cacbU, 0x8701d46fe8f205c1U, 0xc3dab0a01e6eabb7U, 0x2cfe75b948c77aebU,
  0x9d56b976ae015407U, 0x3c7ccffaf1d9d47cU, 0x98a4ee540942d02dU, 0xa54131687b7af685U,
  0xf16259bee423698cU, 0x2ab30d7d0beb8120U, 0x5f904c88936dcdU, 0xb3d3dc64c907c53dU,
  0x4971107ca74422f4U, 0x5842f3a4abebe148U, 0x22019f278f37d01cU, 0x6b6b76d81f615e56U,
  0xf992de3d4748b825U, 0xaacef15a2f28aab0U, 0xc9299c176058786dU, 0xa0bde4cf9711b4c4U,
  0x4599d1e51225334cU, 0x2a0523705d459665U, 0xa85f4772cf3c9435U, 0xff697fd7a944f364U,
  0x15456dfff6eea131U, 0xd79873d4ef338209U, 0xdbc96c5157477e58U, 0x2cdc08e00dcd574eU,
  0x42541e9c2397d21dU, 0x2e2861f48a4e86f8U, 0x464e487cf0cd9dc9U, 0x1a040ed483a33d79U,
  0xd00719337e824d6eU, 0x8db9ff7e8bdcc82U, 0x2f1ce0e3cb66a970U, 0x76cf4254fbcf44c7U,
  0x72469fe8ee3a1575U, 0xf1e565ea55e991c0U, 0x17cb0b6ca34bb9fbU, 0x6f92b777e2933af5U,
  0x693718b6348baaU, 0xeedd18b7bbff829bU, 0x73885ea06db1b768U, 0x53cb02a4f73295c8U,
  0x1133207460b04370U, 0x7524cd2e2c55d954U, 0x1338bbc82fb67745U, 0xe5ef869833ec96a9U,
  0x105c1eb691f3f88dU, 0xdba3b546b02af703U, 0xcbf456bac28b8ec5U, 0xd4d5d1d0e323a18eU,
  0x9f0c256d308aedcdU, 0x7d320062935eb1daU, 0x4acff31cc25e6a89U, 0xa4a7e814f44bfd7cU,
  0x8cccad2ad89649e6U, 0x72d13dde12ef00c6U, 0x5da79717aa6a510fU, 0x67a6d3824778dd3fU,
  0x31dfb9004dd2fc51U, 0x227e0369ff05fe45U, 0xfcf616bc9438f19bU, 0xfbd08d90ce85135aU,
  0x310e556c457abb7cU, 0xca3e55ae37f88b42U, 0x1cd38ad3ee70106bU, 0xa6548c1ebdb54ca9U,
  0xecf58c040a57124U, 0x4b7a9207cdcf13deU, 0xdce25f0a4f607edaU, 0x624e96f24112e3a9U,
  0x3b27b896b3f83102U, 0x7878e394a95f1418U, 0x3b6ea621b9a41efcU, 0xb2e6df60dd824891U,
  0xef43ea17d7b3ba05U, 0xef952d6d17a5f64U, 0x338a2f5afd4dc456U, 0xb8fe5f5a39eb7c3bU,
  0x83e0cc9f65df15U, 0x3709725fa9ffbca4U, 0x2aa9443cb6927f73U, 0x5a0285b65487f329U,
  0x992673e5280944ffU, 0x8fe10377de2bb832U, 0xec7635e75f63ad33U, 0xfeebe0b423a100ccU,
  0xd432d248386ed29dU, 0x5778abd19478752eU, 0x1940dfd7e347e5eeU, 0xc296f12d5da0369cU,
  0x8c543dd31842ca48U, 0xf1a6b4a8abe7d52bU, 0x85a6ee61106b425U, 0xf1e15128d3d3906U,
  0x8d5952e5b1aa45f4U, 0x51e66def18ce03fbU, 0xabd88eca051303fbU, 0x8756e4919329ec65U,
  0x93eb265150db8c48U, 0xd7eb5283c5b823a1U, 0x37e99ae64d316468U, 0x192a93e2187147b4U,
  0x724441f21f2c65d6U, 0xc76aa0b4a093d61cU, 0x7365da35b0a1b17bU, 0x6dfe22255c6e9291U,
  0x2a234ed760973ad0U, 0x188e81848957b3deU, 0xf2a435cfbb85fbccU, 0xcce7762f432bc697U,
  0xa21214fcd752e074U, 0xc099d0dd08698f67U, 0xcc55c1e6e85b18cfU, 0x3adeb1caf861edb8U,
  0x56b26393593d4e06U, 0xbcaf73987315bd17U, 0xb239fb9046eb32baU, 0x642a2fff265d41d4U,
  0x19699f0d19b87c61U, 0x88a47c13a84e0ceaU, 0x6f11df2c29dda1a1U, 0xe89595675aac9c1eU,
  0xc52e1ca286d085f5U, 0x9748a7b64e3bfafU, 0x414d4aa4bdaa3621U, 0x3d61a05088bb4faU,
  0x151213f6170167d9U, 0xef7ba1efc349d7bU, 0x5f17620656fc8911U, 0xe6ca173bf0e7db3fU,
  0xded01b35a560a4e1U, 0x50faa02a05f23878U, 0x2c59d0c34f2b8429U, 0x6832e01915a1bba9U,
  0xe16f2544f2ac158dU, 0x1e131cf5d7c20026U, 0x83f4755a735d60a6U, 0x6b4f6f36e5eba937U,
  0x1d9d74dce03dfce8U, 0xa0a87df09183f8a9U, 0x925621f148614d28U, 0x33e9578a83f86f28U,
  0xc81d09c8ad084e9fU, 0x468116996877563eU, 0x1faffd75593a3e27U, 0x42b4001d7371173cU,
  0x12212e323454a23bU, 0xb8c03a41a0b2e75eU, 0x3287b6427ea41dbaU, 0xa6466fd98f9765c6U,
  0xb84606a76836e73aU, 0x50c60dac62c5f4ecU, 0x750fb6b045bf2dc2U, 0xa28582c26464d954U,
  0xd9326af1de16461aU, 0xa4348f1dbb5cf401U, 0x5c12ce766dce9b95U, 0x14222cdb97d56921U,
  0x8b0507c3abccd427U, 0x31a88bd62dfe27efU, 0x32e75b79d0dd59cbU, 0x9410d57218dabc52U,
  0xb1dbb0fa6bed9d54U, 0xcee42538c2b6e077U, 0x4708e6941d1bb23fU, 0x3c7f77a96e53adccU,
  0xad1d1c275ece3568U, 0x8e523ff807caf0c1U, 0x16981102f80f84f5U, 0x5e82869af408ef2fU,
  0xf429775875a9357U, 0xe9a08dc350f7c0a0U, 0xf1caf496fa4fbfc5U, 0xad3045048d347be8U,
  0x19f8356bbd5caa01U, 0x99a03358a78cbedbU, 0xda1e7a790a03664cU, 0xcf5fa485ca539e92U,
  0x5825b95caf646090U, 0x1f8e5d4ec8c38901U, 0x7e629e5c36117a0cU, 0xb11a4ccdcf6b873eU,
  0xf9e26f7ac20d48f6U, 0xf6a09705415eda43U, 0x49c507c72358ad71U, 0xc27b533ef25453b2U,
  0x808d664d444903dU, 0xa3b2e509e17345d8U, 0x4d0bc6b79c16ebe6U, 0x8db2b367c5e7665dU,
  0xcfe3ab6d1db26c57U, 0x6301cb3af7f2c39U, 0x34d45a032c7e39faU, 0xb487e4e690d32f52U,
  0x14ba67dd5ca0302aU, 0xeab606d6f02fdb15U, 0x95a707a457e725f1U, 0xac7102695faea349U,
  0x10c9441f39c96905U, 0x546cbfd59d6788a5U, 0x9159d67913636e54U, 0x76f7d465bd714078U,
  0x73d169bc1431bd28U, 0x6ffe90df9fd759a0U, 0x5190f67a2d4f8d5U, 0x9784073c744f8c63U,
  0xd4ed3b77313af375U, 0xa834a1792f2db06aU, 0xa73f4496cc2b0199U, 0x983fa13d8abd6396U,
  0x908a3ac0cf952c31U, 0x6637fde666434068U, 0xa12e5667e81e8361U, 0x49b857f3794f2f8eU,
  0x56ab3b47d8f47191U, 0x3d96429be1f76f71U, 0x50501b2f8dce998aU, 0xfc90c711c0a25da5U,
  0x886f15dda61792efU, 0xa946406e0095ac1U, 0x970f2d0c68167248U, 0x2d0b88df2973d5dcU,
  0x75cda6a24f5b1eaeU, 0x6dd71df5089cd5c6U, 0x11bbb1ca003c7819U, 0xb90f0950921fda8eU,
  0xb25a27bd3bdd51b9U, 0x9d561221d4088e07U, 0xe4ef7291b6b8772bU, 0x4183d2f815fedbb7U,
  0x9db14ca8cb7c52f8U, 0x10285a3883d1237aU, 0x4dedd86cd7669d03U, 0xa6bba56fc813b17eU,
  0x42dcbfb574e973afU, 0x87b0336fd28edea8U, 0x6337ff9a63388f34U, 0xe7859c54af279f05U,
  0x9c8f36a4ebde431eU, 0x280b347550236cd0U, 0x2c22159edbd42925U, 0x92f2f13e4c33dc8eU,
  0x7aee3f0ea064efddU, 0x3a6f3b99c461edcdU, 0x7a3e0a162e8d720bU, 0xe8265d6850a22517U,
  0xe87bf8758fdac63eU, 0xb2139c9f30ebc805U, 0x150dd94382fe09d7U, 0xcfa4acd77e957e6bU,
  0xb36463bcdd543468U, 0x7b7ac52369173166U, 0x73d729c4c992c27aU, 0x377a3ff23cd1695U,
  0xca814ba7e01f71f4U, 0x784ac47a59797b4fU, 0x343a8a7d3d75f9edU, 0x59752b700381ec72U,
  0xac387265b3c3cad7U, 0xcdf70d69f1462860U, 0xc3c66b2bedd5b4d6U, 0x9f4f9bd9665f8d74U,
  0xc233c0e5c915aa7U, 0xde0e5c7ac931fed3U, 0x48278c1c6236f482U, 0x177055f23ca1f208U,
  0x7dbf1c28f98aaa8bU, 0xb51ee3683872ee1fU, 0x65cbba493a610c35U, 0x68073df6861971d4U,
  0x3f9c10477a16f535U, 0x4fcd90700e412fbeU, 0x9ec8acbac073fbacU, 0x9569e21026e70d53U,
  0x65ced8004eb03637U, 0x3c8afe72357536cfU, 0x3c90a9a41a1c0cb6U, 0x235d31deccbfdf6aU,
  0x5ec1e933f5d6596dU, 0x53cb115a7c7fc632U, 0xb8392da5df27fa90U, 0xf7fc4396201d7df5U,
  0xf024ae5c368fa5d7U, 0x192560d65ccfe785U, 0x12984ec2b31d40b3U, 0x92837b17c63eaf50U,
  0xb2f0b2b32c6e0803U, 0xea52ea20c4a4de2bU, 0xe52d10b4841c4de0U, 0x2184bad8e5b7eee3U,
  0xb3aff2a52b8a750aU, 0xad083090f8c9caa6U, 0xf3b0d0746d50544cU, 0x6da3eb83f118be8bU,
  0x75bd975208da22f7U, 0x97571e4452fb2475U, 0x326d9c43e7f9ec26U, 0xc715a93c25f920d6U,
  0x8cc7de5cca9cdd51U, 0xa7dbb3e1b8f0ad99U, 0xc5acd16be563b431U, 0x8fa02f07072900b9U,
  0xe7e1df9396d00711U, 0xe286e73a797a251bU, 0x20ba1a3ddeec2764U, 0xb21c9938d7b94ed1U,
  0x951cb0eef593b3b5U, 0x917cf0cc5136f1f7U, 0x479ab1d7c4248becU, 0xd77660515aa16486U,
  0x1923c81ab8ffeb51U, 0x775ca12cb35c252bU, 0x4cc5aec343ed193fU, 0xf6011767ebcf874fU,
  0xf54ab1d063545decU, 0x99bf3947e97fe837U, 0xe5ecaf4ddfb95ee9U, 0x54035438f7aca208U,
  0xc764f67955de0510U, 0x6de7a59ff340e18dU, 0x86ea49bba69cb771U, 0xced95979f9bceb4dU,
  0x11ccf582751e3992U, 0x2752c7fabc1ed7f2U, 0x66e0db22adf429cdU, 0xb3190177046eff12U,
  0xf1c87c0943633b31U, 0xa833e9d25303cbc0U, 0xf6a0464e09c70993U, 0xdbd5358b4f68c960U,
  0x65b5b99edbceb47eU, 0xc6a09319d3a34d8aU, 0x228eb54f1333bbd4U, 0xb7c105462d01e745U,
  0x17ca18b099b416caU, 0x66e038a8433bfbd8U, 0xfe6861518e6a3628U, 0x4a9e0dbf250b9550U,
  0x48a4cc5c5c8febc9U, 0x81f9465d18c93d40U, 0x1e161766f53734U, 0xa3e2395442af5bbU,
  0x61794245cdb43304U, 0x78bd4b58b4ec4766U, 0x657820f76874b7f9U, 0x2702e8a25af37e0cU,
  0xe9231b5ecd5d898dU, 0xb43affebc87d2028U, 0xfe4a1d799462e8f7U, 0x23fa2a20e315f388U,
  0x238fbda07d728b11U, 0xa3864b398b547932U, 0xefd5b43dc5f39305U, 0xec76f97bffbdc2dbU,
  0x6c2e0755755c310fU, 0x588d95b649181d2bU, 0xf75b2ec0d2f2c15aU, 0xe1be3ee914de83b0U,
  0x165f3a3ac5a0d70cU, 0x1808fb5dec758660U, 0x1cc8959b13e70e63U, 0xc3d52b4db979ce2U,
  0x515c37208e4e0c6aU, 0xe988a0f93abdb73eU, 0xc1887f7bf3ef184eU, 0xe7b300cc69e43a95U,
  0xa60408848e9c9a8cU, 0x8cf1cb1bfcbf21c5U, 0x810bae18779e6e72U, 0xbacec11ed19568a7U,
  0xb30dbb90ab99f864U, 0x49330993d3bef11bU, 0x39536950102ecfd4U, 0x3d77280f2e12f978U,
  0x43f9982fbdf26561U, 0x4152e50bc21591c1U, 0x470f956b2cc6b70dU, 0x9d5fed4a84e3beddU,
  0x2d6f83d184e9efb8U, 0xc0fd62e2c8839511U, 0x5a0ec4f50d0110cdU, 0x810a0130ae1daadeU,
  0x3904d805a71e9029U, 0xd7bda9630087db4aU, 0xd63402abfe136399U, 0x2ce8fe65f78e6805U,
  0xcd2236b97c83bd20U, 0x1a3c9e11ba67a198U, 0x47e8b3ebbe42493eU, 0x983ea4cbbf088626U,
  0xc51260a545012331U, 0x66104230e1c5e696U, 0xd47e26026fa4e474U, 0x97db273901139208U,
  0xc91f0bd3d0f7ac0fU, 0xed3e9cf8bc0429baU, 0x200e8950d31e9460U, 0x388c4c15ee4062c7U,
  0xf0747d2494b83bfbU, 0xa19ce20c5e564da9U, 0x7c0d5198973a455bU, 0x234c29dcbb38d0fdU,
  0x34b0079a28ada7d1U, 0xfd6814e02e7e745dU, 0xe2a62d716eb3e88aU, 0xc32e7df81814e6bdU,
  0x753e64c2ce9090b8U, 0x1f93dafab10ed674U, 0xc4aa3cb52afa6a66U, 0x7d3e16a2312fe74bU,
  0xec59f49b4d32efc7U, 0xf1f79b8d415b5b08U, 0x23e6ace1f3104a67U, 0x37cd482b1c1efa66U,
  0x42f802d80a168c0bU, 0x5e007c874fd9b3c3U, 0x6451b0a928a10837U, 0x8df266659a28396fU,
  0x50968b1b7c1ba87dU, 0xf1087125433bf89eU, 0x191967ac4284822cU, 0x4c3baacf6db0bb20U,
  0xcc38cac7a41186daU, 0x1843bd2c5eddcaa0U, 0xa3285ae225f9e348U, 0x7e39954b705da396U,
  0xbf0ff2cb1d179d0aU, 0x6e1eb3af0c9737e2U, 0x6d9351553efa13b4U, 0x902e74705ca1ef9eU,
  0x50a923dfb7b4e5cdU, 0x87c022d7c1e93772U, 0xd13603a716e33084U, 0x88cdc699d07e7e24U,
  0x9c8675087fe303eU, 0xb8b3bcd65a60b789U, 0x4c23490363429584U, 0xd9f1fe44c93fd85bU,
  0x5b5b9288130dd4f7U, 0x6e953e5713bbd475U, 0x13871ae9d60304dbU, 0x428a128908271229U,
  0x3da2e2571e8e2128U, 0x33796b4e3fd9c185U, 0x51f177782a321bdaU, 0xd0e07612caf8a650U,
  0x534264db6d0a5ad1U, 0xf859b31f50b40e10U, 0xdebdfd16b16aaefbU, 0x5c3cb1b839957b8dU,
  0xc9a0efab765cf956U, 0x5fa9d1af2d620f24U, 0x49331a84cfa9d2e8U, 0xb2ed03baccf87784U,
  0xf228892c7c2bae5cU, 0x5881efa85e7e78e9U, 0xee3c5fcfbc7d9736U, 0x4ce15a23b3f53caaU,
  0x830943f6839e12a4U, 0x8cc602fe5ea81fcU, 0x8432fbd656748ca5U, 0x2acda361a15d2acU,
  0x19759447cb10d695U, 0x3c8e88a601cb298dU, 0x599c68e24f2e20b9U, 0x4caa353f3b159dfcU,
  0x6fbdb10dfc1b1dd0U, 0x6b472cc292c5448aU, 0x58f079a94792b23fU, 0x4ad2cc041ec8b7a8U,
  0x1afcac825f191665U, 0x97b55f9fc5268449U, 0x142114f9cdab4633U, 0x6c31f9b809d61840U,
  0x2cccb1bd62c7796bU, 0x3b92254fe9a81a52U, 0x4f06654f26c616bU, 0x5e7a755c858c3520U,
  0x5bffb1ea12039c54U, 0x9883462ff6e1656eU, 0xeaf98ad4184a30f5U, 0xe59d7bcb22d797e2U,
  0xd543fc999c94fa74U, 0x24ea49928b9ad4d7U, 0xa3b44d6cb0bffd3fU, 0x37b604f446e33275U,
  0x7dd3235f28b40ddbU, 0x87b08467c004efdbU, 0xb951aa208a3902a4U, 0x52ae96749d7122ccU,
  0xf4384888e48ed5e0U, 0x5fcaa864e729ba91U, 0x6abd0ac816ab8fd3U, 0x6d03d442476652dU,
  0xc08978c98dc21e74U, 0x996df5ac7a4139b1U, 0x3af5efa5045d3f8aU, 0x92854bf5b9d03a90U,
  0xa6a7e072b029448cU, 0x19542f90c9ebb235U, 0x17c31e81ab4e5447U, 0xfba8792e3f047b01U,
  0x8517b9b551f5a7bU, 0xe32e81928b090d2dU, 0x12cccf9c221aef5cU, 0x6f4262db0e94d1ecU,
  0x249c1c8b43fcd8a6U, 0x7503f87c3c30c01aU, 0x25177cf1f7d24316U, 0x53019f58ed5d6446U,
  0x8451a8629c5b21aU, 0x94198d9f3f78eecU, 0xd0c0906088a07335U, 0x9ebdd1842509eb13U,
  0x99179c5bede43f47U, 0x651acb021209b98eU, 0xd756ae2963534b83U, 0x64f79a2d34937195U,
  0xa9148b06fff79f5bU, 0x725159ed3def29d3U, 0xa9cabebea0dd4002U, 0xc17084d72a35a01fU,
  0xa8d8779d6f453dc7U, 0xfc95330dfa700535U, 0x19123c8eb4d87d87U, 0x8ba90b55c2f0c06aU,
  0x74a1244b0a1bb982U, 0x24c06cf965b12230U, 0x1abfa3e066a26230U, 0x83ae6b95c00fa7d2U,
  0x8143dec264536031U, 0xafc1b6277c7c844aU, 0xaf2bb8f2ea97c573U, 0xd2eecf8ef4663ea5U,
  0xaffe0bad11582f0fU, 0x71dc4e744b3301d9U, 0xb9fe0612ab6085ddU, 0xe4f90e7d40a9967U,
  0x158410a5c0c4fdeeU, 0xbf6738250333fc7dU, 0x618be0e4e5da45aaU, 0xc81a01b0bd8c579cU,
  0xb3859a33d9a63f17U, 0x1032eb49fb0c06e2U, 0xbfc17e03e77c321cU, 0xdd5b3be24a57d44bU,
  0xab007409b23e2899U, 0x94709532d66cf7e8U, 0x8c50a1dc0fe7af7fU, 0x1d5dbc60835b50caU,
  0x545138fd1b25b883U, 0x7a80a1081578ecbU, 0xa94e7ec205600935U, 0x7051ba9b72621ad2U,
  0xb2037d1736910572U, 0x1d6522599baf3c3cU, 0x38a63ec5a36daabfU, 0x35580a163e6bbf70U,
  0xe9e949e69890f4c8U, 0x875622b43883d534U, 0x1707d74c06eb4c1aU, 0x193fab19771d42a6U,
  0xa96ce3f092c12ab3U, 0xa654b0c5cf57637fU, 0xd4de0daeaf3da82bU, 0x90a34b4e9d72eb04U,
  0xe3cab854328c396fU, 0xd7328a5869a8454cU, 0xaee3edd0e89b6a10U, 0x18eb836e8bb38736U,
  0x765f8a04ecf43c07U, 0x7da5fdaaaf63ea8U, 0x50b4d148d213d3c8U, 0xecdf522d108909ffU,
  0xbcb4088ce513d231U, 0x1276850283e06ccU, 0xf7c8f0291c74d25U, 0xbb13f7e725f65578U,
  0xb09a97991d903ba4U, 0x944cf23bf03c8298U, 0x9875e7bdf7116bffU, 0x1cb414616fc7dc0eU,
  0x5d17c3a79ca8055dU, 0xc49e74e91a9eac03U, 0x494c98b7fda7776aU, 0x20f0c4027e42ac11U,
  0x22aa9ec9887d36adU, 0x54d6b0e658f99b7aU, 0x1615207b576bfd6aU, 0xed2f73b6c1f8beaaU,
  0x7320e55fd29bcb52U, 0xc7ffbbfa333afd4eU, 0x9dd179f14eb243a6U, 0x75a9bafc69725c0cU,
  0x611a633e37a7b346U, 0x3aa25112bfd258f2U, 0x138a8c6e674e1cc1U, 0xe571a9601de128abU,
  0x93a672f340c153d1U, 0x5ab847911a18ab98U, 0x2048c626ed03f8ecU, 0x57a4926adc6698e9U,
  0xf1c0738813f0f569U, 0xbf0e4cd6a632cf5cU, 0x7611f4d4a9cc1946U, 0x3c04c022f357ec56U,
  0x637fa568f9671c96U, 0xb87cbb1ed29687c7U, 0x20d9efa0c3c619a2U, 0xad6b5909b6ab4e56U,
  0x9c41c5c5d88127aU, 0xa3fad70f5ffa1ebU, 0x3e6b28d406f56ba6U, 0x9d79a7422f03f953U,
  0xcaf8a7fce2180fb7U, 0x8931ef094212dc28U, 0x2d7d6eb7ec09e571U, 0x93b1f1c6eb423fd4U,
  0x7bafac8469639db1U, 0xa64ad082be591da0U, 0x2dee1bfc6ae98340U, 0x140b9d5dd75ae82aU,
  0xc0b65f22ebed684fU, 0xbe2853c94f0f7511U, 0xff16387b1aec695U, 0xb3fa1e66ef87a153U,
  0x40ad4669c4d3c1aU, 0x26bc2de8c5b39563U, 0xea4a6581289a610bU, 0x7cddc8d491ad00aU,
  0x7f9e50a3fe98d4daU, 0x63163745d4cbdcd6U, 0xf8cf149c93657c2U, 0x2b367aeacf6e97eeU,
  0xe09c29ef30018358U, 0xff683d3e3c435aeeU, 0xe7edc53bb9f1fc18U, 0x6c3e9f83f675a1aaU,
  0x538a393db45df769U, 0x84784872cd5ab152U, 0xecc07d8cb0839077U, 0x7552147a93e043U,
  0xc9276fa40c75794dU, 0x7f4cab387934659aU, 0x8e19f7adbaa438c8U, 0xc67b8cb56dfaa5d5U,
  0xcbb10cc59bcb5423U, 0xb8d3c2a762bf0fc2U, 0x761c2dd2b9ead598U, 0xfcdc8437618c31dbU,
  0x1136a066f28e2f2fU, 0x7bd0435369ae2764U, 0x7f5aca58c0b3efcfU, 0x23496292ef2d046cU,
  0x5fa23dab4969b652U, 0x4a16a06c92b61c03U, 0x3d279b54270285e6U, 0x6dd393ff541d3fd2U,
  0x42f5c3ecd789c2U, 0x6d94770034a8a795U, 0x3ef1d966d12d4597U, 0x7d6922bb53486478U,
  0x721a2efde76908d1U, 0x421668f68243f9a9U, 0x6137615a778e6284U, 0x5b6ae76f0014a324U,
  0x51d26a7efcf00540U, 0x20541bd3d34db55cU, 0x87259e726fdc3739U, 0xf0b65b551f2eacdaU,
  0x71c877695242be65U, 0x276d1d343d0eafc8U, 0x512e5362bf99bdbaU, 0x68b4f6777dc76c33U,
  0x1efae8fba5ac5723U, 0x96786a7600edad44U, 0x3869f0a48172a7bU, 0x8fa2309725b270feU,
  0x4469adcd0d855c65U, 0x9d0b21115ca483c5U, 0xf1c13928a3b5f848U, 0xce1c58fdb0a7c01fU,
  0xdc430f349a17022fU, 0x4c2f05b4115fbd5fU, 0x7b992d50db6a308eU, 0x1662e7cfff4e16c3U,
  0xe9bf379dc75e5f27U, 0xd805910fa60f04c9U, 0xb3e6fe6d0413de6aU, 0xbbdf18c44b3adc9U,
  0x8f70e0e0308b781bU, 0xe99e45b8323773b5U, 0xf0482f1e1d44f946U, 0x934bbc54df10a7abU,
  0x4bec74c2b68dfe7aU, 0x731b277f68249162U, 0x9970d046013850a5U, 0x26e19e99d13cd583U,
  0xb9fddd1c73001837U, 0x5152a3784752e62aU, 0xac8dac9f1efa834eU, 0xad0b1afbdeb10986U,
  0x4b4ea55bddde1733U, 0xf91f8e3aa54a03c7U, 0x9f7a5bbfd39c11a4U, 0x50d172fdb3fd61cdU,
  0xb0ee49bbc0eda67cU, 0x9c70936ba4b54c1aU, 0xa3ede43df7139917U, 0x7f1a66261efa4f18U,
  0xb123c4fd3b92c7a3U, 0xfbfc860af25dd8dfU, 0x832dc436d08b8417U, 0xb2f39b149b9f9b3bU,
  0x741cfdd70e4f6e8dU, 0x71536a43a5bb5fdcU, 0x6c9bab88e8d297d3U, 0xf96300ef3e8cfc41U,
  0xf5d0b29b23aa75a7U, 0xb923f29ba97099e4U, 0x46089d0d6a5abd6cU, 0xc001d1bd089413a1U,
  0xa830a64b69b8e8aaU, 0xf8ec86e84c5013dU, 0x61ad682681222e75U, 0x5c301af2964fe8dcU,
  0x64dfbc0fa59c05fdU, 0xd850e6fe7e439255U, 0x52f54e7ef8d4766cU, 0xa36a5392a57db9d2U,
  0x5e090a25244eca86U, 0xf8c4673cc6d1f2d7U, 0x6cbeb5ea88ff6756U, 0x97cbeb8306a4f4f6U,
