/**
  ******************************************************************************
  * @file    network_data.c
  * @author  AST Embedded Analytics Research Platform
  * @date    2026-01-19T21:06:49+0000
  * @brief   AI Tool Automatic Code Generator for Embedded NN computing
  ******************************************************************************
  * Copyright (c) 2026 STMicroelectronics.
  * All rights reserved.
  *
  * This software is licensed under terms that can be found in the LICENSE file
  * in the root directory of this software component.
  * If no LICENSE file comes with this software, it is provided AS-IS.
  ******************************************************************************
  */

#include "network_data.h"
STAI_ALIGNED(8)
const uint64_t g_network_weights_array[9369] = {
  0x3d9a73b73e13880fU, 0x3e7211df3ea0481dU, 0x3e5824f93e52ad77U, 0xbe5287d83cd2f2d9U,
  0x3d221e35be8ac6eeU, 0xbe8903e43e1911cfU, 0xbd42c12e3e058901U, 0xbe87b166be2a7e10U,
  0x3e9959c83da0f66aU, 0xbddbd088be80db3cU, 0xbc9a4e76bd8ec88dU, 0x3e86a2823e61edbeU,
  0x3d41b408bc827e8aU, 0x3d738195be2e93f5U, 0x3e9c14543e9d35d4U, 0x3bf56db73e55f9f9U,
  0xbd8cef9d3e5cd789U, 0x3de0c38f3d81fb39U, 0x3c98da94be9eaba2U, 0xbe5d0ef43e8cc0d6U,
  0x3e4ab557be5d26c3U, 0xbe72fe73bb845437U, 0x3ce96c88ba642601U, 0xbe883b41bd44d5b5U,
  0x3e8be6953dabe322U, 0x3e93a6f6be1dd066U, 0xbe9752393e7d9d81U, 0xbc6204fcbd186fbbU,
  0x3dc4dbdbbd92434eU, 0x3e870f79be5b3aa7U, 0xbe6ed502be5ce184U, 0x3c8d0cf1be2dd4bfU,
  0xbe99cb4cbe50e47dU, 0xbdfb71f63e85dd95U, 0xbe8c55f6be1389c0U, 0x3d4785c8bd39d0f5U,
  0xbdfa0670bd85c967U, 0x3e984bc93da9d3e2U, 0x3ea155073e02e9d9U, 0x3e4a5e36be91d661U,
  0x3e8429b03e93ed39U, 0xbd109de4bdc66890U, 0x3e16662f3d156e08U, 0xbe2b8cad3e8e4136U,
  0x3dc40a603e6c58efU, 0xbe23e4cebe3c7a45U, 0xbe397f573e069af4U, 0xbe77ed503cf51008U,
  0xbe46b9c4be97e451U, 0xbd634d81be543c72U, 0x3e9ea7603e4331d1U, 0xbe334139be9a952aU,
  0x3e4057c43d06711fU, 0xbdb18c8b3e543571U, 0xba3083afbe37e4aeU, 0xbdc7dd84be8d546eU,
  0x3ca92812be223b38U, 0xbb8283ad3e73fef3U, 0x3d51745f3d6478f9U, 0xbe518461be81419cU,
  0x3e536d5bbdbe139bU, 0xbea0145bbd96bcebU, 0x3ea0e3df3e281c0aU, 0xbda1cc393d951356U,
  0x3e9a6a84be54d4ccU, 0xbdbe6bef3da23828U, 0x3e97b88dbe941cfdU, 0x3e5f75e4be899907U,
  0xbdd0b2e13cf0b216U, 0x3e9d725a3ea0ec0eU, 0x3e11594cbe3bb55cU, 0xbe9c88b33d0f965bU,
  0x3e63ce59be8ee759U, 0x3e517ccf3e1ee870U, 0x3e0cba90bc469a78U, 0xbe6a5d273d76a102U,
  0xbe288ffa3cd3f025U, 0xbe939a21bbf8ba0bU, 0x3e06a9a93e9df025U, 0x3dacf3493e9f2622U,
  0xbe1a644d3e5c0de4U, 0xbe0b4e5e3e693fdbU, 0x3e18166bbe8dc2f3U, 0xbd46ccbfbdb55150U,
  0x3ea08f353e65ad98U, 0xbe17579d3da4bde5U, 0xbdcd785cbe2a386fU, 0x3e4e1ad93d5c6c46U,
  0x3c09eca3bcb3cabfU, 0xbabe723f3bd70176U, 0xbce73895bc41186bU, 0x3ce74cdf3b2b64c6U,
  0x3c53a7863ce91c61U, 0x3d23ccd13c129cc7U, 0xbb37aecd3c7acce2U, 0x3d117c6c3c053468U,
  0x3d05da95bc909d52U, 0xbd284f3fbcfdd1acU, 0x3d347e423bf47d71U, 0xbd0ca1e43ca07b15U,
  0xbd149f9b3c4a54a3U, 0x3cb4f05fbd38b9c4U, 0x3c5408d5bcdf2349U, 0x3d0075753d34616aU,
  0xbd335247bd129664U, 0x3b3fddc03d0f1322U, 0xbcfa5684bcbc43f5U, 0xbc7b9ad33ce878b4U,
  0xbc8b4923bcfd5db7U, 0xbc343cc33cd9752fU, 0xbb747237bc3876a7U, 0xbc9094a03be8a6d9U,
  0x3cb8f186bd20dc6fU, 0xbcef274cbc83bbf9U, 0xbc4b6e543c6917cbU, 0x3d0308eebc9633bbU,
  0xbbf82bf0bcad44d8U, 0xbd16859c3c549cb8U, 0x3cbc67ecbb2c3dacU, 0x3b9015763afaf0ebU,
  0x3c2a82a8b92eeae0U, 0x3d2f1c47bc060c2aU, 0xbd1b372c3c7d6819U, 0xbd13e9e63aaa83d8U,
  0x3c47e3eabcda0424U, 0xbd0f47fcbd092546U, 0x3d32bae839a6d190U, 0x3c935923bcb1bc8bU,
  0x3c741084bcfd34c6U, 0xbc02557a3ce689b6U, 0xbc4deb83bd091d85U, 0x3ba84ea43ccfc0abU,
  0xb7a3ff4c3c929993U, 0x3d035d05bd0ab3bfU, 0xbd0017ea3d305f9eU, 0xbd022a4ebd2564f3U,
  0x3d38484dbd35df12U, 0x398ebd21bd0088f2U, 0x3d294939bd198040U, 0xbcf3e8c2bbe7f606U,
  0x3ae5d028bce08506U, 0x3d0375ad3d33e42eU, 0xbd0aa8fbbccdfb1cU, 0x3d2f4f6fbc12c9ceU,
  0x3ccc0b14bc86ae0dU, 0x3c9709e7bbeaab08U, 0x3d0b6d7b3c3c06f4U, 0x3cddcdf93caa9f26U,
  0x3b9fcad7bca5828aU, 0xbc19bf923ce66665U, 0xbb9da080bb7ff929U, 0xbc4fd8ce3c8d574bU,
  0x3c8d2929bd0bd299U, 0x3cad7dfabbc919f3U, 0x3d2a85abbbbc3525U, 0x3d38d6133b3a45a3U,
  0xbc721d6dbbee268aU, 0x3c6d5633bd38789fU, 0x3c86ccc83d0f325bU, 0xbc94ee7d3d17eb20U,
  0x3d088d323c845fa1U, 0xbc19e113bc7261a4U, 0x3cd0cc1e3d232ac7U, 0x3b68b3093d17cf99U,
  0xbc8f9a253c801367U, 0x3d2654683cfe3cbbU, 0x3cfdc7563bc175f1U, 0x3d20530e3c414d69U,
  0x3ca1bbd5bb23a533U, 0x3c2a9868bd310633U, 0xbb925a473c1c9fcdU, 0x3d19dc9cbcc23a4aU,
  0xbd1390f93c8d1fa7U, 0x3cde11b03cdea5d8U, 0x3cdebbfe3cc7566bU, 0x3af16a753c27d973U,
  0x3c662e063c687036U, 0x3ca0b8d7bc1cecb6U, 0xbd0c3f35bd19143bU, 0x3c8458b73cc09f01U,
  0x3d2f38e13d1d981aU, 0x3d0a25a13c7cf0dbU, 0xbc9bb11cbd170a8fU, 0xbd10d5f4b7e4fe61U,
  0xbc100205bb7ec30fU, 0x3d1005283d14ac38U, 0x3d02fb54bd01761fU, 0x3c50041f3d2fac1aU,
  0x3c9216ab3c713d51U, 0xbd2e4b80bd172a2cU, 0xbd2709b1bce13b7cU, 0xbcae8a6ebc82065bU,
  0xbd207075bb5582c9U, 0xbc85a1cb3c9d6c06U, 0x3d0e6e4d3d06d9b4U, 0x3b6ed9303d22d0b7U,
  0xbcb04b5bbbc0204cU, 0x3d3105ea3b4adedfU, 0x3cef5aa8bd288747U, 0x3c9411b3bc5ee608U,
  0xbd0e903b3cf28abeU, 0x3d1b62bebc02f66bU, 0xbceb79da3b84504eU, 0xbc4f86823d195f27U,
  0xbcf4e4ffbce64f60U, 0xbbfc483fbd09e8ffU, 0x3cad7cf63c7e6f65U, 0xbd157d413d1f7c35U,
  0x3cd84d38bd2caddfU, 0x3cf0d37bbd186605U, 0xbd1394c1bd1fa447U, 0xbb30c0a3bc9ae928U,
  0xbd058a603c698d2aU, 0xbd0533a7bccce8a2U, 0xbd36b92cbc7c4e7aU, 0xba7af8f3bcb5d36dU,
  0x3c7059823d2135dbU, 0xbd1f3645bd014c69U, 0x3c95d863bcca9ef5U, 0x3c8db777bbfaea29U,
  0x3c6bd64b3cbdb2cbU, 0x3ce3938cbc000278U, 0x3d03d4cc3c1c7f53U, 0xbd178f9bbce18cecU,
  0xbbfc8a113d250784U, 0xbc3e6afd3d091d6cU, 0x3bcc46673d378231U, 0x3d30db61bc8939b1U,
  0xbc11fc803c84c622U, 0xbcc15e203d1c209dU, 0x3d2f61a23c7bc0eaU, 0x3bef404cbca2f88dU,
  0xbc5d8e6dbc31a92bU, 0xbcca46203d21f7d4U, 0xbc9d5aadbcc25db2U, 0x3bb9f1843d0dba0eU,
  0xbcb74baa3cdeecc9U, 0x3cd6872ebc3c1913U, 0xbd0cbe9ebd29ac94U, 0x3ccb6e023d2d89c8U,
  0x3b9ecff03cb415ddU, 0x3d34fde53d0fec3eU, 0x3c9e9aeabcb6adfaU, 0x3b96405dbcfe8f2cU,
  0x3c25ad0e3d02e7ebU, 0xbb700283bbf0c17cU, 0xbd27a4d03b6beb15U, 0x3ca3b9483d17ed2fU,
  0x3bf968853c922312U, 0x3d204dbc3d23a7f6U, 0xbacd2b7d3d374d0cU, 0x3c8748b13c4d106cU,
  0x3c9bb7ec3c6aac78U, 0x3ba210403c7c8bf6U, 0x3c38f58b3cd40234U, 0xbca0a9d2bcc68652U,
  0x3ca6ee803ba73a0aU, 0xbd31cfc43d2a947dU, 0x3d135d543bd1fcbbU, 0x3c936cf0bc3ca3f2U,
  0x3cedbb07bc841c77U, 0xbc4198033cd1a03fU, 0x3d2b0c293caa8790U, 0x3ce85540bcd6e899U,
  0xbd14caa7bd2b14e8U, 0x3ce8898b3d063328U, 0xbc5910c2bce4f858U, 0xbd01855fbca32d62U,
  0x3c03ae4bbb6a4b45U, 0x3a50de80bd01630cU, 0xbd0f6ccf3ca8b65aU, 0x3c9ccfbdbc8b546fU,
  0xbd28cf0cbd24f23fU, 0xbccd4eb13c5185b1U, 0x3b9c1e4fbae81c3aU, 0x3bd75b32bc380350U,
  0xbb98cf65bcb76de6U, 0xbd036d54bcf99324U, 0xbd322a14bd02860cU, 0x3b5b0110bd31f350U,
  0x3c7c67ac3bfb4c1dU, 0xbd039a373c9a44eeU, 0x3d0f2d1dbcde19d3U, 0x3bb496c0bcdc9724U,
  0x3c347caabd30f714U, 0x3d1b2b343c10222dU, 0xbc0f9a623ba6adb0U, 0xbcd728d4bcdf467dU,
  0x3cff6b10bd039396U, 0x3ca6ff633cbdc01cU, 0x3c660aa63d15d475U, 0xbbfaa2de3c08470dU,
  0xba04353d391fb7daU, 0x3d22de07b9e0b579U, 0x39ac2738bd1d97bdU, 0x3d32ba35bbb3bba9U,
  0x3cc6dfb6bc7bb310U, 0x3d0d8155bcecb88cU, 0x3cafde3fba880e68U, 0xbc0861c1bd272026U,
  0x3cc9a4e93d19348dU, 0xbd3a123bbd27a3dfU, 0x3c27b29cbab1ea0dU, 0x3c98a85ebc4a314fU,
  0xbcb65519bb843e00U, 0xbd224d49bc58eca1U, 0x3cfbff6abc1e88ebU, 0xbcf0da1c3d23c6b0U,
  0xbc66d2a3bb8d5803U, 0xba8c90d3bd2bee18U, 0xbc41be66bce0a984U, 0xbca5205c3cb04f94U,
  0xbc7056623d15396bU, 0x3d34dff83d13ff28U, 0x3d142c9fbcd47afaU, 0xbcaf322e3c5a31f4U,
  0x3d245bd6bb9da59dU, 0xbd1edf8a3bc58914U, 0x3cfcf7b43c10d625U, 0xbc5ae763bbbc5f3aU,
  0x3c6990c53c2a116aU, 0x3cd7064a3cf34844U, 0x3c8147ae3c9565a1U, 0x3d32240cbd288094U,
  0x3b8d74dcbc5e249eU, 0x3cfc058dbd097fe3U, 0x3cf070c9bd12b7d7U, 0xbc46d8b8bca376dcU,
  0xbc8601853c852d46U, 0xbb32257b3d217cf3U, 0xbce543ee3cb430b7U, 0x3d27201f3acfcca4U,
  0xbc93d12bba855b5dU, 0xbd1da0e33b95d5b2U, 0x3d19e2ecbc913042U, 0x3b41ea783ccfcdabU,
  0x3d1ccbb9bcbeaa1aU, 0xbb9ef339bc8d0116U, 0xbaf853f7bc828622U, 0x3c9b1c4abc9e2261U,
  0xbc98a2d33bcd4547U, 0x3d00ba063cee7454U, 0x3c44bf03bc62efc4U, 0x3d15aaa3bd1102deU,
  0x3d0ce8323ca7b969U, 0x3c28eb56bc44d89fU, 0xbbd969483d34e4bdU, 0x3d1ceb133d1d1bccU,
  0x3c8dd6f83cd75335U, 0x3cf70b46bd17710fU, 0xbd30d84f3cf36863U, 0xbc121fd4bc853249U,
  0x3c8a49a03b409297U, 0xbba7c7ac3cc339a1U, 0xbcff766d3d1fa33aU, 0xbbe516a93a964866U,
  0x3a9a21053d0c41abU, 0x3c22daa23c7a942bU, 0xbcc3d8f33d3aeda2U, 0xbcf677f63c040fc9U,
  0xbca09fee3c55d370U, 0x3d34df903cc5874fU, 0xbcf2002ebbbc403cU, 0xbc1c82aebd2ca7d6U,
  0xbc904ae63b9f9f35U, 0x3cdf306ebd28baacU, 0xbd33612cbd02c727U, 0x3c8da8933c850ee3U,
  0xbd0aa5af3cd9d148U, 0xbd145813bc0a0711U, 0x3d2ca914bc94848fU, 0xbc1ca38bbc856db6U,
  0xbce5eec33c57e5faU, 0x3bfa4529bc9863dfU, 0xbc801fddbd2a8ef4U, 0x3c6ca307bc6acde1U,
  0xbc1aae8f3c8c7ea0U, 0xbc8dbe873c90a71fU, 0xbc5c65c4bcf0c745U, 0xbbc818fa3cef3f68U,
  0xbd2f8f67bcf67c4fU, 0xbceddc9fbd090584U, 0xbd2f8de53bd4671cU, 0x3c68380cbcc0feb5U,
  0xbceafdfabb8d5367U, 0x3d0507a6bd085734U, 0xbc8b079ebc9acfbeU, 0x3d2d942dbb456080U,
  0xbcf2d87cbce47463U, 0xbd0fa557bc96ce0dU, 0x3be9ad4cbd1ea1c7U, 0xbbce29163cde9af3U,
  0xbc9ef76ebb3f301fU, 0x3d18a9eabd0f096aU, 0xba1d7baabbc611c8U, 0x3ce4c002bc912407U,
  0x3cefc7c5bab341a8U, 0xbcf231503d29a2c7U, 0xbcd31fb0bcc6a87cU, 0xbc58f8d7bd0e7bf9U,
  0x3bcd007e3d0fb0abU, 0x3d0155af3be300a2U, 0x3d17c2a2bcf87bffU, 0xba95deb03b8bbafcU,
  0xbd379b57bd051217U, 0x3c1627f2bd066d94U, 0x3c25dbe33d2a2609U, 0xbd0124783cea7373U,
  0xbbe936dabc31f8c0U, 0x3cf070203d24d9fbU, 0x3cf6b0543c9fd880U, 0xbc6ed3a5bd376a32U,
  0xbd07df193c1d1711U, 0xbcbebb033b9687a9U, 0xbd395227bca53e39U, 0xbd1cce2ebd2655d0U,
  0x3d0ed192bb81d134U, 0x3cd422073d2f53e5U, 0xbc9fdb9b3cf2489aU, 0xbd195907bc9f08deU,
  0xbd2893dcbc246dbcU, 0x3c06c303bd0f8e43U, 0x3d3591f9bd1df28dU, 0xbb67534ebcc084aeU,
  0xbc17efc93c8cb5aeU, 0xbcb9371fbbffc700U, 0x3ce580683ccdf588U, 0xbd3343ab3d025147U,
  0xbd345b3abd2aab35U, 0xbb33d35abc7e4376U, 0xbd2e6ea63cc31bfcU, 0xbd04998abd1381b3U,
  0xbd2bb4e73d2067d8U, 0xbcdb49883d2c48acU, 0x3d25a0cebd23abcaU, 0xbd2a03ec3d0d5c2cU,
  0xbbe9218a3cf8a56bU, 0x3c8a485cbbc54e0fU, 0xbd0576a43d2d9d1fU, 0x3cda4b6a3cd2c703U,
  0x3cd77ec93c9828f4U, 0x3d19f9ca3d1abf6eU, 0xbbd806393d38ebdcU, 0xbce24e4ebbcf7ebaU,
  0x3cf75b3e3c223645U, 0x3bd609583ae87a12U, 0xbd2622c23b1a05d1U, 0x3ca06709bbec9578U,
  0x3ba36b013d12cee1U, 0x3d190736bc083849U, 0x3bf584e6bd124e9dU, 0x3c71bcef3d19ab94U,
  0xbcea37e53c7785ddU, 0xbb20527ebd3978e4U, 0x3c922d2bbc12615aU, 0x3c9e42b83d1936caU,
  0xbd1ab1b9bc9d626dU, 0xbcb2c85f3d0ea4e0U, 0xbca26e233cc2f3fdU, 0x3d3a72db3cecf83bU,
  0xbd03f920bc245ef8U, 0xb9e9e9693bdcb99dU, 0x3d1e9367bd0da468U, 0xba1b06e1bb866bc4U,
  0x3d317f753c37c5ecU, 0x3d1e7a22bd1ba37dU, 0xbc62ae393d2c01c1U, 0x3cc88f693cc1e59bU,
  0xbba85b3dbca99fe9U, 0xb9b037e43c45c929U, 0xbc993a0abc076aafU, 0x3a9e27493bace4bbU,
  0x3bb25af9bba6d796U, 0xbc9c6de13d196d03U, 0xbbefe4a9bd0657c9U, 0x3d0baee5bb189634U,
  0xbc768ba53ca6a25eU, 0x3c12f9813c28eb32U, 0xbcf6013ebd1d4236U, 0xbced2222bd35eba4U,
  0xbd21ae46bcea967bU, 0x3c4944bd3bf99612U, 0xbcfeb64dbb6247deU, 0x3cb1ac92bc9ba89bU,
  0xbc4857c23c5c2decU, 0xbce6a68bb9809bf8U, 0xbcf28bb3bb884782U, 0xbbf46081bcbb789dU,
  0x3d253a2cbd266625U, 0x3d20b73e3cde9558U, 0xbc26f397bd0a0d46U, 0xbd2692c6bca17c4cU,
  0xbb3fa50fbcbdfaecU, 0x3d01e8133d101fa0U, 0x3c15210f39b5edf2U, 0x3c800f603c42b8b0U,
  0x3d20100cbce584f0U, 0xbc28ca0abd003c38U, 0xbca925d1bce025eaU, 0xbcd0bb0f3d261e09U,
  0xbcdcb7323cf36363U, 0xbcc09c873d008348U, 0x3b934d6b3c5f9077U, 0xbc8fa84ebd01ca14U,
  0xbd114b703c34432dU, 0xbca4a2e03d0886cbU, 0x3cf26264bd18bcbaU, 0x3cd052e9bc07e453U,
  0xbce1e5213be04b20U, 0xbce4953abd25c48dU, 0xbc74de3b3d348cb1U, 0xbb562171bca57331U,
  0x3ca091c7bc70520cU, 0xbb8702cd3d016625U, 0xbcec04443ca92e08U, 0xbb81f52bbcf01031U,
  0x3d39a38dbce79459U, 0xbc9581aa3cdbe9f8U, 0xbc7c5c49bcf5c13dU, 0x3d35b3c43d1116d4U,
  0x3d34cabb3cd6062bU, 0x3bda7a8dbca4e5e1U, 0xbd0478bb3c38bde1U, 0xbd37f4bcbbd26334U,
  0xbd05cf2bbcb4e305U, 0x3cfc6ebdbc952b37U, 0xbd195c143c82c8ecU, 0x3ba92d33bd1accfaU,
  0x3d2947f2bcf56ccfU, 0x3c048b00bcda72eeU, 0x3b65994bbd0a38b8U, 0x3d20df383ca0ed51U,
  0x3d06712ebc8ceb04U, 0x3bfb2c7b3cf0a0a2U, 0x3d39993f3c3ebc30U, 0x3caa4862bd0e867aU,
  0xbce03e1e3c52b8daU, 0x3c6f383e3cd31016U, 0x3d2d5bff3bc069bdU, 0xbd060603bd0b9ba8U,
  0xbc82027c3bc37e24U, 0xbc704c513cacb9dcU, 0x3d26f3e6bc40f4bfU, 0x3c2377d43cd51cb4U,
  0x3abe32e4bd046580U, 0x3d37474bbd227528U, 0x3c8feb58bd2d2e89U, 0x3d2024a1bd13d319U,
  0xbc4ac9bdbc8512a7U, 0x3d0473debd2c4d80U, 0x3bcada2bbb6155c6U, 0xbb0360443cd21e70U,
  0x3d11c7aa3d132ac7U, 0x3cec132e3b5aa497U, 0x3d0073383be001a3U, 0xbd3a2487bae4b8d2U,
  0x3d028b003beab33fU, 0x3d27994c3d2db611U, 0xbcc9a8323d01b3aaU, 0xbd2c2becbcc354a0U,
  0xbcf5a9203c8beec1U, 0xbd191d7fbc554268U, 0x3cf42005bc7604c4U, 0xbca274cabbece3c0U,
  0x3c29686c3c40ad27U, 0x3910edffbc930bfaU, 0x3c02666fbd2d23c3U, 0x3cfc7bb0bcb671f2U,
  0x3ca732ba3c2d63b0U, 0x3d253c373d03749fU, 0xbd04b445bc7c16a8U, 0x3c5a2ddfbc042a5aU,
  0xbc0f9b2f3d3a9c7cU, 0x3bc25601bd1c5f46U, 0xbc1262203ce7c593U, 0xbd1a1612bc97089dU,
  0x3cb68e183b00d8acU, 0x3b794e463d316ca8U, 0x3d231cacbc7385f1U, 0xbc4fdcef3c7d4a11U,
  0x3ba028afbb648168U, 0xbcab0ff2bbb68e85U, 0x3d067437bd1779b2U, 0xbb80233e3b0477e0U,
  0x3c9789b1bc328fabU, 0x3d0bcb0abd1983a8U, 0xba640becbc22c3caU, 0x3c6fe4ef3c8144ceU,
  0xbcdbf61abc4ddbfeU, 0x3d3720cbbcc64036U, 0xbd03d8e13bc73c33U, 0x3c57bc94bc16f4a2U,
  0x3c917b3dbd1f016dU, 0x3d29a598bbecd6b2U, 0xbcf1dead3cbcf943U, 0x3bde78023bba6129U,
  0xbbb2ae23bc71acf0U, 0x3cc1bced3d141867U, 0xbcba27a4bbd38f72U, 0xbc9d9b3dbcb0525dU,
  0xbc78ff27bd032887U, 0xbd29cd8b3cd4d4dfU, 0x3d1c8840bbc67297U, 0x3c1cb6fdbc69b4f2U,
  0x3d29bb1bbb9fab65U, 0xbd0f24273d3a7157U, 0x3aff9e3dbb687ba0U, 0x3ca1f7423d06a21aU,
  0x3c75f4f4bcdbc4e3U, 0xbd1f878d3b72f0b5U, 0x3bc130ca3cc3f643U, 0x3d2b54a43c3945b7U,
  0xbcab8067bc8d663bU, 0x3cdb87cd3cf6f252U, 0xbd0749c5bd2056b7U, 0xbccfb537bb99c0f1U,
  0x3c83692abcfc49d8U, 0xb9be6346bd283b6eU, 0x3cbd9d66bc429b04U, 0xbce28d5c3d023fbdU,
  0x3c3634c2bbd7886eU, 0x3bd4817e3d1eb886U, 0x3ca758e23bf444a9U, 0xbcd0c456bce7ae69U,
  0xbcc15dc3bc31dd57U, 0x3c6569243d06c8f8U, 0x3ca57ab9bcafd2a1U, 0xbd2fc62b3bf60e77U,
  0xbca6f77bbd38764fU, 0xbb310dc6bce84878U, 0x3d071eadbcf124d7U, 0xbb62e758bd151c1cU,
  0xbd1a7e7bbd23a4bfU, 0xbc56dae43a571f50U, 0xbc075bab3d175aadU, 0x3ca0dc79bd31af9fU,
  0xbb27105e3c563278U, 0xbd1e8c1a3bfd704bU, 0x3ca8254fbc5c1cd4U, 0x3bd69a5a3cdd3976U,
  0x3d1443a8bc693c26U, 0xbc1ddf543d1bae85U, 0xbcc2a255bc158a16U, 0xbcc81d5b3d2e0551U,
  0xbc24c8b9bd1d6e0bU, 0x3c89a0cd3d11998aU, 0x3d0e9a13bc516084U, 0xbbaa54773cef1aa1U,
  0xbd271aeb3bf1cd2fU, 0xbd03ba443c4d5c65U, 0xbaab0e9abd049922U, 0x3cde92843cfcab2eU,
  0xbc4583abbc9163fcU, 0x3be2ce553a471f71U, 0x3c834e2e3c2859a4U, 0xbcf5121dbd21f309U,
  0x3d104fec3ce30ffbU, 0xbd1e7ac53c479d77U, 0x3c96afd33bc76acdU, 0x3c8dae27bbf27b16U,
  0x3d050c3bbd228e5bU, 0x3bb046dcbc9a0432U, 0x3cb06f8a3c23b425U, 0x3be3840abd36877cU,
  0x3c1767043cc45e9dU, 0xbc60b04b3d204472U, 0x3c93b2393c498755U, 0x3c80d18ebcf5614eU,
  0x3cefd025bc8ad9e4U, 0xbd2e8fedbd127369U, 0x3d32a3afbcafa28bU, 0xbb2f3243bcad3842U,
  0x3ce745823c146880U, 0xbcb5dfc53d16d7dfU, 0x3ab1f0a0bcd1f9afU, 0xbc39486e3d0b0f67U,
  0xbd149fe13b6ca80cU, 0x3c078612bd387496U, 0xbd133a08bcd4465fU, 0x3d0629fa3cc7cd84U,
  0xbc6d3b573d21fce8U, 0xbb87d471bb55e87bU, 0x3cdd902cbc94bd71U, 0xbcca71e5bd05065aU,
  0x3d1efa523cf4b665U, 0x3c70684c3d2ef450U, 0xbd023da2baf5491bU, 0xbd2da5bd3b8128d3U,
  0x3c4c312ebd253058U, 0xbc5ffcfb3d37480fU, 0xbbef870cbd34bbc0U, 0xbc12657bbc8fbfcaU,
  0x3c53f1fdbcbbf6ceU, 0x3d0996073ce41189U, 0xbccec8563d120dcbU, 0x3b612f9e3cd439beU,
  0xbce0419b3d08fb99U, 0x3b774f40bd21e44aU, 0x3c97765dbc1f9905U, 0xbc078da6bb1bfbfcU,
  0x3c7be2883d14bb09U, 0x3c81ef85bc0eb8f9U, 0x3d1922213c3d3101U, 0x3c1f6f363c230c5cU,
  0xbd1ea969bce95fc3U, 0xbc98ca573cc0cdaaU, 0xbcc254abbd390bbbU, 0xbd3396d13c90cb5aU,
  0x3ccfd276bbd5aec9U, 0x3aa542173d394fa4U, 0xbd1a6487bd08c11bU, 0xbc39fb14bbd565cdU,
  0xbcc494b4bc717fb4U, 0xbcb4be4a3cb4176aU, 0x3b01b7f63d0cc24dU, 0x3afb9c2cbc3f64a2U,
  0xbcbfabae3b3367e8U, 0xbc86982a3ce230e0U, 0x3bb066c4bd1bb9e2U, 0x3d1a3cbdbac3e000U,
  0x3cb8c28f3cbca11aU, 0xbc098362bd0f4d9dU, 0x3c61b28b3d368d6cU, 0xbc4cf8f63d389623U,
  0xbb3d308dbd18bde1U, 0x3bcd9e31bca8ed92U, 0xbcaa6370bbc2ac17U, 0x3c4288ce3bdf42cdU,
  0x3c6e9eedbce10678U, 0xb9df808fbbce92d7U, 0x3c2ad809bd20b1ecU, 0xbc5a9e79bca569d0U,
  0xbce1a28fbce4cbf1U, 0x3a90bbcabd0c157cU, 0xbc4c1b7abd0ef611U, 0xbd21c133bd15c81fU,
  0xbd1adb093cb675e8U, 0x3cf8d618bc717feeU, 0xb93ad3223ce5ce23U, 0x3c8a6956bbb3ba56U,
  0x3d31ebcbbd369165U, 0xbce97f73bb86aa06U, 0x3cded5b7bd0e7d9cU, 0x3cd4839dbc8d86d2U,
  0x3cf3fc313c8a6d60U, 0x3cfe1b14bc4accf4U, 0xbc3935893cd28f02U, 0x3d2f10a93c98e813U,
  0xbbe10abc3d079766U, 0x3c8d32e4bd2ee8aeU, 0xbca84bef3c425e44U, 0xbb821b3d3ca4b510U,
  0xbcafe7a6bc189510U, 0xbcea8869bd299c43U, 0x3cf492f1bd2630f9U, 0x3c2227cdbcbada0fU,
  0x3c3ceb09bcdd322eU, 0x3d0c3b6bbd2685c4U, 0x3cb82c2cbc495e35U, 0xbd330428bb8156b2U,
  0xbcd432aabd05b180U, 0x3cff0bd63cb4209aU, 0x3c8b4ca1bd398b46U, 0x3c2e9befbc5c3aa2U,
  0x3a578648bc50a5e7U, 0x3d22a86db906eaa7U, 0xbba2ceac3cf588cdU, 0xbbf05a493ce996ccU,
  0x3cd5a3923d2be79dU, 0xbd0fdc76bd0bef76U, 0xbd12b2433c92e286U, 0xbcf361733c99a05aU,
  0xbd04daef3b204f64U, 0x3bfc71ecbc2dbcc8U, 0x3cc40bc53c0e2d2bU, 0x3c8f1f573cc82030U,
  0xbc5f19d03ba9d0ecU, 0x3d01d3e1bcff21ceU, 0x3ccd631b3c30981bU, 0xbb8f7558bc8a60d9U,
  0x3b8358f6bca2f5dfU, 0xbbda57ae3d25d077U, 0xbcd6559a3d1d7cbdU, 0x3d330881bd38f86fU,
  0xbcd6ea173caed067U, 0x3d1b615dbc76a5e4U, 0xbab82562bcc5d449U, 0x3b15ec323d10514dU,
  0x3bf350a7bc994f4fU, 0x3d1a29a7bd1d9504U, 0xbce21bf23c6e776cU, 0xbca11f4f3cc3d78eU,
  0x3b6ea9a1bd29f740U, 0xbcb7501d3c603398U, 0xbbbca74cbc766ca7U, 0x3cee12553cee4dbdU,
  0x3d39d6433cc21e4fU, 0x3ce2d6c73b0892f5U, 0x3d2b03713ca99d03U, 0x3d2c1f623cc3c272U,
  0xbc4b99aa3cc0803bU, 0x3b832f4ababe0fa8U, 0xbbbf52adbd29828cU, 0xbc511b29bd270603U,
  0x3c9a0e5a3c948e19U, 0xbd2b4b76bcba7d24U, 0xbd2433d33d0ee255U, 0xbc166fbebd050155U,
  0xbcb9cd2c3d20b1deU, 0x3ce45df4bc9bcd91U, 0xbd3590b23d1e4f1cU, 0x3cddff593cba3cddU,
  0x3c469d9c38de719eU, 0x3c4a1560bcbf181dU, 0x3d1a577fbd00606dU, 0xbcc8ea7ebcbba9c6U,
  0xbcceac03bc7bfc29U, 0xbcc4829b3a9674f2U, 0xbd21ad54bc6416b1U, 0x3c2b94e23d342be6U,
  0x3b0258a03ab30135U, 0x3cfbaaf9bb618685U, 0xbb7c16503b92efdaU, 0x3ce167ad3ab58ea4U,
  0xbca37c9fbcfa1811U, 0x3cf02b1abcc064fbU, 0x3d2a8099bc27d0c1U, 0xbb3d3ac6bc5435aeU,
  0xbd34316a3d29b85cU, 0x3d3af40cbc8eb5a7U, 0xbcd877ba3ce46bbdU, 0xbc46f4e7bce7a67bU,
  0xbb05bbc33d36be1dU, 0x3c5b248dbd1dd42eU, 0xbc300f103d17bed1U, 0xbc3104c337ab126fU,
  0xbd3226173cf4ccfdU, 0xbcf2ce7a3ca3b95aU, 0x3d01c72cbcf9d697U, 0xba2222c83c8eb4a3U,
  0xbcf352463c1b0525U, 0x3c839022bd38af9bU, 0xbcf9845dbcfb50f6U, 0xbc4471e03cfb7040U,
  0xbcd5401a3c323d83U, 0x3d1b15b03af596b3U, 0x3b8d73b8bd09a926U, 0x3d3838543ca252a9U,
  0x3ce41c2b3d08298eU, 0xbcfbe9033b029b8aU, 0xbd1c0fc7bc80f6eaU, 0xbd3a6ecb3c8a5bf9U,
  0xbd2efffcba450eb5U, 0xbce4757cbc32af5eU, 0xbcd5da7a3d0039c5U, 0xbcc010aa3bf61342U,
  0x3c66033bbc3071caU, 0xbc934ba13b9d9546U, 0xbc6f55f53bc5bb9bU, 0xbb94bab43d0071f8U,
  0x3b82c4fcbc40576aU, 0x3d08fff53d1791abU, 0x3be24010bd03467dU, 0x3d39b26c3cde2764U,
  0x3bee310abc37b83aU, 0x3c9d072c3cd37752U, 0x3d28ee933d34263fU, 0x3c3021633d324365U,
  0xbcba3f5d3d21e5b4U, 0xbbd348a73d1ad745U, 0xbcd5318dbd20e47bU, 0xbbf8946aba2aa88bU,
  0x3b08acca3cd4e715U, 0x3c81916a3ccecb5fU, 0x3c5f73f6bcab885eU, 0x3d36d4ccbcbfc939U,
  0x3d145813bd0f2b09U, 0x3c14a783bd02f828U, 0x3d1949a8bbcd6e7eU, 0x3b63cff23ca9b699U,
  0x3d0bdd4d3c6a36b5U, 0xbc589a503d39b7aaU, 0xbcae035c3c1ae49aU, 0x3d2f5ec2bd3383baU,
  0xbc94d3d53d2a6c9fU, 0x3ce884b83cd746c8U, 0x3d2653b9bc129fe2U, 0x3cc93209bb9d89f4U,
  0x3c5e3a7bbcc906f6U, 0xbcf7445d3d234dcaU, 0xbd3a9644bcf8f868U, 0x3b6687d43cd53cc7U,
  0x3c0cd4b23d27c3c2U, 0x3ced60c7bd341934U, 0x3d032ab6bd26d49dU, 0xbcd8f938bc869232U,
  0xbd29195bbae55ac3U, 0xbd2015283c83b648U, 0x3cf917953d268132U, 0xbcc96be73d3a9d5fU,
  0x3cf005e13c97b9eaU, 0x3d2567babb294872U, 0x3c53932abce62fbfU, 0x3d0dc8f93d2c1cc2U,
  0xbcd50c253b7d370eU, 0xbd31b5253d0fec8bU, 0x3cd640acbcd760a3U, 0xbcd42df4bcebbc06U,
  0xbd2a4e52bb8221feU, 0x3cd660e33a4cc686U, 0xbcfb7387bc230b21U, 0xbd369b183c5a5306U,
  0xbd123605bce256c5U, 0xbc3080f73c973fa0U, 0x3c1321713cebe3d6U, 0xbd1d6e55bc25788bU,
  0xbd129072bd3435acU, 0x3ce8df46bc9fe247U, 0x3d2cc565bc9a75d0U, 0xbccd2c1bbd1acf0dU,
  0xbc898b22bc83e002U, 0x3cc4768b3b33b70dU, 0x3c6769ac3c08ff2dU, 0xbc2e6c083bab2c0aU,
  0x3d1f1f75bcb807a9U, 0x3bc342f1bc45c2f4U, 0x3c9eda55bd0fd9d3U, 0x3d1737513cf70dbdU,
  0x3ae2e8e6bbc6b749U, 0x3c36c9fe3d08ea6cU, 0xbc53ecd5bd0b6facU, 0x3ca9f157bbe7d1d4U,
  0xbc5869ae3cf1f779U, 0x3c517817bc2f7d41U, 0x3d1f08193d1df9ccU, 0xbd07e646bd25dbc3U,
  0x3ca77084bb218365U, 0x3ce998fdbc476d2cU, 0x3d01d54a3c89530fU, 0x3d0c7a22bc4d17f4U,
  0xbcd62905bc36bc6fU, 0xbcfb02493a858bbfU, 0x3c4dc4b73d0d76ccU, 0xbc821fca3cd06866U,
  0xbcc8127e3d0f8644U, 0x3c1d6f0cbc259d3dU, 0x3c93f849bcd1bf43U, 0xbc0529113cc65a63U,
  0xbca3f9a6bd27eb29U, 0x3ce7a511bd1f4ed8U, 0x3cab5f8abca184f8U, 0x3d1605c63c7f07fbU,
  0x3d2e5c46bc57d4dcU, 0x3ccc20ba3d0904b9U, 0x3cd8cd5dbd1d557cU, 0xbcd86fcc3cc44b66U,
  0xbc1972b53d09c291U, 0xbd15d5643d1a82caU, 0x3c86fc893d18728dU, 0xbcdb26a33c494812U,
  0x3ca7961a3abd842bU, 0xbce3e644bc945fd1U, 0xbd338a9ebd179396U, 0xbd0c8aed3d211134U,
  0xbcbb7b053c04d45aU, 0x3cfabce53c2725e3U, 0xbb19c02abb9cde6dU, 0xbc1cc3a2bcd80974U,
  0x3bfd3d95bcd04e19U, 0x3d2312373c786841U, 0x3ca74351bc3d3b46U, 0x3ca9771b3c9e4511U,
  0x3d305204bce53a1bU, 0xbcbb64933d15e443U, 0xbc548121bd2244c6U, 0x3ceac261bb705bf9U,
  0xbd25c131bc7331c6U, 0x3d295d513cd64976U, 0x3d226d513bd5e32fU, 0xbd3a8fe1bd23f93aU,
  0xbc6172ce3cfa2feaU, 0x3d251b7a3ce03fceU, 0x3ce51f443d066addU, 0xbd33043d3cf8960fU,
  0xbbb683f93d357be4U, 0x3d36375fbcc1f7d5U, 0xbcf7923e3c575c96U, 0x3cfc28e4bc951211U,
  0xbc9db3e6bd077472U, 0x3a82d599bc30e0d1U, 0x3c594b86bb7262c2U, 0xbd055a523c27c1f2U,
  0xbd06dfffbd30245cU, 0x3d0bf54d3cd6d4ccU, 0x3d2031893c6b6adfU, 0x3a71bbe23cde6d1cU,
  0xbd0e180abb85515eU, 0x3ba36abbbc20a3feU, 0x3cadce41bcef0debU, 0xbbd89270bcb979abU,
  0xbcac134ebd2251c5U, 0xbc90585dbd185fb6U, 0x3caf4f2dbd332e43U, 0x3b515df0bcaabe2aU,
  0xbcb85abebcc7f44dU, 0xbc0fba383c86b263U, 0x3c9ce29abc1083e6U, 0xbd01654a3c3b9406U,
  0x3d14f6823b5ab67bU, 0x3a320d78bd067168U, 0x3c2d4674bd116641U, 0xbbf2e7a0bd2cfc02U,
  0xbcc3afea3c3ef763U, 0xb9ece2613b751327U, 0x3c02979d3d0dac81U, 0xbc641463bbce4b68U,
  0x3bc7d59b3c950ac6U, 0xbb06e8193d0377daU, 0x3c3c571a3d379c6bU, 0x3c8eb099bc8e1078U,
  0x3c0a846dbb8fe370U, 0xbd2d9f3dbc99b1efU, 0xbc71812a3c059644U, 0xbb835c3f3be3ce2aU,
  0x3be7cdd0bcaa0c65U, 0x3cd62039bc51b66bU, 0x3a830024bd261350U, 0x3d07aa2fbd317520U,
  0xbc04204fbb09b771U, 0x3d1668ec3c61d221U, 0xbc9b95963d34d613U, 0x3b87b8533c9f8178U,
  0x3d38e89dbd38a961U, 0x3ceaee87bc2c90a7U, 0x3cdd271a3b41a546U, 0xbc70e84ebc4efb29U,
  0xbd36cdebbce5e845U, 0xbbefbfdfbd2d8c02U, 0x3d3a631e3d17c138U, 0x3ce5e764bd11d0e2U,
  0x3d123e7ebcac24ecU, 0x3c373bb6bd22382aU, 0xbd134a16bd1a0eb7U, 0x3c4764bbbc61ae99U,
  0x3b69cc623c8f857bU, 0x3cb3b6d33cfdb13eU, 0xb661a965bc24a3e9U, 0x3b02ea3bbc03877fU,
  0x3d14ab843cc61bedU, 0x3bb19aad3d067004U, 0xbc8cc6ccbd04ec7dU, 0x3c7ac684bd25c339U,
  0x3d2d07bebc8a69e8U, 0x3c2595693c8627c1U, 0x3c946736bd0110bbU, 0x3d2b9ba43d1a0802U,
  0x3c2988ab3d00b580U, 0x3c9acf6cbc3cf5a0U, 0xbc009144bc39b388U, 0xbd000a89bd31297bU,
  0xbceae52b3ce87132U, 0xbd22f7c8bc762371U, 0x3c86f66e3ce064b2U, 0xbd0d671fbcd21bbcU,
  0xbccfc80b3cb21971U, 0x3d00ffddbb7c38e9U, 0xbb8883aa3ca59567U, 0xbbca7fc03d146d94U,
  0xbd1370cbbc30baefU, 0xbc5adb62bcd455edU, 0xbb8ad1f93b9b45c7U, 0xbd07bac73d17e7f7U,
  0xbc4407d3bcf7abf1U, 0x3c8656b03bbabbb8U, 0x3c9e2c3d3c909ccfU, 0x3cd60799bd363d84U,
  0xbd15e0bc3d1efa13U, 0x3cb234043c2fe5e4U, 0xbcfd5e523d0f922eU, 0xbd0423c63d25e7f1U,
  0xbc9325b9bc5123beU, 0xbb81c3773cfc0d3eU, 0x3d1439fc3b4ff5feU, 0x3b5ff062bcc1ddcaU,
  0xbd3226133cc2ed50U, 0x3c97f8ad3c805f60U, 0xbcf4c7d7bd001d41U, 0xbd1f6dcb3c609f91U,
  0x3c8cb438bb4c9c14U, 0x3cf470a4bc2e63faU, 0xbcdd9488bd0c6e89U, 0x3cd3ec7d3cf0ba7aU,
  0x3b5f8d3f3bd07c52U, 0x3cf385ebbd364c7dU, 0xbc91cb5ebbff9606U, 0xbc55bd5ebd265250U,
  0x3d06c0103cd0e74cU, 0xbcf586d33d0bada5U, 0xbc2948783c69c5acU, 0xbcbe9a58bbe498c7U,
  0x3cce8abd3d1eb146U, 0x3c0a68f33cdb9e91U, 0xbd0e2c21bc5c5d18U, 0xbc8c32ecbd1e9eafU,
  0x3d30e8a3bcb99f07U, 0x3b8424f13d0c11fcU, 0x3d2945b83bca9a21U, 0xbd3487323caca531U,
  0xbd1f5ac0bcd302f4U, 0x3b4f8714bcf787d6U, 0x3cc4d5703d0ebff6U, 0xbd34ec563c8b2049U,
  0x3cf172d53c45f09fU, 0xbc6582563d2eb3e6U, 0x3ba8a68d3d3a1700U, 0x3b3d6f723d367632U,
  0xbc4786cdbc9dddafU, 0xbb532c373d16bd7aU, 0xbd370fbbbca5260eU, 0xbb4ca4053d07f43eU,
  0x3d157fda3c4b8881U, 0x3ca9c4873c34c104U, 0xba29be1ebbbd2ad8U, 0xbd27d48fbc8cdc17U,
  0x3d35c034bd38480eU, 0xbc85c78a3d38b401U, 0xbd32d8c7bd3908e6U, 0x3c9dc925bc552104U,
  0xbcabf05a3c6e8344U, 0x3d2bae00bc9ae9cbU, 0x3cc36c9a3d17266eU, 0xbc8623603d07e3fdU,
  0x3cafd35c3bbaacfaU, 0x3c31e0833cc9bc36U, 0x3d20e4473d256484U, 0xbc71eb373c993afdU,
  0xbc9764f93aba4832U, 0x3c5fec7bbd2d08d4U, 0xbd0afc4abcc116a3U, 0xbd0fd6b8bc80aad6U,
  0xbcdf44a13c8fa294U, 0x3cf0a4bd3d34987dU, 0xbc95128c3d19870dU, 0xbd079d583a80bea8U,
  0x3d3743babc80d98aU, 0xbba1c7ff3c6de5aeU, 0xbd21c888bc4bc059U, 0xbcf7d8573c690a0eU,
  0xbd1be16cbc805d15U, 0x3bb33cd13af2f8a7U, 0x3d1e3f5a3d2329b7U, 0x3cdb0a9abd24685fU,
  0x3d12a81bbaad28a5U, 0xbc88f1e8bd2c6fadU, 0xbccda4a3bd08b519U, 0xbd0a0db0bc1f96f8U,
  0xbce80187bd093321U, 0x3b8868f73d30ef0cU, 0xbd2297e7bb4f5dbaU, 0x3c940bd23c43e490U,
  0x3b570e55baf2e34aU, 0x3c75fc87bd36b6e1U, 0x3a5779de3becdddcU, 0x3c67150c3cd61e1fU,
  0xbc09ef833b786d29U, 0xbcf9a48d3c872ea7U, 0xbc6177293ba11099U, 0x3cdeac3fbd1b5234U,
  0x3d07009dbd26dbefU, 0xbd0edec73c99debcU, 0x3d1a437abd12d4d1U, 0xbcc72bcd3c2cbaf1U,
  0xbc4a8159bc3e5afdU, 0x3c91ab65bd05d64fU, 0xbd2b4b023cfc294aU, 0xbd2cdf6b3c5dbabfU,
  0x3cf262a53cc01417U, 0x3ac284033ab367ffU, 0xbd2e1db63d157425U, 0x3cc2fa84bcd3e1b8U,
  0xbcfa19233b789cd0U, 0xbb1af5b83b5e7213U, 0xbce138ed3cf93153U, 0xbc7e189abd01ca4dU,
  0xbc1714ad3cdaec05U, 0xbd379385ba1a7fc7U, 0x3c4da5a7bcdc4e94U, 0x3cf5976b3d191fbcU,
  0x3cc9efd33d21977aU, 0xbcfc65e83d267724U, 0xbd21ff0fbd0fcc77U, 0x3c9cd25abc1b8a15U,
  0xba4e0f86bb84bd70U, 0xbd1e5ca83d1ab0a5U, 0xbb7188dbbbe99e48U, 0xbd065b033c4af981U,
  0x3d24527d3d00627fU, 0xb986da96bcc8ab8fU, 0xbc8a4b2d3d3ad6cfU, 0xbc7480513b36203eU,
  0xbccd0c333d19c459U, 0xbcbdb1d0bd0a4794U, 0xbcb54f92bd1e7f61U, 0x3c9258c2bcfaa9b1U,
  0x3d0a35683cfff178U, 0xbaf9b8e6bcf52d80U, 0xbce094733cf3d92fU, 0xba2438433d05b843U,
  0x3cff7670bc9077caU, 0x3d032cc4bd1db939U, 0xbca738ecbbe31a77U, 0xbcd1c8adbcf605a2U,
  0xbcf2bcdc3d09c396U, 0x3b0aaf49bb703ba8U, 0x3d3213b03cee5dc5U, 0x3cc198123c50abc5U,
  0xbc7da09b3c62d1d3U, 0xbd038354bca5abd9U, 0xbd2a87293d2ca3f0U, 0x3cf932bb3c89c851U,
  0x3d051611bcda2d18U, 0xbc20b645bce20765U, 0x3c7bbaeabd291905U, 0xbcd4737b3b197465U,
  0xbd30309fbcb4a679U, 0xbc90b1f63d041766U, 0xbcfdda013d283ff9U, 0x3c6092da3d0e8505U,
  0xbbb72de8bcbd8b3eU, 0xbcf029afbd017fd2U, 0xbca6cda9bd229ab5U, 0xbc9cc708bcb290acU,
  0x3d14ca723ce9709bU, 0xbcf81754bd141971U, 0xbd0b963cbd1ffec6U, 0xbc5d54d93d2312a4U,
  0xbb827579bb60c140U, 0x3ce0ee413c8903d8U, 0xbc661c85bc97d9b2U, 0x3c021ccabcf9801eU,
  0xbd1b0cc5bcc2b633U, 0x3cac974b3d0876f3U, 0x3d0056b4bd0bd1d0U, 0x3d006fa63cf5ee55U,
  0xbd1858aabd20d390U, 0xbabd7ff83d0fa866U, 0x3d26f205bb8a31f2U, 0x3cd0f5a1bc4d3e57U,
  0x3c86d5103c5145dcU, 0xbc5061b6bc883c65U, 0x3cc258bebba3fbecU, 0xbcf57243bd0add88U,
  0xbcba246c3bca9e9aU, 0x3d3282003c96d177U, 0x3ce3bf8fbd388975U, 0xbc1ec5823cf61677U,
  0xbc159707bd0e4d7fU, 0xbcba25dc3d1da565U, 0xbd045391bc873060U, 0x3c7b8a9fbcd38991U,
  0x3bca58b9b8566343U, 0xbbd9283e3a58cf48U, 0x3c08b6143caa028fU, 0x3bd51e3bbd2f5669U,
  0x3ba1d108bcb49de8U, 0x3d2a02373cf83f4dU, 0x3d27c1f9bcb11f3fU, 0xbc9446193d0a6e07U,
  0xbc8b6720bb0ab9f7U, 0xba93a1393d1169f4U, 0x3d278f45bc644410U, 0x3d06839a3d314bc5U,
  0xbb9710a3bce1e4e4U, 0x3c46df0a3c9d7c0eU, 0x3d17fd9fbd17068cU, 0xbc1dad36bd25b169U,
  0xbce17663bce87a81U, 0xbd2ff25c3d2c917dU, 0x3b74dca83d2864bbU, 0x3b8fbd19bd0f40a2U,
  0xbd1c26093bc7fbcfU, 0x3c5985e73b19897cU, 0x3c59114ebc8652fbU, 0xbc868293bd1d4460U,
  0x3ce07e423bb1fba0U, 0xbcbb0347bce94c74U, 0x3ccf1a61bc99bf8cU, 0xbcaaa6a03c3d040cU,
  0xbc2983883c4606b0U, 0xbc245ad6bd2a6ff1U, 0xbc60d1ae3cfd9024U, 0xbc3e15683cac3474U,
  0xbce5e420bcab52abU, 0xbc983614bd1994a6U, 0xbc247786bc12d81eU, 0x3c87967d3d3988f0U,
  0xbcba05cbbd20575cU, 0xbd31cacf3c2097d9U, 0x3ca6c5c0bd1800d0U, 0x3c8a1179bcb2a253U,
  0x3c957fa83d32c90eU, 0xbc5ba746bd147701U, 0xbc9ca00dbd2820ddU, 0x3d2583b7bc708290U,
  0xbcbd21bdbd09c789U, 0x3c202fdabd06380eU, 0x3d2d7e303b8bf5d1U, 0x3ca3e7a23d28f1cbU,
  0x3caf0426bc355c05U, 0x3d022886bd302c80U, 0x3d3316e0bc68e281U, 0xbc733dde3ca739fcU,
  0xbca4fc7f3d1459dbU, 0x3b47499e3c998133U, 0xbd1e055ebb0d8692U, 0xbd013c06bd052c17U,
  0xbd180d763ce7d6faU, 0xbbbbe5aebbf20d2dU, 0xbc8e4adf3d075eeeU, 0xbba24b73bcbe4bedU,
  0x3cb4c5403c8cc100U, 0xbc4504f1bc20f513U, 0xbc82e1e6bcf8f542U, 0x3d2e7dc33b164e9bU,
  0x3c58257d3d29ab1eU, 0xbd1226c93c678936U, 0x3c3661db3cc1449fU, 0xbcc18c31bc935187U,
  0x3ce036e23cc8d83cU, 0xbb8275d73a98eb31U, 0x3d27d2d63cb7c158U, 0xbc42fe85bd3836dbU,
  0x3c53f6d4bd018d49U, 0x3d2f51a8bb4a1b9bU, 0x3c1ca0073d1e5d99U, 0xbcd95a873c9647c8U,
  0xbcc08352bd37730aU, 0xbccad73f3c902ca3U, 0x3c77b841bc9c45d1U, 0x3c00765bbd16f928U,
  0xbd2a4cff3cc9b9fcU, 0x3d1735a13d3a3c6eU, 0x3c3e95473d08e4e0U, 0x3cba960a3cc73315U,
  0xba73570b3c4e165fU, 0x3ccd4241bc79018cU, 0x3c44ced4bcd16549U, 0x3cd507e1bca2b572U,
  0xbd13ea293cb7eab9U, 0xbbacfe79bc097862U, 0x3ccce87fbd36affcU, 0x3cf1bd78bbe02ef6U,
  0x3c05bba6bb5b3114U, 0xbcd42c1ebd39e9d9U, 0x3ac79534bb5a360aU, 0x3cb194353d27874fU,
  0x3c06830bbd13d01aU, 0x3d17c0cabc898293U, 0x3cb0b0f3bd012640U, 0x3c53abf33d2b549dU,
  0x3d0c96fbba831580U, 0x3c5f7800bc29c20bU, 0x3d33e36ebd141956U, 0x3cc8e7fbbd2ba6b7U,
  0xbd1d86793b9bbb44U, 0xbc60e679bc826c4dU, 0x3ca065383cf7aefdU, 0xbc8284d2bcef61eaU,
  0x3d1e14723c977f00U, 0x3cdb45edbd392b4bU, 0xbb1c9e7a3a1a52ddU, 0x3b27a7ff3d326364U,
  0xbcfac96abc9a83c2U, 0x3cde2bdaba41459bU, 0x3c802901bcef5cd6U, 0xbd0770ebbd29f0e4U,
  0xbc492062bccdbb8dU, 0xbbe511c73b4230c2U, 0xbc85f01bbc9d661fU, 0xbcdf5b163c292643U,
  0xbce5680b3ac6ca8cU, 0x3bf92f25bca0d7acU, 0x3d1fe64abcc87eb7U, 0x3b89f1683a69c543U,
  0x3aaad8603ce8a13fU, 0xbc7ee89ab9e0bd82U, 0xbd01a2ab3d10218dU, 0x3b5c50163ce9169eU,
  0x3ce27a74bd346809U, 0x3bd52da93c8f9448U, 0x3cab090b3c06cf1cU, 0xbcab42c23c85e7d5U,
  0xbc7063123ca835f8U, 0xbcc96c1ebc5bbabeU, 0xbcefc865bcdc5374U, 0xbd386caf3ba4da63U,
  0xbc464616bcfb5119U, 0x3cecb5693d35e059U, 0x3d1a1260bd2dfa2bU, 0x3d07e612bd32fd39U,
  0xbca285bf3cdc01c6U, 0xbd396f5dbc6c0935U, 0xbd309fe93c8ddb7dU, 0xbcf37cb8bce91672U,
  0xbd200b1bbcc9c3bbU, 0x3af9b972bcda1d73U, 0xbd2d95db3d0f0b02U, 0xbc95543a3bbd3c30U,
  0x3c6cb26ebd039826U, 0xbc81ad9439f086f8U, 0x3ca657433c86236eU, 0x3ca8c5a8bd1cd7eaU,
  0x3c1146ba396c0d22U, 0xbc134dc93b0cdc0bU, 0x3c7b1a743c749f1bU, 0x3c056ca43d2eeabbU,
  0x3d29822d3c168116U, 0x3c5dc617bd340830U, 0x3b7bf4d03c3d8353U, 0x3bf3b4e2bcaf5591U,
  0x3ab5ce8abd05c098U, 0xbd00201dbc0ed80fU, 0xbb14b8d53cdab591U, 0x3ce17ea3bcf46a83U,
  0x3cf88366bc21ede7U, 0x3c9a95e4bc4aeb09U, 0x3c3c06e23cad3df9U, 0xbc78dc253a9888f7U,
  0xb9f06caebd2acfc7U, 0x3ce09aa0bd20868bU, 0xbd3ad45e3bd8ea65U, 0x3caa5d0cbd0f82e5U,
  0xbc3de0523d359958U, 0x3d24c5e03bbc8a8bU, 0x3c2718e13d0a52afU, 0x3cd39c223bd04bb6U,
  0x3c89c9233bf55253U, 0xbd1bb4393d2d751eU, 0x3cc32987bc4be5c1U, 0xbd2be6673b270423U,
  0x3c60cf95bd31e8a9U, 0x3c69561ebd00ec73U, 0xbd3acdb13ced44d2U, 0x3ab14619bc42c167U,
  0xbc1311db3c8a6dbbU, 0x3c88ad943c232138U, 0x3c8593a43c83527bU, 0x3d19ed143bf67980U,
  0x3d2e8d633d00c69cU, 0xbb981234bb989aadU, 0xbd002af7bc12f9f0U, 0x3c18311abc9269bdU,
  0xbd11619bbd0962a4U, 0xbd39f1b03d18866fU, 0x3d2aa12dbcd4de89U, 0xbc3b37d83d09d8c5U,
  0x3a3b1c2abd38d16aU, 0x3cd658fd3c3ff40cU, 0xbd2308873b1b3183U, 0x3d20b718bc3b040aU,
  0x3d1dd8073c181239U, 0xbd382b7dbd34a835U, 0x3b0d903f3cc41a98U, 0xbcc136763d279802U,
  0x3c7bf54a3beeb802U, 0x3ce3493a3c0ef1fcU, 0x3c630ecebcfc339bU, 0xbd07f245bc811b62U,
  0x38dda2373cb0176dU, 0xbb900c613cab858cU, 0x3c53746c3c2c9f19U, 0xbcced3f6bb780f0bU,
  0xbd27b0453d2a29a0U, 0xbd2200e83ce4d163U, 0x3d36ff42bb9b5e90U, 0x3b041246bc8fd581U,
  0x3cef3c5abc90d5faU, 0xbd0367b1bc89c793U, 0x3bcff1333d1e064cU, 0xbc4351fbbd1b58deU,
  0x3b05a14abd002225U, 0xbd283e1e3cc106beU, 0x3c9543773cb00066U, 0xbd0505dabd312b53U,
  0xbd09d1733d2b551dU, 0x3cc763b1bd067fd8U, 0xbb8586e8bb87272dU, 0x3c08292dbb99039cU,
  0x3cac64c43c376f2dU, 0x3cb4c9b3bcb7da5cU, 0xbb01e43cbc9506f4U, 0xbcc9c0f23c1b467cU,
  0xbcd59231bc85d584U, 0x3c83f487bc6952f2U, 0xbcede698bd27feb2U, 0xbd0d1dc8bd1d047eU,
  0x3c49f9cfbc168f08U, 0xbb9f6705bc9c6353U, 0x3d01afb83cd36ab4U, 0xbc54cd20bbd5b079U,
  0x3c9eafcbbd00699bU, 0xbd2f8cc33d2c8773U, 0xbb5eaf25ba9c86a7U, 0xbcef6851bcdee13dU,
  0xbd2bb79e3bb7bc73U, 0xbd1f71a43c3f5cc9U, 0xbc6b1b793b0d4b99U, 0x3c711b043cb8c92dU,
  0xbccd10bbbc1a2be8U, 0x3c92be8e3ce1a09eU, 0x3d23a069bc9d95feU, 0x3b81a843bd179b76U,
  0xbd31a7f73d009ca7U, 0x3d144dc13c51e372U, 0xbbda73fa3a3302daU, 0xbd282525bd2c0d58U,
  0xbcfaa7223ccb0a04U, 0x3cc254cb3c98fd18U, 0x3d3502af3d31ced2U, 0xbbd7e1ccbbd0bef6U,
  0xbbb2dcd4bb9f1574U, 0xbd0fc2f8bcf4529bU, 0x3c20cb3e3d1058d2U, 0x3b91c1bc3d121a3aU,
  0xbd0230273d10e047U, 0xbc59e26c3b14680bU, 0xbbb58ba1bc902be5U, 0x3d37cf873d0c432bU,
  0x3d1148703d38aa3fU, 0xbc88dc223cf9a759U, 0x3d1843dabcba65faU, 0xbd0f0aa93c0ae374U,
  0x3c7684003cf2bfb3U, 0xbc8b09d43bff450dU, 0x3d2d5ec93cdec7ebU, 0x3be8b1593c715c31U,
  0xbb6a0ca6bd31ffd4U, 0xbcd268f13bdb1d2eU, 0x3cf3a95c3c4899d4U, 0xbc0f888fbd38b858U,
  0xbd2499d03d0b9000U, 0xbd21c4453cbd12dcU, 0xbc0dd4aabd314dd6U, 0xbd1842abbb9bc2d7U,
  0xbbc08abd3cae41deU, 0xbd0bb911bccbb640U, 0x3ca34377bc169684U, 0x3bef1689bbd4bb6aU,
  0xbcbb86be3d26582eU, 0xbc7b5b1b3d0f107cU, 0xbd1a657ebd043ee2U, 0xbc88ac01bd177f87U,
  0x3d167ee73d228328U, 0xbc11cc1fbc80fabfU, 0x3cf78e83bc9d6cc3U, 0xbd0b5a90bc8f2b24U,
  0x3cb17505bc56d137U, 0xbced1fa83d0b4293U, 0x3c51592b3c90443fU, 0xbc9bcd4bbd219adcU,
  0x3d2e86c63c0b7494U, 0x3ca48a833c568edfU, 0x3ba417febd13740fU, 0xbd3494ccbd086ac1U,
  0x3cb0946cb9a667abU, 0x3c4ff72e3b385af8U, 0x3b8c43463c994588U, 0xbcf0d84b3cbd2930U,
  0xbd348823bbda4993U, 0xbca6f63dbc93682eU, 0x3cef94f2bd2c1ad2U, 0x3bf8df39bd1a29ecU,
  0xba95a0103d14e1a8U, 0xbc8e28f83d24a65fU, 0x3b7055db3ceda146U, 0x3d11ded23b2b4fb0U,
  0x39fc33583b1d8540U, 0xbd046e99bc3e466dU, 0xbb6fcc613d3401f2U, 0xbc43423bbba3d364U,
  0x3d282baf3c18c5e1U, 0x3cf64dd23c83ecc7U, 0xba042fc2bd0ee92eU, 0xbc9ca412bcd64edbU,
  0x3d0276373cba2bdfU, 0xbd3a70b4bd0ecb17U, 0x3c725caabcc4685cU, 0x3c75726f3c1d23c7U,
  0xbc5a3deabcfb13e1U, 0x3b294a00bc2da86dU, 0x3ce28e1dbc9eb528U, 0x3b850fdfbcfac297U,
  0x3c83695c3cbe1a61U, 0xbd2469353d262643U, 0xbd39ad7b3d09d48aU, 0xbcde960ebcc8ddaaU,
  0x3d154effbce154d9U, 0x3d2c090d3d25761aU, 0xbcd7fadb3cb91cb4U, 0x3d2dd44dbb78758fU,
  0x3b4a98da3cb2c24aU, 0x3c8c3b67bd1446c4U, 0xbc9c080c3d2632b5U, 0xbce8f414bca44f6aU,
  0xbcb0e7adbd17c1edU, 0xbb9ef4a3bca7b974U, 0xbceef843bd0411f9U, 0x3cdc11c53d154b4cU,
  0x3d145dcc3d1fa879U, 0x3d1fda3fbccfab46U, 0x3cb349c8bd201c71U, 0xbcd5ac64bd28b578U,
  0xbba452eb3bff8e4fU, 0xbd0d7eb8bd0ffe28U, 0x3d008fd6bd151eabU, 0x3b394493bd1e9d8fU,
  0xbc08ee5b3cf84830U, 0xbd2f02acbc49f9b1U, 0x3cf7cf9c3d004dd3U, 0x3cc6a5ad3cf30912U,
  0xbcbc143cbd205ad9U, 0x3cb0d69dbd228819U, 0x3b367065bca01656U, 0xbce6501ebc8490d8U,
  0x3c6d92103c02dee9U, 0xbca9356abc8b92c0U, 0x3d315f493b259ed6U, 0x3d2f994dbcccca5fU,
  0xbd38b271bd363301U, 0x3d29f661bb4f7eaeU, 0xbd084e8ebc20421cU, 0x3d2a08ca3cbc1d20U,
  0x3d087046bd1c0a04U, 0xbd0883eebd25153cU, 0x3d1fc90d3c0260e9U, 0xbaeb29193d00bc05U,
  0xb9ee376ebba0a3ecU, 0x3d11f04b3d217adbU, 0x3d285c773cfe3521U, 0xbd1e6aef3cd35a97U,
  0x3d1861c1bd0fd830U, 0x3d3a43ddbd3377e1U, 0xbd2c51a3bd347d5eU, 0xbc254a5abd197d98U,
  0xbd0f5d5abc434097U, 0x3c2d0b18bca2cbafU, 0x3c661d693c9cf6d5U, 0x3a9b688fbc14a794U,
  0xbcde05143d3381daU, 0xbd1c8ecf3cbde6d6U, 0xbcc546643ceb529cU, 0xbc39ee1ebc8653bcU,
  0xbca61d7dbccc0427U, 0x3c629593bd264739U, 0xbd24a279bce3eedbU, 0xbaba98b63d193ef1U,
  0x3ca08b0f3cc96260U, 0xbaceaa593c95744bU, 0x3cb3e3103cacd0baU, 0xbcea0e913a8190fbU,
  0x3d2c80003d2fc022U, 0x3cae28a9bd27a5beU, 0x3ccce212ba874e86U, 0x3ad92517bcaae785U,
  0x3c994ea33c91f24dU, 0xbd1a34e73cac42feU, 0xbbe162eb3cb2b920U, 0x3cc31442bcabe705U,
  0x3d03bf2f3ca2142dU, 0x3c05abe1bd313a2eU, 0xbbcd1594bcfaa693U, 0x3c9824ea3d09eab4U,
  0x3b1974943c3eaf0bU, 0xbcddc9febcf5746bU, 0x3c68b7ab3b06016aU, 0x3ca4fafabbe464f9U,
  0x39810521bc3488a0U, 0xbc1e82e4bc89a4d7U, 0x3c1f9c203d17f373U, 0x3cef87a4bc019afaU,
  0xbcdb3c7e3d0f8e99U, 0x3ce9b7a6bc15da0eU, 0xbcfc12c13c817934U, 0xbceeee213c697d2bU,
  0x3d225b413d1a2e4cU, 0xbcb68102b8214237U, 0x3c8d2adf3cc10bbaU, 0x3d290b10bcd525ecU,
  0x3c1e9797bcb69ea1U, 0xbb3659d8bc03e94fU, 0xbd1af767bcdd2a3dU, 0x3cda059abd0824eaU,
  0x3c18f69abc1dcc40U, 0x3d134498bc835e04U, 0xbb84d8233ba7ba1eU, 0xbd0c99703c1b4ba4U,
  0xbcf7ff4cbb256ebbU, 0xbd2c9f48bd1b2f97U, 0xbc9b59e23d385ae7U, 0xbd1ac2b83b53fbcdU,
  0x3c0dc4d43c5d33bcU, 0x3d2b78dcbbb6a94fU, 0x3ca4ec5f3d2a2c11U, 0x3c981e0cbd343585U,
  0x3d0712023d10545aU, 0x3cdf3b3dbceea02eU, 0x3d25a1c23d18d6deU, 0xbbe27ed2bc327b33U,
  0x3c247e07bc8c2c66U, 0xbbbf621abce96220U, 0x3bd570cd3d045964U, 0x3bdd9ae9bcdcd2c6U,
  0x3d2e4560bcdbfc06U, 0xbd28b7c6bca1b64cU, 0x3c9b398b3ca0a8baU, 0x3c8e3aa2bd326bdfU,
  0xbccb98d53d36ab8dU, 0xbcfeda883d095b03U, 0xbc13a9eb3d11eeebU, 0x3ba82d0cbb7918f6U,
  0x3d2b5a3a3d237e26U, 0x3d0accdabcec254dU, 0xbd0db6b73b502576U, 0x3d24a8cdbcd5d4fdU,
  0xbcca42673ac0c310U, 0x3ccb1dc43a61a2d2U, 0x3c11d03a3cbbaebfU, 0xbcf25ccabb70117bU,
  0x3d2b29903d26896eU, 0xbc820e953d02bf4aU, 0x3c71e3643b30a5cdU, 0xbb5ea7efbc9ba69cU,
  0x3cd2f04fbd05e73fU, 0xbd3325dcbd029f2dU, 0xbd24e3f9bad3a055U, 0xbca3d9533b92c47dU,
  0xbca0d5a9baf06c21U, 0x3cae74c6bcd7f5e2U, 0xbd23589d3cde2204U, 0x3ca1d8413cc08cebU,
  0x3bf282293baeb943U, 0x3cb6df46bcc43840U, 0xbd1140063c875d9eU, 0x3ce72e273d14e72eU,
  0x3d1f49243a4d609eU, 0x3cf13158bd35c7b2U, 0x3ce135d33ce241fbU, 0xbcecef5b3c95b521U,
  0x3d00d261bcef6689U, 0xbcdce1a8bcf968f1U, 0xbc9f959fbd388b49U, 0x3cc4b9983addf9d9U,
  0x3c6e89903b696bcdU, 0xbd297fe33ba12e7fU, 0x3b3265903c308ef4U, 0x3cff4155bd0cccc7U,
  0xbd2467483d0212b3U, 0x3ccab6313cd6bbb5U, 0xbcdb744d3be6ab6eU, 0xbc83f5623c95dc4dU,
  0xbc9d9e3ebccf5514U, 0x3c75262a3ccadcabU, 0x3c7eb6763bc3ca2fU, 0xbcbf3b8b3cbb978fU,
  0x3cfccd67bc4a1324U, 0x3cede9e7bd06befaU, 0x3d189a4a3c3ec124U, 0xbcf23cb13c7fed68U,
  0xbd0e5fd23d047627U, 0xbadf4a273d26688fU, 0xbb6670bbbd16a9e7U, 0x3b8b00c2bc93dd99U,
  0x3c81261cbd249382U, 0xbcada9e33d05762eU, 0x3b87298d3c651d59U, 0x3ca38a7fbce1d539U,
  0xbc282ce3bcb641a2U, 0xbb2602573cd98a34U, 0x3d31e37a3cdcbe5aU, 0xbca36f853ac6cd1aU,
  0xbbacba8eba316cceU, 0x3c7ec28e3c1ad6d7U, 0xb7cc589ebd0d9a58U, 0xbd1d01dbb9fd9589U,
  0x3d2dca213cd799fdU, 0x3d1489a9bd2116d6U, 0x3cf5835bbd24d24fU, 0xbc3ec181bcb3e7c1U,
  0x3b99e01dbd25f22cU, 0xbce55855bc586564U, 0x3c553ebb3d393261U, 0x3ab164c63d0652b6U,
  0x3d016517bcba6360U, 0x3cdabc93bd2ffe3eU, 0xbbbe964e3d39e361U, 0xbcec4baa3d19cb74U,
  0xbd3869c7bd24d808U, 0x3bdb843ebc9b1fdcU, 0x3d382e6dbd299ba0U, 0xbc1d49c1bcd8552fU,
  0xbc3ead723ce6f828U, 0x3cdb3ee3bc960244U, 0x3bac484f3d1ac40bU, 0x3cca237e3c85243dU,
  0xbc80dc99bab17563U, 0xbd323c73bc92a72aU, 0x3d2642cd3d2cabd6U, 0x3c1096fabc9b972cU,
  0xbcb4fcc63d2421aeU, 0xbc980d8cbc5e56f6U, 0x3d034a5bbbfe7a07U, 0x3d061c52bbd2c735U,
  0xbcc35c74b9ccaa69U, 0xbc46d265bc2dc742U, 0xbd106132bc62fb22U, 0x3cfca1aa3b091724U,
  0x3cf58344bc6e5d44U, 0x3ca3598b3d270d9bU, 0x3d1ca0f43d0f36ffU, 0x3be83ae73c09b878U,
  0x3c4f61d03c843db1U, 0x3c54b905bd1eda9eU, 0x3d14f8a6bc438621U, 0x3d03d48fbd16203eU,
  0xbcd7fa2fbc87bc8cU, 0xbce0a262babe1b28U, 0xbca54b5ebc41571cU, 0xbc8998b03d326e3eU,
  0xba8ed367bd14c463U, 0xbd0d529d3c2c38dcU, 0xbc634c03bc22803cU, 0xbcd5f06fbd2c3b83U,
  0xbc56ad2ebc48f2f2U, 0xbbd51015bcd0ed93U, 0xbd1b471dbd0e87dfU, 0xbb9de0f33ac81b08U,
  0xbd1c31383d072629U, 0xbcfdd12cbce163cfU, 0x3d1cbccc3cd2ec4bU, 0xbd18b23cbc850738U,
  0x3cf2f80cbb696826U, 0xbd07437d3cbe1f78U, 0xbcb21adb3b10d98cU, 0xbcab226f3cf8af81U,
  0x3ce370b93cf17b47U, 0xbc517d80bc8332f6U, 0x3d18cb713bbb7817U, 0xbd138e73bd2ef440U,
  0x3cf00afa3d268dafU, 0xbd2e7d593ce5e5e5U, 0xbc1f7476bb4d1b55U, 0x3ca7410cbbf6dc0cU,
  0x3d2465adbd07f7e6U, 0x3b4d87df3c46647cU, 0xbcb718823ce6504dU, 0xbd02f1983ac0c6b7U,
  0x3c13ac2d3b33b53aU, 0xbced1e643d3136f9U, 0x3c472ae6bc72d8d0U, 0xbd28bd8c3caf6833U,
  0x3c52cb6ebd18e865U, 0x3ca4665abc9ed60bU, 0xbcb97480bcda6f1bU, 0xbd0885173b4a6749U,
  0x3d0e0cc93c84a31aU, 0x3c95657ebd2df2c4U, 0xbd066ab63d2ea412U, 0x3cb505323bfab09bU,
  0x3c9bc522bd02581dU, 0x3c7f281d3d025e54U, 0xbd36353d3cb42a41U, 0xbc57f7a93c042c68U,
  0xbcd6c25fbd100b51U, 0xbc04e28cbcb50c14U, 0x3c9b536d3d177d72U, 0x3d15e22cbb802af4U,
  0xbc522e0d3c858d6fU, 0x3a7642803d1eaf0aU, 0x3cb55e36bc65a9a8U, 0xbcaf8c36bd0f3583U,
  0xbd17ddec3d38b115U, 0x3c941138bb8ff6d6U, 0xbba771c53c3060d5U, 0x3c9729253d2b8062U,
  0xbc75ef223b1ed418U, 0x3cd657aebba417e6U, 0xbcaa7a7dbc91c921U, 0xbc656a2bbcb1def0U,
  0xbc9f26c43c7fde52U, 0xbd2fff94bc891b1cU, 0x3c77ea82bbb68bdfU, 0xbc7b66ee3c9a6790U,
  0x3d02178e3cb770efU, 0x3cf1a5cbbd39a503U, 0x3cb9efb73d02cc25U, 0x3d38f0423c807471U,
  0x3c9a98643caa8db4U, 0xbb2bef423cbac2aeU, 0xbcbf542b3d2a9c97U, 0xbca4eb29bcc8a817U,
  0xbc7d15193d2840b2U, 0x3c864b50bcf1abc0U, 0x3a7d9d35bd2a4ca8U, 0xbd28b0173cf54fb6U,
  0x3c0d6e2cbcda645bU, 0xbc27261ebb5520edU, 0x3c7e4f14bc519a9fU, 0x3cbde5cabd051f3fU,
  0xbd1a52f83d2442aaU, 0xbc90be183cd60d62U, 0xbc307037bcd376c6U, 0xbc8f1cb43c6edb1bU,
  0xbc7f7c6b3ca0fe95U, 0x3a4622c2bbd38ca9U, 0xbd10833ebbe175dcU, 0x3cc208923d18e81bU,
  0xbcaa10233d1676f1U, 0xba54fdc83d0ea84fU, 0x3d37a63a3c6038efU, 0x3d279d913d12b95dU,
  0x3c9641f9bceaf831U, 0x3bd65051bcd60796U, 0xbd35aaf23d2fc87eU, 0x3d22ec7b3c0e1fe3U,
  0xbcf8619d3d18811bU, 0x3cd6c13d3bd89e89U, 0x3b6892433d2bf9acU, 0x3c6b42ba3d065a79U,
  0xbd381d9dbcf846e1U, 0x3c507444bd27d0c0U, 0xbb752f8bbd084171U, 0x3cea03733d0028a3U,
  0xbbf288bcbcf123b8U, 0xbc5c00f13d2135a1U, 0x3cae26473cc71316U, 0x3c9b54773d2bcb10U,
  0x3d2cdf663c93138eU, 0xbceaa50d3cc6a1a0U, 0x3d2dfa953cca831aU, 0x3d1373babd114e05U,
  0x3c9661d53d3662acU, 0xbc9539de3be33f87U, 0xbd31e435bc590665U, 0xbbf90b2e3d187d1bU,
  0xbd26f950bc359f87U, 0xbc03ed593d37b85dU, 0xbcb2be8b3b2828e5U, 0x3c34a3a53ab6d027U,
  0x3cb2c7e43b97c9feU, 0x3d2eda053c322243U, 0xbd1ba84e3c556d38U, 0x3c35a06bbca6385fU,
  0x3cc3aca13c6a573bU, 0xbc5c5079bd0c1f5bU, 0xbc3a3ed6bd397968U, 0xbc9c9305bcb06843U,
  0x3cf693793c6a2826U, 0xbc3aada3bbf97da7U, 0xbc9ee2d33ba4a7c5U, 0xbd042fd1bd0b0720U,
  0xbd24502f3d2349f6U, 0xbc52d449bc16cc54U, 0xbd13c0bebcf340b0U, 0xbcac666f3d04cd4cU,
  0xbb7e70a03cfa900aU, 0xbc7ae0f7bca76117U, 0x3d2ad1463bb2f511U, 0xbc91c4fa3cbbb3e8U,
  0x3d26b8ecbd094522U, 0x3d173cadba5731efU, 0xbc77ebda3a03a5bcU, 0x3b2859d33d0dc625U,
  0x3bc731613d266564U, 0x3cd391773aae55b6U, 0xbbaef2c53c3c3ff0U, 0xbcae3c38bcf62795U,
  0xbbe06e513cfb5b9fU, 0x3d2224593d305183U, 0x3cd2bd85bcbe945aU, 0xbd1c1c9fbc5f7e2fU,
  0xbcf6617b3c1bbcf4U, 0xbcd16aa0bbeb7a87U, 0x3d248b5abc4347fcU, 0x3d069dd73ce19578U,
  0xbcbaec91bc82024bU, 0x3cbd322ebd2f5751U, 0xbd32e2c538e4722aU, 0x3cc41792bc9846d4U,
  0x3c659b53bd0b552cU, 0xbc3cbb9c3c5963b1U, 0x3d2eb517bc8ec589U, 0x3d01278abbf42b54U,
  0x3d1a138a3c0536c8U, 0xbca0db7e3d15088dU, 0x3caec0bf3cdc6642U, 0xbc54a6083d2b3a82U,
  0xbcb69eb0bd2fedbbU, 0x3d2ff1003c6ee6c5U, 0xbd19a308bccbf6dcU, 0x3d1de8fa3cb99c5eU,
  0xbc4c701fbca6e00eU, 0xbcacc649bb068c43U, 0xbce10cd0bb66cb04U, 0xbb75f8d5bc370eb5U,
  0x3c953f9bbd398c69U, 0xbc71e02cbd1b2fceU, 0x3a117d22bd27d1edU, 0xbb9097c6bc936e77U,
  0x3c48bac83d2232fdU, 0xbd073b61bccf1354U, 0x3d1610bebcd4b422U, 0xbc8f7913bce173fdU,
  0x3d258a65bd159214U, 0x3cbcad243ca4211cU, 0x3d2752713d1d0e08U, 0x3b7884133c5cff10U,
  0xbd23da673d204ef5U, 0xbc92314abcc1287fU, 0x3d06618cbc2d7089U, 0x3d303c733c91f963U,
  0xbccda7753b2d9905U, 0xbb7542e5bcf9b8c3U, 0xbce963bb3ce5443aU, 0x3ccbfc44bd15a7c7U,
  0xbcd0dc9539dd8f3aU, 0x3d1b36babd034b60U, 0x3ca9b598bd213c75U, 0x3d0297ff3cdf430bU,
  0xbbe386c73ca3c901U, 0xbbd0f50cbb21ad62U, 0xbd04a0f03b59fbb5U, 0x3c83feae3cc6dbedU,
  0xbb38d38fbc27a91dU, 0x3a1c32ab3c63481cU, 0x3c53abb93d39d4adU, 0xbcc8f3f6bc754ec3U,
  0x3caa39d23d233b52U, 0xbc0710d0bcc35353U, 0x3d05c403bd11dca0U, 0xbd38ca50bc1b75baU,
  0xbd384c2ebcd5db09U, 0x3d00141f3cb70958U, 0xbd2c4f3f3cfec2a3U, 0x3d30d1f13b1fd39bU,
  0xbce5cdcb3cb2d98eU, 0xbca46787bc9393b6U, 0xbc561d3e3c2bb2d9U, 0x3d227e5c3d094aa7U,
  0x3d2ad53a3d07028fU, 0xbd0fcc1a3d0f5318U, 0xbca92b19bd20384eU, 0x3cfa99373cd1e880U,
  0x3be7dc773c9d0e10U, 0x3cba9575bc18c6f9U, 0x3c858dfc3c9ffcbeU, 0x3d0fb07ebbf9b4d6U,
  0x3d0f5f8a3d07d73eU, 0xbca6622bbafdff3fU, 0xbca453c3bd2db7eaU, 0xbaebcd99bca552a0U,
  0xbcefc3e93d34b1dbU, 0xbd134f52bba32796U, 0xbca997af3d25de81U, 0x3c76e6d7bcd0cf99U,
  0x3d1758cc3d2eb943U, 0xbc79179ebcdc49eaU, 0x3d387c263c9112b4U, 0xbd0263c6bbb05aacU,
  0xbcc195f83d10b117U, 0xbcacf16b3d395f52U, 0x3d194b37bca2edb9U, 0xbd3086373cf76863U,
  0x3cac15763d2e622bU, 0x3d2579c6bcc34590U, 0x3ce17224bd17226aU, 0xbd2c70e43d0d0a6aU,
  0x3c8d28023d29f2ddU, 0xbcde164c3d119364U, 0x3d20977f3d2bf7e5U, 0x3d2804a53cb5dc85U,
  0xbcd01d62bcb831d8U, 0xbd1480c7bb12850bU, 0x3c92c3533b2cce8cU, 0x3c390deabd11369aU,
  0x3d2582cebd20c926U, 0x3bc6ccb13d2db41eU, 0x3d0a51a13d2ae199U, 0x3d2e4958bd2a01f6U,
  0xbcff9b083d091b88U, 0x3c59ae7b3d2fce47U, 0x3bc47278bcb96a9eU, 0xbd3338f3bd1ca338U,
  0xbd27abc33d07f396U, 0x3c3267e43d1a83b5U, 0x3c6d3836bd28a945U, 0x3c1f0327bba376f6U,
  0x39945bd0bc0b2eb3U, 0xbd25273abd320de2U, 0x3aaa5c3abd30d7e9U, 0x3b56619ebc376cc2U,
  0xbcd7ee6ebc807405U, 0x3d0d25a93d26b3ccU, 0x3b15f369bcf67a24U, 0xbd30cc6ebd1d56a9U,
  0xbc7107bb3ca125fcU, 0xba53242fbcdcf7abU, 0x3aa24578bc9fb05eU, 0xbd2ce7c9bd391761U,
  0x3d2f8e343b451805U, 0xbb2a5a7ebae7163cU, 0x3ba231e3bc37cea4U, 0xbd014e9b3b4a9349U,
  0xbcd235373c6ec201U, 0xbc064aacbd1a792eU, 0x3d224da83d33bbfbU, 0x3b17a3323cd21988U,
  0x3d34a2cd3c31459fU, 0x3cbbbdbe3b9c3b63U, 0x3b4d779fbd30c757U, 0xbcfa4df5bd0cb9deU,
  0xbd0bee613d039e9dU, 0xbbff26a7bd007cf1U, 0x3d0dd80bbcd88158U, 0x3cc252233c1fe7e5U,
  0x3cd268333bc9d675U, 0x3cc605893bf0dd5fU, 0x3ceb91a2bc6bd8bcU, 0x3c5fbe7fbceab85fU,
  0x3d0e02b1bd041b76U, 0xbd057bda3c8bcb3cU, 0x3d37ff54bb8ad77fU, 0x3d0b8064bd24e8fbU,
  0x3b25b2023d199600U, 0x3ad8251fbc1053e7U, 0x3c0e44e7bc5983bcU, 0xbcec6924bd02ab09U,
  0x3c7fa5d7bc4fb118U, 0x3d02371ebc8e460eU, 0xbd319088bc9fc407U, 0x3b21b481bd385dc1U,
  0x3d0d986fbd1a347fU, 0x3c2e6648bc503cb8U, 0x3d1b111ebcbe07ffU, 0xbcf6f561bcf9b0a6U,
  0xbbe812243d2132dfU, 0xbc92d0b6bce58d4dU, 0xbccbddea3bf7ea07U, 0x3cb0f717bd0a7ab8U,
  0xbd0f6d56bbb39a40U, 0xbcca61a03b9af83bU, 0x3d0f07163d232947U, 0x3bfd3e8abcd425c6U,
  0xbb0d8937bc891603U, 0xbba389ff3cd809f7U, 0xbd157005bc00fe9aU, 0x3ce024c63b70cdfdU,
  0xbc5cde503cc178f7U, 0x3ca6a18e3c5e49a8U, 0xbd29abefbc99bea5U, 0xbcf0bb09bc2da772U,
  0x3d218d873d29b309U, 0xbd24ebc7bd1d5f15U, 0x3c81258c3d0d9cc8U, 0xbcfde8f9b8a8f604U,
  0xbd0ffdbf3c649d34U, 0x3d3a4e71bd03d2c6U, 0xbccb7fc0bbf70e35U, 0x3c56231cbd35c364U,
  0xba5a25cbbd1de239U, 0xbd1906f43c67a274U, 0xbd2a77d13d1d2fefU, 0xbbd0e6febd218f6eU,
  0xbce695bf3cd5c497U, 0x3c2098a63b817d21U, 0xbc5c59ecbd20f064U, 0x3d37997a3cf85b36U,
  0xbd11aad8bcd2e95cU, 0x3d2f802abd19c4e8U, 0x3c46cdac3d0f39e0U, 0x3d227e0e3c4f24e0U,
  0x3c5f64e0bd2fc959U, 0xbc061e26bd253d46U, 0x3c2ca3473b39532eU, 0x3d06cd2c3bec1e11U,
  0x3cb98dc9bb94fd41U, 0x3d26f0bdbd36074aU, 0x3c0be176bb60d3dfU, 0x3c82d293bbe68618U,
  0xbcc906dfbd35bc84U, 0xbba4efe33d22d494U, 0xbd3633cdbd1413aeU, 0x3d221c1f3c106b80U,
  0xbb8fe6c53d2da893U, 0xbd1cf3adbc7e9e05U, 0xbbc0ebeab9cf6e11U, 0x3d2a23cbbc142fa1U,
  0xbd0f3573bcf90c69U, 0x3d23948ebd1671e3U, 0x3cbaf4a63cbdf3e7U, 0x3d22d7cc3d15babbU,
  0x3b7ed3953d353aafU, 0x3ceab59fbd007d61U, 0xba22041b3d3984e3U, 0x3c8e7121bd1f7632U,
  0x3c6509e2bc8fd5dfU, 0x3cbabfd0bb7d7d70U, 0xbc0d69213d373e52U, 0x3c7d717bbc0d39e3U,
  0x3b86a80fbc9ba16bU, 0xbcc50f15bc82211dU, 0x3b31ea0dbcad032cU, 0x3d3694723cc8bff6U,
  0x3ce743983cb551c0U, 0xbd1dfffb3c36acd9U, 0x3ced4d0fbbef03deU, 0x3bdc5affbd394d1dU,
  0xb9324b8cbbf41173U, 0x3cf3800d3cbc5fb8U, 0xbd0edcabbd285f3aU, 0x3d137655bcb72183U,
  0xbc67a43bbd091ab3U, 0xbbe1b0263cb567d2U, 0xbc98cbaa3cd734d2U, 0xbd34d8d53c908cdeU,
  0x3cada492b9921ffdU, 0x3cda93fc3c13d57cU, 0x3d126d84bd01aaaeU, 0xbb64d90bbc580aa0U,
  0xbc533f74ba789037U, 0xbcc6c4cbbcddb404U, 0x3c9663333d155688U, 0x3cbaa65b3c6e5b77U,
  0xbcaa5a52bc8243edU, 0xbcec9b8d3cefc1aaU, 0xbc3bd2533d25ac96U, 0xba77320abcb426a0U,
  0xbb04c9c33c274e77U, 0x3cd404e03cd60857U, 0x3caea3083ce1c3c3U, 0xbc9dbf3ebcd759e2U,
  0xbc050839bd0eb7ffU, 0xbc396ca03d013f25U, 0x3b827a0abc9ff57fU, 0xbb46250bbcf420e6U,
  0x3d05dc003a4ae716U, 0x3bd1193f3c32f86cU, 0x3c6d77eebc3bcaa8U, 0xbcec3a9bbce4f477U,
  0xbd039ef8bd327e06U, 0xbc803e98bc74a697U, 0x3d2353aebb024ac0U, 0x3c692773bbde9a0fU,
  0x3b928aa93d1d212fU, 0xbc5bc8c13cc0c97aU, 0xbcafe03bbc994eafU, 0x3c3190ae3b804d99U,
  0xbd12428c3b958cfcU, 0xbd31bcddbd15bc12U, 0xbd1298c63c893783U, 0x3c8255ac3c7ce3eaU,
  0x3d38954a3ba7eed6U, 0x3d141aebbcd4db3dU, 0x3c906dd73d149b47U, 0xbbc125613d2421e0U,
  0x3c4c9af53cdf90ddU, 0xbc9ff6683c99896aU, 0x3d3a7fe1bd209720U, 0xbcab3bccbce2a1ddU,
  0x3bbe89e33cf96478U, 0x3c49bddbbcfef7d5U, 0x3bd83986bccd2ec9U, 0xbc8fc0993cfd9d72U,
  0xbd1f19bd3b1cd3f9U, 0xbc9a6b7abba5289fU, 0xbd367cb53d276e09U, 0x3d3aae38bd07144eU,
  0xbcefddf9bd29800dU, 0x3cca91a1bb526ce1U, 0x3b7189963c0f20e2U, 0xbd099a9b3b94a232U,
  0xbd0f28b83d1e4abdU, 0x3d0abd793c73e388U, 0x3a65cff9bd237759U, 0x3c8bfa1cbcabead8U,
  0x3bfd0c0f3cbe58f8U, 0x3cb238893d2990deU, 0x3ba5e9773d2dea77U, 0xbd12de60ba6d3c35U,
  0xbd11b42abcb2c5c7U, 0x3c9274f2bd0fca80U, 0x3d3378dd3d0c52beU, 0xbce891683d23c8a2U,
  0x3ce4e0fcbb5c9f6aU, 0x3d0b20c33cba1054U, 0xbca5cd653c7b638dU, 0x3d0ea552bc0e3248U,
  0x3ca9a0013d29c7fdU, 0xbd38476fbb5970f4U, 0x3d11c91dbc8ad846U, 0x3d1ce7f43cbe1909U,
  0x3ce3550abb545128U, 0x3b51cf51bbf60e03U, 0xbd0bf9933d286e21U, 0x3d0f06533cb688f0U,
  0x3d3938993c66a8f1U, 0x3c18f8ae3cce5614U, 0xbd08f4373d37fd4fU, 0xbcdc9c55bc147565U,
  0xbd0883f5bcfce583U, 0xbcdd63403caa88e3U, 0xbc40f91b3d37db02U, 0x3c23333abcd9e4c6U,
  0xbc8a062a38a8b2d4U, 0x3c19bac1bb74b96bU, 0xbc0b93debc7c98dbU, 0x3d0263a2bcd8ae71U,
  0xbbd984363d14063cU, 0x3d1d48dfbc7cd76fU, 0xbd1b2d14bc21aa71U, 0x3d16b86cbcc9545fU,
  0xbd15add8bcc8b358U, 0x3cb2bc1d3d2a75c0U, 0x3d28044e3cd8be6bU, 0xb98ea2d6bc6b1f3dU,
  0xbd2ffac63d08a382U, 0x3c451d8b3b414f19U, 0xbccd51babcddc3b4U, 0xbaba4dac3d36f025U,
  0x3c9e958d3d33ccfeU, 0xbcd6bca7bc7b241bU, 0xbcc74bd2bcb0f38bU, 0xbd0d863abccffe32U,
  0x3c560f353cee6362U, 0x3c71767cbbfb4cefU, 0xbb319ab93c71bd5eU, 0xbc7c8d7dbc3bf510U,
  0xbcc9bd7abcf82c3eU, 0xbb9a140f3cd43314U, 0xbd0d8dad3c85a601U, 0x3d17c7bbbd3a0a07U,
  0x3d0d9153bcdac9c1U, 0xbd1158d7bcac5cc2U, 0x3ca23062bcdfbc54U, 0x3c39c45a3d05924cU,
  0x3cd5c3dfbcabd4d2U, 0xbc5ee077bc98b67fU, 0xbc464f20bc30775bU, 0x3cb12a223d0a169eU,
  0x3c18f2e83d0102c3U, 0xbd0e5e7bbd1cb701U, 0xbd1f79ddbd29ef33U, 0x3bb1c98e3d04a4adU,
  0xbd25ba38bcc35e2dU, 0x3c7c7aa3bb721541U, 0x3bb3d567bd1484e1U, 0xbc528aefbbfd3a06U,
  0xba9e91babbbb7e4cU, 0xbcbcb4bbbd05a7e6U, 0x3ba7ffa2bd1ab3b2U, 0x3c017a46bb8a2c90U,
  0x3d32ab833cf67d41U, 0x3cbebaae3c0589e6U, 0xbc6e27913c5bdb3dU, 0x3cbc5f03bcb44de7U,
  0x3bd6a0f83d07cad8U, 0xbd07a5eb3d15ead7U, 0x3ca25ec1bd1f2786U, 0x3c97a74ebbff751dU,
  0xbc73b7e6bc1d523fU, 0xbc09d26abc54bb6aU, 0x3d063010bc7d9f71U, 0x3d2d7c123cbee0bfU,
  0x3d2f348e3c249a54U, 0x3c1df0373cb5c2cdU, 0x3c4427513d249dc7U, 0x3ca06122ba2121b7U,
  0x3d1acee53d10a43cU, 0x3c4d6a1d3c82bf27U, 0x3cd500fa3cd90cc6U, 0x3d025e923be2f746U,
  0xbcccc5d43c4a3dd1U, 0xbcafa9213d315a4cU, 0x3c455dfd3d248016U, 0xbd034c6dbd025378U,
  0x3d1e439abcbbc03dU, 0xbad692bb3b1b43dcU, 0x3d13c3a4bc436c3fU, 0x3c9b03b2bbab0a4fU,
  0x3d1c8b1a3cc005caU, 0xbd3ada883ca1818eU, 0x3d1f96313d329ef7U, 0x3ca7a2363cdb56ebU,
  0xbcba5e493d0118b0U, 0xbd327fe0bbeaac15U, 0x3bf269ecbd08e502U, 0x3d156cb03d0a9d5dU,
  0x3c152c6d3aded031U, 0xbd2433083b7367a8U, 0x3c58bf313cb672ffU, 0x3c40fd0e3d1e4ac2U,
  0xbbbe3f4e3d06c869U, 0xbd161ffebc833ab9U, 0x3b9a784a3cd5535cU, 0xbcc7c12b3d0fa117U,
  0xbb1b90d1bd15eec8U, 0xbb520a78bcb9acd0U, 0x3d1a2997bc2184e0U, 0x3d1ac9ff3c8d5072U,
  0xbc7a8ec3bb64af99U, 0x3cdc686dbcbc46f5U, 0xbd0e00503ca3c54cU, 0x3d1abebc3cde8279U,
  0xbca4ec79bca48d17U, 0x3c2367cf3d1503cbU, 0x3c959f553c8fa47cU, 0xbb546ebc3c660829U,
  0xbb9cbd553d284eeeU, 0x3cc6c3473ca068b9U, 0xbc47788abcc7051eU, 0x3c3fc4653d2d18adU,
  0x3b15fd2d3d0d5205U, 0xbcfce3813c8d78f5U, 0xbc3a9ae6bc166813U, 0xbba040d4bc90f771U,
  0xbce3fcd63d24ec35U, 0xbcc9f816bd1ee28aU, 0x3c505ca53c361fecU, 0x3c365c26bd27938dU,
  0x3cd7d04bbbc15901U, 0xbbe8f1e3bd28b056U, 0x3d2a72043d2da6e3U, 0x3d298df3bd3132d2U,
  0xbcfa7ddfbcc6b310U, 0x3cc672943c64c828U, 0xbc8723bebaf6208bU, 0x3cd77dabbc038245U,
  0xbd1ab0903c76d4e7U, 0xbc59908f3d00f9c2U, 0xbd282253bc1fb1e0U, 0xbbbaf5d2bcc4b8daU,
  0xbc7f0ef13ad3ae93U, 0x3d1a7a0e3caef0b2U, 0xbca1c2ffbb89c37dU, 0xbcd89ec93cd07796U,
  0x3bafe2cf3c24ae75U, 0x3c27dae3bc79b634U, 0x3cc105ee3b8012cfU, 0xbcbed958bc88ee18U,
  0x3d0708d3bc826fe5U, 0xbc55842d3cb4f26aU, 0x3d14c5f23d20ce0dU, 0x3d14a255bd1f3ba5U,
  0xbbe8904dbd24e1edU, 0x3ca93d5e3c03b6f1U, 0xbc969d71bd1e6965U, 0x3cfe7bc63d0ffbd1U,
  0x3bc96a3c3d2471c3U, 0x3d184801bc9b0823U, 0x3d325426bd0b352eU, 0x3cb386a53cdd1e8eU,
  0xbcbd188abd15fd03U, 0xbc18f2843d3923e7U, 0xbc7775e33c99ee7eU, 0xbc2409f53beb766bU,
  0x3d1020a5bc9cec5eU, 0x3bf9f8fb3cdc1dfeU, 0x3bd9a6e73d2fc061U, 0xbca9b87bbc4fde48U,
  0xbce5d857bcb269daU, 0x3c045e5db8e08546U, 0xbcfbd7dabbdd114cU, 0xbd361f173cf93664U,
  0xbd05498a3c8874feU, 0x3c112d30bc85c3b4U, 0x3cc543903d03b05aU, 0xbcc3d4743ad1ab88U,
  0x3ca1de9a3cba66deU, 0xbd26cf2c3c1653b2U, 0xbd304fd6bcb7f639U, 0xbce3e1933d3adcd2U,
  0xbd23b9e6bc712aa6U, 0xbcfa546b3cc09a13U, 0xbd039c5fbd25bb90U, 0x3c84d7573d2fcb25U,
  0x3cf3f575bc1f580cU, 0xbcf790193caf04eaU, 0xbd37b9103c20baf9U, 0x3c6bc9373cbbaa7bU,
  0xbcaaa7663d357373U, 0xbcc595753d086be8U, 0xbc7b6cbfbd0856e8U, 0xbd30a16b3d09366fU,
  0xbc89865dbca816a6U, 0x3c561053bd064b4eU, 0xbc87beab3b58be1fU, 0x3c94a2fb3cc8cd5fU,
  0xbbeade043ca1ff8bU, 0x3ccdec12bc6073b9U, 0xbd36f78abd270fc2U, 0xbd149f95bd26d701U,
  0x3bf011e5bce7c7afU, 0xbc8c203ebd24f08cU, 0x3ce949d1bc51778bU, 0x3d19a4c13c11a9ccU,
  0x3c8b399e3c1d478aU, 0x3cbce4f43cdcc12eU, 0xba896ef5bcc2c681U, 0xbc5c41b5bbd66472U,
  0xbce330f23a1bf89cU, 0xbb3d4c07bd2f1271U, 0xbd22bfe8bcc8dad9U, 0x3b0da1aebc11694dU,
  0xbd1d3db7bce22597U, 0x3d023e23bba880e5U, 0xbbd1eaa83c9aa323U, 0x3b955f063d0d8653U,
  0xbc9210a1bcb90d44U, 0x3c5472c03d27beb7U, 0xbc6b01923af96af0U, 0x3b83623abbffe179U,
  0x3bf151e63cc3b3bfU, 0x3d0d27d1bc31226eU, 0xbd19d0ca3ba4040cU, 0xbd127d27bd324407U,
  0xbc534a0bbcb9d86dU, 0x3c8cea723d0aa534U, 0x3b30fde43c892a8aU, 0x3cefdd5e3c42f7f3U,
  0xbcf3b6f0bd045d79U, 0x3c0ca164bc757c7aU, 0xbcabce163c8811b7U, 0x3a0af34bbc487f0fU,
  0xbd327a5fbc8a8b5aU, 0x3d37181fbc97c66fU, 0x3d1e0e2d3ca44b80U, 0xbd19b4bcbb77b003U,
  0xbd1df9743cd97e07U, 0x3d314733bc8a5067U, 0x3d387ef1bc6e4508U, 0xbbde54ba3b77cc67U,
  0xbcf5d9023cf62f43U, 0x3c2e76fc3d152d47U, 0xbcb96c4e3c196532U, 0xbcbc8274bc25820fU,
  0x3d1b1e703ca6dba3U, 0x3c97b1183d07755aU, 0x3d278da1bce57022U, 0x3d32462c3d0253c0U,
  0xbc014929bcc5b08fU, 0x3d29b60e3ac34e1fU, 0x3b8c30783c2bb14cU, 0x3d22ac87bc65e9cfU,
  0x3b8690bc3c6b6822U, 0x3cabebe73d2510d1U, 0xbcc88bd9bce30024U, 0xbcc66ca8bd261dcaU,
  0x3ca931a93cb0858aU, 0x3c828ae43be3a651U, 0x3cea448a3c8e569aU, 0xbd319a67bd375974U,
  0xbbdf0faebce15055U, 0x3cababfebc6fd35dU, 0x3c671766bc0b7717U, 0xbc4ceb103c8182d8U,
  0x3b90aea4ba3c3febU, 0x3d36c7c6bc9d07deU, 0x3cd19d393caf3482U, 0xbca11943bd25494cU,
  0xba91f9d53cd316b5U, 0x3d18fbd83d185b2dU, 0xb9ce5b7a3b1997ffU, 0x3d3561abbc56a710U,
  0x3c661133bd227515U, 0xbca6402dbd14ef74U, 0x3affe026bc20a38fU, 0xbd06162cbc731be9U,
  0x3baf7ab2ba4a3bd5U, 0x3ca36381bbebc84eU, 0x3d1715b23d2c5590U, 0x3bbd6c6fbcb1152eU,
  0xbc2a5fcfbd1eaa02U, 0xbc307f12bcc4badcU, 0x3c27609c3b17db6eU, 0xbc99cfb83cf3bf13U,
  0xbd125a74bd1c55c7U, 0xbbf5e1b13ca03ff3U, 0xbc12846e3cc2667eU, 0xb97164403d355c7dU,
  0x3b3210933d161013U, 0xbc8231bdbd22d971U, 0x3cdb6260bd3762c1U, 0x3c8b6b2abca4a3f2U,
  0xbcb4ea2abd2ec34cU, 0xbc082b5ebc8e495dU, 0x3c5ad325bd1e4ba4U, 0x3d1d748d3c44cd87U,
  0xbd14fd62bc894139U, 0x3d159665bb32593dU, 0x3c88f1b0bd22442cU, 0xbd342e73bcce0b53U,
  0x3cef1ed2bcecc7b4U, 0x3d22b0c33d27954cU, 0xbc90c87dbc8f31fcU, 0x3d278b0c3d085e31U,
  0xbc84b005bc15240dU, 0xbd2e83f6bd2366a0U, 0xbcbc7c423d2d8a37U, 0x3c609c76bcf4eacbU,
  0x3d1d628dbc303edaU, 0xbd0f3efabcc58fe7U, 0x3cbb3596bcd507bbU, 0x3d16d00ebd24e0d9U,
  0xbccc90e2bd1f1f30U, 0xbcdfcdbe3cea54a1U, 0xbc477d14bb3ce554U, 0xbc191d1a3c86d16fU,
  0x3bf040b93d2a4c4dU, 0x3ca1c363bd2ec9f7U, 0xbd099c28bcf2f3b0U, 0xbd05e544bd22b67eU,
  0x3cb046c83d1fd73dU, 0xbccf898e3cb4556cU, 0xbcaee470bb86def8U, 0xbc7c94bfbd139c00U,
  0xbd25db5e3c9504b4U, 0x3c1a3a833d015627U, 0x3c10c6d5bcb8ba14U, 0x3d0f49be3ce60a34U,
  0xbd26c094bd28ff38U, 0x3cfd17f33c26c47cU, 0x3ae1986abc489841U, 0xbc63c483bd00db22U,
  0x3d2a5607bd1a4c29U, 0x3c8cf35bbd2d630eU, 0x3d394321bd03cd6cU, 0x3b77c3003be5966bU,
  0x3c8b2c16bd16653dU, 0xbc82720abd3456abU, 0xbd1170243a4e0bdfU, 0xbc7982e7bd0863bbU,
  0xbcd2941f39919b13U, 0xbc11bbd9bd2aa0f4U, 0x3c79166e3be134afU, 0x3d378863bbcf13ecU,
  0x3bcc35a73c8be11eU, 0x3ccca6153d3716d5U, 0xbcc4f98abc6e3b32U, 0xbc17cf15bd28b6faU,
  0x3d08b2273c9cfb37U, 0x3ce4234d3b53180bU, 0xbc83099cbd3003d2U, 0x3c60943fbbb22c99U,
  0x3bbc7b58bd10964cU, 0x3bf37a823bbe0dd4U, 0xbc60a9b8bbe3746eU, 0x3c60648cbb3bb916U,
  0xbc39beb13d296c6dU, 0xbbd2d414bd08f013U, 0x3c201f8e3bbe9951U, 0xbd32d3623ca2cdf7U,
  0x3cf81b673c4c88b9U, 0x3cff473e3c63e768U, 0xbd0d7e5a3cefe4e9U, 0x3d2a987fbaa5d56dU,
  0xbcba768c3d12f0d9U, 0xbcdcc04a3d010022U, 0xbd07fa27bcf77514U, 0x3c390eb7bd06c385U,
  0xbc8c61aa3c87087bU, 0xbcdc8499bd39d779U, 0x3ce4e284bca72040U, 0x3d227c0b3cd28774U,
  0x3c3f3fe4bcab039fU, 0xba5acf963cdd3142U, 0xbc36d5e23ca2055dU, 0x3c97e466bbb90d9eU,
  0x3975182d3d1b510cU, 0xbcacca88bcf9c074U, 0x3c869957bc41c03fU, 0x3d1a94febceb219aU,
  0x3d2e5f953d0d7efcU, 0x3ca8af1ebc13f43fU, 0xbcfbbafb3cd74f43U, 0x3a1cf77b3d066d25U,
  0xbd38cd933cc57692U, 0xbc762cc63c7b162fU, 0xbc976fa7bb5a7e28U, 0x3c711cd73ccf0a6aU,
  0xbc543236bca28eb1U, 0xbca25038bc9830a2U, 0x3d3071b03c13f012U, 0x3d14ee77bc2427e6U,
  0x3d2f4e163c2cba8eU, 0xbbb26050b9b61a7eU, 0x3a16bdfa3d29a7a2U, 0xbc0bc154bc1504e6U,
  0xbcc748803cce3d9aU, 0xbb86253f3c8f4e20U, 0x3d339ebcbbf2890dU, 0x3c08c93abd0df1b3U,
  0x3ccb2d40bc17b4b9U, 0x3d35bbd1bd1a48e1U, 0x3c164fe83c85b6d0U, 0x3b6ed26fbc8ad29dU,
  0xbc556f4cbc6cb407U, 0xbbdc51af3be5bbf0U, 0xbd36b84c3b381afaU, 0xbd1024aebac09bcfU,
  0xbba5ff253b73c5f5U, 0x3d036e9c3bef9ae7U, 0xbc67c7febcdd2985U, 0xbb98d1ad3c223ee5U,
  0x3d0bd8b63d2630fbU, 0x3b9af8debd3937daU, 0x3d26067b3d116fceU, 0xbb4c6464bb8e0087U,
  0x3d251936bd399483U, 0x3bd8d7ba3ad83e80U, 0xbcb197b33bc48c1fU, 0x3bbaf2a13c5f64fdU,
  0xbd0ce1613c8d3535U, 0xbba10bdabd0d9ef7U, 0xbd1c1fbb3cce62d6U, 0xbc3d5bfbbc13a779U,
  0x3c3d164e3c4e107bU, 0xbd2d393abd17e843U, 0xbb5652a53d0e4d60U, 0xbc1ad4553d2e5f8fU,
  0x3cc28510bd063fc2U, 0xbcb42e113ce9b936U, 0x3d0fbaee3cfe993aU, 0x3c5238a4bad5bb79U,
  0xbccff69f3d060d68U, 0x3d36929dbd19fed8U, 0xbc6a2cd43b703c7bU, 0xbbb4f9573ccb29f7U,
  0x3c998decbd0c4e45U, 0x3d33b96abd1ca9d3U, 0xbc0808b4bd1bbdebU, 0xbc73c517bd06da30U,
  0xbd188fb6bc094543U, 0xbcc3de2f3d36336dU, 0x3cd707bfbcbdc848U, 0x3cf1ac8fbc6d1ff4U,
  0xb8bb6f6bbd11a85cU, 0x3cdec6a1bc644a8bU, 0x3c691184bba87738U, 0xbba2770a3c91a789U,
  0xb9372ae4bc6ea3ecU, 0xbc4489d1bce73aa8U, 0xbc36da1abd16e387U, 0xbd1c8d353c89a636U,
  0x3d25a45ebc8cc87fU, 0x3bfe8874bca0b81eU, 0x3d2f4403bd14809bU, 0xbc6766c63c9c2dc3U,
  0xbccac7e03c2708b3U, 0x3cece9e93c2b99a1U, 0x3cd71c15bc7d3035U, 0x3d2ec1b63c6f77e4U,
  0xbcf92f5dbd03877cU, 0x3b2ac0eabb6b29ebU, 0x3cdb451ebc99ed2bU, 0xbd177f20bd27e2b1U,
  0x3d10b6dcbd33cc8eU, 0x3c7971bd3bc0f802U, 0x3d39199d3c3bf8f1U, 0xbb54152e3ce42ba8U,
  0xbc83bd78bcbc4d5fU, 0xbcb253da3d2e47e7U, 0xbca53203bc82f12bU, 0x3ccff3b93bdc8f1fU,
  0x3d208673bc214b69U, 0x3cdb767bbca26a9fU, 0x38945196bd01990aU, 0xbc0bd6a5bb1395cfU,
  0x3aabd223bcb9c77eU, 0x3d282ac73c3deaa3U, 0xbc5554d2bcfe0ad7U, 0x3be65f343cd79d2fU,
  0xbc865301bcb15fd5U, 0xbce882c43cb64adaU, 0x3cb2d9b1bc79348eU, 0xbd396628ba9ce366U,
  0xbc8ad1993ce05776U, 0x3ccc903e3d2ccde8U, 0xbd068f1fbbf38071U, 0xbcd92d7b3bbe0da5U,
  0xbcf1ec6dbd2696b3U, 0xbc3c1c22bd2239ffU, 0xbbb7266bbc3f1dc6U, 0x3ccbd06abd1b68f2U,
  0xbc4336c13cdaf561U, 0x3b75d007bafb15fbU, 0xbc62d79fbc478ea1U, 0xbcdb60cdbc0b9897U,
  0xbcf26a013c063d52U, 0xbd21e2db3d304fc7U, 0xbca173ba3cd35ba9U, 0xbce2d9f33d1161eeU,
  0x3d12472abc80fb74U, 0xbc9f18263c4e238aU, 0xbc828966bd159f88U, 0x3d363b3e3d031257U,
  0xbb6ac480bca691a6U, 0xbd0f988cbc618c40U, 0x3c2d33193cc8ab9bU, 0x3b26d822bd244167U,
  0x3b0751fe3cd824e8U, 0xbca3ad323ca38f6dU, 0xbd1cbb303b46f0e3U, 0x3d120a323d057759U,
  0x3d2988333cde5e2fU, 0x3d011ede3d359d49U, 0xbd2bcb79bd0504d0U, 0xbd16bac5bc851d35U,
  0x3c12e4a53ce9d597U, 0x3b4395e0bd316649U, 0x3c780e6d3cfa9fafU, 0x3ccdabb4bc381b92U,
  0x3c854dc93d007c8cU, 0xbd317bae3d0926e0U, 0x3c69d311bc973908U, 0x3b565df73cd96d64U,
  0xbc89924f3cb6b6bbU, 0x3d0a82ea3d14e683U, 0x3d3a91fd3c16ff10U, 0xbd1ba39a3d17d11dU,
  0xbc1b0537bc4d0ba1U, 0xbd27cf61bd2ce71cU, 0x3ca76558bc960df9U, 0x3aaeee293cad5b90U,
  0xbc7d57b63cd61244U, 0x3a6e84d7bc741bd5U, 0xba0394923d2832ecU, 0x3c63d8b5bc507450U,
  0xbc61df46bc9ff5eeU, 0xbce786273d12b6f9U, 0x3d2ac71cbc3991a5U, 0xbc8fedef3d252d6dU,
  0x3d3273d3bd26309dU, 0x3d074882bd2b69edU, 0xbceae3093cae32ddU, 0x3d195a90bcda1debU,
  0xbcf8bf26bcb6edf2U, 0xbd355ce9bc8901f9U, 0x3ca583b4bc171f5bU, 0xbc83f88b3b20b931U,
  0xbd273fe63d0d5b1eU, 0x3c19ac43bc7b543dU, 0xbc1447863aeff9d7U, 0xbce9d9d0bcbddbd4U,
  0x3d0a6e1c3bd516eeU, 0xbd2b14f03c5e543fU, 0x3cd86c33bc7c6b30U, 0xbc5659613d3877c0U,
  0xbce04c24bc08c232U, 0x3ce5e80a3cee2ee2U, 0x3cda776d3d20b175U, 0x3b2ae427bd3a82fdU,
  0x3b0755a43bf4a478U, 0xb9d562edbbe31af8U, 0x3d110db2bc88e6c2U, 0x3d07bf9f3c4ebb94U,
  0xba283fcebd06862dU, 0xbd3ae0c8bc8fef8bU, 0x3bd83c443c684907U, 0x3c4914563d175b99U,
  0xbd0dd905bd0f8174U, 0x3ca00a5e3cbcb613U, 0x3d198ae33c164d3cU, 0xbbea97ffb9150f77U,
  0xbbed16473b9eafb7U, 0xbad2384c3d01289eU, 0x3cd823edbd161884U, 0xbd14a512bce7d4b7U,
  0xbaedb082bbd76fb1U, 0x3cb84f0f3ce4cd44U, 0x3ceeb1723cc48647U, 0xbcba7c4cbbeac760U,
  0xbcd0bcd4bd2e5dc2U, 0xbc4d4e85bcd2601fU, 0x3c56e602bc02089dU, 0x3c8f3e4fbd36185dU,
  0xbd342ec93d12cbeeU, 0x3d1aff28bc8708cdU, 0x3c906863bd0f3ee3U, 0x3d15b87a3c40b0ceU,
  0x3c6238593d0e4214U, 0xbc9e87b53cd9b8f1U, 0x3cbc0edc3c8a37b9U, 0xbd29b8893b8c44a5U,
  0xbd1dd7e33c851b39U, 0xb8b3f31ebd057879U, 0x3cd922553d2ed345U, 0x3c834d903cebef9dU,
  0x3cf4e0023d0060b3U, 0xbcf8f43e3d1ad7e5U, 0xbce251853c86d36fU, 0xbd0be5a53d2e6b99U,
  0x3bfa8fbebd297bb9U, 0xbd25bfa03c1c7b15U, 0xbcb8963abd0a714bU, 0xbd2e254d3d03d938U,
  0x3cfbd5bdbccdca14U, 0x3d335325bc7ed8c3U, 0xbd09adb83bafb8baU, 0x3d382cd0bd31632bU,
  0x3d1ee97ebd16701dU, 0x3d188568ba2b9410U, 0x3ca6be123d2d3908U, 0xbb7ce8bbbcc86eacU,
  0x3d08fc93bca3afa1U, 0x3d0cc9703c56346eU, 0x3c656c3e3d3ac485U, 0x3d398f39bc3576bfU,
  0x3c021ddcbc61ec2bU, 0x3b8a5bd93d32c2f0U, 0xbd305b10bd190173U, 0x3c4eddbe3d16a460U,
  0xbcdcc3dfbc1b92c7U, 0x3cca26263d2a6aaaU, 0xbcb9045d3d161e70U, 0x3cf773a3bd22fb1eU,
  0xbd051a31bc9e4a2bU, 0x3cf10c113cbf90ceU, 0xbd0951bbbd1e32beU, 0x3d184c973cbc4f0cU,
  0x3caf97b1bc38cc4dU, 0x3d1164fa3cc6b157U, 0xbc89f844bc3eb5c0U, 0x3cd891153d222368U,
  0x3c334d17bd256c87U, 0x3d04968dbc80c272U, 0x3d2e9c673c03bb6aU, 0x3c3542643ad2078dU,
  0x3d1416debd06f33cU, 0xbd27ff6d3ca4e84cU, 0x3c853e15bbe1dee3U, 0xbd1a79b7bc59216bU,
  0x398589ec3cac9f6bU, 0x3bf5db64bd04f911U, 0xbd08df8a3cfe6bbeU, 0xbcc682793cd9d7a3U,
  0xbd0b9e8b3c165bf5U, 0xbc34e267bcbc7095U, 0x3d1f1ba33c296193U, 0x3b8447963c1763afU,
  0xbc8d1fd3bc657300U, 0x3caa870a3bda13e6U, 0xbc6b1f553c6eb175U, 0x3ca3d6f63d2c132fU,
  0xbc6e8fc0bc38f90eU, 0x3bc703a53d2bb08dU, 0xbcd41d34bbf1c7e3U, 0xbb8b1e56bd16c917U,
  0x3b306fabbd06fa6bU, 0xbd261cb93bc89823U, 0x3b2e27103ca1271dU, 0x3cd62304bce1bee4U,
  0x3d1b7b86bceef0dbU, 0x3cb4a2e73d06b3d0U, 0x3bddd989bba1991eU, 0x3c081abb3cf1a12cU,
  0xbb90f968bb967d58U, 0xbd0b27e6bc2b1408U, 0x3c633a363d371c94U, 0xbb1598653bd885e3U,
  0xbd0c53663d0f4922U, 0xbd001241bc9cef50U, 0x3d0d7fccbce3af4cU, 0xbd1c3ec2bc97d559U,
  0xbb902f11bcb48ea6U, 0x3caea7d03d23bccaU, 0x3beb5683b9c79967U, 0xbbbfc76ebcdaade6U,
  0xbd1ba259bced1f5fU, 0xbc841093bd308cceU, 0x3ca5c26b3bd6de74U, 0xbb07919ebcd02bfaU,
  0x3ced22623cf4c3d6U, 0x3c32fcc83d2f5b3eU, 0x3d1a0a97bb2821aeU, 0x3d343fc83c5d3eebU,
  0x3d1c48c83d31385bU, 0x3c5ee094bca2cc1bU, 0x3d2d2955bca0a23cU, 0x3d2a7d1dbc561ea3U,
  0xbd1d27c23cf1038eU, 0xbb0a61243ca271a1U, 0xbd060ae03bbb9019U, 0x3d31e9233d33c57cU,
  0xbd301ad9bc7abea4U, 0x3d2417033c519abcU, 0x3d332ff1bc887443U, 0xbca10d8abc880b9dU,
  0x3c5c5bf43b096cf3U, 0x3ce218f5bd2893edU, 0x3d38cf3fbc9cb4cfU, 0xbd1e80f23b367b2aU,
  0xbb14c0983d349dffU, 0xbceadce5bc895549U, 0x3d25caeebaa5c3e6U, 0xbcf2e07ebd37243fU,
  0x3d37dee63ce9325bU, 0xbd2d73463c371b1aU, 0x3d086103bd04a920U, 0xbb8a2c6dbd017010U,
  0x3d2ad690b94888f0U, 0x37bdb1d03c379f8fU, 0x3cf889f0bd1b4adcU, 0x3c7f3ea3bd328c23U,
  0xbd1ae801b9b9b135U, 0xbcb9dade3d2be210U, 0x3c458596bd10cd88U, 0xbc9fc87b3cfb7ff1U,
  0xbd0dce533d325477U, 0xbd343e0cbbdff34eU, 0x3cfd4bdb3d0bfd82U, 0xbc149f63bcffbe53U,
  0xbb00329f3d2e9801U, 0xbd0eede03c38e52eU, 0xbbdb5e39bc7f6effU, 0x3d2e974dbcdb05b2U,
  0xbc274b4b3d26c495U, 0x3c779f9b3d014d0cU, 0xbcf7b91c3cd0b45cU, 0xbc4d8ee13c97ddc8U,
  0x3d25069b3c06c8c9U, 0x3cbbac4b3c7ae32eU, 0x3bf1cb0abceb2137U, 0x3be1e6b13d00bf0eU,
  0x3cab974bbc9d3566U, 0xbd30c19dbc80cdf2U, 0xbd1648d8bca0b60eU, 0x3d16710fbd38808cU,
  0xbc24d261bc10d709U, 0x3c0a42443d165f6aU, 0xbc4935e23d2ee303U, 0x3c870f4839e0fc50U,
  0xbd1bc2903d387166U, 0x3d0bf063bd310380U, 0xbc7423633d03a7d2U, 0x3c7c53113d023cf0U,
  0x3aaa10d2bd0f93ddU, 0x3c74c4253c24d832U, 0x3c80af553cf99243U, 0xbc4581633c8360f3U,
  0xbc79cba83c25a9ffU, 0x3d0ab1c43d04c90bU, 0x3d16de70bc2a85f2U, 0x3cf1d2ec3cca99adU,
  0x3bfb7144bca1d3ceU, 0xbd2a92fb3c225026U, 0xbc8dbcbabc61f5a4U, 0x3c9d81593cd6857eU,
  0xbd2156433ca4a0a0U, 0x3d20859a3d2bd8d1U, 0xbc1a3c79bc658530U, 0x3d1cd0023b219c68U,
  0xbd312ce73c7601d3U, 0x3ce89015bcbf5deaU, 0x3d05061d3d28419cU, 0x3cfd50a9bc125879U,
  0xbc4e40fb3ca2fd7eU, 0xbcb91145bcbff582U, 0x3d0cb292bc584ca6U, 0x3d37a9ddbd0b6137U,
  0x3cade579bd32e75aU, 0xbce80febbd35ed47U, 0x3d25735e3c81a65eU, 0xbb2d6d34bb1d4514U,
  0xbd33790d3d052b6fU, 0x3d380fa0bc06a90aU, 0x3c8a0b0fbc268712U, 0x3c87f35a3bb09babU,
  0xbd287290bbdda52eU, 0xbc2967193cbffffcU, 0xbca715123be3a0b4U, 0xbd0d8742bcbf2378U,
  0xbbb27235bd0d53c7U, 0xbc11043f3d21edd1U, 0xbd0d12893cba9e44U, 0x3c06cf0abc2d549aU,
  0x3c9df3983c511719U, 0xbc4263e73d10db21U, 0x3ca93ad3bc1175a6U, 0xbcf0695c3ae212ecU,
  0x3b552bf93c321f34U, 0x3d3815e03d1683f0U, 0x3d0b0c203c9270b3U, 0xbd2d0d47bb694189U,
  0xbc1861ab3cfd235cU, 0x3bc9a2493c694e39U, 0xbd22c6ab3cce533fU, 0x3d30bdccbbe4b880U,
  0xbca8fcfa3d1d0530U, 0x3b8c61b83cdd0c32U, 0x3c96a6a13cb892abU, 0x3bc6c56f3c2f1501U,
  0x3c98afccbb9def8eU, 0xbd13e945bd00992cU, 0x3c8fed263d33fcbeU, 0x3c1cfcbb3b22cba9U,
  0x3cde14dc3d1d9d8dU, 0xbd246cebbd34908bU, 0xbc82c56bbc8aca80U, 0x3c248afe3a05e64eU,
  0xbcc7c674bd191256U, 0x3d168f93bcba95adU, 0xbc04f5bd3cf2b984U, 0xbbf672a7bce9d8b2U,
  0x3d2749503d15e284U, 0xbd2dcdf93ccad4ceU, 0x3c918c0cbd184003U, 0x3d056fd03c3d24faU,
  0x3cf56905bc8021bfU, 0x3d079d6cbcd30b0eU, 0x3b457ccdbd291c78U, 0xbd04f7d2bc12aadcU,
  0x3d373b783c847763U, 0xbd30c9453b6df871U, 0xbd2690bb3ccbd772U, 0x3c8183303cc312b8U,
  0x3d209db8bc29989fU, 0xbd0b308c3d03af0eU, 0x3cad9f75b9f824dcU, 0xbcce2af83cc4733cU,
  0xbd37c880bd1554cbU, 0x3c521824bcb86979U, 0x3ca85845bcdf3f24U, 0xbd2613353cd5cfafU,
  0xbb476a7bbce3b27bU, 0x3c77cf24bc226d51U, 0x3c34fe573d2c242cU, 0x3ce72780bc53b7a2U,
  0xbce0aea9bcf98fe3U, 0xbc6d78bb3c61d305U, 0x3cb33e18bd0b49b5U, 0xbce0d7ac3d03a0ccU,
  0x3c67eead3c90f616U, 0x3d2e6f35bd1a737cU, 0xbc799f51bd178f06U, 0xbb916e35bab5e0ccU,
  0x3d148b05bcdfd5deU, 0xba5243fb3b9a272eU, 0xbd1b3da73c7f6a75U, 0x3ca346f2bc4a7182U,
  0xbd30ad65bd298ff0U, 0xbd0cb41ebcafdaf3U, 0xbca1650dbca48208U, 0xbbc818793cc85ee1U,
  0xbca2dc23b9408358U, 0xbd0d96623cf21452U, 0xbc0458ba3cdd26abU, 0x3d28fc99bb031799U,
  0x3b15abc0bc8c63c9U, 0xbd25d5043c987b86U, 0xbd01c0003d070d3fU, 0xbd30d04d3d3103caU,
  0xbce9b3d93d00ca3dU, 0xbd2ba9f03d192f53U, 0x3d2aaa523d0358d3U, 0xbc234fa43cf4d742U,
  0xbd1478d93d165242U, 0xbbec38d0bd0c35faU, 0xbcfe6742bd1df136U, 0xbc2003243cbb7e26U,
  0x3d3a00583bca5d78U, 0x3c6a9857bd355414U, 0x3b4bb8393cce34fcU, 0xbce2a154bcd3f74eU,
  0xbd25f9a4bd21597aU, 0x3b65db4bbc2f2884U, 0x3ba63dd0bb1455f8U, 0xbd2ddc773c3ad0f7U,
  0xbc5e9b4a3cbca3f5U, 0x3ca24e39bc703beeU, 0x3bcdcab13ccaddb2U, 0xbc93197a3c138769U,
  0x3c841c773ca60a05U, 0xbd312faabc8e96c4U, 0xbcd326943d388dd5U, 0x3c80e029bd0b94e9U,
  0x3d1311e83cfb3fdeU, 0x3ca76676bd1c1bf7U, 0x3bb95f183d07d7a0U, 0xbc798e21bd153c2bU,
  0xbcc12be2bce2935fU, 0xbd318900bd07acabU, 0x3b039103bbff71a5U, 0xbd0f3cfb39eb4508U,
  0x3d134ae13d04e992U, 0xbcec3a2c3d05a8c6U, 0xbc862e83bcdb0921U, 0xbb6b633f3c1c2abaU,
  0xbcfd77d33d3492f9U, 0xbb8d20c9bc0566e4U, 0xbcf3e8bf3c09fe4dU, 0xbd31fbea3d0e4900U,
  0x3b9842093d16369aU, 0xbbe89ec5bd08df0eU, 0xbd29f1603d0c572aU, 0xbc4a7fdd3d1851ddU,
  0x3c19e5863d0ff183U, 0x3d2b7b2ebd003982U, 0xbc871fe8bce9331cU, 0xbcc872583c9664e4U,
  0x3d2694a5bd30bb36U, 0x3d0cc7bf3d34711cU, 0x3c862d90bccba0f8U, 0x3d08ddb0bb354ab9U,
  0x3c9498bfbd0a4d91U, 0xbbb1700cbb47f99eU, 0x3bfc13ce3cf13e3aU, 0xbc0a328abca40ab6U,
  0x39840853bc92530eU, 0xbd027ba4bd2586a5U, 0xbd16510dbc82bba9U, 0xbc828f32bc8d76b5U,
  0x3d0e9dedbd1a4bc2U, 0xbb0024a83caade75U, 0xbc9de2173c9fdfb0U, 0x3c67a721bc53834eU,
  0x3d24d951badd9ebfU, 0x3ae4a3753d30bcf2U, 0x3ca2d87dbc66e851U, 0x3bd69fe0bcdfba26U,
  0xbc83d332bb4a6a4cU, 0xbcce72c73c87fe71U, 0xbca814a6bd145136U, 0xbb4182db3caf0cbbU,
  0xbc801dcc3c45f480U, 0x3c88444dbb2829fdU, 0x3d0df3bebd0a7cb2U, 0xbcae3d8bbc567a0fU,
  0xbd2f72adbb471a6cU, 0xbc6b45ecbcb667d3U, 0xbb28f661bcf14412U, 0xbd15acffbb2bf502U,
  0xbbd0045fbd355ba8U, 0x39cb7e42bd07075aU, 0x3ca2318f3ce3fd33U, 0xbd36c173bd184a6eU,
  0x3d36d3403cb2ee99U, 0xbd1fba493c24a7e2U, 0x3acad5313d303efdU, 0x3d11923bbbdef636U,
  0xbd281f20bc82b30cU, 0xbc90da73bd1d7310U, 0xbc949553bcb45872U, 0x3d36ea4a3be4e339U,
  0x3d1eaccc3ca73404U, 0x3cd854b83d379dd3U, 0x3d2f51fa3b7a1dc5U, 0x3929a835bd22b338U,
  0x3cea2f503cf158ceU, 0x3c9f19213b7ac935U, 0x3c5038a83d026fa0U, 0x3c1dafe83b894197U,
  0x3c34b128bc9a2650U, 0xbc5ba4ac3a200489U, 0x3cb021d83c4ddd11U, 0x3d33646d3cac92dbU,
  0xbcd5492cbd2129e4U, 0xbcd0d09a3d1a7083U, 0xbcedda97bbdbeb94U, 0xbcb350a03c2403e9U,
  0x3baf5f38bc1cf6fbU, 0x3ae3e7c53c669cfbU, 0xbd22458cbcd53d62U, 0x3d3aeaea3ccf513eU,
  0xba7996643b54b7f2U, 0xbb3bec1dbd0022d9U, 0xbcb29e20bc5ab63bU, 0x3d1ceab73cfc84e8U,
  0xbce12cb8bd078f27U, 0xbcce4ede3d0270a9U, 0x3cd283df3c6d675dU, 0xbd3a1d2e3a9fe753U,
  0x3b3ce009bd330d33U, 0xbd1ab9a13997a462U, 0xbbc8a0db3c25922cU, 0xbcc550a7bce32f5fU,
  0x3c37e654bc7dc8d7U, 0xbc850b3fbc2748fdU, 0x3cde4ef7bd1b094eU, 0xbc919fd83d224e1bU,
  0xbcd58e9bbcb6f4fdU, 0xbc9b92fcbd32c23eU, 0xbcc526223ca45374U, 0x3c96afb63c856744U,
  0x3cfd5a48bc72aafdU, 0x3bcb3a9d3c719fc5U, 0xbcd132d43c95a853U, 0xbd195ab93b5c14c0U,
  0xbbbf76b0bcd3dfdbU, 0x3bb78f66bd0c2a4fU, 0xbccfec8b3b58c17fU, 0xbc0981e6bc2a7072U,
  0x3b1367703d2e0bfbU, 0x3d233d4c3c1cf0e3U, 0x3cdf5f0b3d1fee83U, 0xbd14ca06bcfa9ac1U,
  0xbb7d72d93d381b15U, 0x3c83e317bc8ae0e3U, 0x3d219b55bcfbdb58U, 0xbc4cd2eb3ce75eb7U,
  0x3d345a743b50cbb2U, 0x3d1366a5bb96514cU, 0xbb1b4d72bd178277U, 0x3d0903a9bc31ed16U,
  0xbce286b53ccaeadaU, 0xbd357960bd22986aU, 0x3c0f0dc8bc70988bU, 0xbd028d173c9b7334U,
  0x3cc1d6c0bc1083abU, 0x3ccb137c3acc9339U, 0xbc98779fbc3ee4f8U, 0xbb6c1c1bbc9fff32U,
  0xbcde69ca3d2a3084U, 0xbcfb4769bc87008dU, 0xbccbeee83d069ff8U, 0xbcfd05a83c6a3000U,
  0xbbe25b67bd27bae9U, 0xbd1b4da5bc8f46e1U, 0xbc23d2c63cdf5194U, 0x3cb6a7ae3d392914U,
  0x3d102159bd1c4e98U, 0xbaa89889bd3187d9U, 0xbb1745433ca26eb8U, 0x3d0399cebca0d40bU,
  0x3d1d16d5bd0de1abU, 0x3ccccb2ebd245efbU, 0x3ce304513d38cdffU, 0xbc6a3af4bcfbd4b9U,
  0x3d18744abceeb623U, 0xbcb36e6f3c71e5ecU, 0xbcab2639bb46dfd1U, 0xbd17b8b63cbee7a1U,
  0xba9ae1d1bd2a0badU, 0x3d274120bcbeb56cU, 0xbc880533bcbdd0c8U, 0x3c5b29a4bd1651d5U,
  0x3c014407bd0ee499U, 0xbd03bc5fbc7f5385U, 0x3cab5d64bca3894cU, 0xbca3e2fd3aae16b9U,
  0x3cee6f1abd1a7be5U, 0x3d057fac3d10060fU, 0x3d0ad0043c2a81a7U, 0x3d0feac3bcfe4c3aU,
  0xbb6ab5cd3d2d1d71U, 0xbc849e383c432d2bU, 0xbc458db6bcf7dfe8U, 0xbc6a93fb3d089b2cU,
  0x3c58ae37bb973275U, 0x3c39d5e7bb58a8abU, 0x3c591a5ebc9655ebU, 0xbca2e6573c47031fU,
  0x3bf8136dbacf03cfU, 0xbbc63e773c6055ceU, 0xbc7969bb3b9ab6f5U, 0xbd0becef3d208192U,
  0x3b9fc5753c009476U, 0x3c9543193cc9ff3dU, 0xbcb0fbad3d3575abU, 0xbba5b8cf3ceaa96cU,
  0x39d0d0febcf8b688U, 0xbd3716783d201325U, 0x3cd55ee3bb8d1935U, 0x3b580c623b8b1f4bU,
  0xbcc79248bd1f69b5U, 0x3c845934bd134a85U, 0xbd1d29243d05ed74U, 0x3bcc34e03ca1f4c5U,
  0x3c23c1973ce81cdbU, 0x3d0574faba93034bU, 0x3c8875d3bcc4df08U, 0xbc64b1673cfa5c36U,
  0xbcd9a4adbcc48dfeU, 0x3c6d6cc53c909185U, 0x3c2a045dbcaaa819U, 0x3ce5d903bca1aee4U,
  0x3ce70cd8bbe8f54fU, 0x3cad46c03c7f6e62U, 0xba5a91e0bc365577U, 0x3d087e13bb3f14a5U,
  0x3c499b19bcbed065U, 0x3c38ca28ba3f87c2U, 0x3ba315d53bacf2beU, 0xbd3070b73b9346d9U,
  0xbd0af8d43d282678U, 0x3cec786ebd057e32U, 0xbc0da5adbc59e725U, 0xbc85879b3b38d6f0U,
  0xbc06638c3cd2e0dfU, 0x3d21ff7ebce5b101U, 0x3d311722bcb522b7U, 0x3c317c073d130351U,
  0xbd1d3960bcdf4920U, 0xbd2a450abd05c735U, 0xbcb331e9bd068ad5U, 0x3b67e1e53aa1cfb5U,
  0x3ce3d639bc4ff34dU, 0x3ce8a734baf157a7U, 0x3aeed09c3c8cd605U, 0xbc840a26bc976dcbU,
  0xbd158983bc9c6468U, 0xbcddf0f6bcc68871U, 0xbc4be5a43d1f9520U, 0xbcddf2a93cc3da66U,
  0xbd250fec3c9713d7U, 0xbcc28ff33c4bbe40U, 0xbd33ec123cb56bfcU, 0x3c8e2999bd36599fU,
  0x3a36874e3be1ff1cU, 0xbccd3d41bd386b5fU, 0x3d30e7c0bd099facU, 0x3cd429bebcfa323bU,
  0xbd0a758ebd049e10U, 0x3ca4fd173d248653U, 0x3c7aabc4bcf352f5U, 0xbd3a97a3bd05fc3bU,
  0x3d1ffd443c09ef9bU, 0x3caef5fd3cd967a7U, 0x3d12a8653ba38c53U, 0xbd21e190bd0df66eU,
  0x3d34d8dfbc809ef8U, 0xbd0f3299bcf7facdU, 0xbc2b15b83cb0ca97U, 0xbbf9d07fbd02b7c5U,
  0xbcc8f1e53cd78db3U, 0x3c8b4ec3bcccf079U, 0x3d24daea3c4bef28U, 0xbcdfd6c73cbea015U,
  0x3d00818cbd0ffed7U, 0xbd236d86bd2df82aU, 0xbc2d76f93ce64683U, 0xbcc08d493be475c5U,
  0x3ced7d8ebc9fe4f3U, 0x3c0fd9ec3c2cb0dbU, 0x3d08421ebbd8e07dU, 0xb94d23a3bcddb519U,
  0x3c8bc7de3c6e0365U, 0xbd2d4421bc0b3770U, 0xbcd8931a3ce19c2eU, 0x3cf07707ba130c9bU,
  0x3d16ed0bbc9d3e87U, 0xbc903ebfbbb67ca0U, 0xbb9024c1bc853916U, 0x3b411cfbbce2f22dU,
  0x3c881e39bd2bdd55U, 0x3d0521e6bc448361U, 0x3d11e1a53d1c1b56U, 0xbd15d0c73c79ef1fU,
  0xbc81f508bc303504U, 0x3d1e2a5cbd0677f4U, 0x3c76346bbd0fbf44U, 0xbc3f2cad3d0684edU,
  0x3c854b87bd37cd03U, 0x3cfdfedfbc257a1eU, 0xbb23cd00bcb9e049U, 0xbd28f22abd3a9377U,
  0xbcd3c80bbcc5d2d1U, 0xbc92e2113cb8ba9eU, 0xbc7e7f53bd3ac4b7U, 0xbd07324b3d1d3970U,
  0x3cd34e47bcc49676U, 0xbd1993d2bcfe922dU, 0x39dbdd6ebc924975U, 0xbd38d66ebbd51eb0U,
  0xbca7dc913c676218U, 0x3cfb6a20bb9205edU, 0x3c5033cbbc91e11eU, 0x3cd10777bc9bce60U,
  0xbd28d950bc21a912U, 0x3cd33b47bd29db21U, 0x3cdbe33a3d1c6c64U, 0x3b66f244bcbbad6fU,
  0xbcb3bfb33bc3b58dU, 0x3c7e7571bcb64b2cU, 0x3a9474d33ccadb61U, 0x3cb56e993c59832aU,
  0x3d2e134b3c719349U, 0x3d1c077ebd2b2601U, 0xbce963d03d35d86eU, 0x3cfe4e93bce67263U,
  0xbcc29cfbbccf77c1U, 0xbd386b8abced6aafU, 0xbc0c96473d3659eaU, 0x3bb80b24bcbb0f82U,
  0x3d351ab83c9041baU, 0xbc4edcf7bcb201a6U, 0xbcca282b3d160be8U, 0x3d36df5c3c9b0bb5U,
  0x3c046aaa3d21e455U, 0xbcff096ebc0f5a4dU, 0xbc649e76bbb45aafU, 0xbd2d02a2bc9fb56fU,
  0x3c98e4cdbbca57e7U, 0x3d1ffc4cbcbba350U, 0xbd1934bb3ce24596U, 0x3cfc9770bd195c7dU,
  0x3b10a56c3c972bf7U, 0xbc54d4963d323316U, 0xbd2cabb13c1dd1d1U, 0xbd29057a3ce38df5U,
  0xbcd2923d3ca9ef3dU, 0x3c87f8623c2863a9U, 0x3bb4060f3d3531beU, 0xbd2e14f7bc718bcdU,
  0x3c835220bd196363U, 0xbcd590573d18ead9U, 0x3d2b40febc45c72dU, 0xbcc8f6333bf8de5bU,
  0x3cebe1713ce0865fU, 0xb94ecf98bcdc4f4aU, 0x3cb48ce13cedd90dU, 0xbc269bc0bd31d577U,
  0x3c7cb25ebd0a0e91U, 0xbbdfe9ad3d24572bU, 0xbca85ac2bd0684f4U, 0xbd109612bba33bb7U,
  0x3c1a87313c5b3ccaU, 0x3d1f4eaf3c995db9U, 0x3cb14a18ba48c935U, 0x3d3265903bb998f8U,
  0xbcb9ff5f3c9fca97U, 0xbd0f79a4bc8f95dbU, 0xbd18ac893c3c231dU, 0x3bcadc163cc4a6aaU,
  0x3ca70b6aba4d8467U, 0xbcf1e52b3d170508U, 0x3beaa1433d00f282U, 0xbcc7637fbc9ae587U,
  0x3c87d0063d25ad39U, 0xbc9c7274bd25481cU, 0xbbf9bfe2bceab80dU, 0xbc85c1633d22debfU,
  0xbd126cfb3d2c8671U, 0xbc85d7dbbd1b6f4dU, 0x3d1bd13b3c6758e6U, 0x3d0a6d24bd22213cU,
  0xbd11d313bc228582U, 0xbd1f7a193c8008c1U, 0xbc1148d3bd24f2a4U, 0x3ce81980bbf04403U,
  0xbd38e10e3c760730U, 0xbaf6ff77bd02bbeaU, 0xbd250421bcbf6e41U, 0xbc8a218abcb7406aU,
  0x3cd6bb8cbc6e2de9U, 0x3af6bfee3cd84a2dU, 0x3c95b1633ceb9f33U, 0x3cbeee823bbf789bU,
  0xbc8980393c20c22fU, 0x3c7c407d3c3cacccU, 0x3d0542bd3c102b13U, 0x3d1cf0253c401dd5U,
  0x3d293a923d2d1190U, 0x3cdba0fabd014472U, 0xbccccbafbd2156a1U, 0x3cda12273d381a26U,
  0xbd23ded43cc6b451U, 0x3ce7840bbc1e2873U, 0x3d27099a3d24702eU, 0xbd2d0be6bd35eae0U,
  0x3bcf49b0bc925a84U, 0xbcc91866bcdf94d6U, 0x3ccdb6423c5742deU, 0x3cee3c13bc6b1308U,
  0x3d24e350bcb8a065U, 0x3d2d3761bcba6623U, 0x3d3680b6bcd85bb9U, 0xbd1c2916bd013e08U,
  0x3c977bda3d252d1bU, 0xbd04f9c73c34c3cdU, 0x3d1b50943d0d4188U, 0xbb01ed753d306908U,
  0xbbdaec283d0ab3e1U, 0x3d240888bcf34b99U, 0xbd2ebb85bd142fbaU, 0xbd1aa779bcc04897U,
  0x3c942570bd07a93eU, 0x3c14112fbc1ad26aU, 0x3b57e07abcd90928U, 0xbb32036ebd240c26U,
  0x3d14657a3cd9cfd5U, 0xbcd234363a231020U, 0xbbda02bd3d131dc7U, 0x3b9151513c17d76aU,
  0x3cd61c46bd3206eaU, 0xbd2aff94bd3396bfU, 0xbcaf30b53a1ace48U, 0xbcafcdff3cc1843dU,
  0x3d1d809b3b9c70d5U, 0x3d244679bce82ac4U, 0x3d19d0323c84b60eU, 0xbc373d4f3d217171U,
  0xbcd682c13c953565U, 0x3d077c62bbcd4c14U, 0x3d00aad63c453fa3U, 0x3cb74defbd263ff3U,
  0xbd08101b3d28151bU, 0xbbe0c212bd2b524aU, 0x3cb2a79c3cc98e83U, 0x3cc59daabc8a3d50U,
  0x3c20a18c3b108561U, 0x3d2672943c9ffc37U, 0xbd1a63babc8835a9U, 0x3cb96f6f3b19b261U,
  0xbcdeeaf3bc8d7d39U, 0xbb00560bbd2d1bfbU, 0x3c19ae51bc8a458dU, 0xbd280bea3cbf844dU,
  0x3cac7fafbd0b8b2eU, 0xbcb387afbc7a96e8U, 0x3d3518d6bcf664eaU, 0x3d1b50713c43a856U,
  0xbb0c9c3c3c9f9103U, 0x3d0a1f21bae6affeU, 0x3d013492bd361efeU, 0x3ce76d4dbc9c0950U,
  0x3c65a8553bbd3895U, 0xbb9ff9953d00cf50U, 0x3c51c327bc6e892dU, 0xbd26afb8bd345f1fU,
  0x3d2b905d3c99233eU, 0xbd13d0afbd1d9543U, 0x3d2abac73b2492baU, 0x3cbc635cbca832f2U,
  0xbccc8937bac5f8c4U, 0xbc6e0cb5bd1317b5U, 0xbc50294cbc7ccb73U, 0x3d0c84203c8b7cbdU,
  0x3b2696dd3af24b35U, 0x3d32ae103c76f6f4U, 0xbd240983bbb24f61U, 0x3ce63d223cc59e36U,
  0xbd2a18d83ca8f061U, 0xbd38ed7fbd16e015U, 0xbbe51eb2bc90efa9U, 0xbcafde3f3c6d4fa1U,
  0xbc23397b3d35784bU, 0x3cf442a43ccc5883U, 0x3c07eebbbb1306f2U, 0xbd275331bc20fd56U,
  0x3ca4d99a3c923d3fU, 0xbc8675babd2f6615U, 0xbcbe011b3d1cac20U, 0x3c82bd683cba19e6U,
  0xbcd7a6dc3c65f47dU, 0xbc7f6463bbea509cU, 0x3c76adbdbcab0eebU, 0x3c0df4233d1ce12fU,
  0x3ce27c873b634cc4U, 0x39acfdedbc808208U, 0xbcce7f7dbd0fdd65U, 0xbd04e9a93c34cbb2U,
  0x3c562f343d06ec60U, 0xbd11ffd8bc9b996eU, 0x3c6d96143a53c822U, 0xbc8dfb043c064e82U,
  0xbd21e1b03c07036aU, 0x3d15d96c3ce796caU, 0x3d11df9fbc815337U, 0xbb4648bcbbda4d46U,
  0xbc4ddbe1bcce035cU, 0x3c8ffbf0bbb82b98U, 0xbcbc0caebc1729a0U, 0x3c5b7ceb390df968U,
  0x3d267112bc8f3ed3U, 0x3cdaf757bd2acbf9U, 0xbc975577bc58e8f5U, 0x3aa2ea27bcadde17U,
  0xbb99bfd8bc946cebU, 0x3ba852e23cacb2a5U, 0x3ccb2bf0bca8b686U, 0xbc479a5c3c3a7455U,
  0xbd3191c8bc30a6f7U, 0x3d04d4b3bd2c1fc7U, 0xbd147cdd3d1d2107U, 0xbd1eb0373cafd616U,
  0x3ca8f7a83c7e0c7cU, 0x3cc92b7dbb95cb0fU, 0x3afca5a23cdd82a1U, 0xbc7c5d6d3c33c057U,
  0xbd00f9f43d2055b5U, 0xbbfb6e703b31b9daU, 0xbb4af9b5b90d19f0U, 0x3c2400e03cc4f05eU,
  0xbd24799d3c5bb174U, 0x3b20a02ebbbad66bU, 0x3d26dbc03c90c0baU, 0xbc9808063d32f652U,
  0x3cca0526bd03ed4bU, 0x3a7bbd09bc80cb0aU, 0xbc9b31cc3cd9999fU, 0x3cfe320c3c764734U,
  0x3d2fcb97bb540c0dU, 0x3aa73c5ebc9dd8bfU, 0x3baa00cdbc39d62dU, 0x3d283e67bd376bffU,
  0xb9a31941bd3a5b86U, 0xba3b8db9bd2759b9U, 0x3d22cbf73d291adeU, 0x3b1a88b9bad255b1U,
  0x3bb9391ebd09c6a8U, 0xbc1945e83bb5d6cdU, 0x3ccbaf103cc08560U, 0xba2ab5523c0ebe33U,
  0xbcf78af63c6745f4U, 0x3d1144093b27d373U, 0xbc2039f6bce725b8U, 0x3bac9a49bae03cf9U,
  0x3d362f28bce85e32U, 0x3c0c41393cbdf2cfU, 0x3d2a6eb33bbac493U, 0xbcc590f6bc11c9e2U,
  0x3c816079bca698f4U, 0x3cb9070c3c114218U, 0x3d29fd0bbd3190abU, 0x3b4c86143b3ac82eU,
  0x3ceb7483bb2686ccU, 0x3c7e2724bd223791U, 0xbc028c0b3ceb1a7bU, 0x3cebec62bbc8a2c6U,
  0xbcae56b13ce1315fU, 0xbc9ed233bd2e8281U, 0xbc99881a3d0e8648U, 0xbc8376033c93ab29U,
  0x3c92882cbcc7f716U, 0xbd31e489bc838314U, 0x3d0ef79f3ca1e8f0U, 0x3ce7773dbc52759eU,
  0x3cef44943b0ff251U, 0x3c61b5fdbcbc89bcU, 0x3ccd7c13bc9377d8U, 0xbc6ace443c6cdf9eU,
  0x3c47bd933b4663c2U, 0xbcec17c23bcd228bU, 0x3ba59771bcb58280U, 0x3d08aa15bce638baU,
  0xbd17258fbc995420U, 0xbc27a46f3d29958eU, 0x3cd7af343d06bea3U, 0xbd0956523d2b1fd0U,
  0x3d049437bcec6dbaU, 0x3ca785463bd6fc36U, 0x3c9e42c33cb3c21fU, 0xbd32029bbd2433a1U,
  0x3b7d17d63b4fa7abU, 0x3c870ca03c1f1e15U, 0xbd1a3bc73d07b16bU, 0xbc25e87c3d045f9aU,
  0x3c8c836dbc9c02cfU, 0xbd36ffc23d033c71U, 0xbb4598a4bd28c686U, 0x3d063dc1bbfc875fU,
  0xbd362134bcce5761U, 0xbd22da203b232cb3U, 0xbbeda8fa3c087258U, 0xbca04a87bd129769U,
  0xbb0dd7b93d298eecU, 0xbb4df0abbcdd979dU, 0xbb25ffc9bca27a79U, 0x3c706179bb9d2dfbU,
  0x3d1f9a93bd1998d5U, 0xbc370a07bc2f8f3dU, 0x3c143763bd1a7e82U, 0x3c42d6a73a919ee9U,
  0xbcc483183cad036dU, 0xbd08f60cbd0397f7U, 0xbcd373683b1b306bU, 0xbcc116a6bd03a225U,
  0xbc3f0eb63bfc625bU, 0x3d08bbb9bd2916a2U, 0xbae05c8fbd10ecd0U, 0xbb53089db7de8ed4U,
  0x3c2e2d4bbc99168bU, 0xbce14b7b3cfe12d4U, 0xbc21f142bd26bc48U, 0xbd374ba4bd120060U,
  0xbc2954a2bcbe9a40U, 0x3cf375b1bd055e92U, 0xbc1b01ffbcd813dcU, 0xb809059d3d156cecU,
  0x3d068b823d35fd92U, 0xbc3bd20dbd056fd1U, 0xbcb6a009bc24aa93U, 0xbc1715ddbcc6b80fU,
  0x3d071005bd0734bdU, 0x3cc1d37d3ac2bc3fU, 0x3c0845573d326a2eU, 0x3d29a321bc1fdd13U,
  0xbd0807cb3b3f3f00U, 0xbcedb6103cafaf7cU, 0x3c319288bce8b419U, 0x3d181ffebd3475a4U,
  0x3c8281c3bc0e630dU, 0x3d3a65943cc1194cU, 0xbc982eecbcd27b76U, 0xbc9c34a1bc973d03U,
  0x3d2f556ebd23bba2U, 0xbd3a81fdbd18254bU, 0xbc93bc1ebcd9b6b8U, 0x3ce989553ca1beccU,
  0xbca6a48939a2f7a9U, 0xba823261bd12914bU, 0xbcf54519bc968812U, 0xbcc3ea13bd307f68U,
  0xbc54024ebd377221U, 0xbc9356aabc29871eU, 0xbcbc383abcc78043U, 0xbb86995dbc9a949dU,
  0xbd232f96bb58a074U, 0xbc9d1203bd39719dU, 0x3bfdcedebcd3f0c5U, 0xbc743a133cfbbf57U,
  0xbd0fa5213c6f59edU, 0xbc980119bc1358ecU, 0x3d187b1a3cbd94bfU, 0x3cdfe39ebd1c6844U,
  0x3b82b5a6bc979badU, 0x3d05a4b7bbdf766dU, 0xbcb2e355ba05116cU, 0x3cac4f1c3b11475dU,
  0xbcfdb26b3cfb58ffU, 0x3cdea8be3d0ea3c0U, 0x3cd6e2c73b201a5aU, 0x3c9ffa78bb9c6d98U,
  0xbcfb2e95bd1e32b8U, 0xba6a91bf3cd9309bU, 0xbce5060f3d244e0aU, 0xbc55c382bd1ea953U,
  0xbc753f0a3d103f74U, 0x3cb6eb21bc8e1bb8U, 0xbcfa661dbcf20117U, 0xbc3d06c937aa8638U,
  0x3d2d7be9bd246948U, 0x3cd40503bc164fa2U, 0xbd2764ebbd093461U, 0x3d180620bc1dfb43U,
  0xbd15797abd2bd1c6U, 0xbd10657ebc0469c6U, 0x3cccb20b3d34eb67U, 0xbc04f20b3ce27d45U,
  0xbd051127bb09bebeU, 0xbcf45eb93d352da1U, 0x3b9b702ebc657c6dU, 0xbc0e7bf9bc5931f7U,
  0xbc613d7e3d1019e5U, 0xbc9ec6433c9d580dU, 0x3cc015b83d312bceU, 0x3caa57e9bb653b73U,
  0xbb2dee60bc14313aU, 0xbd085753bb3760a9U, 0x3d0f6c073c2cac62U, 0xbc5742123cdc1165U,
  0xbd12d3d8bd2ab6dbU, 0x3c586d95bd1de639U, 0x3d0a76f13c747b46U, 0xbd076a533d1ba51cU,
  0xbc2e2a713ca20b75U, 0xbd18f9973cd672e5U, 0xbc998b26bd3109bcU, 0xbcff4fcd3c7ad74aU,
  0xbbf37e11bc8d3ae4U, 0xbcd8b446bc875bcbU, 0xbcf50c343b1209fdU, 0x3b8dc20b3d30ab74U,
  0xbd24a666bd13ae56U, 0x3cef2faf3ca7793cU, 0xbc8b88b83ceeda29U, 0x3d265e693d08437fU,
  0x3c9af37ebb3d8ff2U, 0xbd366d9d3c90c4e5U, 0xbc02c891bc5913bfU, 0x3cf9deda3cbc710aU,
  0xbcfcbc89bc5a0f56U, 0xbce39f01bb846405U, 0xbd2636833a309a7bU, 0x3c639abfbbb9db56U,
  0x3c4330053d05717aU, 0xbc2603dfbd230994U, 0x3cc69f983ca1fbb8U, 0x3c8f472a3d36c465U,
  0xbcd315f73d3052b6U, 0xbca7b2ad3c60d07fU, 0xbd2cc6b53cedb6abU, 0xbd11c31cbc58d823U,
  0xbc7ec3b8bb9c9d27U, 0xbc346baabcba6975U, 0x3ca235a43d27a06dU, 0xbb8bd5463cd6863fU,
  0xbc4a704c3ccd555bU, 0x3bdf0ac1bb80e802U, 0xbb91c736bb663767U, 0xbc88c1b23cf105b6U,
  0x3c79cb7f3d074b06U, 0xbca215f7ba35c624U, 0xbcde797e3c8926cfU, 0xbb3060f8bca82526U,
  0xbc15ac343ca506eaU, 0x3d058fe93b56c796U, 0xbc8db3dfbc504232U, 0xbcc99b85bca2b0feU,
  0xbd2d4c943d07aef9U, 0x3c075e97bb47931aU, 0xbb9dc9acbb9f2b22U, 0xbc3db22d3b57b119U,
  0x3afd7a55bce2ce90U, 0x3c6d113cbd08e221U, 0x3d197c03bc054052U, 0x3cbb7378bd164571U,
  0x3be0ead5392a9071U, 0x3c72e1773cb676a2U, 0x3c4fed1dbca7215fU, 0xbcd04038bc74d31eU,
  0xbd1dad723d02c3dfU, 0x3c958b893c521f03U, 0xbd333cb13d09fe14U, 0x3ccb690ebc9a2165U,
  0xbca5d8733d26607cU, 0xbcb7de3737daada0U, 0xbd2eea3c3ca6194aU, 0xbab954d3bca1979aU,
  0xbb2a54313c04d01bU, 0x3c1dbdce3bd4fc46U, 0xbc3188833c8339c4U, 0xbc8511663d1d2718U,
  0x3b4cf1ccbbc0a8f4U, 0x3cdfae853c61ab55U, 0xbce842603d14007bU, 0xbcc74192bcff27b4U,
  0xbc9a4ba73cd5aad0U, 0x3b481e68bb50f065U, 0x3ca9b07bbcc42ed3U, 0x3c7fb651bcf74861U,
  0xbca75928bd055967U, 0xbad636b63d07b137U, 0x3c2d51a23d343ef0U, 0xbd06d27bbba10475U,
  0x3cf8acd53caca2d8U, 0x3d0613363c975964U, 0xbc4299083d1193f2U, 0x3c9fed933d0bfb64U,
  0xbc4904c53d21dfcbU, 0xbca7f5dabd2df77cU, 0xbd1ba04d3d036d77U, 0x3d1c850f3cff5954U,
  0xbce47149bcd8c6abU, 0x3c598191bd17f3f9U, 0x3c154385bd1d87e6U, 0xbc6d03f9bc908dcaU,
  0x3d0d87383bebaaf4U, 0x3cb9528a3cef9f86U, 0xbcd042e13d1ad6e7U, 0x3c0fd0d6bbebcaffU,
  0x3ceb7c08bd2de930U, 0xbcadea3bbd2c353cU, 0xbcd8cde13bdea067U, 0x39fbdbb53c86bb6dU,
  0xbc6fa09b3bae05edU, 0x3cd63110bd261b5fU, 0xbd2596033c321dbeU, 0xbd1564d33d24b6d0U,
  0x3cf2bfb03c928e9eU, 0xbc4effd03d2e9450U, 0xbd173a073c217662U, 0xbc9301123b16d4b5U,
  0xbd2b14cfbc7b2360U, 0xbc8a95cbbc91dc81U, 0x393dd654bc1186dbU, 0xbcb565d03ca192d8U,
  0xbcd532b43d2840e1U, 0x3ca0ba12bc943fdbU, 0xbc6f94e6bc439b43U, 0xbcce4f523cb5cd69U,
  0x3c93633d3d1f6273U, 0x3c94832e39c3c8ffU, 0xbd288b9fbca4f450U, 0x3c2871603a97bd08U,
  0x3d0c13093d26fed9U, 0x3a9069d0bd203b79U, 0x3d1bbf05bc029775U, 0x3b748e263d38967aU,
  0xbd2bb44b3d2df634U, 0xb8adbb12bd1364e4U, 0x3cf6b9fc3c2cb0a6U, 0x3d1f3290bcfa3bf1U,
  0xbd2ca05ebd11dcaaU, 0xbcd51ae93d075e0cU, 0x3d10570c3c0dc96aU, 0x3c88c89fbcbd88e7U,
  0xbce82f03bd2f19cdU, 0xbcad64823d28c689U, 0xbc4b02f33c6cf9d7U, 0xbc7f21ff3d244b46U,
  0xbd08dea4bd0dc310U, 0x3babccd83c19ddb8U, 0x3d056623bd3a428aU, 0xbd0f868fbb9b873bU,
  0x3d0e927f3bceae0bU, 0x3bcb498abc611d39U, 0x3ce5ee14bc4f94a3U, 0x3cb41ba0bcef50f8U,
  0x3b091ea0bad8d869U, 0xbc808a3c3d170681U, 0x3ca6e0b13d16cbe1U, 0xbca692013d0492adU,
  0x3d2ba02dbd1cfe69U, 0xbcae8f3fbd00e486U, 0xbaaa15ef3c65da56U, 0xbcd2674c3d1d1ff9U,
  0x3cc7bd503c828b68U, 0x3bdac60cbd0a14ebU, 0xbcc0fddabb274034U, 0xbb8f03c93cd3dee9U,
  0x3d33b6453cff0e99U, 0xbc52b52dbcbf698bU, 0x3c04caf3bc11f3abU, 0x3cd7d0693ca2828dU,
  0xbc82ccdc3d0a9b65U, 0xbc7dbebb3b6c500cU, 0x3d1d95afbc110208U, 0x3c8ae513bce9506dU,
  0x3ceab8243c4ee0f6U, 0xbd26adc0bc9484feU, 0xbd12d654396ab46fU, 0xbca850fb3cbe1fb9U,
  0xbc1a94d1bccedb90U, 0xbd020b273b880bb7U, 0x3cf481ca3d358847U, 0x3d2b31d23d1e8ee4U,
  0xbc8316dcbc689c25U, 0xbbbe097ebbae1c33U, 0x3b1ee4b53d0b1da4U, 0xbc6aa900bba8de53U,
  0x3c971cea3ce2b0a1U, 0x3c53b1bf3cd6c085U, 0xbce673a1bd079c65U, 0xbd21b2ed3d20ca36U,
  0xbb4cc8cfbc221e8fU, 0x3cf3921b3b051b5fU, 0xbac7b9893d0d1d15U, 0xbc68eeb13d1e551bU,
  0x3bbebc5f3cb49d32U, 0x3d0e795c3d36fabfU, 0x3c0c68683d0b02d9U, 0x3c9afe76bcf3c8c6U,
  0x3d30b42d3cd09414U, 0xbccbe7efbc41da96U, 0x3d2c7e8e3c9b3cfeU, 0x3c9cc0153d3aa009U,
  0xbc71a9663cfa2382U, 0x3bb2b3b43bce1edcU, 0xbc00e95bbcc20ed3U, 0xbb780bf1bd2948a0U,
  0x3ce12b1cbd03c37dU, 0x3c6dcf623b3033dfU, 0xbaa43814bd0f875aU, 0xbce1be0c3ce43f10U,
  0x3bdcbfa43cca16b9U, 0xbc9e90dcbc0143d2U, 0xbd149e58bbb391a0U, 0x3c8e26f6bcddd6b7U,
  0xbb76dbaebcf7be2dU, 0x3d109efb3d38c133U, 0x3d34d49f3cc1bb51U, 0xbca717083c5d7911U,
  0x3c8b37763cb0e258U, 0x3bd2907bbd01037dU, 0x3d318be13cb7beb8U, 0xbc9c506abc4de63dU,
  0x3c1b356abca4a7b6U, 0x3af181473d1739a7U, 0x3d16ddf63cde2cafU, 0x3d282d2dbc9b1bb7U,
  0xbcc90597bcf3b22eU, 0x3d16bcbdbcd90166U, 0xbcc0ce9f3d1862a9U, 0x3d18dfdbbd1fcbbdU,
  0xbd0c463dbd10582eU, 0xbc96ab0e3d283cbbU, 0x3d1aca863c3aaf36U, 0xbc90cf013d07612eU,
  0x3c05fda63ccc4c5cU, 0xbb513e723d2700a0U, 0xbcdafe24bcfea298U, 0x3c3fac403d12b787U,
  0x3d0aad063d2c3051U, 0xbc671b473ce9b4e6U, 0xbc35dc9f3cdebaa0U, 0xbbc13797bcf278c5U,
  0xbc934b923d32be48U, 0x3d180718bd39b81aU, 0xbc0b5df0bcffc777U, 0xbd252b4a3cca1832U,
  0x3b52ca5b3cbf3fdeU, 0xbd20fa793c475059U, 0x3ce065aa3c886a8aU, 0x3cf22847bc229b82U,
  0x3d0175f5bc0ab0ffU, 0x3b704d183cd9938aU, 0x3cbdbffc3c55234cU, 0xbc7160aabd217ee7U,
  0xbc7e21b53cb90994U, 0xbc8f7d03bbedbfb5U, 0xbcc5e3b73c9e875bU, 0x3d0d89e4bc70ce49U,
  0xbd1b6ab73ce32a51U, 0xbbce75dbbd266e74U, 0xbccb33003b42cf99U, 0x3cd01eef3d336438U,
  0x3b762864bc1d0409U, 0xbae4150dbc27839eU, 0x3d088e233d2d151cU, 0xbc2a524c3b70f5b3U,
  0xbc25a64d3a157b8cU, 0xbcee3375bd297051U, 0x3d12eda3bd0df93dU, 0xbceab7523c6aec64U,
  0x3c2d35163c5d6fcdU, 0xbcc05f2cbcb80973U, 0xbcc8455dbcac67c2U, 0xbd33241abc97efc9U,
  0xbd15ec32bd201bb1U, 0xbc95fe633b1d6d84U, 0x3b7f1c9cbd23fa60U, 0xbbaf80ffbcf097f3U,
  0x3d3559373d38030dU, 0xbd23ba59bc77adeaU, 0xbc73ddfdbd33aa78U, 0x3cfd8cdabc91419aU,
  0xbd2a77dbbd1a582fU, 0xbd34785abc654902U, 0xbd22d65fbcbf6b8dU, 0xbd199703bbd872f2U,
  0xbb95d71c3b39e5e1U, 0x3cab5e893cc2c2fdU, 0xbc263486bd3898fbU, 0x3be37872bcc40842U,
  0xbc748a0aba6f0c4fU, 0xbc267522bc970f27U, 0x3c3781efbcce40baU, 0x3cac9ce33d1b5230U,
  0xbd01491ebc7eae73U, 0xbca4b5593d0f44bdU, 0x3c6e58ba3c595675U, 0x3ca69767bc81c963U,
  0x3bc1c0c03cb8460eU, 0x3c08c827bd18e2e5U, 0xbc513adc3d2bc4c2U, 0x3d2c86db3cc701a0U,
  0xbbc27f2d3b1f5d63U, 0x3d320d31bc913e1fU, 0x3c0945f8bce8160eU, 0x3b6d170dbcad5e56U,
  0x3d014255bd279ed4U, 0x3d14c16dbd114d6eU, 0x3bbd2bc23cc39940U, 0xbd00476bbd0adbc4U,
  0x3ba8e1343cfb20acU, 0x3a1c50f93d27ca92U, 0x3cb8c97f3c8508a8U, 0xbca2a14eb98d057dU,
  0xbc5850533d31f1b5U, 0x3ca9c13e3a3a491bU, 0x3d3ad90ebc888c02U, 0xbd38a6a6bbc43a48U,
  0x3c9d2ae93ba07fc6U, 0x3c6bd0a23d33d4d5U, 0x3c90d1ac3d2f40a2U, 0xbc9752453d115848U,
  0x3ca633943d2b03a4U, 0x3cf3e74f3bf129bcU, 0xbc3d54733c300a74U, 0x3c8a2ec6bc225ffdU,
  0x3c3e4d983d0f7f6aU, 0x3baef48d3d1df534U, 0x3ca2d3343cac0e5aU, 0xbcd09c7a3a81d65cU,
  0xbc32c6f73c92f646U, 0x3d29e109bcc7f9b0U, 0xbcd9431abce6b090U, 0x3d386fab3d0c4aeaU,
  0xbc43d6813c89cf7cU, 0xbd0fcd9fbd10f969U, 0xbd23298b3c32142eU, 0xbd37d1a83caf6643U,
  0x3c40191c3c31f0a0U, 0x3c6466c0bc1ea941U, 0x3c8c12993cd7fd2fU, 0x3cccd91dbd06adb4U,
  0xbd31086c3ced85bdU, 0x3d14d61a3cf03109U, 0x3c43b4debc897533U, 0x3c98bab8bd2f6e57U,
  0x3c77553bbd06fa2eU, 0x3c88d82a3d16eec2U, 0x3c596a4f3cad7155U, 0x3cfdafb43cd06c8aU,
  0x3d10e50b3d28853bU, 0x3c225696bb8371e2U, 0x3c8876713bdfd7f7U, 0xbcef8a693d1fbc08U,
  0x3cd3d6173c86e3c6U, 0xbd2c01b13d25d57dU, 0xbcecbcb1bca0a805U, 0x3cfe575dba3bc93eU,
  0xbcf3a9d4bd0bd868U, 0xbc28cc98bcf33983U, 0xbcd500dc3d36ddbdU, 0x3cbececfbcbbaab2U,
  0xbd1030a3bc1197a1U, 0xbd2e1b3a3ca95607U, 0xbcc6c3aabbbc69aeU, 0x3c402b98bb877699U,
  0xbcdc3df13cbcf5c5U, 0xbc1f3949bd18179fU, 0x3cf1a0193b29583dU, 0x3b99c884bcbc21b9U,
  0xbd08920e3c787292U, 0x3c4181d5bc854b40U, 0xbd0d110c3d3548a2U, 0x3c34cd2eba3e2eb1U,
  0x3be1b594bbae5dd6U, 0xbd072b723d21601fU, 0xbd163dd63c52d8bcU, 0x3d0137b1bc4a3172U,
  0x3d398e42bd06347bU, 0xbd12dde7bd357a6bU, 0xbced814a3b080114U, 0x3d3555c8bd2058b8U,
  0xbd337c55bd3a809fU, 0xba80820b3c818dc1U, 0x3c9e1360bca25a6bU, 0xbbb163673b606d5bU,
  0x3cebb8223ce69548U, 0x3d06bb67bc9abc3eU, 0xbd0df5143d0c965cU, 0xbc5f3692bcca11d7U,
  0xbca88a553d0fc574U, 0xbcd9c2553d17cbd9U, 0x3c3502d03d10d246U, 0x3bcbf5fb3d192696U,
  0xbc9a6c6fbd05c3f0U, 0xbc67ae633d0abf25U, 0xbcaccf6abd0092f7U, 0x3c6c497f3cdfbb88U,
  0x3c77f6373b0085c9U, 0x3b9c8a4ebc704420U, 0xbc4e261ebba8b2b1U, 0xbcacd3f7bd27196fU,
  0xbbf004ee3c8a28ccU, 0x3d08f8b8bc996b10U, 0xbbf8784c3cc395e0U, 0xbcb455c7bd3697d7U,
  0xbc87275cbd17335cU, 0x3c91cf28bccc472eU, 0x3b82f6a5bc607411U, 0x3d0ae148bacd597fU,
  0xbd0249b7bcd8e9f9U, 0xbcc6f536bc1d1facU, 0xbd2b3b863965216fU, 0xbd2df2e83b875f0bU,
  0xbd2a89523d31b01bU, 0x3d21c7fa3d16645bU, 0xbd2c1e12bca6de60U, 0xbb35879cbbdb46a0U,
  0x3ce728be3cd4c491U, 0xbb38e848bc76054bU, 0x3c41e6a23cb9e405U, 0xbc49108c3ccb9739U,
  0x3cd4e30b3d3022dbU, 0x3d1227a13ae80623U, 0x3c8813993be3afadU, 0xbcbca706bd33672aU,
  0xbd134c33bca26499U, 0xbd1d08d2bbef8206U, 0xbc035902bd34bbdfU, 0x3d03c5a1bd072c20U,
  0xbcaac8c1bce7bd85U, 0xbca185bbbc8f7a00U, 0x3d1799623d31d026U, 0x3bd03ffb3d22375dU,
  0x3d1095263cfcbe05U, 0xbd26eb2a3ca4761cU, 0x3c1846cebc1934eeU, 0xbcb98ddebd078f7dU,
  0xbc50cc613c8cbe0cU, 0xbc8605ccbd0ddd2dU, 0x3d34d4dc3cca6ad5U, 0x3d2a53303cb8bd55U,
  0x3cd3dbef3bfa0b83U, 0xbd1be80cbca8a18aU, 0xbca1ca703b8f7a3aU, 0xbca5b1593d0b1813U,
  0x3cd98a493c86ccbfU, 0xbc52dbbf3d0f6daaU, 0xbad65a7f3ce264c2U, 0x3cf20efdbcb253e3U,
  0xbd1fb19fbd0c8d8fU, 0xbd07654cbb671350U, 0xbd3a3c6c3bdfe000U, 0xbc8e94c13d399fdcU,
  0x3a667addbc83c0d3U, 0x3cdd9a0b3cb9cd2cU, 0xbcc553263bf253d5U, 0x3b8de56a3d318bb0U,
  0xb75ba302bbcb32b7U, 0xbbe2536abd20c3acU, 0x3d2443473c11595fU, 0xbb9c41eabd154b2fU,
  0xbcb0ab8dbcaa9926U, 0xbc9612a7bd036b25U, 0x3d34455e3ca6f8e5U, 0xbd065b1f3cf7df9fU,
  0xbcff89013a64d51eU, 0xbc074b8ebbf9bf61U, 0x3cf0265abcdf493dU, 0x3ca4b9c6bb4954c8U,
  0x3c3b2cf63bf1813cU, 0x3c8dea12bd065406U, 0x3be01a03bcf718e0U, 0xbd3a27aebc9dfd7dU,
  0x3aea5b283c326bf4U, 0x3bde2054bbe9e608U, 0xbd01c90abb1b3974U, 0x3cb5a7aa3ca6e409U,
  0x3b8b36fc3cc5a021U, 0x3c0d776a3cfa29f5U, 0x3cc2bad5bca206a1U, 0x3d220c143d033794U,
  0xbd25fe363c829a6cU, 0xbbcb9e64bbec11caU, 0x3c96869c3c86590dU, 0x3c9e82963d02b083U,
  0x3cf5f505bbcaf8d7U, 0xbcd9c489bc05eac1U, 0x3bf5f092bc493a0fU, 0xbcbd3352bc908879U,
  0x3d2353853d36bbf5U, 0x3bcfc461bd16df20U, 0xba82e1493b982b66U, 0xbd1e8b04bc869e9dU,
  0xbd31eb1bbd0083d7U, 0x3d1ae842bc5a8486U, 0x3d0d1ea83c87f26dU, 0x3ceadd1a3d1ec2f7U,
  0xbcf9c643bc03b48bU, 0x3b8eacb2bbc6dc41U, 0xbd32f176bd22da0eU, 0xbcadf1b83cf11f05U,
  0x3d2786853d214ac6U, 0xbc7a652ebcbe5286U, 0x3b7e8eef3ca18708U, 0x3cd4b23d3ca85f1eU,
  0x3cbe3821bc45e78fU, 0xbbba3024bd0ee2ceU, 0x3c05aa7d3cc8bf70U, 0x3b597bd13d073544U,
  0x3cb15757bbe74557U, 0xbd091ccdbcd2b952U, 0x3d2e4492b989b9ffU, 0xbc84027e3d111b8cU,
  0xbc97e8d6bccf73ddU, 0x3bd342db3b57e8b1U, 0xbcdfac693c5ff5e8U, 0xbc38a8eebbb5d485U,
  0x3d116b8b3cdbe112U, 0x3d30dd10bc0c32deU, 0xbbc9328dbcf1df9dU, 0x3a341d1cbaec24afU,
  0xbd2734763d2cfb0bU, 0x3c2840a63c0fb444U, 0x3c7a43d6bcdbec7eU, 0x3c9893ddbc82c24bU,
  0xbc1bc3633d05ba8bU, 0xbd1ff5f83c54fc00U, 0x3c26f0e53c8ab1b7U, 0xbd0fb40ebc9d413bU,
  0x3d0256d93d101e44U, 0xbcbdbbfdbd1f74c5U, 0xbceb72843c2ee329U, 0xbcd77057bd1c39baU,
  0xbd07c64cbc9957f9U, 0x3bce0ad3bc233a53U, 0x3c9b7bd83cc7c9d7U, 0xbc72983b3ceb1eabU,
  0x3cb3021c3cc9c4faU, 0x3c1331883c818416U, 0xbd28d8c53c084c41U, 0xbd2ece21bcf7cd14U,
  0x3d2a8e003bad5b15U, 0x3d2f29023d1a84d6U, 0xbd112bafbc50d5a5U, 0xba2150173befcab0U,
  0x3a7cc90e3d161aebU, 0xbcc5e287bd313226U, 0xbc552b673cd4ed2dU, 0xbcb05b1b3ade5ea1U,
  0x3aeb834a3c7e03ffU, 0x3d3718a0ba923210U, 0xbd2fdf8c3afac02bU, 0x3c97a0ad3d3ac44bU,
  0xbc7ec107bcb34ee2U, 0xbd0dc0653cdea806U, 0xbd06f2b6bc3c73c4U, 0x3d2944f23ccf6dd7U,
  0x3cc81e71bb08cfa9U, 0xbc1f7c273a296a22U, 0x3bc2e9b53c2902efU, 0xbce3efdf3d1ab59eU,
  0xbcd427d0bd2e29b5U, 0x3cc248df3c355807U, 0x3b8b7aac3c94676bU, 0xbcb32e68bd17d77eU,
  0x3d0f436fbc6d3022U, 0x3d1080a43c936230U, 0x3cc728e13d08f78fU, 0xbd227c523d1ca28dU,
  0xbc107039bc9669a3U, 0xbb90d41d3bcef118U, 0x3d29a2b13ce54cceU, 0x3d386cf63b2fe5eaU,
  0xbcab82a93c60badcU, 0x3c02feff3d018b83U, 0x3c817d4f3bcd2bfeU, 0xbc5fd8953c7f9640U,
  0x3bd4b737bb9a0caaU, 0x3ca012db3ce431c2U, 0x3d28e8d1bbbc3fa4U, 0xbcded9aa3d14072cU,
  0x3cdac4473d31a61cU, 0x3bdc38433ba4a37aU, 0xbacb737c3a8e14faU, 0x3cb42deb3bd9204dU,
  0xbd3316bf3d19d503U, 0xbcc65509bd37e49eU, 0x3b830d0ebd24a253U, 0xbd0fc4913d18e673U,
  0x3c9e6a9fbd27c43aU, 0xba991dc4bb567e48U, 0x3c564788bc953eb8U, 0xbd2a780a3c7974b5U,
  0xbc047b933b45b14aU, 0xbc9bc918bb95588aU, 0xbc02892bbc8e56daU, 0xbc7502963d119bfcU,
  0x3d0163653d1073e9U, 0xbd22f9413c1466a7U, 0xbd178073bc874f2cU, 0x3d0a8767bcaa0d1dU,
  0x3ce416fdbd11b66cU, 0x3c83a67d3cfd6ff3U, 0x3d36c5f4bd268fb7U, 0x3d0c0b86bd16d3a3U,
  0x3a6a889ebc5419dcU, 0xbce188a5bbfc4369U, 0xbc18a180bca8da81U, 0x3d25c0383c6cfefaU,
  0xbcd03e363d34736fU, 0xbc44f503bc040be2U, 0x3cff43cc3d31640eU, 0x3d11e6b6bd1266e1U,
  0xbb718866bd340e52U, 0xbb09372ebd1c5e43U, 0x3ccc6dab3c95d62aU, 0x3c413bf3bc008e5eU,
  0x3d3146c63cca223fU, 0x3b594bb5bc5b6f68U, 0x3cadc300bc047bb6U, 0x3c2aead1bc242ae3U,
  0x3c85ba393a61aff7U, 0xbc79802abd2817bbU, 0xbd2d144cbc574e76U, 0xbd05b79f3cd6ccfeU,
  0x3cf3f10ebc7df237U, 0x3bf6bdc93c08e9b4U, 0xbd2ebf0dbd08e0cfU, 0xbd03fb20bd1c1422U,
  0xbc224aacbd027517U, 0x3d0b18d93d0fe962U, 0x3c8366f33cf35cfaU, 0x3c8ac5e13ba6a12eU,
  0xbca76f40bd15b27dU, 0xbc5458243a840079U, 0x3d2901ca3a01c35fU, 0xbc946af43ce24dd0U,
  0x3c98d9b33cb2ee5eU, 0xbc58ff6a3a140719U, 0x3bec07e2bcce55eeU, 0x3c8f46fb3ca08806U,
  0xbbf461823c8aed22U, 0xbd28c9e5bc94de1aU, 0xbd28498dbcdc2c93U, 0x3ccd44803b468329U,
  0xbced0529bbcc2033U, 0xbd25ab9b3d042165U, 0xbb631fda3c53c8ddU, 0xbc247a09bca78788U,
  0x3d00a625bbac0493U, 0x3d046b4d3c826649U, 0xbc81e5e1bc2769a0U, 0x3ce4f7513d1341eeU,
  0x3d0398983ce6060aU, 0x3b7fbb16bcff59e0U, 0xbd167a9f3cf132daU, 0x3c657e5d3c88fb8cU,
  0x3ca26eb2bc4ed8dcU, 0xbcfb0b4d3d226642U, 0xbc24a1153d1b332bU, 0xbd1d8df2bb2b8cabU,
  0xbd041945bc4d5eeeU, 0x3ab6ce54bd0682d2U, 0xbc42131dbcd4b8edU, 0x3b1841db3c57dbe3U,
  0x3d1781133cc3e315U, 0x3c67d8093d36a5efU, 0xbb8ac0adbb0a844aU, 0x3ca394aa3c52fe92U,
  0x3b62fbfa3cd327d0U, 0xbc6e28bbbcdb82a2U, 0xbc927b73bd3a8da3U, 0x3d31c1fbbd061057U,
  0x3a025b463d061334U, 0x3d118ac3bd375905U, 0xbb85880d3c24e950U, 0xbc4cb237bc90126aU,
  0x3cceb76cbc0cda09U, 0xbd352db4bcd6b360U, 0x3c43ca2f3c629631U, 0xbc17016abb707340U,
  0x3d00ac40bce265a9U, 0x3c5035d93b19350bU, 0xbce8b9783d33b6e0U, 0x3b33a557bd38bfedU,
  0x3d1facca3d2d7ee7U, 0x3b960fcdbcada0dcU, 0xbbe992b03d311da4U, 0xbc0d3f7b3cefc1a4U,
  0x3b8c1b05b9924a59U, 0xbc225032bb943325U, 0xbbf51eb3bd2dc4a8U, 0xbcca2297bc86873eU,
  0xb7f5e1bc3cd80662U, 0x3c70448f3caa1ff4U, 0x3d33c4dd3d386797U, 0xbc8d952a3ce12004U,
  0xbc8b72ea3d32a194U, 0xbc8e57003cf0ec0fU, 0xbbd02f6abd28dcd9U, 0xbc5e1c38bd00fb71U,
  0x3c2f8adbbd2d976bU, 0xbc0137a3bd0832e5U, 0xbd0a1ab13c673c19U, 0xbcfffbacbc97693bU,
  0xbd319b58bd2311ceU, 0x3d31c62dbb9caad9U, 0xbbd9f75f3d20b5f5U, 0x3c28ae32bcae55b3U,
  0xbcb5dc8b3d241df4U, 0xbd39ff3cba836578U, 0xbcfa77c23cc5c615U, 0xbcbdc501bd2d1ba2U,
  0xbcba07eebcb430a5U, 0x3cfdb1b33d20d138U, 0xbd3973433bee898bU, 0x3c79a0efbba56ef5U,
  0xbbc374d43cc96fabU, 0xbad0b4823c8904c2U, 0x3b001a6ebd1dc810U, 0x3d1408343d1810eaU,
  0xbbc1b6d83c925244U, 0xbd121f11bd36e0cdU, 0xbd2d136fbd1c3693U, 0x3d26e9a43d1cdadfU,
  0x3d2ec7a6bd30637eU, 0x3c88ec8e3d3275a2U, 0x3d3883fb3d2e7dc5U, 0xba9b1262bd191118U,
  0x3c86654ebcd4c60fU, 0x3d22453ebbeb7b93U, 0x3ca2be84bd37cf3aU, 0x3d25e4bebcd9b692U,
  0x392287edbd33642eU, 0xbcf845333c0675b1U, 0xbc6807243d0e798dU, 0x3c8e1023bd076767U,
  0x3cacaffabd3a9af6U, 0x3c675f443af635b8U, 0x3c46c0d93d218398U, 0xbd2fee92bba0830fU,
  0x3ce98aad3c2a45cbU, 0x3ba962483c19dc59U, 0xbc8a0fbdbd269fafU, 0x3b1d052dbc8da2d5U,
  0xbd2c318ebc2aa677U, 0xbd343b8cbc8a0a57U, 0x38edf95abcaed309U, 0x3c8623143cf6295aU,
  0xbd298bc5bb4f8428U, 0x3ca05761baf69f11U, 0xbd2134e9bbfbd4e8U, 0x3c3cb521bd15292eU,
  0x3d126075bcab38ecU, 0xbc3e10f5bba0c48fU, 0xbd0de23bbc21cfbbU, 0xbcaef2133cdf6b93U,
