/**
  ******************************************************************************
  * @file    network_data.c
  * @author  AST Embedded Analytics Research Platform
  * @date    2026-01-22T15:31:23+0000
  * @brief   AI Tool Automatic Code Generator for Embedded NN computing
  ******************************************************************************
  * Copyright (c) 2026 STMicroelectronics.
  * All rights reserved.
  *
  * This software is licensed under terms that can be found in the LICENSE file
  * in the root directory of this software component.
  * If no LICENSE file comes with this software, it is provided AS-IS.
  ******************************************************************************
  */

#include "network_data.h"
STAI_ALIGNED(8)
const uint64_t g_network_weights_array[4745] = {
  0x81e67c11de201418U, 0xeba0cadb23584ac5U, 0xb7c94f86f37f8cdeU, 0xc0d2bd3e10564ed0U,
  0x505af1ab3240c981U, 0x7fa42135a9377781U, 0x8b365b0fc2cd14eU, 0x7cd87f3594cbf176U,
  0xcb7ca399742acf43U, 0x17bc417d8481e84cU, 0x1270408113b940caU, 0xbca66a6cc67f00b3U,
  0x19ba1682def123a4U, 0x78109d4bdd1819fU, 0x87f2929444e4f400U, 0xa86418170481874eU,
  0x7f502de8a911332dU, 0xf649840bb37fc960U, 0xf8158e2be4a7192U, 0xf2aa81333fb520e0U,
  0xe9cf24415ee3da8eU, 0xbdb7623d9b373f7fU, 0x0U, 0x0U,
  0x0U, 0x0U, 0x0U, 0x0U,
  0x0U, 0x0U, 0xc39889a4effebdf1U, 0x3169272a50bc2306U,
  0x22112b148657a1aeU, 0x90eea01603aebb10U, 0xec4d9da6d3a00befU, 0x84b6a01d60919229U,
  0xe25b3e24c9de4a9aU, 0x53a2c5ef29b1c832U, 0xede8a04ef504300aU, 0xd78a681fea4127a8U,
  0x6f413a8e5af79292U, 0xe8904ecae42bd7f3U, 0x5fa34129a0b836cU, 0x1253957699311ae1U,
  0xbf6d19a7e0e31b2fU, 0x45d270a4c9bdc61dU, 0x1f20e3f233b6354U, 0x8fb43fb682ca5accU,
  0x187c593c9f335e6bU, 0x2d07e6c3d42d70f2U, 0xd23b7075c291fd2eU, 0xca993114aa2b24c8U,
  0x9ac168b4c3ff4b44U, 0x4b3bd29bb903f6d0U, 0xcc419b3113909dd2U, 0x23681ee8922ee3aaU,
  0xc9b4edd50b0167afU, 0x9d011bb5a129c8a3U, 0xa8501a3e0d6f62cdU, 0xaf325999f879d097U,
  0xc65c120ec759d638U, 0xa30392f02746cbdeU, 0xb7b62f3bc48a0b2dU, 0x8cea520deb8d2f61U,
  0xe83c62db687a7747U, 0x2c05333d30a0684U, 0x16c964a15433aeaeU, 0x1a11491dcc2a5ebeU,
  0xcb7227b5c1aa3282U, 0x7e66abf8290512c3U, 0xddff28c4e6718555U, 0x44b5b6d1655bc5d5U,
  0x3227f0c54bfe1bb0U, 0xcb242931de40fd16U, 0x2eb2d741c3e2504cU, 0x4d0701121e910672U,
  0x5aeb02942547ea15U, 0xe0b0acb3c53e9e8eU, 0xc1b30f6f81985faU, 0xed5485840036a6d3U,
  0xadb478ed60796992U, 0xe4c30df13ef65ff1U, 0xb2107e94c6b83068U, 0x70446e6e7f536cbaU,
  0x4c9e88c1760e2c9dU, 0x396c5a535365bb50U, 0x6822a3c20331b2e8U, 0x4add7963d451d14cU,
  0xe95faf1121917244U, 0x9df341f45a3103ccU, 0x7be8e8e021647357U, 0x47caad28bdf64fb1U,
  0x449f52e2c6074dU, 0x728498f7519f71ddU, 0x71e10155a2f42846U, 0x2e2feee4c3d597cbU,
  0xe5551b985ab5f059U, 0x1d684f2ad11c58d3U, 0xe6391f000cd2e428U, 0x619bb5b9aaf6886eU,
  0x2ce8861fb99c8b62U, 0x962478c078fc08caU, 0x9933bb83bf3030faU, 0xdc430c21af447208U,
  0x2bf03ba93cb3ef9U, 0x51d8cdc9ef01667U, 0xef3ad665e9f21955U, 0x909effad65dc526U,
  0xc1a77137b8e8a3e6U, 0x6da641b97a9b661aU, 0xb19fe96368bb88e8U, 0x143e6ae6d69fc879U,
  0xdf6d86168409ab1bU, 0x57240f857314ca21U, 0x9be7a000ba49eb64U, 0x4be8d9673ad39904U,
  0xd075a114e7febd44U, 0x43c40a68b6deb673U, 0x8e2ef290bce0394U, 0x3808b5792ab39099U,
  0xdb814f2995956734U, 0x2ef92045e1033647U, 0x1df2c82fe9160972U, 0xcda4180aeb95ca29U,
  0xae32578fc1d50d20U, 0x65c499f1aa55e374U, 0xfb07fdd3034599d5U, 0xc7756252edf7edb7U,
  0x377f3e2c1d8c0655U, 0x500c6988052d7455U, 0xd1ebaba605851a33U, 0xeff6377a5e58da89U,
  0x3f47cc3e9b72a230U, 0x2dbb26edde590f8bU, 0xb40f7dcbc2b17c25U, 0x7b94cb3553f47339U,
  0x53484a4a24694d0U, 0x8b6881eaee341dfaU, 0x193505597fa0a3cU, 0xfd5831aac8207f3U,
  0x58d77b16a4eaa1c2U, 0xd9b9cecd3cc8652fU, 0xd4aa24dd8f2a0a4dU, 0x1585337476d7cfa0U,
  0xa6ca2e2f5b9bdd57U, 0x1c97875503f84862U, 0x837e39f50f03261fU, 0xcf589489eefd5d90U,
  0x47771d958a09a343U, 0x52435ae83d5c37f7U, 0xaa2ef074a03dede4U, 0xb5bc0d348a656e72U,
  0x420126378c1bf604U, 0x501a4df73b844d47U, 0x8449ede07ac8007dU, 0x3bf04e32266d1d3fU,
  0xfcaa3b6cabe30d8aU, 0xd7104a1af799fb75U, 0x54fe86ae6c6182ffU, 0x8f65f98414d11a75U,
  0x8377e65d46afd885U, 0xff13d8071c7138dfU, 0x8af4110b788f8d49U, 0x5712df76bbd20845U,
  0x37c8242ef0c5db1cU, 0x9d839eeae7ffd557U, 0x62abfcf77cb8253dU, 0xa144a2555ebaf63U,
  0xb6c18fac8257aa1cU, 0xe55353cee4b20058U, 0x24dca9bccfb98b92U, 0x4a6c2f1a236c2fd7U,
  0x1f3b90d7ff5971d0U, 0x5cba849fcd9f039bU, 0xf81a40636f87b8cbU, 0x9f8855092b28020dU,
  0x70aa614a167ae3c8U, 0x9b8ee5e80acddcb1U, 0xf6b8cfb85ba2282aU, 0xbaf53605fd0f8736U,
  0x5813927fdcf87339U, 0x56f3e624a59422cfU, 0x6b05f66a0b07bf3cU, 0xa05bb8a668b01fd6U,
  0x6f797b322457cc4eU, 0x6c3b717b90203b3aU, 0x3c3558b8240b1682U, 0x48f7d7f4c836938fU,
  0xd0e19c65f4a01ebU, 0xb61104768fa544bbU, 0x3d9523cdbcc6d55bU, 0x2be23ebae063375aU,
  0x6f2e7189776dec34U, 0x81c60e0a50549b7bU, 0xfd223b2a48cd321cU, 0x5d691597ee888d28U,
  0xf483497d87c3a398U, 0x77cf780ba63acc48U, 0x90ecb94f728d2aadU, 0x84c5551d52615ab1U,
  0x24ad38943d401743U, 0xa1b0a42285f49533U, 0x57769d396039904aU, 0x23938a2f94063daeU,
  0xda17b6632f7eade8U, 0x2046b14f9bac2982U, 0xf4baab8f2c8db27fU, 0x5e6135f1b567e42cU,
  0xcf0682507c9aba30U, 0xd33084b6ae6d11c2U, 0xc55af17b35d88f97U, 0xdaba7f8d0c1fee36U,
  0xdb2299522d034473U, 0x46be85d203d852b3U, 0x53002f611e09baefU, 0xce99ab92c4d1468fU,
  0xb3b57a4a5d50ba2U, 0x491501f4b379ea5fU, 0x493b8214f74e674aU, 0xfab85c69a7821925U,
  0xa13557dcba21fd97U, 0x873ed90701cfce8cU, 0x5d7700bb7cee8c3dU, 0x19e96a012426cea4U,
  0x4eef2261b27daca2U, 0x3218c0e9b6bb0850U, 0x9a1a2acf815a4b65U, 0x171e01b389eb76caU,
  0x4444f7a0836272eeU, 0x93e8b0459b7ca4dbU, 0xb4ac7245524ca7d2U, 0xbfc0f9ca618d2918U,
  0x5002ac6a2b144e14U, 0xc7e1324893c49c85U, 0xa0d7112a36d04dfU, 0xce62edc8ce514e60U,
  0x111d06ac9fdc8b79U, 0x286a7dd2771bdde2U, 0xeb28cb54b9fb4232U, 0xec2078af4c1f386bU,
  0x1a8514a4b2a3dc4bU, 0xb51edd036208affcU, 0x7ccef7d526bcf6faU, 0xe00e00220c5a5467U,
  0x55afaf4b171cac99U, 0x15059f96b0c69851U, 0xaa0376125f3f2219U, 0x9b8f38cc84438bdfU,
  0x3da65a68cc4ce8b0U, 0x3eca3c1d84aa205cU, 0x52dab621a8d8f58cU, 0x2dbeddd073b68538U,
  0x87a8e4e3c6ca8ac4U, 0xe9dbeb67bb019a33U, 0x85aa1692464844a0U, 0x66fee9412fe486bfU,
  0x46a36240511ccde0U, 0x85eb49b502e69975U, 0xdb6dc3a88dd2f98dU, 0x6ca425b02a32c273U,
  0x3354d05fa6a269d9U, 0xceb5c5c0f42e005dU, 0xcb54639160006829U, 0xed018e5eb84ca32bU,
  0x64355485128ae86aU, 0xb8c044a51144bdeU, 0x4e872b244bf4c055U, 0xb04bb1541164db6fU,
  0xa76a18d3de9e9590U, 0x638b768e47433c61U, 0x2a1ae3fa46924f40U, 0xd3813bf42c9f418eU,
  0xe68fa2ee5ae28ceaU, 0x6d8d91add71f1192U, 0x91062db4d583dbc7U, 0x213c1d763f10c078U,
  0x705d20efa191d2b6U, 0x31fb304554cf0eb5U, 0x6180aa1deb3ed06U, 0x29cb2cc3d9432496U,
  0xf2a1ab77cf43950aU, 0x8315b3287400a374U, 0x37b9d14e9e54e022U, 0xb4f6dd43e48cf9f5U,
  0x76812ec92d65429U, 0x271c48e7767c902cU, 0xe5660bbec8f9325fU, 0x2eb5cf44b78d75eU,
  0x6fc426cd85e21297U, 0x259303cc4b2a5f52U, 0x8b5c47ed63e00d41U, 0xd0171cf45fbfc1eU,
  0xa812f0fce768bbdfU, 0xadb3be91fc3c5a6fU, 0xa0913abf712ef8a6U, 0x4fb3baa4f64e7662U,
  0x196a25b7c8984ecU, 0x10f4d46bb36359b3U, 0x2fe0bd6dc1fef796U, 0x94c6e1a1a71622f5U,
  0xffcfed387530d7eU, 0x759ea82f7d621175U, 0xd740160134b3f5bfU, 0x2f2553dc0b858f4eU,
  0x43d3467779ff12c8U, 0xa0e154d1e231cef0U, 0x1e1da7b420c5d4f3U, 0xd17b72a6952265c8U,
  0x723c8566969276fdU, 0xd1a0a34f6ac1c367U, 0xcae53c7d6a64b2aeU, 0xe58fde138b20301fU,
  0xb6fe172252e19df1U, 0x797cff01162bd08dU, 0x385e2bac3ff14644U, 0x4656b919d2585b25U,
  0x5ff1ea635509e15dU, 0x9b36f31ad3ebe08aU, 0x256afa56d9e18522U, 0x39291b750e30a86fU,
  0xf5995eb93827c403U, 0xbcfdccff1292695dU, 0x65d8b35186cdc76cU, 0x24a21ed3648645ccU,
  0x88c035f81033e83fU, 0x45173b8e154e6de2U, 0x8b53af905dfc90eU, 0x9a4b83a3f5b78537U,
  0x6df8321f42a9d479U, 0x61894e6800f16d48U, 0xeb52c57fd0c3e4e3U, 0x5e5982cae3f3b71eU,
  0x6af63473682c66e2U, 0xf8ca2b64e2946436U, 0x3958e2174a2bda74U, 0xa9bd87bd16537101U,
  0x72c0f8d18d46bc07U, 0xd2204890a945b537U, 0x47fe03c1cb48238fU, 0x8d5b7ad9ca9d462dU,
  0xbd6c3d84388faf84U, 0x17fed114b3677cd7U, 0xe1b6c762426fc775U, 0xd4fc512e06165927U,
  0xaa1308f053ddcdb8U, 0xfa60409fda988e7cU, 0xe490d652d1ed0c8eU, 0xc3e83b29e657f327U,
  0x252a86c7d58ad7d7U, 0x8c03d7b9b5464e50U, 0x729f3e5234a6711U, 0x8c675ff30d60550bU,
  0x3536ee19b129efa2U, 0xc2de62faf33e2ad9U, 0x5ea7d37e9716ecc2U, 0x507f016bbe57d8edU,
  0x6a17bd3a10a56d98U, 0x347f8299c412efd5U, 0xec336de901ee3c14U, 0x4410bee7020946a8U,
  0x50f2fdb640c8202bU, 0x9774e5c05b141358U, 0xbf884b615194a3dbU, 0x841068717ea37120U,
  0xa01e42d2ca4dfd5cU, 0x6f79b17ab5f560daU, 0xce90f203d2478ad6U, 0x9efde3cf9f067e74U,
  0xfe9bf1d1d4b46bb6U, 0x1e8ced6e7ce24b0cU, 0x62c16273928469f3U, 0x4a50f5a410bcfebeU,
  0x3f0a110aa8a0ffaU, 0xfd068cb9fb1cbd9eU, 0x4e3f8e35be3ed974U, 0x6dbaa8b041bc08caU,
  0x24587a0d690ac509U, 0x582c580ab8273fd4U, 0x42e155d0d76ea360U, 0xaccbe229c46b9d0dU,
  0x3c0808e274e61109U, 0xabd2e300b76ed4b2U, 0x332a89eeb49b306dU, 0xd7f16f5a86930e51U,
  0x30469a7003b8d68dU, 0xb1e00b2a3fd3411eU, 0xcffca939b4ac699eU, 0x45cd076f4c55d941U,
  0x1fbccc8ab55aa559U, 0xd3c83ccf83cffd1dU, 0xd558faf667acdedeU, 0x1efabfaa0503dec3U,
  0x31bc7b82bf06fa4dU, 0xc32741053ceaab4U, 0x850023bbbe794a1cU, 0xb925b8884c428856U,
  0xea6807873505d22bU, 0xce479ff24e516757U, 0x1da65015e7fc4f7aU, 0xffe2b81fae2a6c2bU,
  0xaf12a9c4cbcf69f6U, 0x9c23bd976d235cccU, 0x830ff4a70d8f1d84U, 0x9f43acaa60bd72cdU,
  0x66789c82b2dc638fU, 0x358c539c40bdff6U, 0x9b971d68e253ac0cU, 0xa6d09e20235969fcU,
  0x2d62e3f92834f094U, 0xce1445c3050a4132U, 0x8c52b4ae7fb821d5U, 0xefe24f4b07b89aa2U,
  0x8db2f38c286dffa6U, 0x1e29c9af77f20291U, 0xd275f94b68ba61e6U, 0x2f4ee99fb51e92cdU,
  0x7e4d402e444711ebU, 0x44bde4cae6e4369dU, 0x986eb736d2524f92U, 0x9141a76d090b049U,
  0x4d543c7c19de6ceaU, 0xfd911ab4e4f423ffU, 0x3fd668569004bd9eU, 0xf0292994976593c7U,
  0x5b8dabb7662e8661U, 0xb12725003959ebe5U, 0x356315c83e46ae72U, 0x7e831f5cebc42083U,
  0xeafaade9ec51c690U, 0xd167b1c4921a59d9U, 0x9b53cb541bbe47e0U, 0x5343152bd068260fU,
  0xdb78fbfd1d6c2488U, 0x70ca0f228aa70a5fU, 0x2d23e922148a3c69U, 0xa3fe2618687fc82dU,
  0x68afd91486f2a31U, 0xc295d532c2ea1ad7U, 0x206b96b99435beebU, 0xe3edd42770bbd61dU,
  0xc8fab6dda81a52ccU, 0x9a508704343feba8U, 0x9341bfb14ccfd163U, 0xfbdff8df3a2b268eU,
  0x36de402257c1f479U, 0x532ba85ffdc4f390U, 0x13e97ad3fdfbe86U, 0x1951f3c624754c40U,
  0x697d825be8bf28b6U, 0x5cf921ff97675db2U, 0x7acfa7ab520b9332U, 0xb36b7635a83e78e6U,
  0x9b0b551a82e16c2eU, 0xa8ff50c54705d34dU, 0x9f50f0897aaa69b9U, 0x281d22fbd6fb37f9U,
  0x715f03f82221394dU, 0xa818a81a05a9ec8cU, 0x549de154c00d961eU, 0x9304e095562c3467U,
  0x7f6f491b4cc1b41dU, 0xa840d7e8d51e0a4aU, 0x84b653133c33230fU, 0xd74ca1f9d04ed9b8U,
  0xa6ab412868c4aaafU, 0x6b5bf93377b74941U, 0xae7fd441aac55187U, 0xeb70bb3ea76de50dU,
  0x6cb92126037b5611U, 0xaaadc07554943662U, 0xac8cb068451d158bU, 0x7a95098d01021b3aU,
  0x5e8e5f2e99c2e0b0U, 0x41016de015fc78c8U, 0x5f67274ce9123410U, 0xd1bfed38c7bac65aU,
  0xc9a5bd707816b459U, 0x69c7d03318c3ff65U, 0x3ec8b9d8de507138U, 0x6ab1e2fc675d8206U,
  0x29f4bca256fdc190U, 0xc481fa69713af3aeU, 0xf6886fa4dd0e32c3U, 0x1b353c87502926a7U,
  0x6f5cc3f8a27fe2f9U, 0xb5be5b8100914b48U, 0xce64c2067e249695U, 0xf9536a0ed2b5c621U,
  0x667a9d3bd21b4c20U, 0x78d8ab33ec4cea7aU, 0xfde9ed3ef2650125U, 0xc99560a0574b230eU,
  0xb9e07121ae550addU, 0x59026baa6ae9e107U, 0xc1036f5f8c3c76edU, 0xcaa0c84461e6196dU,
  0xda8a84d878081cf6U, 0x2266454cf5ca2025U, 0xed495d931b3ab91bU, 0x5d2094b36ed8949dU,
  0xcfd3f7fe9ac045b2U, 0x5a527a32aa3c9cadU, 0x10cd71605b4d9232U, 0x68ea69fefc1bb420U,
  0x821a50330e58edd8U, 0x6d8ba1b123c0f7d6U, 0x9be5f7b6aaeb6494U, 0xb1ff04a6e91963f2U,
  0x11149b9b4eab4fcaU, 0x5e8ef720f01960ffU, 0xdac9094d0e47bfabU, 0x1e2350cb7e587772U,
  0x60354e455817392fU, 0xef4fcd1353557b19U, 0x15a29567ab92577cU, 0xedf5be00b7e303dbU,
  0xcdfa9717465a25f7U, 0xc82179d8ac00d203U, 0xa5a2ede7e0f95665U, 0xcd865d835ccdd6e9U,
  0x2f71195420cefb3cU, 0x7af33f3273bd7241U, 0x2a0962214d3ef27eU, 0x66fbf4aada86905bU,
  0x715935691d353be7U, 0xadb29c1fbbfc6cd2U, 0x6845de874119f2fdU, 0xbe5d2c8d356d26f4U,
  0xedc79050de090fe9U, 0xe19be9e084a45a65U, 0x9ddb43880d6bad84U, 0x6b171196ca0c5eefU,
  0x9f29dc6d561bc4deU, 0xd9b3b1105a51a263U, 0x65e2daf5f40ed3b7U, 0x2b5c799df30fec7U,
  0xbe34d396e6103877U, 0xf657b15fc4a2dc47U, 0x84b51458ae828ba1U, 0xf0a9df84b4e3a9b3U,
  0x615a08c346c9ddf8U, 0x2854ba5b4eab3ffdU, 0xb9d8b9e46a6886a2U, 0x97c7851c2b00271fU,
  0xd581e1dea0fab99fU, 0x2e9174aae2d5d667U, 0x209ae3ac4b1847beU, 0x7f4cc17a2722204cU,
  0xfc88e67bb67d485cU, 0xdde2ea993ccff2b7U, 0x932628e8d6ff20f5U, 0x6b9c1c4822d97989U,
  0x360071e1b7061a4dU, 0x74ab6b002dd496e9U, 0xb852cb9e75936b6eU, 0xb95e6c507685a3cfU,
  0x10f118b026d212aaU, 0xc74cfdeff623dfeaU, 0x8e385eb5013d5593U, 0x48a7c1c65887ee35U,
  0x700d7ecefbcb5f95U, 0x5df23024a8480b12U, 0x8ef837aff0ff32abU, 0xcd846bbb8f85f50cU,
  0xfb124393f95022b1U, 0x8b81a79bc48f9889U, 0xc3f5e9b8207289d9U, 0x32acfb767a50cdc0U,
  0xe16b0e34ddeffb1eU, 0x592f08f2751ade06U, 0xc2989d6401399d3dU, 0x6acd31a9aad7ca4bU,
  0x9255f8e3f02db7c3U, 0xf6225a2d33959d1aU, 0xbdcc36f8f007b847U, 0x634db0cd3676c615U,
  0x6e9587c27a29cea6U, 0xa3342ed72c0e1fd1U, 0x625f222a3993a54dU, 0xee9176a3e3c599faU,
  0xe7615e5f5fd89395U, 0xf7062f036975175bU, 0x62cd54ecaad21f2fU, 0x1f2de48801566cf7U,
  0xbb589eeb8924be8dU, 0xe1556a39a843d513U, 0xea2bfae92e99750bU, 0xed0da339af298573U,
  0x6138a853350b3176U, 0xac981bb19697976eU, 0xdf04c43513ba087aU, 0xf8bc4dc362897d9fU,
  0xa47cb130b76db55cU, 0xbe06cbe1eeacef70U, 0xfe97d7a370daab65U, 0xc79d6d0e0c85a7U,
  0xd26401c4af834ab1U, 0x28fb826458e8c259U, 0x8f25eb3679231e08U, 0x4ad249489d3c7fefU,
  0x9f8f126fb10e6a3dU, 0x7203efc304a31323U, 0x70646a8d25a44f67U, 0xf658a32d5d9d9bf7U,
  0x64c6ddb83ecb852fU, 0x9a6e2e282f2710aU, 0x99cdcaa1ef87ea4dU, 0xac73e8ffbfb60a61U,
  0x86a391d0727ab1U, 0x6a93185cdf2a2438U, 0xf228d2e4e201e03cU, 0x9c7a9f2c89496daaU,
  0xd33acd03f1a63a9cU, 0x4a32da620c1886b3U, 0x961343af28728987U, 0x79a5cae3ba9ec653U,
  0xaa86669b77feb26fU, 0xaaedcfd4f9cf05cfU, 0xe30d8479106891acU, 0x928b1e76e414cef9U,
  0xfb372e64658a0ff1U, 0x84b748c78ff6b7d2U, 0xfcae5d6a6bc1c8f5U, 0x17f5697d8aec3b6fU,
  0xc4bd489076fb047U, 0xc63f912c1318e348U, 0x5e3ee921b5612888U, 0xb0b4e0aab9039dbfU,
  0x19c14d56b3d5c226U, 0x78e5593203a34b75U, 0xba5dd8b79afdd77eU, 0x6729076a69b21b2fU,
  0x24314c9862d6e8d5U, 0x8f8652b7e1438f73U, 0x89ce2a48d5424d6dU, 0xb01ce2c81edc832eU,
  0x4466555e02f5e7edU, 0x28db46a9b90eb76dU, 0x753b0effde21e870U, 0xd941bcd3949c480eU,
  0xdaab1044ec1962bdU, 0x62b1963619436febU, 0x5d0c2d1d7e81cefU, 0x2984400a182edfd0U,
  0xd67d45871c7cfd4fU, 0x943bbeabd275ccb2U, 0x3c829c85af506de6U, 0xf042c0f0d81c3be8U,
  0x7b25d8b5fb46b7dbU, 0x3982a4b70a63409U, 0x4779b437c03fdd86U, 0x2d951f928af23182U,
  0x23fbe4dbe286d753U, 0x49ee33c62b209abaU, 0x10c293e2c9450160U, 0x52a1dc27023875f5U,
  0xbdb3ec230ac5be1dU, 0x8414e00725de94e2U, 0x23223caf877e1a55U, 0x6cee0198d5fe5e03U,
  0xd575e5399d6b98c3U, 0xe162ccbe71b3b60bU, 0x2f71daa5b2a691ebU, 0x7830db1b41dae28aU,
  0x36c172b813c7feaaU, 0xeb106884ef8dc495U, 0xf6aa09423d2a08a5U, 0x1fdc4a4417833c12U,
  0x7b861f398324b8c7U, 0xd822875a617d23f1U, 0xc28dda112fd6925aU, 0x81e9b0795d36da0cU,
  0xd97bdab4a4328bf7U, 0x23fb3448c12b1878U, 0x37c665507aab3ae9U, 0xcacee8fcf8c04d1fU,
  0xec3f0391a230871eU, 0x409e356f79de1ff9U, 0x49deeb7ecfac7c72U, 0x87cd8127fffcf147U,
  0x583de4ae00e7e37U, 0x3fc4bedc5aaa5642U, 0x2c8aa3b09e3e6ecU, 0x4a294bb8777af766U,
  0x5c8cd0699778cbbU, 0xf5211a0956e4fcb1U, 0x5727ac799cc355b2U, 0xf7e35fc31a9bae85U,
  0x6b46c5aa059af20aU, 0xee8ae5bfd6d5da46U, 0xb789a3f9be318f3eU, 0xcd30ad1d0fa08e4cU,
  0x35918a178d5bb90eU, 0x3a19ea875097d9a3U, 0x463a60b98a2187b3U, 0xab3c79b2f47433c3U,
  0xece2370fb893ea5bU, 0x1d3f56d748b41622U, 0x7647a44a8461e564U, 0x4466fd440e483976U,
  0xc6c739e32727f5b0U, 0x5deea53bb488e7ddU, 0x66370911f4a7559dU, 0x23e60fb1201811b7U,
  0xcb24187e96515561U, 0x557ac515ccd36b8fU, 0x886f9fbe7ddb4f10U, 0x9d4986935eaebfa4U,
  0x54b86fde93dc5fbdU, 0xc57f5b704d3d3a0bU, 0x633266562c84d858U, 0x4ebbfd1596f3c45aU,
  0x5752f489f9938f59U, 0x38930f21e04820acU, 0x31bc8fb80aed161bU, 0x176e55d955aac8e7U,
  0x8e83b3fbab12f733U, 0x9e573ce1cb26fb9eU, 0xcb83dbc679c404e6U, 0x9f654a56da7b7714U,
  0x66ec292e888afef2U, 0x3ff01d0455534553U, 0xaafab81e6288d1ecU, 0x6a19f0c389c6846aU,
  0x62d29d51e6cd06fcU, 0xfbab7af29740fab1U, 0x954c56d7fbd5d6c6U, 0x72af57196ed11fafU,
  0xf14e5204f7ce8e9dU, 0x861d86594f937975U, 0x2345c0a62376e73U, 0xb6b34d739fdf343aU,
  0xac3167d56f690c07U, 0xcfb3de0f77d7ad88U, 0xcebc93a44b1e88c1U, 0x214cc89badf7949fU,
  0x838469e1ffb36c6cU, 0xb4f373f456074f48U, 0xef5a27fdc74e3910U, 0x4e30601b1a51f83bU,
  0xaa9e1c632599b27fU, 0x1a1debf188ea3707U, 0x91c21ae3fe6e0f8eU, 0x9167c05f53dd1e22U,
  0x344c425e83f653a5U, 0x977ef7619c75189cU, 0x99ec367e8cf400cfU, 0x58a867fd200fc098U,
  0xcdb02013a44d1c9bU, 0x6c047a60b803649dU, 0x1fb8c20ac1d84b34U, 0x2dba2c268472858eU,
  0x6f68521dd38d2d6U, 0x7a5191ac590b64afU, 0x892c6d417098c7bbU, 0xa883e227d8bd4923U,
  0xec2a9f386d88e771U, 0x1d28aae17333e87aU, 0x464ff6e57324c328U, 0xaaf6637f59607ef1U,
  0x1c4a916b959bebf4U, 0xc467a912593d7f58U, 0xfc7d9ec61b7d64a7U, 0x28d7993645667fdbU,
  0x4374d78bdfea7b38U, 0xc54f00ef92d0d3adU, 0x67a75ace175ca1fcU, 0x9edbbf563750c495U,
  0x5ab56484887a96aaU, 0x9aa40b05d9303a8cU, 0xd2b2c1ffb9c28c88U, 0xba595790c2ffbf27U,
  0x9aa124a91a5f3232U, 0x31cc0cf631d3c073U, 0x51a8d3afc6545d27U, 0x20220a92da710f6aU,
  0x79a39d025ebaae3aU, 0x4e5307e21afedb41U, 0x6a35021a8cb44289U, 0x62a9b5e1ad200a3bU,
  0xf7429200bff4f952U, 0x47c04b07b9ef649U, 0xc34507e7a75fe396U, 0x976e6b7caa73a946U,
  0xb1bbb178e4ca5d6cU, 0x7aacb8081ed6a231U, 0x22cad2913087f3U, 0x9753e80d5ab68a78U,
  0x10f84a78d7aebbefU, 0xa93db169ee5e7aacU, 0x2022cd854403e1a9U, 0xee1adea23157b059U,
  0x63a514c43761bb5cU, 0x49ad6255960c8eb5U, 0x120460107b5d3e6fU, 0x8d6fba9746bb31c1U,
  0xd53f20e110fc5896U, 0x47d8a18711fcf297U, 0x7338d32636021b7U, 0x277ea9bbb1db4165U,
  0x5d8193b6d91147b3U, 0x97e42c4369d0e205U, 0xc732af5334660fceU, 0x8edd0abdf408da61U,
  0xf6cfbfb68fa86c52U, 0x7f9cf1cad5df417fU, 0x7d7f5872a9bbe9f3U, 0x5467a34988878a4bU,
  0x1b53a9ba9a770f16U, 0xeea85b6797f0d086U, 0x2da558eb71d5a00cU, 0x7eb935caeb2b0d68U,
  0xcb5a8e5b2442bf19U, 0x91d6c16288d9eb3eU, 0xc3316e51499a224eU, 0xb2bc620ad073e9f7U,
  0x42f49ff70fb5890fU, 0xdaa15695144be190U, 0xabeaa5270fe4a14bU, 0x64360d6309be9e0eU,
  0xf249ba16283eabeU, 0x51f4abaf2d6b9520U, 0xa4a8cccb5f89c417U, 0xdfc635d233a3c059U,
  0x1edf24cf575ff721U, 0x18b28e2f0ba91b65U, 0x1b8ad0f4f2686bf8U, 0x59b14e0ada36fbdaU,
  0xdc0388283a256b0bU, 0xa7d3b5ae934e0de3U, 0x217e83d816110a49U, 0x2dab8a230121d9U,
  0x57fa4a63bae67157U, 0x6cb48314f7b6f74bU, 0x4bd6ad60755c0731U, 0x8f36650cf43b2d02U,
  0xf1548d40bf8f67e1U, 0x2b41cbf3d6ad919fU, 0x21cfcfdff3070ae5U, 0x77cf65fef7435d45U,
  0x63ebd2579da5323dU, 0x70612bcd7ea112e9U, 0xaa943a9fa0c0836dU, 0xd45697e48ac97c44U,
  0x5718286115b513b5U, 0xde8dd88497d4c535U, 0xef77df0bb692a234U, 0xf789b7bfce907043U,
  0x4b324067673737e2U, 0x2ae4efaa592e4109U, 0x53a9186466edb951U, 0xb6f5792462e8ca16U,
  0x5ad69118925bbe4dU, 0xa4378ef567985866U, 0x22439759d93051b4U, 0x94e9aee853d6838dU,
  0xa2cb74db899b8a31U, 0x42fcc5174daee5ebU, 0x28ef9fd164eb5edcU, 0xd94ccfa1c48cbbe5U,
  0xf93207654eba13a5U, 0xd7dc27f720adb5f5U, 0x6e080a30ec61941fU, 0x950fe988cdffc6dbU,
  0x24d40592d7e60651U, 0x666ad35927dfb277U, 0x6dc4f7adcb21592U, 0xea0a70bb106a518cU,
  0xec5547fbe172839U, 0x6e35cebc2b4d6c70U, 0x965b9dbacd0893bfU, 0xde33dbf0ef8b1e01U,
  0x496a69f97b0de796U, 0x88f96d486beac455U, 0x3ddcaf8db5218983U, 0x829efb4d1441f753U,
  0xb1548771d14fe73bU, 0x904ee64fab129a09U, 0xe2f34b76378efad9U, 0x73519469f93e1562U,
  0x88e8f8ab442a49f2U, 0x8d46b115d20746a4U, 0x42dcb707e9210b8bU, 0x75306d15421544b7U,
  0xe969cdccf425b47bU, 0xb816deca2bf22cf1U, 0xb9934fbc927c10d5U, 0xa09ec6bf168a32cfU,
  0x71ccf135223323f5U, 0x905644e26ba0b627U, 0xf88c75d83fe85c7eU, 0x1c79e7ca4ad98828U,
  0x68e3e810956ef7f7U, 0xe4d2d01754bfa738U, 0xaa4f049c064018adU, 0xbcd8e47379a22adU,
  0xbfd9e1b5a7c530e3U, 0x41ecce7103a7dfceU, 0xec954c3ece238e68U, 0xe683f56f0bd6ac92U,
  0xfe8f525a4a93b4dfU, 0x2542b66e1491da5eU, 0x9f0dce09650ce7ccU, 0xee670759e13315acU,
  0xb252923b9dc8e2aU, 0x4deb2e117a96b5dbU, 0x65d360f0a1e63a62U, 0x55c670b76e8a5ebaU,
  0xd97c0642d31892e4U, 0xa7226cdfe8fa0252U, 0xdf2eb70690ded0cU, 0xb57cee7e7c67efa6U,
  0x1eee4f29e1dd7a5eU, 0x63bd0321d253b92fU, 0xf4e4248c568dfe2cU, 0xfd90fbf677bc766bU,
  0xe4de6a5eb710dd5dU, 0x6ea187bb29e8187fU, 0xe0387b8cca869e68U, 0x36c25374967f1f90U,
  0xd43f6332a98a8bbaU, 0xcf0b18aee33942c2U, 0xae08417ef883e160U, 0x2e19099c3154aU,
  0xb47c47b9550788f6U, 0x9fe4409b9e5758b3U, 0x906d95823819e39fU, 0xabee7c82868c3caeU,
  0x254fd94d9b5ca3d8U, 0xd13a4d3f29d4addcU, 0x31dc9a48a42dfeccU, 0xb734aa288d49af84U,
  0x1c18c396c966ac04U, 0xe87a95dbbcf69859U, 0xd6422a679d0326a1U, 0xa3db14d56073e373U,
  0x447db59e11282057U, 0xd2f3f761b1d23338U, 0xac2f77bb797b7700U, 0x7cf769ed933f5df2U,
  0xdbeac93b90028d42U, 0x7139678ae6e10088U, 0x3589e94f9df18235U, 0x4343cd5e61677fa1U,
  0xf5fcf1577efcf42cU, 0xf403644246c60192U, 0x60f7ac6024e49c2aU, 0xbf73d03f67dc349dU,
  0x9b915ea4aefde23cU, 0x6f90d83e7de35645U, 0x6602f0b978d5e9aU, 0xeae5e1d4af6464a8U,
  0xef32a0c830c784f7U, 0x4833466c15e15c0fU, 0xb914d509115e94cfU, 0xcd7839020ffce0aU,
  0x693262abf3ff7e5dU, 0x944483d6cfea9882U, 0xf11a1e9f06a3429aU, 0xea1dbecc8817ae52U,
  0x8aee3ddb02b8e03aU, 0xfeeab254725b8efeU, 0x8ecd07c5dc012b3bU, 0xc1cad898e3746220U,
  0x45b55d5f9b794258U, 0x12ef0f265cd4ac37U, 0x20600777ea7e4da1U, 0xa06e1ad472c61baeU,
  0xe0f34a7d20f70ff3U, 0xdbfe88b7b836073bU, 0x3d2629d468d3a93dU, 0x7e5b5cd7f1176911U,
  0xd0f772f4c8fc3c76U, 0x750343e4bfafee6bU, 0xf4190b111121f14aU, 0xc643a0b7e4955b3aU,
  0xfe48f4db453364abU, 0xa6e9b10a2151996cU, 0x3f9ddec5039ce6bU, 0x3b6ecc258cd71970U,
  0x45e24a99b4b03ef7U, 0xb9965a4f4be9f6a2U, 0xb2dcd72b5fddeaaU, 0xb03d015ca6260a01U,
  0x447b93f4c281e152U, 0xab7d856195eaddcdU, 0x98450d7f8a247988U, 0xeb4b4eb09c194188U,
  0x6a3be644adc66479U, 0x946bdb541b5f498eU, 0x4ba42f36539af894U, 0xa4ae1434bc34e56bU,
  0x1c9f67f05ffd0bdeU, 0xc6c2cc9a934895e4U, 0xbc408590ad997e12U, 0x4b31c565c6da7f89U,
  0x94dd76a7c7f7cf61U, 0xe7d79ca3be53b35cU, 0x1165d55a5c76d6beU, 0x1d401d7e82b7fa04U,
  0x24394e2127f4d8bfU, 0x2898c32f163debafU, 0x2ed3c197dd210349U, 0xf4477fd98aa7d268U,
  0x80b2aa2a346d79cU, 0x3005c99b96bb406eU, 0xa07940c300baf3fcU, 0xd6b148a5e2c062d5U,
  0x399c093b72a3a1a3U, 0x7af7e040567c9ab3U, 0x38ad31c30315fbf8U, 0xd9e91238ea4ab350U,
  0x342bc71db3c998caU, 0x7dedeaea1cbda71eU, 0xc98636ed394cffdeU, 0x234d7adf547d51beU,
  0xa1be4fee8c3208c9U, 0xd760d889d4df7ea2U, 0x6309ea1d54183a46U, 0xc531aa9421a0438aU,
  0xf6a9190a35491608U, 0x52d2b51b118823f0U, 0x478a106a3ee9bcf3U, 0x71aec495663ff324U,
  0xa0161064ccaaddc7U, 0x7cf8af21049c78d4U, 0x69185752d4c29a0U, 0x1a60c4c784d24a40U,
  0xcfdf1dfa8c15c65U, 0x79fd3fa2910d762dU, 0xedc2358ecab148fbU, 0xf7a78e394f1f4273U,
  0xdf99bd969db5f6a6U, 0xb95cfee15375bdf4U, 0x2a11a27ebd401897U, 0x82162103f4f5635bU,
  0x6f4a694eedfda6e2U, 0x9140c171b233751eU, 0x98ddde6c90ef0546U, 0x89cff5a8a14e88bbU,
  0x958cb65d19821fd5U, 0xdcf6def71ba59d16U, 0x8ec8ba346eff0ee9U, 0xa3c0b03ca8443102U,
  0xe5f859f726d16d69U, 0x882f2d3ba3b45754U, 0xea925aeb0b48cc92U, 0x27dd9662cacf1e4fU,
  0xe8116328efee6b8eU, 0x7814c572579cde68U, 0xbca0420305c8cea8U, 0x71e5fd3d83bb064U,
  0xfd94727635942c0bU, 0xfac53ff93569e4efU, 0xc7e3cb34efbc1324U, 0xb39a8a7e9603a39U,
  0xb1e035b2ec2b063dU, 0x2504233d65d0bdcdU, 0xaab2a677fdd7589eU, 0x72402768da88ee7cU,
  0x2c70f2df311716f6U, 0xfc5170305c8ae8f7U, 0xce63919dd6777eceU, 0xb8ebe2d142ffc6afU,
  0xdf5f88e2a77228abU, 0x855004c15d8cb40dU, 0x328d971d4a8375fU, 0x9b9eaed917b3abdaU,
  0x524b210f7a2c2a03U, 0x5619425d8313cfd0U, 0x1f0d8d392f8e4922U, 0x1ee5a40647bf75c8U,
  0x9cbada570d64ec35U, 0xf8e3604ebac44f26U, 0x1f580251b8337667U, 0x842354503d09158dU,
  0x2d98f36e23763249U, 0x71220e4bca287292U, 0xf2c72c2be6a2c1d1U, 0x5e1501a60ed8d018U,
  0x23e2831efdaa2752U, 0x8e7b0db2b834880dU, 0x96f7755f6209ebbaU, 0xebb1b94dca4b1522U,
  0xec49b3f09a76cd65U, 0x46979a74980e1bf7U, 0xe71ae1d227ce285U, 0x2000b8c5c46debddU,
  0xc5e055dbe53ab362U, 0xc322c455a9708c09U, 0x4ea3d748ef1aba36U, 0x1991880a5f69e68bU,
  0xb529b184de78a5e7U, 0x40747029c43ad25bU, 0x9a1d1a90d54d4c10U, 0x879049781aea793fU,
  0xa2a026e955fcccbbU, 0x78404547075334deU, 0x9260449d17ea7119U, 0x423c472adbf86f1fU,
  0x489fc93f7c63c3adU, 0xd587fb3722c77d3cU, 0xccd687c0bc484448U, 0x258e00f41bd571c0U,
  0x226eeea17452f8d9U, 0x6d6ee28f9afca9b1U, 0x82c216f065cb5bb0U, 0x4692e63dbe42ab2fU,
  0xaccf14dbb1ce2c7aU, 0xe35946469e0d7f0fU, 0x8c91080f24df29e2U, 0x95c372ff9b0a0121U,
  0x1c368fa4910a8b92U, 0x7620ce68188d17d6U, 0x7ae994bc5313fba4U, 0x7bd41a7b2cdb4c42U,
  0x6748c78cb93785fdU, 0x723483ee6297c7f9U, 0xc090ceaa100e3b3fU, 0x47b73018c0f32fedU,
  0x3fac6c31b3c6f908U, 0x89ce46889a3314abU, 0x2ed629a48648f1feU, 0x4201716750df156U,
  0xe9f70c102c5d831aU, 0x89dab462af738d9eU, 0x1355b712fcf2eeb0U, 0x7456834f1174f33aU,
  0xe54c90f942e146ddU, 0x8125f8ffe6bb5509U, 0xed1d8c5a4f637849U, 0xd69c607ddf9faecU,
  0xf988d1819c0cea1bU, 0x7dd591a4f7ae0f3aU, 0x5ad05b48b8123cfeU, 0x28b3dd16f7f8b9c5U,
  0xe3aa63feacba1e9bU, 0x1827981e0ce8d930U, 0xda1d970bd0931062U, 0x61ab4204d67b836dU,
  0x8497c9ef711ca047U, 0xf67ada4c918a0d3eU, 0xbaf758a383146d98U, 0xeb6fe6160ea89b19U,
  0xe2c1fa9a26e8a773U, 0xe8fd9576768c83d8U, 0xf9658699dc7af132U, 0x72766ca90a14b8c4U,
  0xe722366b0f9d82e7U, 0xea62a94850146da0U, 0xea5bc700cf1d4e6bU, 0x8505497268eec449U,
  0x8b68d0612dc406adU, 0x3bd6de2d01dc3b04U, 0xf49e226428ed0e16U, 0x488c27bb3a83b43bU,
  0x88f5b60906ac5f9U, 0xef974370e9296ebU, 0x892c27303a0dcfa4U, 0xeb0c35cf08d1d191U,
  0x878b28b5a7a21ff2U, 0x6f3c2ca74360df79U, 0xed5c0d6787c16cfcU, 0x7ccf8a3748f10540U,
  0xb9ccf172a6f91bd1U, 0x5d25e3da6af04950U, 0xdb16caca9e81fe4U, 0xfc06ee8f35d5b3e9U,
  0x28e7520dbc00acf7U, 0xec541c8a4f1bb58U, 0x36f49c7903e1d075U, 0xdfc3560a0086d98dU,
  0x7cbcf268eea4fedcU, 0x3558c5fcf8fea325U, 0x2fd6d3ea86751c7aU, 0xb27b3f2e1ab37368U,
  0x6bf0cd176831d8aaU, 0x2e3ab9629e24b7aU, 0x8d37c63bc822e48bU, 0x4cbfa1d4c3f1139dU,
  0xfa30973382c95937U, 0x1f5ee3153ab7f1b2U, 0x60efc8694de5bdc7U, 0xa9970fe9ae563fdcU,
  0x615a1e035c70b8c2U, 0xb8288975cb381e0aU, 0x97e23a45cbbbfd8dU, 0x28d394cec7b80348U,
  0x3492ab312f976f76U, 0x712d31ef675b9e00U, 0xccbccee5e535323dU, 0xbf4608600ee7fa69U,
  0xcb3554a03e19aa2fU, 0x25766e197d3f02cbU, 0x14f900374954919cU, 0x3c93de1cb05c447bU,
  0x42255d6ce8580aeaU, 0xef026edf4d335b6U, 0x2061c94696a307ddU, 0xfbbb19da38f79f57U,
  0x5550b16098bffccfU, 0x90eccb5dff0ebdc9U, 0x38b610eaa206f495U, 0xc42bd3721a47bc7cU,
  0x534dbd9fb7b77734U, 0xb7b7a8b324ba8802U, 0xcf988d5a408c76bcU, 0xee747577f1ae07bdU,
  0xab85d432fb0ec19U, 0xbd97513e7401e3a9U, 0xb230d6ad00cf6014U, 0x3d90ff4406f56d1fU,
  0x75d486328e752792U, 0xa5853700e4e38eabU, 0x9a103ce90bf9157cU, 0xfc582516f01d6c79U,
  0xce2e77d4c16858b1U, 0xbdaae3992d96989eU, 0x1493544cb23c7a51U, 0x74a4d3df03578d97U,
  0xd55c0a3a08c83674U, 0xcae79f0e7814d721U, 0x96993a4042380dffU, 0xd19e9fe445b2323U,
  0xf9ccaba51a4a7f05U, 0xd5b13d52b9b12adeU, 0xf709c512794f5261U, 0x8925b36bf9247f6U,
  0xc9e459ae38dd7989U, 0xc346a1c42818c66bU, 0x200bc4a0b8439551U, 0xf3eb9b5a719d1fdbU,
  0xc4a8aeba676004daU, 0xac067fda631ebfbcU, 0x9aaaff8b4f2592U, 0xd744962b3bdba440U,
  0x339f85c82aac8852U, 0xd89f12433b06d52U, 0xc2a71ebd89f6d8ceU, 0xa242bec0e1f661d9U,
  0xf53734fc5cf92311U, 0x1fe39d4e9061510dU, 0x43e5050887f2035eU, 0xcfec92dbd80f0e64U,
  0x9128fb375b732cU, 0xbfb5ab6ed1fb25ccU, 0x708f3c35832cc4f4U, 0x5e48833df09ccddeU,
  0x5618525eaa905caU, 0x2b957f9bc2282a6bU, 0x16baa8a643bd3b87U, 0x28247e12a08ede8cU,
  0xa433c75edc7e9249U, 0x5ec4a1cfc037a248U, 0x6971411dc98af545U, 0x56effed11b702c6fU,
  0x1693af287af4cbdcU, 0x5c59bb185a8d2314U, 0x155468b17e378466U, 0xeae9c8b4acc14358U,
  0xfa851c54e73d28a6U, 0x678416fdee3a6afaU, 0x57fc4bd4c70e4cf9U, 0x45d1bddf2b1232aU,
  0xbf49a6f592abc1f0U, 0x75cfd2915dc6e454U, 0x19b99169e388e7dcU, 0xf176e577bceef403U,
  0xd394154bf29e4d4aU, 0x67df10fbfda697a8U, 0x656270cc634f1188U, 0x40e2209e21b22de8U,
  0xea42963ffa7859a1U, 0x3e92ccd29b2eb7e7U, 0x41901fd8299943dcU, 0x7fe6a4154f47f75fU,
  0xa7bf819c391924ceU, 0x637f375d8477c435U, 0xc1c18f539dfe8319U, 0x81a47c11f9e8c812U,
  0x832699e89c91769cU, 0xa1b6b24cccb21f53U, 0xdfbc938d49bd6cc7U, 0x5125a838e2e1bce5U,
  0x3e154d2e6c66d708U, 0x48aa8be79e001ab8U, 0x679b3b593ec9154eU, 0x39e923a11f2238f2U,
  0x8c969da78335ae6bU, 0xe6932319ac55c30cU, 0x9aabc45a85ba1c0U, 0xd400930820f6357bU,
  0xccce7450b1f865e8U, 0x1df4eef9586fbe62U, 0x32b8978378b75348U, 0x295e0630e8fff634U,
  0xae699fe802cea1feU, 0xd11fbde72d17d7e9U, 0x8c99f1a913597eddU, 0xbbf8faf74576d0cdU,
  0xf674e83fe8beeeb6U, 0x48f5f62096e7c597U, 0xcac3ac3b72864f3aU, 0x7b0f7cd2a081cd9U,
  0x30d7a94a064a6fcbU, 0xde8dd39061124488U, 0xc12ca37340ad1635U, 0xcd1a7d773be62481U,
  0x5e201ea7392f7d6cU, 0x3e62db97ccc51186U, 0x36b9081326e1bd32U, 0x3f316aea7474683cU,
  0x22501d061fb9d4efU, 0xaed9ca353b2ea0cdU, 0x8a5423d72ee833a4U, 0xc83e6902e7c2c1cfU,
  0x305fcd7bec5fedceU, 0x7494a29f18ebfe2aU, 0x31dab0b1d73ddc5fU, 0x73cfab1a8f6e9e81U,
  0x640d422acb386ab6U, 0x2df6eca6e09788b1U, 0x37055bb6b8185053U, 0x1a07d997d7d75ac3U,
  0xc914cba4e74bdb72U, 0x8b22995eba5f54afU, 0x9dec00f4f1b08267U, 0xa3cb9feb6fcedd1fU,
  0x24940d5910a4d04aU, 0xc19f5917e35cc485U, 0x6ba659a85f7c6c8eU, 0xc083b8b5b298bbe0U,
  0xbf1e549bc16f600fU, 0xaa6ed20902fbaabfU, 0x1876ae91007c442cU, 0xbd57c1a00305da29U,
  0xb018e804ddda46abU, 0x4802fb5a1c65626cU, 0x8c7506a293edcca9U, 0x2bb63b8e6a0a1800U,
  0x181b9302d4ae7b17U, 0xd9589458143fa568U, 0x2abb4a1cf5781c03U, 0xb04d89c84ba40db8U,
  0x753ee1174a8ef22eU, 0xafed233b2403c164U, 0xa718cc85f6b070ebU, 0xf30756b531820148U,
  0x842a6c9dc71f2475U, 0x5368b844d6546317U, 0x4abdbb28d5b68ca0U, 0xdde0ead265b04f3aU,
  0x4e182db5ad873ae8U, 0xa401ee5fb6b6fe0dU, 0x83662cdd6ff7d9b0U, 0xc1985abff59d5bf9U,
  0xd2dc72908ea15fdbU, 0x35f8a8ba3e5ea8c3U, 0xdab5e7d29c84b1b9U, 0x288ff962b327aeadU,
  0xd86076fa3d93c3ccU, 0x4a7759a30ad944e9U, 0xf69513c67ce37aafU, 0x728cd75e35f0938bU,
  0xa664030102e63791U, 0x287aee224d6b4a4cU, 0x65e7bd3d9b6f67c9U, 0x93860db7cec49d18U,
  0xbaa2505fd8d1761eU, 0x3889d3b37c23325aU, 0x89b7f243d7d1517cU, 0xf7ff1fc690667387U,
  0x899a7e84a4634d95U, 0x7813ea57514258beU, 0x61c1c2d527bd2430U, 0xf8d6c71a9b6dc6cbU,
  0x72fe8738a7510b6U, 0xef55107d77bf2e84U, 0xf6249bbfa9112b97U, 0xd5f4e4443520403aU,
  0x465d25853514dc2eU, 0x6c2fe5f50b57a067U, 0x8f287a7bbde061ceU, 0x5be04b83fd724adU,
  0xc7db86cd40f4550aU, 0xe5a4da41d2f853b3U, 0x149373d1744259c9U, 0x7061269562c75a72U,
  0xea655c5d5b68f2d6U, 0x83ebff0c33b826aU, 0x1328e69235ae00f2U, 0x15f576812b7c922dU,
  0xaf08f2ef297314cfU, 0xc6260867f39e2408U, 0xb4ef6ea5382c9d2bU, 0x23e8b4594a094240U,
  0x862abda35ea4cec3U, 0x4dd9b078f026f828U, 0xefa28ade6ccd12daU, 0xd0f07487caf53399U,
  0xf3890bbd01f68b5fU, 0xb1fe62f4a7cc4ef7U, 0xe9f4bd0d61f12565U, 0x54deb4b4615cdd7dU,
  0xbe3201557cc574a2U, 0xd280c78d5367d9fU, 0x29cd056fec8723cdU, 0xd4dc91e88cac7cf9U,
  0xe770653cb9f463cbU, 0x58a68cd9c09e165cU, 0x9f4cf7e068e509c9U, 0xa62e3d0e374e8520U,
  0x52548993d60e9f3aU, 0xdf68e483c52c4ea9U, 0xf4c9e5ddc339d0b2U, 0x3b68e534f7ec9770U,
  0x384743520e98bcb8U, 0x47fb4d6f6ba7d791U, 0x4899cd0b20d11b76U, 0x332e6197e7948c72U,
  0x982897fb55148d04U, 0x7686918ea52cfc67U, 0x607790249db3e74bU, 0xd532abfea9031d75U,
  0xc84ea5baaba32a84U, 0x5dcfb9b39f6b3d8bU, 0xc7157f795048ecccU, 0x39ab299f77554ebcU,
  0xaa9bc4397bd5601eU, 0xc5db39c07c419241U, 0x634f03394611f37eU, 0xd371c7ed21f71d8bU,
  0x9f43eaac1aada1afU, 0xec89d136bee6cb63U, 0xd60301bd8d5f0511U, 0x1cafb8dfb252a08aU,
  0x3563db1621bc5a73U, 0x7e38d3f1d8594dfeU, 0xc815552c0eb6dac2U, 0x6840617bd5c2d9aU,
  0x9c3dc645cb04c296U, 0xd4f0b342e63d12beU, 0xa59d8bcb692e82acU, 0xc05ca9eb17c29304U,
  0x559c16a2f89e26f4U, 0xd39241d25b3f874dU, 0x1c180aa672179d06U, 0x2e0d7c88a4b6c62cU,
  0x5ccb82150bcc70e4U, 0xf883060819c646U, 0x231e9891466b07adU, 0x58cd5687ae9eb575U,
  0x4f42fb2b1cf68447U, 0x330c1979782eea82U, 0xc47743e5094a9791U, 0x9b388203fb1354d0U,
  0x156c810328119135U, 0x6dd124ba6c9f633dU, 0xd5f42efedde0e94cU, 0x6243ef6662a08de2U,
  0x3a0c784e8d9c4508U, 0xf4a3a034bc2c4e75U, 0x51eaabda3dbe863eU, 0xb19ef1c826b3f35dU,
  0x5ffa3f97046dd791U, 0xdd39a959dc25691cU, 0xa443335a5cdda782U, 0x2ec71020121a2160U,
  0x21de03d6c32593bdU, 0xdf377d6af0841b3bU, 0x9b3237eae97b8c3fU, 0x637f8a3aa03ab783U,
  0x588f956bf33c6cb8U, 0x337a5017c9984c9cU, 0x33b609f21b8c3888U, 0x33c3e94f1b933b65U,
  0xee2538eabd74867cU, 0x8327bd49d60a9536U, 0xee1b71e7b86fe344U, 0xe0affdb73e0e0b8U,
  0x6d7e1d1da2c067e3U, 0x58d930c694ce0e56U, 0x14f5a9ed8233742U, 0x88140767fbc1764cU,
  0x7c58ea9a04242ceaU, 0xd833c991aecfac9dU, 0x34f54022b9239ab1U, 0x23f19d2d1192104cU,
  0x8e32e8c63073b6e8U, 0xd1a7bf971a8b2dbbU, 0x8a0837ff878b7fc1U, 0xcb63f309b92a3400U,
  0x71aeaf4977e93128U, 0xf0988b01e4341dc8U, 0xa99728e919a01b44U, 0xf423e9c51a3c5d46U,
  0x737d9ecba194a2feU, 0xb48feedc93b9e13U, 0xd2d44e2c51b1b1f1U, 0xcc8515da886e785cU,
  0x26244bfd9a835c54U, 0x50ea6935e65c484U, 0x476e47368842aec4U, 0xc46720964c30aba2U,
  0xdb0be7285ebddc02U, 0x9f435a003a8fc215U, 0x23516cedd86a5e43U, 0xc834edc6bcb7687cU,
  0x19d3d70dd6c06818U, 0xc1de8229c372708aU, 0x6f720515d4c35a6fU, 0x11b8ed1aa5603583U,
  0xc5f9469d73131d4cU, 0x7967c0a661244b51U, 0xec9ef7ea17255e19U, 0xe9aab0613ddc048cU,
  0x71173b278565b431U, 0x323a9973d4094877U, 0x9c1720b75ad39cc0U, 0x67d2f79cdc63ae37U,
  0x812aeb1466b5e40dU, 0xa5693439273923abU, 0x7dea83a490de0e43U, 0x524b6eb248d2a4d6U,
  0x12a08f578823be5aU, 0x70b1791531cf7c0bU, 0x6a9e1a7065ecbf16U, 0x4b57fd6eae3123cfU,
  0xbd6587fae91a697aU, 0x15a7bd316e448acdU, 0x2730e90b2b8408deU, 0xd22e8c8c238440c9U,
  0x3666cc3d3f36397aU, 0x3c7f0fa20409b652U, 0x319d435bc6444e3fU, 0x6e3b3cab4676edf7U,
  0xd504171bc846a73aU, 0xfd23c5b11b5094fcU, 0xecda41c8f3f486c8U, 0x6bc13f6b2c64c60bU,
  0x56cf70105d863451U, 0x948ef76004d7b279U, 0x7db85810d1e53598U, 0x3b92b06d571b3838U,
  0x6c60a46674fff374U, 0xddda339ae0363152U, 0xb6a951cb235612c1U, 0x2e3598c19908dc52U,
  0x9008e41a5f78b7cU, 0xb3299065655c0134U, 0xef7140c07c43888fU, 0x3867619d3837ea11U,
  0xf4da1652d85ea6bdU, 0x6a307e499ce042c1U, 0x469e2750905a8d66U, 0x3b0c83d78428c794U,
  0xd40d6dbda09d3c40U, 0xde841f74d6dee3b6U, 0x9f355161a890c422U, 0x1c1d6a964607a7b3U,
  0x4799e51f84ca5a9bU, 0xe694f59389fced27U, 0xf1699b66924554f3U, 0xa33abefd604256b6U,
  0x5cdb1d642af06f41U, 0x4887e5c5f198a9a7U, 0xb8823f976d6a2c8fU, 0xcb78c01f16481378U,
  0x5617436854e073e5U, 0x467f24fdbfb02c41U, 0x42e841c4e2a0c2caU, 0xeb6ac00a6fbc16f7U,
  0xbf0e77237273ed23U, 0x9bb3562bd2e26ca0U, 0x3f7a1ebfb5d204efU, 0x49e7b48d20d6b0fU,
  0xa9f7bc89aa0b319eU, 0x75eefa142d307e5fU, 0x422fb910de57ba3aU, 0x2e7c8fc2baaf41f1U,
  0xb95f8d9a1dfb4e19U, 0x2843efa5fecdc61U, 0xe403290b72aa9f7U, 0x12cce43d25d68b9fU,
  0xcbd5da39652b4dc5U, 0x605e29fc51ad64fbU, 0xa0a1c8ce952ea5d9U, 0x7f30ce7126093c72U,
  0xe4545b2ab0370b96U, 0xb0ea0e6c88bfca50U, 0x8b65ff8162a9b417U, 0x3614730843ebfce9U,
  0x1facf2f7abe4150bU, 0x441fa6793f42832U, 0xbc84db8bca14acbfU, 0xe73401d990a90b4bU,
  0x4c38f98181feea3cU, 0x852592572393866aU, 0xacb379c2eb7cc9e8U, 0x7b83d8316add9778U,
  0xd885ea6e2a4cf3cdU, 0x7dd1d41c277d22f2U, 0x4bd258ee18830bc8U, 0x41dad099ce49b5fbU,
  0xa1451b17c7a0b461U, 0x82832edad8c3fa15U, 0x9d3fc0559445baaeU, 0xc41f2d8cdeaad0d1U,
  0xb583eb74e67105eeU, 0x997a4f8e6de05e07U, 0x510bbe86f63a47ecU, 0xf873b55a410ac43bU,
  0xd3599c414f9329c2U, 0xdf41a2105ad549c8U, 0xfd51b56337f71582U, 0x2744f541c746735aU,
  0x6551563306ea1deU, 0xf348557f970e4958U, 0x1bcdc04f4e138d57U, 0x17958320a9a2dbb9U,
  0xdd1d3056c8572961U, 0x82870c6d01109693U, 0xda9719322967df73U, 0xa886c0e5745e19ffU,
  0x53036a2355989f9eU, 0xfb38c43165535c01U, 0x17f977c4d5ebf7d4U, 0x9e8f1882102e5a18U,
  0x76eb6b30730cc5beU, 0x267c0691a594c530U, 0xa64b9e2be685c5fbU, 0xca43fa5cb5b88710U,
  0xcf65290bc3a9aa39U, 0xe0b7dc692f6102e5U, 0xd9726855c54cef7fU, 0x5bb94c84ace3e074U,
  0x5ff40819a25923d7U, 0xc26b53fbc91f223U, 0xeb1008b76816ff77U, 0xcb76398bd5b3d778U,
  0x4b992e1bfcba6c61U, 0xf3d5a76cec5f85ceU, 0xc4e5a6d7e4b1650eU, 0xc78cf9c87e24544U,
  0xdf729d2a5b3affceU, 0x9394632a9dc8f1cbU, 0x745ab91616e286eeU, 0xd253b1f196cdae03U,
  0xb914ba8e3cb022b7U, 0x390f0aaa6e4735a9U, 0x1e48efa54e1c99a3U, 0xd25abcb298b2eb8cU,
  0x84ac8e02273750a0U, 0x2f27b60656341b7U, 0x175377c322e4e076U, 0xaac2311c3455b163U,
  0x35ba65fa6c54abffU, 0x62b09cd032a49d0eU, 0x4b5e68a843082479U, 0x73da8f0428553e8dU,
  0x3488c7358b867f68U, 0x455c1c8f342c6b6fU, 0x5be3cb78995ef386U, 0xffe6ae2c77b6230fU,
  0x1a215077a88e4546U, 0xf555c6051700a3f6U, 0xb6d71cc2cacc326aU, 0x2fb95cef5ba3428U,
  0x13ed04b26afc185U, 0x861ccb28d698ba3fU, 0xdb449918b11fd9a3U, 0x131a3d6d4f587cd7U,
  0x967eb6f717ced30aU, 0x3e0e3b107c36f65dU, 0xa5005fc835beca0fU, 0xfc434740721ff842U,
  0x6d16731f4caad22bU, 0x579cc9a1c4ceca63U, 0x2f5f95ab8c51a400U, 0xb28439a771e9e25bU,
  0x47fc84702d6ea018U, 0x2b61c2501fc8eb1eU, 0xb4cf90e365b18fd8U, 0x43cae82bf2b94dcbU,
  0xe4caed75e5cb00afU, 0xc88217aa47e5fec9U, 0x74839167241ad2daU, 0x2527fb6e8d856aa2U,
  0x912330dcc8cd8f3dU, 0x59ee50f717c80513U, 0x2f565012949c5f7eU, 0xf6bf065a7f7e2648U,
  0x2784142e595fefbbU, 0x5d36811dd507cfb7U, 0xb25cf57ecd15dd61U, 0xbebf32fcb600152U,
  0xf8fffdc476cd3d62U, 0xcc606e8ad028025cU, 0xad2a039c652a358aU, 0x298454ea0efc2d1fU,
  0x3c9dcd859d6e350cU, 0xaa302a8749101f10U, 0xf79f9177e962f98bU, 0xa00edabb4839bc08U,
  0x2fa50765dcf7e60U, 0xb6916d2921cc3376U, 0x3d6c00bf180c2f25U, 0xea780f4e41e124deU,
  0xb75c2809d1bf1b11U, 0xc56e0f19d28c7c57U, 0xd3ac953c20f496eaU, 0x9bd5b00a685b8d89U,
  0xaa3b600353a166cdU, 0xc0a2c2c6a6397a19U, 0x39751c38f8619414U, 0xc54c22a2b9d23169U,
  0xa41d2f778753cd94U, 0x73a97066173e04e9U, 0xa64a32ac9d3c99aU, 0xdfa872226921165aU,
  0x680ee5933a508fbfU, 0x66304a5ce273e636U, 0xb92d2fb3c53c1e9aU, 0xc6fc88910b836142U,
  0x15af973240663a0eU, 0xf586acd9fec5117eU, 0x7e957d3c922401fdU, 0x470336059da10a09U,
  0x2803a4fbf54dcf57U, 0x62c2d8270d7c8807U, 0xe7bc2ea5ccf85fe5U, 0xb107c74555e96dfdU,
  0x55639ccf872d573aU, 0x395b3f084f0f2238U, 0xe7b592119cc40342U, 0x1a52478e985c3f6eU,
  0x9c28e2049665831aU, 0xc1aaba5e61199d9aU, 0x812dd8c16a121018U, 0x1fe66c5a73a41984U,
  0x5abcaf4c1df88761U, 0x4d85648cf8aa645U, 0xaf49b2bca4d7fcd5U, 0x4c30ab7e7ebe18e1U,
  0xe3f86319163397fcU, 0xd26bf7819f18ed0U, 0x511a042a8349197dU, 0xd44a69031a0ac71fU,
  0x21fa3c8c8b6d7e7bU, 0x325d9347d6c62a8fU, 0x52c902fb35d343ceU, 0x6ce6bb7e9c720294U,
  0x4ba2434c6d426bf6U, 0x1c2172c3fe9d9baaU, 0x3b7a6aa07b860147U, 0x3d9f26b01b82d1bcU,
  0x3c2b0c75f2b3c9eU, 0x721881ca9a008d52U, 0x56399be5522fa5d7U, 0x51e6e610a2f67b17U,
  0x2a84c81a758ea0e3U, 0x9a3db2c9946502daU, 0xde882f3f76e5f5daU, 0x60f823bebc72a407U,
  0x30f9be6abbf4b3fdU, 0xa34febb409e0461U, 0x8cd3818a8f50e7dfU, 0x304d39633b4f7c2dU,
  0x225371e808131610U, 0x88f4278e89644325U, 0x34639fb3845e5397U, 0xd155554c38c84784U,
  0xb1bc5d9034f3773aU, 0x3165de82cac2cf41U, 0x5b581e09f7906c57U, 0xed988b858b60264U,
  0xe0aaacdb141aa24aU, 0x35404539efb3699fU, 0x56f5bdf7dddd23bU, 0xb5c6f890b3132e29U,
  0x71b1dca7607e0b87U, 0x29be6f4623df02b8U, 0x2ba653d86bd9c8bU, 0xdf9ffabf7076c99dU,
  0x41a7bf2f6e86149bU, 0xb2c88cc198928b8cU, 0x5cfb4c36b61c674aU, 0x638150b6d7f225caU,
  0x471c59985a442c5fU, 0x51f8cb5cf4b1f23U, 0xe4ae93aa5958ffa5U, 0xfdf5a428adf49c72U,
  0x9dd2a463fe3937d1U, 0xfe5d51661db107dfU, 0x6b511db87fc44d73U, 0xd5cb5714a22cb996U,
  0x452e2da0a92479a3U, 0xac6e030608877a46U, 0x9e79b8a690a2ea76U, 0x2b1055a53c5aba3bU,
  0x5632a05541a44717U, 0xd30e78b94790217cU, 0x9f05af36dcc6d25eU, 0xc807943432a7a71dU,
  0x75e7f39a75110f8dU, 0xddf95db9cba66a6eU, 0xdb40fc8ff77aa7a4U, 0x2d35910ecf76fe72U,
  0x161a0b05bc2bf9dU, 0x4ce6d838e3cd8cdaU, 0x56589d8476bab9e8U, 0x4c4e4429a47b1c2dU,
  0x3d348d75f5ab6b20U, 0xf7240522a3bdcf76U, 0xe51e1297b375dbb2U, 0x88b55b5d1e754beU,
  0x565fee6668d0d054U, 0xe67665b69d850782U, 0x866c1b42e13f172aU, 0x62d8e7c25c65ec87U,
  0xed83e59471c58535U, 0x14848209c14b3cd0U, 0xd9f7e482f37bf92bU, 0x9d8911d94f9d18f1U,
  0x6e7e9d412dc234b5U, 0xe6c50d04c10f5e33U, 0x5e7547210b1b1c38U, 0x13f5a29ab931a715U,
  0xc4a0ef3833bf49cfU, 0xf87379751fcb3baaU, 0xd264d5d784d01e15U, 0x3cf0d1c7728f3e7dU,
  0x2185f5b5af5b4510U, 0x5fb39f7b9b6a6c4cU, 0x63fe72a0336ca4eaU, 0x1fb885a5a2ca124cU,
  0xc4356f9f9802c036U, 0x559c3fa8a746319eU, 0x266b7391a1b2206fU, 0x61f320394a7c7eb3U,
  0x87be2d58ac53b684U, 0x42272e7719b18603U, 0x6c2a9a50a9bf761eU, 0x7dd0b9665b4c01fdU,
  0xa67a8035e588699U, 0x4dfb52e6109be8U, 0x882b8eae3d206ca5U, 0x65d64d56ba74694cU,
  0x31b68807f3a6bbc9U, 0xbef66b6595dcd95fU, 0x4e5249f5356b504cU, 0x6f657d4b37cb6728U,
  0x95c8c48d0ca4c588U, 0xb4a1c6e425c09295U, 0xc3a6ad3ecdf2995bU, 0xdfe195d1bba85bbdU,
  0xef25d28b2989418U, 0x8c6317be0bb571cfU, 0xf613e46294d0b130U, 0x22d235615bfb0dcfU,
  0xf487cc019f3f6d82U, 0xbdb3db31e70be86dU, 0x51a7f70ec7014cc3U, 0xedf842b198f8821dU,
  0x3d8429689b912af9U, 0xd0fa484d3a439eeeU, 0x429c12e3c7a22db7U, 0x5311b46bbf1983f7U,
  0x527801c936d29025U, 0xa69eeb66abdc08fdU, 0x38171ce9ee98af76U, 0xf7d6acdc6726a468U,
  0x7f389f8eab3f4514U, 0xa2650b133cacab8aU, 0x6823824552d664edU, 0x55c713c237d551afU,
  0x8e8f1bf9e3ccc7b5U, 0xe3ea0596d35782fdU, 0x473eaf9716d3ce37U, 0xd411f4099da6f29dU,
  0xb429851e50cae948U, 0x18ce31c2d3dd0b23U, 0xeb320d43d2fe1441U, 0xd3488a592165977fU,
  0x74bf7b9512791dd8U, 0xede65fbbf9ea210bU, 0x19b3f2271421efb5U, 0xa538ff8a3ddfac0bU,
  0x865322a422adbb8eU, 0xe7af61a38acb68e3U, 0x24abe75c9b02f206U, 0x83f374f310efe5d7U,
  0xd6cbf31ab4c2e57cU, 0x94646c654a65d963U, 0x449b1be1bae16567U, 0xf4b90b1c782466ccU,
  0x5645f9eb5191be54U, 0x2d0ac2e316ea535bU, 0x4059e9a4d743b5a3U, 0xfb7e77e2ed6f8a9bU,
  0x59c9af70ef1ea331U, 0xeb29e000b0785c1U, 0xab03112cfbe56dc5U, 0x63083d1b7d54b37eU,
  0x72f71790f7b2482aU, 0x1cf0dc1acf5739ffU, 0x3ef0df3b21e817feU, 0x14b4d75bb3471b19U,
  0x830d1055e1a8a092U, 0x4762c203d57a2372U, 0x1c4b3a59ba295cacU, 0x7115ebea89a827e6U,
  0xdcaa0f81d563b7c4U, 0x76158e14b9395930U, 0xc7a52750d38c2d7dU, 0x6c0c4ab5578aebb0U,
  0x917b5d71733eba31U, 0xa334ea4868e8c58dU, 0x2a3db1b0bb7e511eU, 0x9d97e007e0b80fceU,
  0x36e4a99e02661d34U, 0x1c95045d9b6ed29eU, 0xbf55304f400c1f9cU, 0x9dd6eebee5e2a1faU,
  0xe73abe76b01edf6aU, 0xf57b63f021c13d6fU, 0x825933b5da542176U, 0xfc0b2a25c95d2320U,
  0x6a526c1180b4935U, 0xd77cf0311e355646U, 0xea14ff4a38d403f2U, 0x60d76d96eb44f529U,
  0x20f6d567a33e8d88U, 0x2884d5975b965928U, 0xf08b1c42774e438U, 0xc3413d71dbb4e0fU,
  0xf6e12ca194ab640eU, 0x2ed027ddec3b69f2U, 0xf5c800f90ff9ed52U, 0x953d1f4a4c1b7018U,
  0x634f9206fb389830U, 0x4e56c48bc3a734c5U, 0xacfbd93fdebc295aU, 0x45d4ff8a46fbdf5U,
  0x61e4fb3bd005ce77U, 0x1f9e14b1d384f728U, 0x89a3cd79b3db6bf3U, 0x765638989dfeeafaU,
  0xa9612ffe83cb2871U, 0xbe027f8efb94407bU, 0x3ddffffff8adU, 0xffffa6f700004eaaU,
  0x3cd8ffff962cU, 0xffffb9da00004d99U, 0xffffa30efffff2cfU, 0x41bd00003a10U,
  0x7db80000243dU, 0xffff7fccffffd53eU, 0xffffb8eaffffd5bfU, 0x5ed4fffff066U,
  0x2cda000012d8U, 0xffffc9dcffffc3f1U, 0x275afffff074U, 0xffffa53c00003f6eU,
  0x1031ffffb255U, 0xffffd222fffff65aU, 0x77090a0ef5258dcbU, 0x2f6c30bdcd0b1ea3U,
  0xa45b6a0637910f69U, 0x6199426ef1c9a081U, 0xbe75196a72e86b6aU, 0x6b2690e7930cfccdU,
  0x13818351edda966fU, 0x9700d2f8a6d4a5b0U, 0xe6fa448e68c368d5U, 0x86757e137b7f2bU,
  0x30c788bbb42d1f9fU, 0xc87dcad0f263c51eU, 0xa154aca96bf0a37fU, 0x22fce1f71279a0ffU,
  0xf6bf566f20840667U, 0xcd3eaab2cd5a7548U, 0x21ccd516fcaa9cb7U, 0x2b2d1eb97f34fa68U,
  0x7bb702adfef38698U, 0x5528260b17d98a42U, 0xf16d611217c65829U, 0x96c7b4a167fae468U,
  0x2d3775f60a0a5c4dU, 0x9d4bb131a57fbb09U, 0xb9de699e1f9ce1c2U, 0xc123061452d28f7aU,
  0xb1cdda5c8dd9d1b3U, 0x5a4ed7a98150f1ffU, 0x2193e44957bd05fcU, 0x79a724f4e5e31a8cU,
  0xef7170f83d85e552U, 0xcce678637338bf7fU, 0xc5d68111c7fdb770U, 0x8c457ee7cdf016e2U,
  0x3a7974372153a8c1U, 0x338a23443bcd1b43U, 0x4ce130826f39ecadU, 0x85d1df0a69a51824U,
  0x4c81f38b3069dee2U, 0xe8b46a3df3efa4b1U, 0x3fcc619fd5ed812U, 0xb86481a9b15b940fU,
  0xed737ceb83395e84U, 0xf82a798239c62d17U, 0x135c30631dd0b09U, 0x265dcb4ff8661239U,
  0x70d36bc73b30da74U, 0x7ffcf5fbd78d7c6bU, 0x40a7c5ff2301d30U, 0x1f20f36a839e06a6U,
  0xb8c63c7fd8357541U, 0x9a482d0a722d211dU, 0xcb1f559e3ba8d254U, 0x479f0eb3dee00a33U,
  0x49814fd3ded55d64U, 0x90ebf12e874f971eU, 0x956fd4219b2062b9U, 0xb8fb867f69398be2U,
  0xc8b6d8cdda2d5bf1U, 0x6108523b047f19eU, 0xc170a5e23cdebb4bU, 0x8c0c4632caa2dcdU,
  0xb3aba9af74db93fdU, 0x8e8dc81d4a1e47fU, 0xd2736538965c59faU, 0xac052fa6f09d72b4U,
  0xe8ee8b7fe29e9e67U, 0xf322de6eaaeac211U, 0x536f9616925f7f83U, 0x3545f40fb6df2f1cU,
  0x38014ed744b5dcaaU, 0x5442fdb32079c493U, 0x1453c1a1d5dac13cU, 0x1e7276df9605399cU,
  0x6df21a84ca814b0eU, 0xec01ac0615c93f0cU, 0x95c567665b3a0c29U, 0x885763eb8f8c5553U,
  0x38610f2c2acff9c8U, 0xa8477f1fa659ca28U, 0x20b02fbfe882dec8U, 0xb89a88ac45ca026eU,
  0xdb86cf97c77fccfeU, 0x58736042d7148655U, 0x7f9497f3cafeb40eU, 0xf7b747c461a7829aU,
  0xef7fbf9821576b48U, 0x518e0487dd2ac1d5U, 0x423df1e91f86f981U, 0xc5f30a7fc7d6a31eU,
  0xa4772388ab95f512U, 0xa6654e7f5dcaed7bU, 0x7eca96f3d06cf66U, 0x6b779da4947fac16U,
  0xb8031897a9455f4dU, 0x1a337a0308cc7f0bU, 0x4b93d3079edb2020U, 0xe1f8272999f3dd3fU,
  0xf5134c2c93f73058U, 0x83533668dd9baa7fU, 0xb983be68cd568ad7U, 0x8e5b618810a83b72U,
  0x7fded42e85bbf275U, 0x9a88d16a6a9f0e52U, 0xb2957bb630f181b9U, 0xa2304e6dac6e804U,
  0xa8ba346a9175029U, 0x584d4c4757a0ec41U, 0x7c65856a2411528U, 0xbb7ff61661353b09U,
  0x7cc88d6505ea776bU, 0x440fa7a9ef10e315U, 0x7d7ecb4450f8f1ccU, 0xd9d43b70da6d5b15U,
  0x37287fbb05bdd1a4U, 0xe5eef12ba596e100U, 0x5660b80a632c8e38U, 0xef4d67af9c81ffc3U,
  0xad3f9b554e11949eU, 0x95a60b98a3f097eU, 0x328d3177527fffc4U, 0xcf03c55663a21c40U,
  0x27f8b986e8596192U, 0x563d34d04aac453bU, 0x29449b000dc96828U, 0x5b99f38114f1f5b7U,
  0xf22b7beccdfbb71bU, 0x7b1a783a87cbb988U, 0xbc42dddcc0a015c6U, 0xb5bceb086092d7acU,
  0x25c5402167d8557fU, 0x6f1e854cb2f2baf5U, 0x94a027bf4f7fff14U, 0x26dfaeef5f414d79U,
  0x4f376003623410f6U, 0xae21afb65311e5fbU, 0x7624eeb742aeef2U, 0x68f35b4f206c2f25U,
  0x5fe306dd4eb15a1bU, 0xa437017f1f5e03feU, 0xc990ed8bf47c2333U, 0x55dd81cd5117eb3fU,
  0x14519d9bec259cc7U, 0xb6cf797955648b5bU, 0x8110425c005ed033U, 0xee582f73f505e542U,
  0x6191e9852116ea2cU, 0xaf2efb015ba620ceU, 0x89862be8209df9edU, 0xf9051a51e8243c88U,
  0xed7896ff667b8c76U, 0x7f8b86d9300cc6c0U, 0x846d1f39811b4734U, 0x8afbc1b0750d3938U,
  0xe25f7086ad72dbf8U, 0xe9d9b5871136f441U, 0xf2c99fc875467448U, 0x45f370b03a8f947fU,
  0xc89dfb32e3199e90U, 0xc2389e873d568f75U, 0xed828d8ba89ce145U, 0xaf49af8881681fb5U,
  0x14e90613528d0e0eU, 0x35db70c5a97d8edU, 0x1a6ae77f5f069cd7U, 0x27843f7497be028cU,
  0xd7fbed2070afe9a4U, 0x5946bd0a157db711U, 0x2415a9cd6fe2026fU, 0xf530c2cbd67fb82fU,
  0xff7378c32bbdfd72U, 0x447950ff6e8bde9U, 0x8f96d83a81c816e5U, 0xaeee4db695ed44fbU,
  0xde3cf46683bc5a46U, 0x79652cf086bbaf06U, 0x81df21c9db2052f6U, 0x799ac7a646e72fbdU,
  0x849353e2dc466ddeU, 0xe6e0588c12c81fd7U, 0xc460c32016cdbdaaU, 0xf6f25cb95e5d7fa8U,
  0x4661ecf91ce958e6U, 0xfdbda68f53cd0e74U, 0xcfe835ec25fcb10U, 0xe86c51e11968abd7U,
  0xf0b467dfac9950e3U, 0x70e67fe1b483c43aU, 0x7c6858f4a499fa32U, 0x81e1bd5b351ff669U,
  0xcfe2e0354c539b26U, 0xb5e63712d8a55ebaU, 0xfd60395db5d4588U, 0x55d25f4f279be609U,
  0x76aad38743c1d0ddU, 0x73b67fa562e05922U, 0x2be3a31703ecaa36U, 0xbc6c5904e67f0f5bU,
  0x7a9fb3fb3477104dU, 0x7c225a201cfc0396U, 0xae3af37f6cca18a3U, 0x84b359309ad4de8cU,
  0xc9b7f64c1730d78aU, 0x172d53a22a8afcf3U, 0x9ae41aed137f349aU, 0x904ec961ff2b8ef3U,
  0x6fb55c4ee0d9dcd4U, 0xf850970c7ff5c79U, 0xa7e2a5a06838b247U, 0xb12654d0ce64a247U,
  0x5da4ec1f4ba95597U, 0xbc81e37acde3931cU, 0xb3ddf77a4a31ef4U, 0x5d62a0a5e9c3e607U,
  0x336ebc85ef1faf87U, 0x81aa3dc81e38c2fU, 0x996407f319bc888U, 0xe85d29d94eec4774U,
  0x3c479a07304ca210U, 0x1e59128cc4535819U, 0xce16baa7767fd248U, 0x1dcc1bfa7d6ba76dU,
  0xbfbbd275b017e28dU, 0xb7356eb9a0c44157U, 0x4a2a10b8be5f7735U, 0x94199af88d324f97U,
  0x2c87c6238d19f41cU, 0x9d2e816a00f3e14cU, 0x1baa6e9ece4ea1bdU, 0xfefa6b605b02c1e5U,
  0xb19ac97f5540c653U, 0x74c593725b7713f0U, 0xebf7d61dd7c4662cU, 0x78cd86e95a38cf8fU,
  0x8123bbed2def7898U, 0x3e83861329183d18U, 0xc12840e8227fa6a5U, 0xf1e4c7aa705029bbU,
  0x9aaaebc44a7724e6U, 0x89e30ad165d0da8fU, 0xabde86f94d2930f1U, 0xfa0257ebb7689939U,
  0x36cd7cf9f7d62fd1U, 0xab4af327b17f67beU, 0x9c343445515c5c83U, 0x8ac3e533d1951558U,
  0xf191260ba35869f9U, 0x2b7f9bfd1a5ed44fU, 0x27e1f27765c85cc6U, 0xebe04cd5b22ed6faU,
  0xe30204e31a81142aU, 0x2dc0b04351738ee3U, 0xb1bf404106f47736U, 0x640134eb3bfc9773U,
  0xcc6b5f9be27b6cf0U, 0x8e271930a006607fU, 0x1d998fffed97eU, 0xffff65dffffe23cbU,
  0xfffe5534ffffb173U, 0xfffe6ed60001ae80U, 0xffff444e0001a040U, 0xfffe6727ffff0b24U,
  0xffff444e0001843fU, 0xfffea8230000255aU, 0xffff89db000001c5U, 0x544000010ea2U,
  0xffffda0900003cc6U, 0xffffa3250001b574U, 0xffffb43effffb2a9U, 0x13bd2ffff23faU,
  0xfffe3dc20000d4b3U, 0xffffb21d00010e63U, 0xfffe7021ffff0fefU, 0x1228000014de6U,
  0xae970001070bU, 0x284ffffe454eU, 0xfffe983c0001f21dU, 0x1548800001694U,
  0x299b0000da9eU, 0xffff824a00015664U, 0x1d6caffffd71dU, 0xfffecbc100004578U,
  0x2657fffffafaU, 0xffffa8d8ffff9acdU, 0x1a8c80001a37dU, 0xfffed3f0fffea3b4U,
  0xffffc199fffe675fU, 0x18a14fffe3f4bU, 0x14cffd9c5168a08fU, 0xdd6a059b0981b09dU,
  0xc3da32c63cfceb01U, 0xc4cc928fe3465eecU, 0xf4dcb2ec4e70bd67U, 0x4452d203fb179593U,
  0xb1d1d0c35def8253U, 0x6f68d86b05b8b6d4U, 0x4853c2c95e4b69e1U, 0xbdfdcaefaa42492U,
  0xa15eceffec7f5ed2U, 0x6ec5a13855173338U, 0xb4f508b7dc2fd4dfU, 0xde86a944da35c93dU,
  0x1c86a1a31b7d5173U, 0xaf0592a89ddd3431U, 0x49e21781b4fb92d0U, 0xa82755206327318bU,
  0xf4743a6f5f204f91U, 0xb8067ece0de601fdU, 0x772af78addc61861U, 0x1b3da52e8c42940fU,
  0xbeecf0a566b95eb5U, 0xf92d5ade34140f20U, 0xe0b42b93da34ba2cU, 0x8a65f377fc3ae131U,
  0xeda717269c3b4cfcU, 0x73e2db7df204dd7U, 0x3af81f78f6a9816bU, 0xf5519feba858153cU,
  0x5fd72005a30ab152U, 0xa70cd49131e6b537U, 0x6da726cf4ed8c140U, 0xd9ed50237e9ac830U,
  0xf672a070f181f9e4U, 0xb9509549d196446bU, 0x228cb2943dbaff57U, 0xa465159b77e70644U,
  0xf79b2f5276761326U, 0xb399d5c583ceb42cU, 0xee10dd5802355144U, 0xef84f58946db5ff2U,
  0x8d652c729978b121U, 0xbebb212ec45a458fU, 0xb3f9a158e84ca9bdU, 0x60db6cdedb3000c3U,
  0x6f8e15029aacb90dU, 0xe148e2b381b942adU, 0x37580f2b5fb4b8bfU, 0x4afa30a0d422649cU,
  0x42f1815af3ca2e20U, 0xded8d671dc03dc16U, 0xd88609d850f6e69U, 0xb7282ea70d822bddU,
  0x119001275fffbff4U, 0xe3e621a1156c701aU, 0x23941abf06c7cc75U, 0x328c09bc7c4a6a68U,
  0x9a14b89de13590b3U, 0xd0b492113fb87f9cU, 0x28944a1669c8a43aU, 0xe626137340a30f9eU,
  0xb8b4727277becfe1U, 0xcce7296484d61ed9U, 0xe0a6b2915b8590daU, 0x5e99ced24e2969e6U,
  0x85db6c4261e0587U, 0x182d9a21c63930d2U, 0xee7ecd7b7aba9860U, 0xef655ed81c9e4149U,
  0x4673511cc80cc4acU, 0x7f9faa628c726cc7U, 0x9c6b94297c735f57U, 0xf0a72d6de85d4360U,
  0xa4da5c449e9ea3d2U, 0x1c1bf94d4f9093e5U, 0x2b745cd1865c1702U, 0xbe080e5ad3b5e862U,
  0x171d36ae508afce6U, 0x6b7e752618fba881U, 0xad1b16d729cfbfd5U, 0x17890c24c1f1d1e8U,
  0xdc264b7fbbdfe872U, 0x3f9d297eb5f7cf01U, 0x1f8638f67b924349U, 0xf359d4277d44ea50U,
  0x9cd81a8f2e7629dcU, 0xb6cf1d780e96bbf5U, 0x3efc4c84e9e2d267U, 0xa4838b299cedff6aU,
  0xecfbf46231078767U, 0xafc7f0017a53ff81U, 0xbc1ad33a94241b65U, 0x98171afda82b4593U,
  0xa943fb0e7e19dd63U, 0xdc277470ba4fc268U, 0xf6921a1884a77ea3U, 0xbe81a86e26750ea2U,
  0xb221867081976a7fU, 0x9b86fd1f534e4de4U, 0xc0331f13d4271fa2U, 0x8e0a2574c4d67cc8U,
  0xa95a0a9a44c3d81fU, 0x7ba8f66f05593fc9U, 0xc07e6a68291cda65U, 0x6eac081035e04b1U,
  0xcd73d96e4574d01fU, 0xde7fc95155fc33d6U, 0x2f70a5142fdce7f1U, 0x9f12ef1d33b6d590U,
  0x8cddbdb2387d2262U, 0x7449e6eff98b179aU, 0x6143f6a6258788e5U, 0x444b9f21465d6b44U,
  0x5ea275a27caaa3e1U, 0x974a7b5da86b5286U, 0x21e647f6ad55c13U, 0x83afd984d45b4c68U,
  0xfc4b9c5e964a702dU, 0x179dcf42a2ff242cU, 0xc4e926ebf94efeU, 0x6534e20242aadcbaU,
  0xc088588bd71b8a32U, 0xbb6153dd68dc3cedU, 0x3835dfd9908ca403U, 0x662ebc7fe0202fcdU,
  0x393f9544fc1d28d7U, 0xbbcf5d3e571e7f54U, 0x3dbcc2d1249f29e0U, 0x395f2a0f695ea516U,
  0xf4bf358c2b6ff83U, 0x10bff7254872d4f2U, 0xe8c1b803aa2968U, 0x6017b66dca1d3fe4U,
  0xd1766ae32d7f02d0U, 0x60b3c8172c3267c4U, 0x9f3bd3169275f101U, 0x94ac89abfce22508U,
  0xb7dc5b55f8dc989bU, 0x8f2f2789274fe44bU, 0xd15e3f43a7afba88U, 0xe42c4ef931e9507cU,
  0x5734a60ab4153f7fU, 0x2d890e626411aacU, 0xbc9e2be56eefe94eU, 0x84986f51fdcaee0aU,
  0xda8bd0009c5298c8U, 0x46263531e40875e6U, 0x817d2e07538853c9U, 0x511734ad973d6997U,
  0xcbf2963e180bf202U, 0x934099eee3fce2b8U, 0x4d0ff83f5bfecfd6U, 0x7cf65f9d981f07deU,
  0x4659dd06857d4cbeU, 0x141a3fc9b10c25cfU, 0x7f79e933c6eb8ea9U, 0x42de8c9bc0d397e3U,
  0x3218b748cb453429U, 0xd75a4081844f6a69U, 0x4bc1f174baf002a2U, 0xd7e6ed7211aa69c6U,
  0xb3db8e2a7575078aU, 0x289273d27a02af5bU, 0x7ff85a9d303da902U, 0x5df84558d2e2735dU,
  0x8acc9ca0c022af07U, 0xf8cbc2f34c23f9e3U, 0xdd46bc5ea3d12d8fU, 0x2bb221c2b80326d2U,
  0xf0423eba89079ceU, 0x85f9c3e8dc464bc9U, 0xdc7181a171354fa7U, 0xd6a3349984e0d369U,
  0x32c940046b5d5248U, 0xd189f75045299944U, 0x8f86251e88224251U, 0xfc2761644063ccf9U,
  0x76f8928ab89dd668U, 0xd8c935817218fd56U, 0x6ed3ea4a1e1a065cU, 0x3e5730cba4863800U,
  0xcad1134b11e87a54U, 0x68a7b7457503c313U, 0x8fbbdc2f832ba69eU, 0x8d9c9eb2ec0db1b5U,
  0x3a7f1016294d3e1fU, 0x7a7dde73fd4bdc14U, 0xcab6e1c27c98ec29U, 0x7a5b423db933df46U,
  0x26eb4c4da3da82b4U, 0xa837fd1033753ff3U, 0x336521eb4986d1eaU, 0xdaf1dda0df0ecc47U,
  0x9c4cde195032ca12U, 0xbedf9e5188e81a41U, 0xcf84bd4647b1cdbbU, 0xaededc40e024a55aU,
  0xd16da72f925f4415U, 0x664aaa38b27f0ee3U, 0xdf6494d135813ad7U, 0xb143b7f18ae4c98dU,
  0x23f8abd958b0596dU, 0x7c8ccab7eea00b76U, 0x52da49ec7b8b6c1fU, 0xe8e64de6182de403U,
  0xa5c44802c86005c2U, 0x8b4fb2fd1a7b7664U, 0xacf9f64521b97ec8U, 0xa8826b20401a9bdfU,
  0x6d9932c036f6217bU, 0x57ea2d6da83c7952U, 0x59fe099c8b011002U, 0x7859f1a0ed92317fU,
  0xaff0c16596fec85eU, 0xbb6016599b047d7bU, 0x686774b302767ce1U, 0xde60fc620f29aa79U,
  0x52885a11d402c08cU, 0x20c0d9fb062a1834U, 0x2727cad16b7e0341U, 0x4dd6aba1e0a7af69U,
  0x3f41c6c0ee9d7115U, 0xc669b95c527481ecU, 0xdca15b4eea37f2f5U, 0xd78fbf75de65d277U,
  0x54ded941d26f1449U, 0xaf5cea4284a39948U, 0x24d9c08d39dcc6aaU, 0x723672f0c1aa7f11U,
  0x2deec50105d38637U, 0xd74d0ea898a085d4U, 0xe2630ba645e1b914U, 0x3b9284bdd3f7b63cU,
  0xc8fdbc3fd91e0f4eU, 0x1f694e49fca75465U, 0xedd8f0c81f02167bU, 0xbc74476aa3cbd49aU,
  0xc499be06eeef6428U, 0xec918e7f91b06fb6U, 0x279760f29c5bf610U, 0xe34ebd32c82147dfU,
  0xe464c6fc22383395U, 0x16dd0a820305e2b4U, 0x6516b7359ee22a54U, 0xb7b07b768e3655ebU,
  0x65b32ad5cfe47f65U, 0xa68d2649dd9a7f8cU, 0x2126d0d85534fceeU, 0x726036f48207daaaU,
  0x2d579d9af4a26714U, 0xcbbdaaaf06b77735U, 0x3cf281457801107cU, 0x3774723276c3a32aU,
  0x2ccb8a457c3dc61dU, 0x4e02ef7c0ddfd237U, 0x4f65fe60500baf1dU, 0xe768f39d4e87b21fU,
  0x7ae46e43fdb51a32U, 0x3be634e73bcdc9e9U, 0x5d83155ae5522df6U, 0x92047a0cf5ae8cdaU,
  0x7688768581c415b5U, 0x8ff6690f51d785f9U, 0x2aa599cb8246a4b2U, 0x416e502559282987U,
  0xb23977d4068e88aU, 0xc0187648b827a576U, 0xb1830132d4c8774cU, 0xbc0f1c5db475c42cU,
  0x9eaa3aed2b342c9cU, 0x89e8f9827f1f4665U, 0x76f391080026e04bU, 0xb49830f6ec2f1936U,
  0x53ddf4c8cdb9ca29U, 0xc07a0caf37097b43U, 0xcd1e8ec32e97f860U, 0x7678c657ed6704a1U,
  0xcc857c71ca7c81e3U, 0x8bc58c73acccde64U, 0xe241dd3c01366e69U, 0x4a052039effeec54U,
  0x5c0baa7738929f3aU, 0x1b0e24f747216312U, 0x48c00d99565a3e8eU, 0xb17c878177bd075U,
  0x3b7f6921c304ca2aU, 0x790a277618e5c7e5U, 0x94657ea07522e774U, 0xe548d60587f3f3c7U,
  0x4105fb850fff982U, 0xbd7d316456de8148U, 0xc97e6ac88cb6fd65U, 0x9feb6715b9fb202eU,
  0x49ea1b1ba9c6b97cU, 0x782392d548ab9838U, 0x50b945e583a9117fU, 0xcffe2c9c476121d7U,
  0x13fc8ed9f2469f94U, 0xd7366f5606f83915U, 0x215edc068c9d3996U, 0xb8756ce37fb9cc8cU,
  0x93a7152b51d834aaU, 0xf308ed68d931f1c3U, 0x68bd75a70bf8c0e5U, 0x4aa9ca7ed92bee69U,
  0x9faa36074c256cf9U, 0xc59c5ceb98de5c1aU, 0x26b34975c80a4d00U, 0x9d48e878f247f2aU,
  0x1f3002d2fb83c3eaU, 0xe85c4d68985abd5aU, 0xb31ad3bec4f31ed2U, 0x3923aacfe8e8d35cU,
  0x96458a637f968299U, 0x2fcbcef2aa6ef83bU, 0x7f3fc492c8aeaf87U, 0x5001fe4a6307a2d5U,
  0x6638ea6946eec99fU, 0xc00f8c279a2ccb5eU, 0x706a5ee4a6810bbdU, 0x43b52c3711198abdU,
  0xb74731c35715dbc3U, 0x1b61efea424c6251U, 0x76d23d5084761036U, 0x9ced936aa4a1758fU,
  0x72192d0af77c96f4U, 0x949d755cd82e0e6dU, 0xa0a554de18787a62U, 0xed3d4fd211577614U,
  0x321d55a94aea90bdU, 0x7e03991ab29045b3U, 0x3be589f8c5cccb78U, 0x81315384f0ba11c0U,
  0xe983e247aa26caacU, 0xf03ad37859dd3f70U, 0x61b5d33c07e597fU, 0xac52d0ba3b79d446U,
  0x2c92f2043a542dbcU, 0xdd8f78a78c5402b4U, 0xc034ea5d70e7e541U, 0xaf1ac64a283882abU,
  0xf4799385ed829bf3U, 0xb3f085194d09fd31U, 0xa24fbdcd506e32b1U, 0x28b1f6c590d09414U,
  0x38c835a18845664U, 0xc2f1bd14464d8d63U, 0x28c1511166a7eb71U, 0x292ef7b24c26f4b3U,
  0x14ab8167c9e7ddbaU, 0xc09802b8be99d82dU, 0x2de2a9dc85745eedU, 0xb4fc4a59edf17161U,
  0xfd1089dd79ed26eaU, 0x5edcb0d1bb938e4fU, 0xcba4617f3c58810aU, 0x103235d98ef1b735U,
  0xf5705056205e3330U, 0x7a5eee35b35f443dU, 0x980cc891eff45d1aU, 0x60963e18249e46f9U,
  0x2a1b4219872912c1U, 0x2069bd15224bb9c8U, 0xac521225b08bc6d7U, 0xd6ac9a25e17f36e6U,
  0x26d9c940770427cbU, 0xf477b288a71bf4b5U, 0x4848eea217dd34aaU, 0xfbe6519de218a782U,
  0x63b47fd5e3a4df65U, 0x321533599d3c0ac5U, 0x635003b9552170eaU, 0x46674d133cb9afa6U,
  0x5105c599156786bcU, 0xf527402a68748518U, 0x2c8c883f36366a88U, 0x2f4e19eb6c16b50bU,
  0xf6c7d08d86da31d4U, 0x3123f34df8abcea2U, 0xe9094639c17e128eU, 0xd07d08e879fb0db0U,
  0x835b281c817a099aU, 0x6edd75041e52bc6bU, 0xa65bc723149861d6U, 0xfa8ad88d44d72a83U,
  0x99c6408ce49b0405U, 0x9a3b594e82d96411U, 0xdcb94cc1a51b4f89U, 0x7f4a2252c4c38c13U,
  0xcf19611d57281d6eU, 0x218cfe055fe8a1f8U, 0x41b0b9fbb9fe0059U, 0x3a6db8383e8c9933U,
  0xf349452595e9ec78U, 0x93607dd9ebed8204U, 0x5df1c04b484ad62fU, 0xfa906e114eb8bfeU,
  0xf406bc606c4db481U, 0xac0d3c5575febd96U, 0x4de134898b5b5b68U, 0x23662c0ee0c35d66U,
  0xb3faa7b9b1b708e2U, 0x1419d5f9c0ef4ce0U, 0x288a9bd30e23f0e1U, 0x5708aa9bf929a27fU,
  0xbc928fb0f1927501U, 0x410136e28129a2b0U, 0x28816f494b9e17f8U, 0x1f47f4350e7d148aU,
  0xa05247bb410177fbU, 0x2000b4ee2ee96fa6U, 0x3e0edd5893998420U, 0xd4eeb8972a8a5a7bU,
  0x24f449703abb01c8U, 0x44eb0389ea4802d5U, 0xac7802a02bafb9fbU, 0xd29e5af105ffa36aU,
  0xe50c69b4dc16089fU, 0xd532f13e330830cdU, 0xb8a3fe8c3b9cf9fbU, 0x9163c1483ec178f6U,
  0x1a917f13173064adU, 0x8326c376eeb07db2U, 0x91a08edefeaba722U, 0x1e5385223603d95bU,
  0x7865c6deaf5dae15U, 0x841bba3a18036b3dU, 0x93789bc551d43f0fU, 0x8d7bcd1e7fcff04dU,
  0x96eeccf1bb8cb34cU, 0xbf413ec305048735U, 0x61fd9ca72badde77U, 0xc605a6da43cc2076U,
  0xda165e2f5101c09dU, 0xfbb5ac74015bc4bcU, 0xc7669cde13efca10U, 0xbab4a5f3a37f2bdcU,
  0x97ea7353f82aa3aaU, 0x2e848d574f5021d6U, 0x57c84d1ad98d8b91U, 0xabdd1fc2b8d0a80aU,
  0x4b550bdcafbc7b47U, 0xc4d0b6f59cd69e5U, 0x8118a589bf6e019eU, 0xad2f8b41e1a6c1e5U,
  0xd13072d7dcd0db8U, 0x2241378455a0c9f0U, 0x7fdd1d99acc25251U, 0x1a49b04890934337U,
  0x556923bd9eaaebc0U, 0xf353602c8c9eb678U, 0x229f8987da7ff957U, 0x6536e0bb46a88fe0U,
  0x4f8974e4cd5d4ebbU, 0x9d5035cad1ea39a6U, 0x9fd853a9750aca41U, 0xcd34155465f8a6aaU,
  0x84953bbd2182ffc3U, 0x3fecb8762289883fU, 0xf6d951a73cfe5971U, 0xe8260b11e3ae6ea6U,
  0x85cc1e0f3437d093U, 0x3a7542527f432c24U, 0x3d31600b219feeceU, 0xb17fe83a8760f897U,
  0x7a0b949f0f06eec7U, 0x96ff98e2f8ae0070U, 0x73d2e5046d1f52e7U, 0xc0a4fb6dc56fc327U,
  0xc7da29cdd87cd6a1U, 0x372334ad15f4d0b6U, 0xfa66d81b9581ed30U, 0x6e9fec57b63dc261U,
  0x49ae473fda09d3ceU, 0x8c4920848515e42fU, 0x8891506dd7974ea7U, 0x4d8235f80f0e182cU,
  0x74bf538cecdbba43U, 0x162213a973002ca2U, 0x108c681e0406db0eU, 0xa582d15cbece79cbU,
  0xde1d59ce2567c666U, 0x9b9b9ec1e93a048dU, 0x438e6a1f736e2e98U, 0x5cf956e997df4c1cU,
  0x5c586032ac81cf59U, 0x94d51592954cdf8eU, 0x19ad6804f3ff9fa1U, 0x215b46349a93824U,
  0xa538d288d4142f8U, 0x9562d0b98ff0933cU, 0xd12176a53ee19f52U, 0x50f25b190f7289afU,
  0x5ea68149380fc1b3U, 0xd2d6b2d07d3b71e7U, 0x3972e535a6a842d4U, 0xfba53141569bd2aU,
  0xe0bd91b87f136e8fU, 0xd8ca50997e672396U, 0x13b0185be35af20U, 0x7e922f2742713467U,
  0x29153d7a02541538U, 0xe5d445ba834ee57aU, 0x274b25f8f369a8cU, 0x23de40a679ecd831U,
  0xedae869e3b7c52efU, 0x78afbcd931b94cbcU, 0x6b5cb4c99ee15764U, 0xf203ea428a3d60aaU,
  0xd567f026c7ba7f4dU, 0x41b3ea2f9dd7382eU, 0xf5c5429f2097b128U, 0x3fe316a56de620efU,
  0x38045c4d07af1e99U, 0x7fe1b06ce06ad52aU, 0xcb4e5cea0bb03911U, 0x3a19c1980c53b777U,
  0xd12c6d6b094cb60eU, 0xeaf4197d59434203U, 0x899101796f3a2d6U, 0x84ca36e914f89fd4U,
  0x45c4b0274ed86a3cU, 0x930352017f90525fU, 0x2826249b904f4c15U, 0xa6866aa7a0bfc838U,
  0x6b1953450a6a2c42U, 0xf10ec0862952c9c6U, 0xd1020709ed1cd16eU, 0xf47faa517aea3dbcU,
  0x2f9a922c5d6db6e9U, 0x2a5c8ee2b808e768U, 0xe0b7763234fea66fU, 0xbc9a23b2a2d2eb0dU,
  0xbd157ef98e945222U, 0x6dfb667cd5e6a6adU, 0x64e93d3d1f0bd8d7U, 0xe5ce67a69d57c3d7U,
  0xa9d5399f37bcfecfU, 0x7f45a9c4d2c10f94U, 0x6b4a5c3f2b73c625U, 0x5d407267ddb866e4U,
  0x380f02db2a0fefbfU, 0x176a3388308d41a2U, 0x4f4626d4232fcc3aU, 0xdbbeb8632cfd2862U,
  0x834e0f44911c43edU, 0xa54f8134269e0deaU, 0x5cf91eedc6a524aU, 0xa610aeb9fe1bd90eU,
  0xc3ee9671ad193d79U, 0x9e389397dd72da13U, 0x9b817c6adc75aabaU, 0x81704a4a5883a807U,
  0xdcd68c8b04e30b72U, 0xa2469d538fdefbc1U, 0x621ee0db3f170e76U, 0xe7674c11c756aabdU,
  0x5a1e723557ff7c10U, 0xd6e6df5e3a7d6ae2U, 0x7486bcfcfee68878U, 0x9dab4af94b133b81U,
  0x45396b36d583dad2U, 0x4c0c2149fa9a4d0aU, 0x6329963e38a20812U, 0x30a16adcd3d460c3U,
  0xb487b1a779240a74U, 0x6e5884d9dd19417dU, 0x610c1942c7303839U, 0x1f54ef0a03b3686cU,
  0xb70f91fc42c612a0U, 0xb2a476c76c4721ebU, 0xdf835170abfee193U, 0x9e864b7fd11d37e9U,
  0xd87bbcae9d970de6U, 0x953b2cec46866c3fU, 0x8ad816b5aa649390U, 0x52914728a2822c06U,
  0x3198df8117cd46edU, 0xba07f7e9bb9bff38U, 0xe9276c31024e734cU, 0x26a4a41482ce7ed0U,
  0x5bfb25d4ca25a77fU, 0xa76829574f30a508U, 0x51254cceb313743eU, 0xe06b5e8cf8756c9aU,
  0x4fbc8c2305ebf3f4U, 0x9f1b61878218d0d6U, 0xe5ea7102fe833a5eU, 0xf9d82929d6c27f0aU,
  0x69f99a1e0c2e9b86U, 0xa082342214406c2U, 0xcba21243484f668cU, 0x25fdb0b8e0ad3cd8U,
  0x9640a5b0649e1951U, 0xa67c010f9f5786c5U, 0x75aae15600cc064fU, 0x7e3ed27756991147U,
  0xe5f881bb3a1adb61U, 0x1d60f53529313966U, 0x53f5fc9ecce48f82U, 0x596db89957897b6dU,
  0x948788658bcd503U, 0x4e5c12dd68c6199dU, 0x330813502e49606bU, 0xed016268ac180009U,
  0x2fe616534d2eb47fU, 0xaea2c28bfd4144b1U, 0xd3d9a2bc7043398cU, 0x57d8e66087c4bdc7U,
  0x1725661a6a3db1fcU, 0xba2035cb27c40e83U, 0x67815a7aa7459eddU, 0x7cac10ac5b262b3dU,
  0x136ebe46b8ba241cU, 0x2a2ad57ef91c1722U, 0x281cfbabb079940cU, 0x720b604b7a5591a2U,
  0x54a65eab84345cb4U, 0x2ef410d03699ab4eU, 0x8eae5cdf76343e88U, 0xefcd251092a6d5eaU,
  0x81eeb27beeca0f70U, 0x96aac2fd83bb7757U, 0x747ca686e9cb34c9U, 0x6d466a7c12ab2ba3U,
  0x96f625fe2b5e44a3U, 0xce836f33382d0c77U, 0xfdda346d49794578U, 0x7782618ce421ef91U,
  0xde6371d01852aa55U, 0x7d064c8f81401a9dU, 0xc554c144cec83d19U, 0x23c324208913c87aU,
  0xd5b9a3febb8647eaU, 0xd3ea58e913f039e4U, 0xfe15c3671966c14U, 0xabb84778ea5c94f7U,
  0xfbe75ab67ce46908U, 0x8714747f5d3f5f28U, 0xec441b4a2090b7eaU, 0xcecbd2758f4dff5aU,
  0x820c494e76181fdfU, 0x7293292894ee136bU, 0x8cf5d3fbe0dfae29U, 0x99e11b860b8c389eU,
  0xca8a8174cef2c6efU, 0x24ac9a5ab53c53e7U, 0x1ce6608328e0ff40U, 0x365a4f7937e86384U,
  0x1cf8d56f4fccedfaU, 0xc53997b46c7423d9U, 0xfab860ba1889a027U, 0x39bd2b0ab3bbc001U,
  0x4aae7f7c515c48d7U, 0xb0813506a53368e1U, 0x99c970dd449201b7U, 0x6e081f0c1f34432aU,
  0x583c40cf7b197d65U, 0x686181ee365e3030U, 0x23e9109733922c27U, 0x7823c4a500082ccaU,
  0x42869d5a2403d68fU, 0x6111b29dcd34fe0fU, 0x68ba7d124696d955U, 0x9fed0402f499a5cdU,
  0x6a81ba665e1f30a4U, 0x332e439d9ad9b794U, 0x4668da3cc9b253a0U, 0xcff9b225c70414ddU,
  0x9fdddc2dc5688edaU, 0xc2215378415a10b8U, 0xbdba52cee9cd0c69U, 0x290d4a96c5f193f7U,
  0xfa937c5c63ef8949U, 0xda62a4120687b86cU, 0x4453de28ad2bad0U, 0x19d19f9caa488173U,
  0xa7e1df7ac714cc86U, 0x2ae926fced584672U, 0xac86493a2dcea56dU, 0x1ce70840e6ef745fU,
  0xf8bc659ad88d1c96U, 0xde844ff58daf12ccU, 0x34610ad0a4035196U, 0x8aa9420b92032caeU,
  0x22dd661dcf288f7fU, 0xa73be59509099a7cU, 0x26edb04ee5afa668U, 0x94111eb010566514U,
  0x669a2a31c8e97f51U, 0xb78775712b826ebU, 0x87704e5375d4a90fU, 0x997d9301bf315870U,
  0x358d2f3740034523U, 0xe19a6eb548fedca2U, 0x26295e0343bf2119U, 0xb5f916a43507f144U,
  0x5193cbad2c03dc33U, 0x6acec6e3dbc06d94U, 0x4a78c0a21d4f434U, 0x5148e264ab1f5fdaU,
  0x2a7c554d815eee02U, 0x55309ba91f6a043U, 0x3d5044784cf33407U, 0xd9df6cc2f24b261fU,
  0x9feec0adb83be51bU, 0xa1f6cc400908fd2cU, 0x6c2b54920b6fe128U, 0x2711d5678c839e88U,
  0x8469986a8cff1ff5U, 0xca7f64b3c32d5f78U, 0xd81ab0d7b09911aU, 0x706724df8303715cU,
  0x8703a0da8c7a2acdU, 0x1a291f2c2dbae952U, 0xb26aba7d395c15edU, 0x33c4955d404b8230U,
  0x59f4a620dd014702U, 0xa6ff129e2d16436dU, 0x41da179a4edafd8U, 0x938f969b7f9a7639U,
  0xfa02a7af7e4fa68fU, 0x1b63bc7590dbc9fbU, 0x32c353eb1e88e993U, 0xfa0cf46dde339187U,
  0x4c5e5ba23ffe1487U, 0x30cb8f38a87777e0U, 0x1dcbe57b87fd5e63U, 0x98222ef97118d433U,
  0x5f95d8e279b37366U, 0xcaf7669985a73630U, 0xbd3efa1298f07b8aU, 0xe4944edd891d9d75U,
  0x6567d3be00dfb57cU, 0x7ff047c0ff913907U, 0x9c6c6d7f08ac4168U, 0x1658a56ed7039a01U,
  0x285b14fbe199b335U, 0x5dfa7f7237e21e57U, 0x380eedcb308696b3U, 0x47d6eb9200a5d52bU,
  0x34e6bb1ab8a55a2aU, 0xe3fa6cdbd1b03db6U, 0x5bd01c84ed44411eU, 0x832081fe57fbe71U,
  0x7963c2eba68888e4U, 0x946276bf691e7cbaU, 0x4952da5d641fc0cU, 0xfe2423ed51776b1bU,
  0xd8065c6c04847091U, 0x29f3c59719717202U, 0x962a6cf93c8101c6U, 0xa8d1bf14b08404ecU,
  0x5acc63eb7c903060U, 0x3cf3420c493291beU, 0x172a6f18f9734dbU, 0xcaa6d08bffe236deU,
  0x7bb42d309305cb0fU, 0xcf9e57d31022d586U, 0xdbb351f3a5959966U, 0x87815bb25a4e0163U,
  0x171524cf75771305U, 0x1202872bdd795d3U, 0x2a42aa7cccfe0440U, 0x376ca0b0f0c96188U,
  0xd9ac353f0a5b632fU, 0xe88d285411b7704dU, 0x3e7ccba28ecbfccU, 0xb5ecf09afd082a98U,
  0xf9219c1835fefcd5U, 0xad6b354dfac5dc7aU, 0x9050979a681e5196U, 0xb05d50b3906491d7U,
  0xb690047fa653ce81U, 0xc47e41e229597c23U, 0x92703a52ff7ffb6bU, 0xfc017aeb2b23c5f9U,
  0x274f49d758646ee5U, 0xd19d17e1204dd23bU, 0x845a82c19cf8f08cU, 0xaab22673f6b1f09cU,
  0xef428f6f4c749b41U, 0xf857439f464914cdU, 0xf1c0537392d1e5c8U, 0x667641ab112a1574U,
  0x340d1c1b5028033aU, 0x200437de1981f914U, 0xb6551cab9c86b222U, 0xfa7be0f1ea20c719U,
  0x68d69e3969885e47U, 0x6f0b315c5eee01d9U, 0xda6872ac61e5baffU, 0x10061b6a06487361U,
  0x1e95896a5e873b81U, 0x5498bc3682508918U, 0x2d11ff2b25da16fbU, 0xc4237ab410f8f0ceU,
  0x511f3d9f0d76dfd1U, 0xdbc0335cd1f5dba0U, 0x28423284c4880b72U, 0xd526849956d3d2cbU,
  0xc84d1d6ddd961dfcU, 0x62261e4aae7fe34dU, 0xb9fcfde7a7c14241U, 0xce1bc4de4231fed0U,
  0x822d1cb845f40ea6U, 0x4a940dbda023576U, 0x3ba8852cc14a7f81U, 0xa27c91e17647cf2fU,
  0xd763b55812375627U, 0xe15dff09bbdb4829U, 0x1be4e6eb1ac3dfcbU, 0xfffe0595fa6afe83U,
  0xaf4b8552ddba3d8aU, 0x72a8b0ad41287e12U, 0xace0aa64816e1ce2U, 0x4da4de513267ebc9U,
  0x69f10c5a42059d6dU, 0x714eae93bf89b9e1U, 0x56f4826bd54436a4U, 0xeccedbc2ea408efaU,
  0x5585d1d8d4bf9a32U, 0xb2d0c0c1937b56a0U, 0xb28a29b6416d78f1U, 0x685f8185af9b90f5U,
  0x61fb0c42625eaf60U, 0xe5de28deebfd1079U, 0xd5b5a3ea4cfc815aU, 0x13048f45413d420fU,
  0xd9af730d533b71bcU, 0xf5d67e3001aa4227U, 0x7cf44bdf6533d32dU, 0x4ee09b07331ef4f5U,
  0x4cc98b6b48526efdU, 0x2d7cf0f29faf0d90U, 0x3895baf8bd49b68dU, 0x199a4357b0e4a33dU,
  0x9203fe247f5ca6deU, 0x36d89dc2059de48fU, 0xfb8744175de27aebU, 0xab54cbf50881bf65U,
  0x99a9d239d3d85c42U, 0x3d857959566ad3f9U, 0xb4b38e34816821d4U, 0xb461d71260575282U,
  0x119ee295331e17afU, 0x391a21537a39dbf2U, 0x6d7f8803d969c66cU, 0x7f87827509a5f39cU,
  0x408d9965575c7640U, 0xcff06358e06de9c1U, 0x5f36e785aefb6272U, 0x6a7958fc9575fbcfU,
  0xf54330bd6f8c46b0U, 0x92ecd6c7c168ac29U, 0xb0b03032d49038cdU, 0x59d5d5be0f930241U,
  0x7a2613d936f7eb77U, 0xbee57462552f3d2cU, 0x54cecc16913b21c7U, 0x6b5661cb77e217fU,
  0x29b201a456053e25U, 0x2245c8ed5bdcdc95U, 0x7221b86ffe75b1ecU, 0x27c821811bbe218bU,
  0xf59a282b9bc442b2U, 0x7601c9bfd0c97641U, 0xa7753375cdb30e90U, 0x3e9cc487cd055ed6U,
  0x632c4586298f5cf9U, 0x4bd15afcdac8b156U, 0xa391f16c51fdeff4U, 0x403983c78fe4c8f7U,
  0x27c782d5eaca81eeU, 0x8fe9d9368e87f0a2U, 0x47f99db558399113U, 0x38e584aeb3becf43U,
  0xc5e77b93e528c33aU, 0xaa57a905b1de0f0dU, 0x37acef11d05574c0U, 0xe67e2c58a803dc71U,
  0xcb4cb55331273cacU, 0x2a9407f674d8928U, 0x330f602fb95ca048U, 0x1ad377961a0cbd9eU,
  0x37c00368e96a379cU, 0x4a524906598bd5b8U, 0x3ea88f3cb52621cdU, 0xf7009f94dd53eb6cU,
  0x111056a0b8d4e35aU, 0xb2958dbf982adcbU, 0x567ce545dbbb82c9U, 0x76e7ae81a3c4c7a5U,
  0x93075c2163feb0a6U, 0x79baae313610a113U, 0x7f55be315a27dc64U, 0xaa72dc956bf4d74cU,
  0xff0c46c2d187ab5eU, 0x30fbdc7f0573ee5aU, 0xa2a123766846eb2fU, 0x9138cb5c21b34cbeU,
  0x287916fb16ef3214U, 0x92cb554c40591caeU, 0x9b7cf21cbf90d081U, 0xfb2952f0bc8e29c4U,
  0xb08e5cb5093a6c03U, 0xcb8fe68a71db82a1U, 0x8c3e7967fe2a9bcfU, 0xbbe820d005aaf501U,
  0xf52c5d2e91cb7357U, 0xa59491ccd6abf8c8U, 0x8bbd26efe9d2f534U, 0x516b10e7d2261a15U,
  0x1981841a529fca3bU, 0x3a2b8f43fad02e0aU, 0x9c18043318ec0e01U, 0xebb1dbbbec670cfdU,
  0xdecd4f6313e92ebU, 0x6148aea86f19383aU, 0xeb087963f6f5542U, 0x7f294a6b87416832U,
  0xbf1b5935db93eb43U, 0x6818c63f27eedfc9U, 0x212cb65acb92748cU, 0x1746404c19166438U,
  0xa9234b1f7cd1574fU, 0xd1b8666bb39aec63U, 0x1dd8eaf51045e317U, 0x6f884b1885f8f346U,
  0x555afdb2b50145e3U, 0xdaf48187c409d60aU, 0x214f94da17c5632dU, 0xeb430f0807e77b82U,
  0x153472d6d35f345eU, 0xa49c5d386084a6a6U, 0x4a03fb8a13425c41U, 0x914da1b0ee5f304fU,
  0xb600bb4b73453056U, 0x28a7be3224cb751fU, 0xd7292218dc88bf96U, 0xeb63ad515819739U,
  0x8ca332e2e0cbda66U, 0x999e11d0a51060efU, 0x72c5eea3156550b1U, 0x4337ea7c5bf73e7fU,
  0x9b949e3574f44988U, 0x7fc1d7922dcbddb5U, 0x610010c4ec6cf8b4U, 0x8da8c391c536df9eU,
  0x1bad55cfe0b0916eU, 0xd121b74ea10c0b3eU, 0x28776c72cb0293e4U, 0xe366e4f43bf3c903U,
  0x3bd681ec6541cf54U, 0xee837be7dc90e061U, 0xf655348613dfaac3U, 0xffe5aa030a6b54f1U,
  0xd6415f785ea05049U, 0xb6093c82c955a9a2U, 0xa9c9c76e6c508c68U, 0x544474f40b7c5ab2U,
  0x5dae0f9502a2c1d0U, 0x68e46bf13fbf065bU, 0x927281428a9cc6b7U, 0xc42d43f934f10c6aU,
  0x189eaff8363cba24U, 0x40ef856393229e17U, 0xef7f5f27eda3bf7aU, 0x9197bfca8209860eU,
  0x3c9dfc2cd4361bedU, 0x876646e2720b3921U, 0x953b0f424056a0f4U, 0x2c16c7bb83135077U,
  0x9738158eaddb176fU, 0xa7ac0287376db090U, 0x7cf573a808c48ddfU, 0x33381dc57fef8372U,
  0x1b20da1558bdb5f6U, 0xbf8f450129ed5b9bU, 0x84c56fc8133598e7U, 0xa03570746548bd12U,
  0x1cc4d4fd01888c64U, 0xfe0b3ecc882e074bU, 0xe82f810d99110128U, 0xd14f6d0989650a6bU,
  0xd8c459fe0d206236U, 0xbaddaeb50b156eU, 0xf323b64be146a6eeU, 0xbd48d6db35b9f55dU,
  0xb1fe3e275528a895U, 0x465712daee13e7ebU, 0x974b7d9af1267f2aU, 0xc73110250cfb385eU,
  0xaa344c9449ff9b05U, 0xda663eda930feea2U, 0x16e4d16ed93186cbU, 0x12e8582a027b5a31U,
  0xeb60393aa2ba4199U, 0xb989f33c2972bb90U, 0x1d1ccea46f9a242eU, 0x3189eee0d2b45b81U,
  0xa29bdfd2dfe54381U, 0x5e18c1c61ef45440U, 0x6ee63d947a7a0a68U, 0x537491d013ef770fU,
  0x51539edc579037a9U, 0xa4da91cbff5ea1dbU, 0x2eff24eb612fbc71U, 0x36500c8c8e4bb1d0U,
  0x2e81aed51d658bbeU, 0x72887f2964cd6017U, 0x79ea6bf87f7265fU, 0xedf68dd34d3daa88U,
  0x29d56a7f6afcb2a7U, 0xecab1144fb3685edU, 0xb7ba2d9241b5e99eU, 0x191c59e544f36eacU,
  0x262e1d2579b07cbfU, 0xe7597e3ab527287fU, 0xc55374b458b6764dU, 0xa21572110da145bU,
  0xee823d9a913c7c8eU, 0x6f9d24628cc1be6cU, 0xfffed577ffff9732U, 0xfffec308fffeb6c2U,
  0xfffe246800010cacU, 0xfffe4c96fffe37b8U, 0x19e5f0000e3f7U, 0xfffec352fffebd20U,
  0x69000001ec2dU, 0xd2b2fffee923U, 0x872fffff8169U, 0xfffe2e2d00017ac1U,
  0x1adbeffff64edU, 0xffffe10700019f7fU, 0x4332ffff56feU, 0xffff6f6effffa938U,
  0x13adbfffec2aaU, 0x4336ffff4237U, 0xffff3ff10001c9ceU, 0xc567fffee050U,
  0x193b0fffe0a89U, 0xfffeb093fffe175fU, 0x1ab9b00009011U, 0xfffed8fd00013360U,
  0xffffafe3fffe2438U, 0xfffe714f0000d34aU, 0x1940b00009c6cU, 0xffff7ab9ffff40dcU,
  0xffffa6a2ffffea93U, 0x261600007aa0U, 0x54b0000d211U, 0xfffe7c05ffff1789U,
  0x7912fffe7b05U, 0xfffe175f0000cda1U, 0x6d4d00008dfeU, 0xfffe8edf0001b972U,
  0xffff8885fffef959U, 0xfffe48b3ffff39d2U, 0x1b9bc00004bcfU, 0x1413cffffaa86U,
  0xdc25000068ddU, 0x1a9e70000b690U, 0xa50effff137dU, 0xffffb4cf000156d0U,
  0x15813fffea234U, 0xffff92160000bc33U, 0x15e120001e97cU, 0x1dc5a00001768U,
  0x8906000182ecU, 0x9299fffec53fU, 0xffff41dc00007885U, 0xffffc4cf0000a97dU,
  0x8cccfffeaff3U, 0xfffe5713000092d2U, 0xfffed92affff010cU, 0x95a100007a2bU,
  0xfffe673c00011e6dU, 0xffff9923ffff2edaU, 0x2ffd00013198U, 0x1f18a00006a94U,
  0xb7fbfffe9a51U, 0xfffeb138ffff576dU, 0x102bfffe83cbU, 0x116fa0001f52aU,
  0x115110001963bU, 0x5700fffe3b4fU, 0x4eeb5924ce1014e6U, 0x91d10ca8148dcb17U,
  0x8ee52020db753a93U, 0x316b39da541634b6U, 0x25a03f02488b4b56U, 0xd2588c59f163b70dU,
  0xa3fc66d46add965dU, 0xc86dda25b6a7e9dU, 0xa37e622811e7dcfcU, 0xae0b708eaaba30f1U,
  0x37c2f4e7bc506cc8U, 0x3c0084f34dfaa55cU, 0xdd8356ada0e28313U, 0x6c95094045b6c827U,
  0x6845704ba83f0d1bU, 0x1fd8dc7f886e7a89U, 0xc2a8b6e8ff66b13cU, 0xc56dd08d99648359U,
  0xa031ec87f4c54ca4U, 0x749e9565eba0096aU, 0x29f308aefbabd1efU, 0xae0a1a34834accc2U,
  0xd90ffd77d501d12cU, 0xbaa92ae4101a5b0eU, 0x2aa959d38157d8a9U, 0x52aba7a1d703c240U,
  0x72cb5877303b091fU, 0x16d7607e6ab3685bU, 0x412fa08c7d575346U, 0x43ce7a760f139c48U,
  0x287d698108bed526U, 0x15a436f3beb18266U, 0x2c10107402cf32c3U, 0xbbafaf48e7e3c903U,
  0x8e6dae41a6931e4fU, 0xa88139d02bc6617eU, 0xb8637da9a6dfa6cdU, 0xc438906248e0c3e4U,
  0xbc3a91ee7362b469U, 0x4d1fdc9931e4858dU, 0x2aa5595fc27c8fa5U, 0x2c24b5fc70a20cd7U,
  0x7d363f8749b8fb01U, 0x648f9c75348557afU, 0x1d8d2449a9988675U, 0x4b36b90c5d55670fU,
  0xc8e33db275b3a330U, 0xb758c35846763981U, 0x8bd7425f1aef47ecU, 0xf86ed4271116ac7cU,
  0x2649db940d0b83b0U, 0x92001da092ef819fU, 0xc77d177ff8d4a949U, 0x2caa9ea4d162a7a7U,
  0x977184378afe3408U, 0x31f84bfdb0ae0969U, 0xf504a17315fca67cU, 0x7fd7e213bb726d7fU,
  0xa6b2b7efa633bf8dU, 0x94c919e75612416fU, 0xa6e2e0cfb3997c8eU, 0xcd7370aea70deda0U,
  0x972678ab2fb34030U, 0xac93872b1ae18d70U, 0x20128f9bfae72272U, 0xbb499a7bc3521144U,
  0xd2c5da1be74f649bU, 0x32eda81f023292d8U, 0xb0298e606c6d3586U, 0x32267ae7294cd74bU,
  0x6df191cf8b722446U, 0xff07ab9231665ae0U, 0xa967aac709055307U, 0xb0c8901fbd9de7d3U,
  0xdc6e8e34db6756f7U, 0xa0f1f95f4489da7aU, 0x8511b4313e2bab16U, 0xc209658fc3178388U,
  0xfa814a52b194deb4U, 0x3e5e1844b9b3c202U, 0xda7f8eda8ff9af2aU, 0x8468198aeb57ca35U,
  0x33dca0255cb9dd29U, 0x5a23d4e96fd09da0U, 0xc964b88922a93a8aU, 0x9ceda208861ca09bU,
  0xc85958ef54f83c9U, 0x2700e671b144ea6aU, 0x42b0a5d527bf395cU, 0x70d7a19189cd87e0U,
  0x9c8881fd4d2dd930U, 0x58f84dca5a9d7e4cU, 0xa5ac6a6aa5bbc73cU, 0x1f386837eb09321dU,
  0x41e8452a214fb68U, 0x3720c1b157637b7U, 0xf99840bb1ab60e77U, 0x44b6055a29c78747U,
  0xeb66d9e79e486776U, 0x42e64dfb308abf2bU, 0xd7a025b33e3b3d67U, 0x64405e35deede27fU,
  0x38da18076b32e3adU, 0xd6f51157314072dfU, 0xae8ad47be377ffbcU, 0xc2ede70ebef58f3aU,
  0xd4460d715ad1d2f7U, 0x1f8b34d14e7cbd84U, 0xe08276184b4e861aU, 0x63d8efe761bef9adU,
  0x4e4f0a181c8623edU, 0x52a708e5e513c778U, 0xd069117aa957f032U, 0x7dac0fbc709629b2U,
  0xc9b59281748702aaU, 0x746795fa9b9ef65eU, 0xf6a45b14fcf9e939U, 0x64c960d1b1289fe8U,
  0x5fde8f8677368f0fU, 0x66931a4ee8d6b904U, 0x9d631074e9bd44c5U, 0xb702deb87a633e57U,
  0x88176cf929157977U, 0x30c2715fa2979a1cU, 0x56efde909f0aadc3U, 0x2e2a3d31b7314bf2U,
  0xed73fbb14320dcdeU, 0x7bfba910ac259560U, 0x6507ff0d982c8b25U, 0xb701476dc80d47c3U,
  0xb7325f3f2324b21aU, 0xba13b33e3bb66300U, 0xd4c8f3c85e1cede4U, 0x264638efeac070e6U,
  0xbd542ca10d1af952U, 0x7d845352a35cb9a2U, 0xa286ba84163507a4U, 0xc289ed0c8c26ba85U,
  0x5638121bbe1c3dcU, 0xfe052e9764bf0b7U, 0xfa1dddfcfdf10ce5U, 0x91b0d9b6d5abe36eU,
  0x5ca24a380604a704U, 0xb51122d1ed0c19f5U, 0xda0459e61143ac5cU, 0x8531c00a6ede8a3fU,
  0x5d5ced07c475fa76U, 0x73e685e1df5e2f23U, 0x7f2b001e5fdeeb33U, 0x75d946a50ea9c67fU,
  0x7316f65d85269a02U, 0xc39c8b03e186976dU, 0x42dfd6503a84bfb5U, 0xd5445b7ba818e2c8U,
  0xc53b11e02a9ed34aU, 0xe4baad4731a69454U, 0xa4114d9fccadee15U, 0x9ec3edd88dd32c1cU,
  0xbe52f94778e13c86U, 0xb3b034c40ccec385U, 0xb386fbd20e5ea1ffU, 0x88868d6024e6e6d9U,
  0x39e02499e292b17U, 0x9d5052b0bf0b6f29U, 0x9f485e382f84a398U, 0x7c8d3c622d75dbc5U,
  0x24fb244783a95771U, 0xc4a04a88b4cade53U, 0x46132c2b0f967888U, 0x49c0ace85fdd92a3U,
  0xd9a2434be9619f9dU, 0x47889c0c76810e7cU, 0x4327b19afffaabcbU, 0xe7f8c98206a66060U,
  0x3458cc25fb35c896U, 0xa5e8f5124b94203dU, 0xbc4ac936da430d45U, 0xe92b440ea7045cd8U,
  0xfc866acfaf5c984eU, 0x7370a67e6acef6c5U, 0xfc6e8162a3c2c215U, 0x9e5e31d8f11fd76U,
  0xb4fd3bd24c0f37aaU, 0x112d6244b2d57733U, 0xe1de5f96f80b072aU, 0x61fb3bb1464ffbecU,
  0xdffdc24b0ad50be3U, 0xfaf4929abf9976a0U, 0xf4db1e4440d5c07cU, 0x94bc00d5fa70cd4aU,
  0xf0f9639694576e70U, 0x826da8bcfdff9fb9U, 0x6bfcece9f06fdb4aU, 0xd55a49d766667637U,
  0xed7eb8f0fecd0b4U, 0xb76f9215ff66e2c5U, 0x5fa2ed8781d24957U, 0xae63c9b1d4b22c98U,
  0x77d5e2875a9cfdddU, 0x439fa3bd6c7fcea4U, 0x5c88bd62b6399697U, 0x3119322296960e33U,
  0xac282a173b4a25b7U, 0xdc64643946a74eeeU, 0x98884f79e2de6304U, 0xbb7ec67017a12c41U,
  0xc378501c9d89dc3aU, 0xe32bc8340acd6ea3U, 0x82005cf74f656d47U, 0xb2ebcf0ccd7a545bU,
  0xea64ad5929968e54U, 0x4db607125cf9fb08U, 0x91fd76e420e9cca7U, 0xbb741c37422743e1U,
  0xb74d126178538146U, 0xdd4eda29d876dbeaU, 0xe12418872271707fU, 0xcc1120dc5f4c25d5U,
  0x3170682a0e1de40aU, 0x5966064347c78fd7U, 0x576a0e50a11ec2bbU, 0x5e62a9492608ef34U,
  0x7da6d86f187ee21cU, 0x2ae9e25cc3edde0dU, 0x6f23304da732e43bU, 0x69ab31c97b1d904eU,
  0x54f4f75b88760757U, 0xfa8eead2885fce8cU, 0xc266284aada83e04U, 0xe51bf1963f120185U,
  0x9b9c46e608d48cdU, 0x7c8e84472caa7fefU, 0x59944de9e55f7f0dU, 0x334a9ad3acebceeaU,
  0xfd58b497dfc78b1fU, 0xc5a68cee96243074U, 0x4996dfd6f89ff6f2U, 0xb90a9eb28612b770U,
  0xed866eff7c2913e5U, 0xdda48cdef6a86dbcU, 0xb63ca52c5c7f7d1aU, 0xe931fb2276f5d482U,
  0x2f6c1aca2f0d5798U, 0xcae65fb7df204383U, 0x5a9986f49326a110U, 0x2b6212a9ab5897eaU,
  0xc8255d526caa2ccdU, 0xdb1e98dc8db657ecU, 0x6e54df773c73e0fdU, 0xcdf106f1e9774385U,
  0x560952b44b7d68cbU, 0x8d408fe3c05fbe28U, 0x5e92056438e98d4aU, 0xa3338ae15e46a43cU,
  0x73048833a1dd1ee3U, 0xdb6c2e7695a0ebcU, 0x85b98fb44ae7d286U, 0xb92e6761a02a1486U,
  0x524d0d633918b4d5U, 0xa40121847ffb1f76U, 0x887d46d09b9a615fU, 0x745c76a8233a9355U,
  0x388238b60709eb1eU, 0xde4ea1f4ec97a8ebU, 0x3cac5331f4de6348U, 0x8467f235b57c7333U,
  0x835e579fd4db2e39U, 0x552b72c352710458U, 0x16969b0ebda875d5U, 0x4871c5afdbf9d5d4U,
  0xbf9873ba1bd29726U, 0x8a338cda8541c562U, 0x8418a4b5a6e947c1U, 0x78744af21cc5dea7U,
  0xbc049d5013ee3920U, 0xd99dd793ab77238eU, 0x5f894f285cf2b1baU, 0x8d512f9897d961ebU,
  0xca20e362971bc69U, 0xc58795a47ba1f988U, 0xd95b659864462407U, 0x9d38190529e85c4cU,
  0x1c8a12f669ca30dfU, 0x10ff590e536181ccU, 0x785cb982864823U, 0x3e1a271bfdd7c0e3U,
  0x76a2447a9cb36df3U, 0xc3ccdbcb24ea16fcU, 0xf4e5ee6f7fa23defU, 0xbc51be384534eff3U,
  0x1120d30a39322d6aU, 0x8656a644c9be4e5fU, 0x1a1774d159bb30d2U, 0x8f73a243eb1dc77cU,
  0xb8a9d8e8d58ca7e2U, 0xb7f44931cf8f4f46U, 0xd3be449ea30dd439U, 0x2c4d3b8f8b1d04e7U,
  0x2fd72cdfff67b77aU, 0xea2eeac087bb14e6U, 0x9dc4bf7f12a8ba51U, 0xbfc3fbab5bbff56U,
  0xc5f5d81256912672U, 0x6784b28cb71e1f1eU, 0x70b7f5aa38847148U, 0x5caa640e434c9573U,
  0xd15aa2cd30d6e595U, 0xf3df92494191613cU, 0x6445aaa42e644094U, 0xb5ed2dac91775fefU,
  0x5ad90bd947df9a8cU, 0xad5a8a45df41336fU, 0x9a04d0d57f18a605U, 0xa555650ee966da51U,
  0xa678134edaf4b739U, 0x901b18adf6d576a4U, 0xedc154265b8fb5eeU, 0x7e454baa9513166eU,
  0x36e3315eb6664747U, 0xf8f57420139eea8U, 0x1550fe3658b48408U, 0xcfe911db591a09b6U,
  0xcb8f32021f43e8abU, 0x9367ea414bf9d1aeU, 0x44ac7535f66b055aU, 0x871fa7ebe3819163U,
  0xe720ba027d96fcfcU, 0xd71f2b92c1019705U, 0xd8d2602e37d0f500U, 0x3e379ebaddfec911U,
  0x1c2258a7309c912fU, 0x415cfaa2496f1f18U, 0x52f3a37c86948114U, 0x14dae0a060b5d885U,
  0x7e3945d87a060f68U, 0xb89ac0c4e0cb6494U, 0x7f4cf8d9a3a7dd20U, 0x8c7f9d751decbc5fU,
  0xf58fec304a4694d5U, 0x1239039f2ceff876U, 0xa49b14fbe315ed3bU, 0xb92f006e65c9c8b1U,
  0x7027728d3ae246d6U, 0x615ca9ef569917b3U, 0x4492cba6568c3cd3U, 0x817acf387bf37e8dU,
  0xe6be02019ee40d9fU, 0xc536ce929ed7e438U, 0x5c84e80eee5dbc91U, 0x8e12deeb7a55b4e4U,
  0x54334ac3024cdccdU, 0x9b6548747a9347b6U, 0x26d2d30a474e88a5U, 0xcd18caa514727df6U,
  0x5baf42c2ab7539d7U, 0xcc8ace7e4ec8138dU, 0x95c0a3e887f946f6U, 0x1771e66f872315bcU,
  0xfe066446eee3ff53U, 0x98f5cf3ac2af0d0dU, 0xb20dff98220c7619U, 0x6d281b633f0a6a36U,
  0x20fac45b30974514U, 0x262c1a7ff3f6c6c5U, 0x2e7e7344ed865b14U, 0xf0a4857bd8c57edaU,
  0xb5b4014199c93e44U, 0x90593f735117d78eU, 0xdb38ebfdea6be5e2U, 0x30c337f1d585a71U,
  0x5d6759c942572b33U, 0x4add75f64dee937bU, 0x58b2acef27374c69U, 0x593f290c10bea935U,
  0x82881f1a7e415c48U, 0x4512926bedad581eU, 0x1f815c1b85e66713U, 0x2b816908398abee1U,
  0xa227f2a556dcdec0U, 0x5931d7f2495ddd22U, 0xf97de6c711b13a59U, 0xe1530c05750f2da9U,
  0xb44946dfc9b2782U, 0x12ab0d04c30c6977U, 0x787175740cd15a0dU, 0xd2e104905d828114U,
  0xa6a7660dfe1378b6U, 0x343fd9995a0b00f0U, 0x45669c36c2e840fdU, 0xcb8599f17d1e42d9U,
  0x32754ccdb3f6fc99U, 0x57b44215e6835c37U, 0x30914fd75b6dcbb0U, 0x3f62e579730a4b3cU,
  0x31a0069453ab4e97U, 0xefe2d437d5d32ff8U, 0x2ec0595dc0049506U, 0x27b40815f193b658U,
  0x4e13a64a3ffa511dU, 0xae531061f753dae4U, 0xa24eff147ae116c9U, 0xc105ff85906441a2U,
  0x53876d4166768938U, 0xd4b04a1d2c290992U, 0xf9e234753e501184U, 0x4ef6955bf0077fb7U,
  0xd155ea5a6926cb82U, 0x6c04d2403f29505eU, 0x49b75ab34b7b842cU, 0x7a1fd88de8c3fbe8U,
  0xd44b907d988eeb4U, 0xbc9733dabdc048a7U, 0xe33b3e5b49a61cf7U, 0xc1685b43ad6f3928U,
  0x7d7a21b526fdf39U, 0xd6f32706081ba548U, 0x47ec3a40118ce85eU, 0x790c66b3f6c60ca6U,
  0x12eb0f5d4d627dffU, 0x1453f50591ac25afU, 0x57209ca7ffeb52d8U, 0x8275862c3e652c7fU,
  0x75f7ad215c8b7d6U, 0xa611da2f397b645fU, 0x2b287dffe58573baU, 0xc60c12377b7a786eU,
  0x9ffd811bbbf79910U, 0x434d03c967816d9dU, 0x11dd898b1471d85fU, 0xbf9b29729811e7c4U,
  0x6c270bec9c3212eaU, 0x38c85e3aacc5ebc1U, 0x833cc6e6d7873d48U, 0xbe4ef0b4b8cec01fU,
  0x4db163580d3c3adbU, 0x784f49a2f3c9e3d5U, 0x52bd6127a089b07dU, 0xa44845fbee35ec1U,
  0x22712e4bf2197c5U, 0x9ded14f1fe2e36d3U, 0x8bcf2d51fb969049U, 0xfad43fbb4a9db5caU,
  0x8246094384558c53U, 0x2a1b8102735a65c5U, 0xd493e042f3a07474U, 0x37c406d13d8f0c7fU,
  0xbe88ba69f110d92bU, 0xa57d7b2869c6106bU, 0x4cb9915caa7425e6U, 0xc4028e0e21638d58U,
  0x3aa068572323dcf9U, 0x8c43d20124696801U, 0xa08c41b840da3dd4U, 0x547c174830c08d6eU,
  0x103681e73fd3a59fU, 0x8699e04b8ea18385U, 0xfc0d0ced8784dc6fU, 0x90067aa0d393ad74U,
  0x6f5da316f3aafa02U, 0x78f5bd6b4cab5723U, 0x98025d19788fb447U, 0x775011294e5866d4U,
  0xbdf1fdfd3a0cd301U, 0xc091bb7c7034ff22U, 0xb67a37cf6c6e4250U, 0xf1b3da11e7520706U,
  0x4afcd57ed8b913beU, 0xb10a102f00e9e479U, 0xa1c8cb69b98cf3bdU, 0xd6949ca596acf63fU,
  0x5d5f07f2d2c79fdfU, 0xd0c8f8f8c847609eU, 0xb3099bc9b47c2ac6U, 0xbe3098b8c573a42aU,
  0x38743e095ea43223U, 0xb7edb7e470bfa04cU, 0x88f3e022fc86302dU, 0x109cbb7a31ea18caU,
  0x851bd6b8cddbd5bcU, 0xe37fe21af7bd11c0U, 0x429e33c0d9e0eb5eU, 0xce7f100cd34f04eaU,
  0x638dcd36a6e0b35cU, 0x53540b277961f7d8U, 0x6b712c6ea89bcf98U, 0xaffea293af399eccU,
  0xa809a168c75442dbU, 0xb157c42a1ea341d7U, 0x41e610d429eb03a8U, 0x52867ca93d2a6383U,
  0x719a94dd0cfcf298U, 0xc2d0f354be5df591U, 0xced8ddff4fa6f69eU, 0xd02a7bcc509f36bU,
  0x7b9cf9cc10bce02cU, 0x35f4b3ab68cc2430U, 0x6a7055303a1a25f6U, 0x71f9117f43066babU,
  0x1636abce4fa7d40cU, 0x5e1d1cd6e2b07418U, 0x5a390500b1dcfaa5U, 0xe1e583cb95dbb7c3U,
  0xd1b88f3577c3730dU, 0x42e88e5f32905fa4U, 0xe26d8e45ed7dd860U, 0x4acd78ad8a24b709U,
  0x655d5db61bb35a00U, 0x6aa434b2cdcabea7U, 0x749198e68e6bc29fU, 0xe3dc3848ae0d621fU,
  0xf2e17f467b167abaU, 0xb5068526fdecd3faU, 0x2c31cfe71b2b5ad9U, 0xef76af40f8a73234U,
  0x1c9b8a7b40bc59b7U, 0x43c92a1eeb3de61bU, 0xf85db8fe04362ce0U, 0xc1db4479d8bb71ceU,
  0xf8f65f9444f7f6d1U, 0x65fc9d1d76118fd9U, 0x6a122cbfb0ee495bU, 0x38ad43fa92aa1393U,
  0x6428b4fef932042eU, 0x8c52d33dc5f5898fU, 0x5399fd7b1471e303U, 0x8fcb898b501ddbc6U,
  0x7fe3dbe1531645deU, 0x451570bd5fce4fe0U, 0x9f77c298e69e39d8U, 0xd5642cb1e53e2d7eU,
  0x256b35d1fef9bfbfU, 0xa99fc728efafd43eU, 0x223dc273a7a4683cU, 0xfdc3a4637d043c08U,
  0x73788c3455d55d75U, 0xc918c61682f922dbU, 0x7c23619bbe00deefU, 0xa71c32260b7075c2U,
  0x81ce8fc365851ed3U, 0x3914f9c48bdc2c1fU, 0x196a2798beb3e4c6U, 0x643752ff73e69cU,
  0xa714e4deb0b361f7U, 0x3b8f3e32d55621dU, 0x6c1ba2ac2356870cU, 0xe601443bf9a6b4d9U,
  0xfa95d27fa5120542U, 0x70a09655a783c143U, 0x6a2b0c2367cf779fU, 0xc7bbb758ee4fd31bU,
  0x69e6ba29678586fcU, 0x4d0cdf4012946599U, 0xf20bd743deeb870cU, 0xec90eba258154ce9U,
  0xcbd3d57bb7dfa998U, 0x5dcccff050cdddb2U, 0xf0503b48df6f4b45U, 0x266f1601e05478a6U,
  0xa5c64ccdec33fc0dU, 0xcabae32839dc99cfU, 0x338bab78f0f8955U, 0xbb139b954f90cde7U,
  0x358470a3758560d7U, 0x221300747fb2ac83U, 0xbe34a2f4e10a8d87U, 0x90149603d915939dU,
  0x4a04105e988a17d1U, 0x9a88ecb26648ffacU, 0x3c551611ebbd0966U, 0xaef90ea154118802U,
  0x5bf4afeba5bace19U, 0x32fdf17652f44f20U, 0x65391c10354b5270U, 0x98069f43d65383feU,
  0x2b3b43eafeea9fcU, 0x8f5abd10cd12873dU, 0xb0ab0818201c425fU, 0x8e71439e7dc789d8U,
  0x1cba65a0f899f32cU, 0x6989543ac9fae7a8U, 0x375189105d5d3046U, 0x6beb7ac049899216U,
  0x4967f1f2efbcbb20U, 0x97db649c7b779487U, 0x75db9e4f15de1736U, 0x43e9a8aaab1b293fU,
  0xac40131d020d433aU, 0x9fb19264427280bU, 0x36ddece39368d7afU, 0x11f137a448880981U,
  0xfbec18375230cadcU, 0x54f236b42bd1b10dU, 0x995240374c1e85U, 0x447be59d939094daU,
  0x4cbdde9652251337U, 0x5010f4a1b6bae3a4U, 0xf257cc13552a7ac5U, 0xcc0d898b9302a2d9U,
  0x8904a83209949befU, 0xddec50e35a035673U, 0x7be00b6b623f57c2U, 0xec62edf7b656ab15U,
  0x64cfed00bf612e63U, 0x4a2c18de9d7127d9U, 0x29096a8ba987414eU, 0x33d5cb0e317f1966U,
  0xa3c102b6646a279fU, 0x40c64e5643a09007U, 0x8e7e6769946eeadfU, 0x3574d9e8e368fb36U,
  0x4921069349e39be5U, 0xa5041ba17d8c8c26U, 0x93111b28da87b2fdU, 0x1bf4ce90c64dc8c1U,
  0xacee767bf14ca100U, 0x1109c2121c618f67U, 0x95b66eb42715bad9U, 0x392907faf78ee82U,
  0xcded0cd38e84cc23U, 0x56a6acc7b8a325c3U, 0x3b6560ef3da5ad84U, 0x1ed23cb74721d3a6U,
  0x5b74bd1a29eac72fU, 0xec79727cf4c1d4bcU, 0x1663b67da6c03847U, 0x8782c73622113cfdU,
  0x382132843d882b36U, 0x621fba671e2f4b3U, 0x26cb0691e93cd339U, 0x4738ac2345f14501U,
  0x17f75dd258be93b9U, 0xa67cce6ced7f64fdU, 0x660aae1d7203c4d4U, 0x82b568db5864e6cdU,
  0xb7dae0bddb5eea1fU, 0x24223fe526e279a3U, 0x391289fb3cfc73e8U, 0x5a29ac46d95ca0e8U,
  0x28f88e8d8f2cfe35U, 0xe4f124b5775de223U, 0x7feed6405b7f159cU, 0x29fcc2231edd6202U,
  0x2cf7221b3517c2fbU, 0x18a32254c7d6c119U, 0x5ea3359761e1ac0aU, 0x9ea2bd83a3e95502U,
  0xad21537cc9f56550U, 0xdfe89da7427e3f9aU, 0xeb09cdb7a3520148U, 0x5dc134da9553fa47U,
  0x143dd2d124c74fafU, 0xb8559d6b3c2d259bU, 0x7922113d554bdcf8U, 0x64e711251c190e1fU,
  0x90db5bf5e656e1f2U, 0x38d5d3e96fce0465U, 0x70011e2b455eebb2U, 0x4bdda968c5fbc7b8U,
  0xd655925b37340253U, 0xc08714584f35883dU, 0xd5e55eb14618655dU, 0xe61e4bd833c1bc82U,
  0xc7cc0282dd5f0071U, 0xf0be09f2d5b51c4cU, 0xfdb3163457e1c7e4U, 0x1d23a542cd5f2283U,
  0x9134d22cee1a4648U, 0xda1fee971c488878U, 0x47e576d97b213403U, 0xbbafd4d36d1bfbf4U,
  0x777f47586daa7929U, 0x2c11d82603a82fb7U, 0xa73819d6425c59a2U, 0x4dfba6bd7b06e19dU,
  0xe2f65d66d57463daU, 0x31f1b164179d9a81U, 0x931bdd3b8afbb903U, 0xf94f9ff1e9988188U,
  0xff212f213e983d45U, 0xe86cd2ccb92a839dU, 0x323ad73f167a19c7U, 0x7cf93b551e71a91eU,
  0xbb11528992e96f65U, 0x2b407d1eaaea8e98U, 0xf97d1557cde75644U, 0x17043110e70ee995U,
  0x2ea791ade60dce3bU, 0x3c09f4935fb38d20U, 0xcb788f4683c0fa98U, 0x81fde45de96da282U,
  0x39e52ddd2b99b64fU, 0xba913861324f6c42U, 0x1e937a360eb30ed9U, 0x137713b17d4c4183U,
  0xbcf0f1c8312fb033U, 0x58fc546b03cd9055U, 0xdea0f1f0f3a3bb58U, 0x47058a65d3d1ee5aU,
  0x4823e2e4e00f9fe7U, 0x531f154b4633939eU, 0x6485a0fa98d109aU, 0xc62710517049810cU,
  0x9e051c5ea43396a0U, 0x34b729f30b152ef9U, 0xc51e9ea4c1b82ef9U, 0xd8f84e7fb5023640U,
  0x267fc5f681aa0ac1U, 0xdbd83847945d64f9U, 0xb185fe0f73c15ef1U, 0x9de8a868b47c2a31U,
  0x298851014244d71cU, 0x51526a0a9d66a59bU, 0x564fb34e83a4a4ebU, 0x911d499b3802b666U,
  0x9efcfe20511ccb24U, 0xe8eeabfdb0f40091U, 0x2257258e982aa91U, 0xb977dc9866af5236U,
  0xdbce966af560aa2dU, 0x5336bd8c676c2ac4U, 0x6b6c86353869bc6dU, 0xf2a242598118254cU,
  0x86add50fca7e9917U, 0x8f1726736a560e64U, 0xb1dce128d73265f4U, 0x77a42a745efc9978U,
  0x198274e46fd7f338U, 0x17fc72a1eeaf7598U, 0x9e4dd6876ecaf7b3U, 0xf4292f8d74ba04fbU,
  0x4cd33a884dc129c5U, 0x43d22d1894c11b29U, 0x90fee61155f8a1feU, 0xb03c704853ac99f2U,
  0x101e2dbfaf42c6c7U, 0x37320abc5c0488bdU, 0x5cf5b635d23c9129U, 0x27916a2fe1d40395U,
  0xd0b93f8329d5ce48U, 0xcb036e46df721fc5U, 0x660010fde326f5a1U, 0x21e8e6b1df06a553U,
  0xd03556dbf027ab7eU, 0x50fe6f73015527eU, 0x895b52fb0a028d5cU, 0xdeec592aca1d259aU,
  0xba204da2870d7f42U, 0xa34ec44c9c8bef1U, 0xacb21a2918d7d973U, 0x8293419cab822973U,
  0xfd3dc58e7fe6f58bU, 0xb8f4a7f7014c2e15U, 0xa8857f296765e603U, 0xea1f009ae7aaefc9U,
  0xa3601fc1f23c0559U, 0x5c20469f71573d3dU, 0x176a1cc8e08be1c8U, 0x5d87f59de7a821e4U,
  0x573207f00b18b237U, 0x653fd1480471e38fU, 0x196774d822cd2cc6U, 0x7b908d7d970e9e34U,
  0x778c030409e8f1f4U, 0x857b32a819b39aedU, 0x96893c4b2640894fU, 0xf9044f1641d11854U,
  0xbe59b3bb07c9020U, 0xb009147e6e1a6905U, 0xbb48301991818820U, 0x7d54af28bcba7a5U,
  0x91bac6e3a845acd3U, 0x2ed333569601fc47U, 0x7f1a4ed394988264U, 0x7bb15d24097b6c4U,
  0xd2b42ea507a4d1f7U, 0xfdb940926e0c207cU, 0x3e88c25eacdb6f8cU, 0x48d02313aabef0afU,
  0x6f5759d891856426U, 0x2875de9728fca075U, 0x96ca41b67deb97a1U, 0x1ff3d5a7365191efU,
  0x19333adab871d012U, 0x3697848c044643d8U, 0x3dd81e64b3c1373dU, 0x5937fc30223332d1U,
  0x2844c1dd2f1cb6bdU, 0xa0bee343e3ffbe69U, 0x945bf0b7bad1f5beU, 0x79ece6b5c3d076b8U,
  0x447aa1ba39f82d3aU, 0x5b575703b8d5e1c0U, 0x3ee55bd8f08f8659U, 0xeb1fff267f3f5473U,
  0x2bf3dbfd05410506U, 0x250fba5ff69ee045U, 0x34b52ef3f79284c0U, 0xe00c0c8618f49648U,
  0xe9cae55bce0fe0ecU, 0xfa6b971cb3064268U, 0xfb7eec79ac0f2e0aU, 0x6e396d666dff4b53U,
  0x26136a3332763cb1U, 0x462be0826243d761U, 0x7c15f19a6c56c243U, 0xa06d438adfcaffb7U,
  0x888f8ec75f29139cU, 0x83b5caf74195ed16U, 0xc439140522470471U, 0xf0e0814574ba9a93U,
  0x98c2a1ebfb856fb0U, 0x4a662379a8579abcU, 0x26f81a857904faf3U, 0x31354cc11b8e7085U,
  0x3877348755623440U, 0xe2d0afd9482a6a29U, 0xa9640816f03d17dU, 0xeb186276c3245bcaU,
  0x10b9a7163a851faaU, 0x6708d99e2f850f4eU, 0x3fbfdafb86695855U, 0x4f34cd1a6f5eb4c1U,
  0xc4db832427544addU, 0x9192ae7efcfd76fdU, 0x43da8b97335af4c5U, 0xb24f105e37fec6U,
  0x2af3063d63fcd95bU, 0x755b00f5bf6c5066U, 0xa7481f0f9cf6e19eU, 0xc3de5f0e9e8e7c12U,
  0x116a03835b539e85U, 0x75d163d647f3b63bU, 0x9e7d7a6c9e84e277U, 0xfd7c167f4d473b84U,
  0x47e84d93a1b457a1U, 0xfbc3a88814751e2eU, 0xeb30fa9ac840415eU, 0xc6cee831a053f933U,
  0x99c077d58fa4c366U, 0x3443e13de0f57c0bU, 0x2b5394779416df40U, 0xa19528ecebef93d2U,
  0xaa94cd20d4111833U, 0xe1821cb897fbda40U, 0x838d13e182a470aU, 0x81e2bb4d04394ae9U,
  0xc257ced752ac9827U, 0x47730f01d10eddf7U, 0xa46fd30e6d7f1e9bU, 0x3c4027e36b2c8dbeU,
  0x53985516c201f13cU, 0x2013d665e7b49cbfU, 0x7af38854d7bc3910U, 0xc8d3d0ccad4ca428U,
  0x3b99a1bf95ef94ccU, 0x14d627bf360d25b8U, 0xc240090c8ccbe388U, 0x4476f1cbc36a4121U,
  0x884e0f3cab42b2a0U, 0x4d4fb74cb203166dU, 0x21fdc0d81a78cc7cU, 0xf22f1dcbc2d6282eU,
  0x21f1e6296d0c7560U, 0xf948193c091ec642U, 0xd5591bb5413e3ac9U, 0xf46fef6bcae8e993U,
  0x670e31447f92ead2U, 0x9a7f2b6d6b21e9b2U, 0xf764a0fe461c9f04U, 0xb44a1ecbeb20ee15U,
  0x15845a00ed4f1bf3U, 0x54d0b399e120f9f1U, 0x5f9131b036bff620U, 0xfbe1412a891d555bU,
  0x2f6f12560183b6cdU, 0xa6abd500556f69dbU, 0x4e865655ef2c06efU, 0x6d119266f396cf39U,
  0xdb0c110a29e556bbU, 0xc43f9939d8cd225eU, 0xbe4a6b60547879aU, 0xf8ea156bc00f0d30U,
  0xde78bdca6fff3949U, 0xa1ac8f748561ca44U, 0x7033ce812661278eU, 0x14277684367c6d04U,
  0xdf9606bd1489e8baU, 0x9361f3defb9902d4U, 0x752a3fd7c43c9c3cU, 0x5e8deb61de6e68bcU,
  0xacb0a50ffbb82aecU, 0x10940c5d715e1cdU, 0x69a81e74b7cbf6e7U, 0x2890996ad2af298aU,
  0x4fcb148a650045d6U, 0x9f3e28873c5ec965U, 0xa9c13b04d83af14bU, 0xe915af281c8f13e3U,
  0x8d9c6dd06e8ec447U, 0xe34cb1e91cae557eU, 0x1e816cbda8bab510U, 0x3d148bc19af3b713U,
  0x2a388dfe70c39827U, 0x6dbfcbdc6f873de2U, 0x9a34a4d0357ddc52U, 0xae0b775ee87b5877U,
  0xd3d65f356b46846dU, 0xb23d2247506eca78U, 0x52142cd89d8dfccaU, 0x446b720bcb274a34U,
  0x2dfac67e8758669bU, 0x7b31cb1a0049fc0fU, 0x11ed2a4a8516e073U, 0x872ffbf1b770a477U,
  0xb90e6363ee7af2U, 0x573d45e77944ebcfU, 0x9b9ae12dc70e8735U, 0x9c99d7adc6a44117U,
  0xacf39d3ac4f57095U, 0xc64e9d115b1303bU, 0x22d6c45d1ae464beU, 0xe8d106f91e63d249U,
  0x8f340bb682ac3a2fU, 0xbc6f7bbe335150c0U, 0x6955fba8e4fa7fa1U, 0x7e142a4656cbaac9U,
  0xb4ffb2189e4adbdfU, 0xe4991596cad74b54U, 0x148b847b167d7fd4U, 0x36721f5949316a09U,
  0x7d0423f508bbdd81U, 0xe826c41d4d577d08U, 0x8b5e830b7730c376U, 0x7f6b2d48a2a49957U,
  0xaa22c99033de3703U, 0x4a1b97e47d8958faU, 0x1b30b9f5bf824f21U, 0xee998bb342d66eb0U,
  0x3943176113dd5426U, 0xcd9325c9cef72914U, 0x881fe6fde9d741d6U, 0xd8bfdb8f0ca6290dU,
  0x3e44b3ac83086a3cU, 0x12fdb773c66858a2U, 0x231e4989d84ee1daU, 0x22a274045719ded2U,
  0xa389371834f5d97bU, 0x532f8d1ef47eb951U, 0xbd4236fc699bc5fbU, 0x9527b5f73f77333fU,
  0xf54e780dd7512468U, 0x21d89cb83866233cU, 0x35ce948b17369dc7U, 0xc766100fd47f098U,
  0xf726bd939b3b8576U, 0x410e606ae38e1eeaU, 0x8efed9ab7fc6cb84U, 0xd29c8c3454428222U,
  0x36915cf05913370U, 0x3b6e42ad22ff5535U, 0xc40d0da39ba0bc35U, 0xea8c37d1d4ee142aU,
  0xf9d6e8ca111f29dfU, 0x1edcb859fb41433fU, 0x8993a20c4c189240U, 0xd2d3155cd242f134U,
  0xe54b0c4011d08f65U, 0x9ef8c95b7809ee85U, 0xaa9bb938b0734376U, 0xca764af7b827762fU,
  0x1d8658dd7d502e2cU, 0xd8057c535e60d4b2U, 0xb3b0ffce73644bcU, 0x21484fde49298a97U,
  0x79acae6e8132b13dU, 0x7ef897c64be97a62U, 0x49ae786133ef198eU, 0x9aaedad67d29b1d6U,
  0x6f68d9409beb2aaU, 0x62c34acae549a83fU, 0x5e9eef4e046d1d41U, 0x1275cb6e06ce7f92U,
  0x917e0b2ca81a418cU, 0x6237f2ae59d0e9c6U, 0xbbb16e5aca4bcc28U, 0x21e76ca9f2105ee1U,
  0x5d9f61c701e5b7d0U, 0x652d46e7938deea0U, 0x6f17796ca2902a42U, 0x92b8e99d7e5a5288U,
  0xf3b1dda5d3c642a1U, 0x38301ba0838f96a0U, 0xa8b1ca88ea3cddU, 0xa20088190aa101a2U,
  0xe84f28f5ba37da2cU, 0x8168700baf6d60feU, 0x291da60efb017755U, 0x4a4ef08949ab97c3U,
  0xfdcfa1bf46d6b8a2U, 0x7ca31ec938d0cfd8U, 0x4c7c01cf6a0d2cefU, 0x81a53dea03af2151U,
  0x63b56f7951992e09U, 0xd6e3c44a7c66fa7cU, 0xdd53d8e9d884abdbU, 0xf375b683ef9ce0c5U,
  0x2fea301bcc9ba2bcU, 0x85ff67e62061a175U, 0xf92f3f9197ee673cU, 0x8d037c29843ce471U,
  0xfa7f8143bc6bc27cU, 0x96dfe5cbf6b91ba4U, 0xed141092189689abU, 0x9e887ddbe5df1eecU,
  0x23f6834e42e35181U, 0xcc435b6720444623U, 0xfdc1dee5396d8e73U, 0x7bdd11d3e012b07cU,
  0xa6b2a7b4a5a604f1U, 0xc0ea4afd8a6534c2U, 0x5a19e79f31a76966U, 0x34c90867342a6f6U,
  0xfa7c2c77cf24d79aU, 0xa0cc2c2bffe36888U, 0x1f3d900008769U, 0x2d6bfffd89efU,
  0x17169ffff174eU, 0x4922fffe9053U, 0xffffdb27fffd6e55U, 0x2236900013affU,
  0x8be1fffebba8U, 0x22b0001eaabU, 0xffff626b0001bac6U, 0x36560000bc4fU,
  0xfffddb140000d82dU, 0xfffe94bbfffe727fU, 0xfffeb356ffffc1baU, 0xffff7e22fffd9ea4U,
  0x2759f000040c5U, 0xfffe3c9dffff5e82U, 0xfffe3eb80000f336U, 0x2073bfffe25ccU,
  0x16624000143baU, 0xfffdc802fffe4a1dU, 0x11617fffe514eU, 0xfffdcfeffffe54e6U,
  0x6a650000a222U, 0xfffdc8cf0000f637U, 0xffff9198fffdbed9U, 0x16c1d0001a589U,
  0xfffeb0f7fffef9abU, 0xfffd8edd00008f3dU, 0x16badfffe3a49U, 0x9825ffffc817U,
  0x2020b00024f64U, 0x5c0dfffe6de8U, 0x6ed98d9fc8f9deb3U, 0xe7c3ec7bc459b1e0U,
  0x77bbfa90792b731fU, 0x6ca38958d1850638U, 0xf1962b2228dbc0fbU, 0xbf7581bffee7ddb9U,
  0x79673e918ee6d987U, 0x93e573e74e06154fU, 0xb067a89ea02c5dddU, 0xb7fa9ae45f8eaefbU,
  0x4a7535f16d8a6bb3U, 0xcac730e4edfecdcbU, 0x11a36fa5b27fe20fU, 0x3083b0bb3218f6a3U,
  0x45a07bbbf7c0525aU, 0xf279bc5b23f71ba8U, 0xb9c001f18e5970bfU, 0xf7014f245b045690U,
  0xd6de44ab3436ed47U, 0x36cd1a5d87c53e72U, 0x415397347ff1f820U, 0x60d57fd854a2d53bU,
  0x254686e9855048a5U, 0x79e552b8d9df25ccU, 0x3a23f8fbcf62f2f0U, 0xfed779a4c43aca87U,
  0xff2c129f787fd018U, 0xfaf349744b41a77dU, 0x25ac09c472a1d0f5U, 0xe2fd08e2c8f40532U,
  0x9a81669948f36087U, 0xbccfe4793e6cee4fU, 0xea4a9ce6bbd622e4U, 0x289524f5ad851942U,
  0x2c6bd561755ebcb3U, 0xc73cde487094cac6U, 0xe15e7f9e8a589c58U, 0xe6b70b31004f3de9U,
  0xcf02a26100a5467fU, 0x6d9803f775b99379U, 0x1d6d1da1ded43954U, 0x8c038302164f9c8aU,
  0xde0c9109856e9173U, 0x22e7483d9429725bU, 0x30857fbc9f209833U, 0x7f3dbb8cf72665f6U,
  0x92759001548e358fU, 0x9441dafa63cefdcU, 0xe01282b88cd409ccU, 0xd95ef8b04216d2faU,
  0xec11008153e53631U, 0x68220a483320826U, 0x4f05db25f2176c02U, 0x75ccf6108bbea20fU,
  0x1384864c222cc859U, 0xfd21dad61d4f20adU, 0x1a1a2a8c131de336U, 0x121cba924ad18fd9U,
  0x9f8b896b40b74a90U, 0x811f0a3400ac7b61U, 0x2cc91d09d0c28d39U, 0xd20203d342d6a5faU,
  0x968c686efdf16c31U, 0x75f5c5e6aacbdae2U, 0xf9132dc50ce8c5b4U, 0x4860f048acbe890U,
  0x7f3e8433e00a10f3U, 0x91613c406c8dfe91U, 0x4e721b3415153526U, 0xa356d7234fd926f3U,
  0xa247ca56bdfae20eU, 0x6928cdf3f9cc1cf7U, 0xac7fef9a0990b7bfU, 0xf9c3e90a4b7d1f7eU,
  0x60253ccd627c1686U, 0xd812e2e6ed2e8dc2U, 0xc9e11d9c44a658e3U, 0x11d77d50fb0b0c0bU,
  0x185e928d24bcaafaU, 0x68546a50954c7b84U, 0x1fc0f389ee8dbf57U, 0x59565a94ecf99d24U,
  0xb496ad7792dd04afU, 0xd6375b35a3909e67U, 0xc7a6438c9e23c182U, 0x37b3876225cc8e35U,
  0xa7a377ee28192b1U, 0xc64e89c7108fdd89U, 0x84fb7fda5a2ede41U, 0x43a57dbc3c27378U,
  0x8c0bbd3160a712ebU, 0x2dd4d11bd3ad2c19U, 0x4f42dc83067f34e8U, 0x7c0ca256f2e2ec48U,
  0xead72c859d427676U, 0x74875826b200a85fU, 0x764d7fa864256564U, 0xb4a23d32499aa2c2U,
  0xd24b583d69fd03a5U, 0x8beaaccaf0045f61U, 0x7f01a30c43d4f48aU, 0xfe3be0da83877ab2U,
  0x70f0c61bdaf790afU, 0x3cac816d2d1a2b91U, 0x81639fc10aad30b1U, 0x6d604f18877c3fabU,
  0xed3fffbc5e97c62dU, 0x83de5849993ee8f8U, 0xa67078e98b917518U, 0x5b04f6ecf4811c4cU,
  0x394e7c0c29b679a8U, 0x8363e29d53ed3ff7U, 0xe0f88701fe6a408aU, 0x85f06b737a0a36abU,
  0xab30b33cdaaa4a0dU, 0x85c7f5e1ba78156eU, 0xac8123ef68b1b10cU, 0xd62848eae26bfda1U,
  0x517f79bc44483c87U, 0xe4f645ef33939a58U, 0x1811bbf8e37b631dU, 0x4a310c7936bc18edU,
  0xbe62acefa69d82c3U, 0xcdf88178376344f7U, 0x2f36a9a7ce31fb09U, 0x3aaf238f95c2723U,
  0x92289621d467bd2eU, 0x213388f409f4ee9fU, 0x8eded20a8515dfedU, 0x6acc709267977fd3U,
  0x8df0dcae7bab8a42U, 0x18630b231bc67a2eU, 0x61fa495c0829beeU, 0x40c9c831647a9059U,
  0x2c09223cfa295103U, 0x45566c196693618fU, 0xa2fef3af4283b011U, 0x66857b6571a31a5U,
  0xaf7f08ef8a62a127U, 0x5810c867c79e8b09U, 0xccb674291f1495d7U, 0x127817f7857c7584U,
  0xec999df63dfa86f7U, 0xcb8f12a92e504144U, 0xa0b0e438bd4f0330U, 0x81a2964106fa6432U,
  0x55543ca01ec29594U, 0x1d76b8e28ca460ffU, 0x1083037912d2d79eU, 0x15fc8fde9a8390e6U,
  0xf8e2978eb6bdc71eU, 0x5bc15ddc0d92a609U, 0x30a69ea842ea259U, 0xecfe284a37d37595U,
  0x1baaee9a3a46aae8U, 0xf3722396d2f79ca3U, 0x7ee6001cbd7f3757U, 0x83a4d62d8ad205b6U,
  0xac782621aab9fabfU, 0x530c2ca8add170c4U, 0xe0f41651c91d0825U, 0xa0ed81ce38ce7c00U,
  0xd17ab8df65a6a3c7U, 0x9b551eb0776ee0aaU, 0x9c823e2d1c69384fU, 0x6a0eae46f8195a2U,
  0xa68486c4a424730aU, 0x277a9e39c871e904U, 0xba6aa5c8368e401aU, 0x5a69d244850f66abU,
  0x4015a173e5ecf0f5U, 0x62d589e22b0548b3U, 0x8a0fe5bf340ff3daU, 0x4ab6f87fd3f1f1daU,
  0xf89303ad3d66305aU, 0xfec252f7ac2e4a8U, 0x276a82ed45d81c2aU, 0x85966129929890dbU,
  0x5e8394bf6f56c2fcU, 0xb5a2252cc1e3aeebU, 0x93d77dd12e813e8bU, 0x8a2ac190eb15c090U,
  0x1eb9c2a8b0a20ce3U, 0xab1d6a374209d109U, 0x89097ec00bf8ccaU, 0x52981f333acdb082U,
  0x96491f1aebe41ffdU, 0x7f29fd0ed16feb58U, 0x945508d8cd9914f8U, 0xaf1fc86175940192U,
  0x21b2f694f2f974b7U, 0x502b0ff693c1b445U, 0x69d81f4fab3ba7f4U, 0xfbde4125c8976852U,
  0x45b265d57662bf01U, 0x3e5fe1f05dc2a3bU, 0xb17a838932d2b83fU, 0xe8150e3b76eb57bdU,
  0xcbf31c07f5d446cU, 0x6df226e12745c23cU, 0x5cc91929397ef828U, 0x10775356c95508b7U,
  0x9f59bea701a8302bU, 0x166eb9d37f70a460U, 0x600db7c02ba0c442U, 0x899caf1cd70ceebeU,
  0x78357f897ed26d10U, 0x4ec9277dd5a5eb49U, 0x6873525554743fdaU, 0x765f8d99666dba19U,
  0x7b68ca8fee3046deU, 0x3d995070bdf7d11eU, 0x4fc75c8f37f8a690U, 0x6bc79179dde3a728U,
  0x10818c153147fb8U, 0xae9fa9acdb521efeU, 0x24b8f710c006a647U, 0x6382085f19f47946U,
  0xfdaeda12623c1e05U, 0xe892f8483e7a041cU, 0x2b774ff6f7b4281U, 0xa89af5d24db2ea73U,
  0x56db0ea6275af531U, 0xe1e042d52e7512a5U, 0xe3ecb9edfbec7dacU, 0xb55a771241fc1313U,
  0x98299fc9fffb0c7dU, 0xd660443d052f191dU, 0x8c689a7fa12ff42bU, 0xd26f81c5d1cea6f6U,
  0xff81d9367c4f9988U, 0x18996a9b84795d97U, 0x3d269b4d96e04569U, 0xe7db2b860f6192caU,
  0x9737ba811fdb6378U, 0x1fe9b66036f55312U, 0x2c09e4193b02da41U, 0x2e3642d25011a37aU,
  0xacbfd613725f06e5U, 0x42d8911667c7ee62U, 0xe4cff7bdb886a424U, 0xb2769fd1b6b76ed2U,
  0x7f01beb587aa584eU, 0x9425d2b1424f9650U, 0x8147a96dccee5cd9U, 0xe573091bbb8c2739U,
