/**
  ******************************************************************************
  * @file    network_data.c
  * @author  AST Embedded Analytics Research Platform
  * @date    2026-01-22T14:11:25+0000
  * @brief   AI Tool Automatic Code Generator for Embedded NN computing
  ******************************************************************************
  * Copyright (c) 2026 STMicroelectronics.
  * All rights reserved.
  *
  * This software is licensed under terms that can be found in the LICENSE file
  * in the root directory of this software component.
  * If no LICENSE file comes with this software, it is provided AS-IS.
  ******************************************************************************
  */

#include "network_data.h"
STAI_ALIGNED(8)
const uint64_t g_network_weights_array[18441] = {
  0xbe91964fbda8002eU, 0xbd0493253e9efe7cU, 0x3e44ddaabe9850acU, 0xbe35f01abe089ee6U,
  0x3e44844dbdee844dU, 0x3d0bc9b83e407791U, 0xbe1542793e095ed4U, 0xbe0e27edbdced486U,
  0xbdf6e3b1be8dbe34U, 0x3ddf06b53e0ec7b8U, 0xbd17c724be55bc4fU, 0x3e4abc823e64ad40U,
  0x3e96bf1dbea07622U, 0xbe5ad2b83e0bee9bU, 0x3da8ce533e04b1c5U, 0x3e3e52bcbe09368fU,
  0xbd8ce04b3deaa13bU, 0xbbb8eb4c3d841d4fU, 0x3e16caa0bdf0db46U, 0x3c411683bde6f03eU,
  0xbd1279063e91b2d4U, 0xbe84fae6be02a60fU, 0x3e9cf5913e0348c7U, 0x3e997578bdc5a05fU,
  0xbdefe74e3e246f04U, 0x3e8fc7403dd05209U, 0xbe65a603be7fac91U, 0xbe02cedf3e99a9b7U,
  0xbd6f65cf3e3c67d7U, 0xbe999048be9d2d52U, 0x3e0d84e13e878794U, 0x3d4568dfbe133424U,
  0x3e0a5e99bdec07d0U, 0x3d27cbe8be19cfc3U, 0x3e0aad64be89fff4U, 0x3d3419ee3e8cf748U,
  0x3a086eb9be424bf6U, 0xbe1180993e9fc6bbU, 0x3e85523b3e87597bU, 0xbe2bbc77be62e515U,
  0x3d988afcbe479092U, 0xbd95ad89bcfe058dU, 0x3d407bd6be89524bU, 0x3d5631a8be185a9dU,
  0xbe89fce7be51cb69U, 0xbe2a3371bdf1c50cU, 0x3cc1be1cbdde0b44U, 0x3c8a1dd2bea1e0bfU,
  0xbcec3ab0ba694c0aU, 0x3e2d3172bd8f471aU, 0xbe7c6e27be78149dU, 0xbe8a663ebcfcb094U,
  0xbe8a921f3e33f18dU, 0x3c1eb751be91a619U, 0x3d5cfa9e3d52e633U, 0xbe5c2aba3e7b48f3U,
  0x3e001da43de11dafU, 0xbe5957293d2d2268U, 0x3de0d345bd6c7bfdU, 0x3e9f19533e48d852U,
  0xbe089eb93e6ff663U, 0xbe3f807c3e9e8d2aU, 0xbe9abcdb3cde22c4U, 0xbcc3af4d3e35b19bU,
  0x3e8d012cbe88d2f3U, 0xbe1ee4a23e3124d2U, 0x3e55039fbd9049e5U, 0x3d0e0015be98f35eU,
  0x3d97cb4bbd9b5fcdU, 0x3e16f718be352fe2U, 0xbea014353e005054U, 0xbd0dd8a2be57f228U,
  0xbdbd7a05be90265fU, 0x3e6c683cbd90d708U, 0x3db576d43e2468d4U, 0xbd68e73ebdf62872U,
  0x3e1ee4cb3e9f5269U, 0xbe7ce5c43e09f69cU, 0x3e74e39c3e17fa88U, 0xbe27c824be371cceU,
  0x3d4a06ef3d6bb02eU, 0xbdaa11543d9ed190U, 0x3e9a21c93d2c4c51U, 0xbe9d8adebd80ed95U,
  0x3e387c6ebe130d16U, 0x3daf5d9c3e5a4ec9U, 0xbe054205bdb79a65U, 0xbd4e8f54be6cfb21U,
  0xbcc54f91bbb59386U, 0xbbcdbd46ba5e2261U, 0xbd2edce1bd06b813U, 0xbcb3a19fbd185903U,
  0x3c4c3d0c3b02da2aU, 0x3cea850bbcc94f7dU, 0x3c62fe483c7644ceU, 0x3c8ec81b3d1a744cU,
  0xbd0c3f5abcf0b1f1U, 0xbd34066e3cff175dU, 0x3c7b2b233bed6d69U, 0x3c46f5043bca5e62U,
  0xbccc165a3bb7f0d9U, 0x3a912de5bcf27fb2U, 0xbd0d20ca3bfe4157U, 0xbd246bd7bbd335fcU,
  0x3b8658bbbbc82b76U, 0xbc82f9dabd0daa07U, 0xbd117d02bd0522f3U, 0xbbedab133ce13edcU,
  0xbd21ca933c6ecb22U, 0x3d0d4317bd22a9a4U, 0xbd0d6cb33c2b1116U, 0xbd35d122bcd90be8U,
  0x3cdb0ea1bd15d5c6U, 0xbca1ea75bc45f6c8U, 0x3cb6aa163c51542cU, 0xbc30849e3d0524deU,
  0xbca5c88b3c9411f6U, 0x3c73d4f3bce935eeU, 0xbcad4dcabbc8ffc0U, 0x3cf3bebbbd09f3efU,
  0x3c8e6cf43b74cc39U, 0xbb8045ee3aa5ccd9U, 0xbd0d9efb3ce47dcdU, 0xbbe10508bc10083aU,
  0x3c65698dbd0158d9U, 0xbc015f183cbfc54cU, 0x3d1882a23c37a717U, 0xbc7211dbbd2d1d09U,
  0xbd222643bd2212f0U, 0x3d04fa46bb57c0e4U, 0x3cac0a5cbd27f965U, 0x3d230f013cc04dbcU,
  0xbc703ef7bb9da7f1U, 0xbc233f2f3c7b3686U, 0x3ce4dedabc9eacaeU, 0xbc0afe16bd244526U,
  0xbd3788293d1ef508U, 0xbd1582f13b86d461U, 0x3c9931a43bd758d2U, 0x3af6ad7dbb060f04U,
  0x3c1b07d7bc36c1fbU, 0xbd172e553c905b9eU, 0xbd1dce6b3d2d160fU, 0x3bd4879c3cf547c5U,
  0x3c1fff383c89e4d5U, 0xbc3d0284bc29cc15U, 0x3c128ebebd035b96U, 0xbcc091413d2024f1U,
  0xbcabdb4d3c2d1f96U, 0xbca1fc10bcc3f7f0U, 0x3d255b92bd07f245U, 0x3ccc4c4bbc878a9dU,
  0x3d12023c3cf6c888U, 0x3c4c539e3cad08beU, 0x3ba62cca3cb80364U, 0x39a6016dbba566d5U,
  0x3d04da87bc99cadeU, 0xbd3a0c32bc9f9f81U, 0x3cba9a43bcd98aefU, 0xbd25cffabce061b8U,
  0x3d0ad5043d1d7ca4U, 0xbd0edb873c951e73U, 0x3d0350463cafc83fU, 0x3c0dd3113d35ef4aU,
  0x3d250e5fbba6d0e1U, 0xbc8131fd3c847f11U, 0xbc194623bcb4047fU, 0x3c830b1e3b27a2f9U,
  0xba951c9c3c87a98fU, 0xbcb64826bd240611U, 0x3d2420903d2bb7fdU, 0xbc884c383cac5c67U,
  0x3c55fb7dbca62ca4U, 0xbcfd4fd13c7dbbfeU, 0x3c8f97d43befbe8cU, 0xbc9f3bfabd17caebU,
  0x3cddbccd3cc9804bU, 0xbcb21da1b9d2b472U, 0x3d198095bcdfece2U, 0xbd15c376bcb8a4eaU,
  0xbb652c06bc8e47d3U, 0xbcd0a39c3a909977U, 0xbc875c86bd14aaafU, 0x3cde22443caeeb98U,
  0xbd111ab1bc87f01cU, 0x3be35637bd24f5ccU, 0xbd1503a23c9024a9U, 0xbc99ebc13cbdd752U,
  0xbc2bbddfbcfe6038U, 0xbd2191d23c8896e2U, 0x3c3296edbc0f1780U, 0x3c4f275d3d19b19fU,
  0x3d17ed75bcef5661U, 0x3b86258539e37d83U, 0xbbdbd6d0bc7e09ffU, 0xbca1b9bebce00d99U,
  0xbca3c73abd082e3bU, 0xbd0bf8fe3c6eedccU, 0x3c1efac6bcdbe435U, 0xbd11a3553a0216a0U,
  0x3d0f9b91bc970f47U, 0x3b97a5063d233727U, 0x3c1a48a33cb6a20bU, 0xbd00e0ef3cea4c2fU,
  0xbc8c3b8abd1a4cc5U, 0xbb3a01723d327942U, 0x3d02f3b3bd17f7d3U, 0xbcedae3f3c9489efU,
  0xbc7897443ca3e71eU, 0xbca6e0623d029ff2U, 0x3bd75aa63ba72580U, 0xbcaa43023d06a515U,
  0xbc9adfbebc494da4U, 0x3c6522c83ccdf16cU, 0xbd212f81bbbc6a75U, 0xbd08d0413a8c50bdU,
  0x3b7effc43c853a9dU, 0xbcb08c66bd2d5966U, 0x3c8a28223cad9da4U, 0xbcd7d4c4bcd9199aU,
  0x3c8b233b3d0ebd9bU, 0xbbf3ebc0bd29b77bU, 0x3cf1c9333b9936c7U, 0xbd2a3e30bc03cc2aU,
  0x3d2efb2b3cd0f218U, 0x3d19253d3d32d95eU, 0x3d102aaebc5b3ad9U, 0xbc0d13e43cafbdf7U,
  0x3b02ca8ebd36c738U, 0xbc84b6833b6e8a69U, 0x3cf379173c950587U, 0x3a5aa598bcbcb26dU,
  0xbcf02a18bcefe69dU, 0x3cf78e633c9602c7U, 0x3d126254bd0bfee5U, 0x3c024552bca221bbU,
  0x3d0ad177bcc2e4e4U, 0xbc99df2e3c786a3dU, 0x3cd834503c2849e5U, 0x3c16346e3bc507f4U,
  0x3c9377f3bd394c97U, 0xbcba17edbcfc736dU, 0x3c68492abcdcf12aU, 0xbc9a96dc3d27fe9cU,
  0x3bd50983bcb3e56aU, 0x3c6eaa963afba4c1U, 0xbcf8a931bb360438U, 0x3d39c3a23d15661dU,
  0xbd343ff73cf90a27U, 0xbc19d10d3d2659f8U, 0x3c6a1e10bcaf289eU, 0xbc4f300fba063eabU,
  0xbcadeee0bc7a7debU, 0x3d1488fd3d06450bU, 0xbcdb1ac5bc88ead8U, 0x3cc80ef5bcdba226U,
  0x3c1e11cfbcea6365U, 0x3cdb7499ba32e142U, 0xbbbcdc91bcad1a62U, 0x3c92f36c3c647f26U,
  0xba850df43bfeda3fU, 0xbc484dc33cbbb50cU, 0x3c73e44f3c9106c2U, 0xbc9bf3073c5557a7U,
  0x3ce9ec7e3cde5107U, 0xbcb28f13bc2f5dc2U, 0xbc715c603cc0105bU, 0x3c8894ddbce6cbc1U,
  0x3b01b04b3d279c0fU, 0x3c3199b8bd2332f7U, 0x3a0371e23bd0007eU, 0x3ce18d0c3b1a41f9U,
  0xbc02f1c93bfa2204U, 0x3c5789403cd00147U, 0x3a2a5ec8bd1edd15U, 0x3d04f7f2bbf4cd8cU,
  0xbd0f8237bd27172fU, 0xbcad3bdd3cb51cceU, 0xbcf7c719bce23ba2U, 0xbc39af4abceb13b7U,
  0xbd34f561bb18ee63U, 0xbb403cdf3c160bf1U, 0x3c8c0ce4bb65ac02U, 0x3b9228633c1e6c52U,
  0xbd03eefbbc85db22U, 0x3901ef8e3c9fb246U, 0xbd355e84bd36ad0cU, 0xbbdc7d983cf8337aU,
  0x3d1a0b29bd21a6f0U, 0x3d0c95333d31d00fU, 0x3d3019e8bbd9f904U, 0xbcf5a78abcde765aU,
  0x3d0bac5ebbb1a550U, 0x3cb60f95bb6c2ae5U, 0x3b932047bbb20c83U, 0xbc26504dbcb20fecU,
  0x3c8bd91f3d1939dfU, 0xbca9cb17bcd34087U, 0x3d396915bd1ef42bU, 0xbce5f3303bc1f89eU,
  0x3d1e47fdbcce7faeU, 0x3d3ad5673cf482c0U, 0x3d2252e33d222ac4U, 0x3d2506403cc8a263U,
  0x3c8197a0bd113db9U, 0x3d2cf2c23b9ef575U, 0xbd2fed27bcb91815U, 0x3cdfd832bd104eb4U,
  0xbccc1c263cec52f8U, 0x3cf501513d14a7baU, 0x3d04d3493cf4b269U, 0x3ca6e9173d1f1326U,
  0xbce4a773bc0c9d8fU, 0x3a6fcaeb3c90bd5aU, 0xbd0896d6bcb67a64U, 0x3d18b4d93c4ac59bU,
  0xbc8946133ce00af6U, 0xbc80803d3cedf2a8U, 0x3d316db63d10f5f9U, 0x3cdb0711bc4b4d13U,
  0x3d27da253cc85b92U, 0x3c43f4f9bd239f42U, 0xbcef201c3bc64004U, 0xbc05c51f3d0b8398U,
  0x3a923358bc98c941U, 0x3d04ded83c8f6772U, 0x3cbe59fcbb90d92fU, 0xbd125811bb985bf6U,
  0x3d29d7e63d000d99U, 0x3c4538b93d13127eU, 0xbc0c9cc8bc3e2819U, 0x3d3505f4bc0e86adU,
  0x3ce9bdccbce722deU, 0xbcc488cabb72002bU, 0xbcf5982b3c6cab96U, 0x3cd1c3d3bc9f2b6bU,
  0x3b1ff54a3ce1f3c2U, 0xbc2e4998bcaaf62bU, 0xbd0f52ce3cefee53U, 0x3907feb53cc6eddaU,
  0x3d25f55cbc4baf59U, 0x3ced1b3bbd0e25f2U, 0xbd19aa5cbb589ce4U, 0x3d2757b8bd37057aU,
  0x3c69cf483ccf47f1U, 0xbd0a40acbb8f051bU, 0x3984e59a3cf9cffbU, 0x3d25da55bc394a4dU,
  0xbd1a731bbc9babc5U, 0xbcb25285bc7b1cc2U, 0xbbd3fcb7bc246ebdU, 0x3c886d383c8aaf72U,
  0xbbc02e383d02eac3U, 0x3d04f7ccbcddcbd4U, 0x3c1ff169bd1886ceU, 0xbc1d71143cfafe04U,
  0x3d00dfd3bc83bedfU, 0xbc8b133b3c25ec22U, 0x3ce879263c779c80U, 0x3c29a9193d1919d7U,
  0xbc22b0c73c6b2a03U, 0x3b8b7e6abc87e251U, 0x3c348b9d38bcd6b9U, 0xbc177f063ca78742U,
  0xbd30b7413d222251U, 0xbcfbea8ebb624437U, 0xbcdd71b8bcd1ab2bU, 0x3d0e4840bd143143U,
  0xbd2c52cd3d10a86bU, 0xbccffe61bd13a715U, 0xbd33957c3c39333bU, 0x3c80b1c0bc0ea654U,
  0x3b374bc1bc9ee2dcU, 0x3d30cbf5bab754b4U, 0x3d30b622bcbba1a6U, 0xbd1b70fd3c53cfa4U,
  0x3c8cd1a0bb100f59U, 0xbcc094df3c8ea91aU, 0xbccaf750bd383df8U, 0xbd174fba3c96e7a0U,
  0x3d2727383b395ec6U, 0xbced19303cc790b8U, 0x3b8de68f3c43d670U, 0xbc5324cc3cc65549U,
  0x3cb562dbbb1bb9e5U, 0xbd1fdb20bc9c2cb6U, 0x3a971770bccd0965U, 0x3a5e1b71bcc03e92U,
  0x3c03e6863d183246U, 0xbd107d31bbb9986cU, 0xbd2ac46abc5198b4U, 0x3afca0283c2c5bd8U,
  0x3c14e8363cf8c48eU, 0xbc096c4abba9f39cU, 0xbc78a64e3d140ad6U, 0xbbc867583cac01c1U,
  0xbcad79033c616158U, 0xbc76c1873d0937f5U, 0xbbc63cbbbb137b27U, 0x3b48dbbd3b4cbfc5U,
  0xbd088a4cbc17feb0U, 0xbcd470dbbc0accb9U, 0x3d262e1b3ca31eb0U, 0xbcbae648bd0335e1U,
  0x3d16b03b3c16ee32U, 0x3d32f5a7bd14f140U, 0x3cbfafefbcd01106U, 0x3d20ba35bd0486baU,
  0xbd303b5abc0bed66U, 0x3d19595ebcc9b5f2U, 0xbc0798b13d119ff6U, 0xbce7c15dbd0e6e61U,
  0xbca5a7b43d319138U, 0xbc77f18fbd0e7a5bU, 0x3d1c364fbc16b9b5U, 0x3be8c10c3cb6431aU,
  0xbcfb5b0d3c1cce84U, 0xbd36571b3b55aa67U, 0xbd3318623c02f2d0U, 0xbc40df113d211463U,
  0xbc9e92f53c3fd4b1U, 0x3d2974733bedbe6dU, 0x3babc6d1bd34cd50U, 0x3cffd49a3c51d68dU,
  0xbbfc2c393d13579bU, 0xbccf1a0c3cd5c60dU, 0xbd0da62639057c0bU, 0xbd1498d5bc14683aU,
  0xbd1841173aba0bc3U, 0x3cab31c8bc84417bU, 0xbc630e243d16f430U, 0x3cde33ddbc0b3978U,
  0xbcc508483cc960d5U, 0xbc10bd1cba260918U, 0xbd0b22eb3be6744bU, 0xbc8d63be3d2bc37bU,
  0xbcd9ba8d3d292e02U, 0xbcda61d3bc486978U, 0x3b6523a03d19a357U, 0x3cc68b97bcb1cc22U,
  0x3a92dc68bd1f78acU, 0x3b857f0fbc9247fcU, 0xbbcc3f6c3c6f7521U, 0x3b3eb9e8bc31b431U,
  0xbd2523e0bd179e7dU, 0x3c794785bce3a00eU, 0xbcdc18783d31d612U, 0x3ca4e6733b40e101U,
  0x3d183af33c98f42cU, 0xbd1d7f35bd1d3635U, 0x3ce9ddae3c6e9e78U, 0xbc578435bd3a3ef3U,
  0x3c9f885c3cd1b1b7U, 0xbc38cae93a989449U, 0x3c3b7cf93ccab50aU, 0x3c880b79bb1a6b6bU,
  0x3b5183bb3d27c526U, 0xbc05f05e3c004516U, 0xbca623663c89e039U, 0x3c2cfb53bba12ef4U,
  0xbc9e2a6a3c6fd660U, 0xbbf81e4abd1e1309U, 0x3c0bfa6e3b6cf2d0U, 0xbc961206bd06df3eU,
  0x3b936ddf3c3a1e0bU, 0xbcb892e8bc7e23a6U, 0x3d005d96bd26f3eaU, 0xbcf1f4e83c942e83U,
  0xbc2c9e8d3d2a67c3U, 0xbcfe0f8b3cfa2f03U, 0xbd178b2cbbae9479U, 0x3d155701bcb15c74U,
  0xbd175574bc7eb88fU, 0x3a821e4b3cca4a30U, 0xba9eb63ebc84a1f0U, 0xbaf29c733b2af31fU,
  0xbbe01f08bcd7f137U, 0xbbdef62bbb5f79fcU, 0x3d0fe1f13cf29156U, 0xbca742c83d2c88c3U,
  0x3b098c2b3cf91940U, 0x3c296e5bbd2afb37U, 0x3cb7fb363c80cdf5U, 0x3ca20f273d3aee9cU,
  0x3d2af2763cf9cf20U, 0x3aec7bc63c85387bU, 0x3d1a5b3bbd30dd59U, 0x3cebed4f3b8a1554U,
  0x3c190f6f3c94bbd9U, 0x3ae71266bd34cb0cU, 0xbcf8ef70bd047572U, 0xbc8b80f3bbf9ec62U,
  0xbc5dd23bbd2edca4U, 0x3d09f7b03d018070U, 0x3ca2f60d3d34313aU, 0xbbcadb4fbb66b605U,
  0xbd0aa6bb3c8d449dU, 0xbd14cf9f3d277799U, 0xbc984af93cb519f1U, 0x3cb962ad3cd0ff1aU,
  0x3bb4334bbd2c5c83U, 0xbc487eb73d024509U, 0x3c6121c9bbe421d4U, 0x3c857bb7bccb4b5dU,
  0x3d36e2783c578f0cU, 0xbcb5f0cfbce78ec7U, 0x3d37e655bc9c598eU, 0xbce00ee93bb3d57fU,
  0x3d2932453ca77748U, 0x3cf32f09bb90846cU, 0xbc9bac9a3c9d7d9bU, 0x3d349771bd1ef15eU,
  0xbd1f8faabc8cf4e3U, 0xbd0b15723cccdc3dU, 0xbd36858fbd071b32U, 0x3ae0f5023c99fad7U,
  0x3c29a3dfbb03b03bU, 0xbbcf6ec03c9a4fe8U, 0xbd3a93c0bc01e83bU, 0xbd2caac33d18c1a3U,
  0x3b6b609a3cb0502fU, 0xbd1b0f3abb027692U, 0x3cecd7443cfb5fc0U, 0x39a7a03cbd20b413U,
  0x3b2aeda5bb9c32f1U, 0xbcf6efb5bd39ca16U, 0xbd3784783c198b09U, 0x3bac82eabc7db11bU,
  0xbd0babd6bcb511ceU, 0xbd081ac2bc007d63U, 0x3d34b4853c03bde1U, 0x3d011977bc70b171U,
  0x3d1526bd3c89adf2U, 0x3cb036f1bca406bdU, 0xbc931f52bc959bc6U, 0xbc631627bcd2706dU,
  0x3b6e41613ce27e4fU, 0xbd25cac63c78b406U, 0x3c54ceb9bc50ec0fU, 0xbc810d76bcfd7f32U,
  0xbc8faea9bd0d6720U, 0x3d2e0dcbbc70dfeeU, 0x3c94b5143d2a5d02U, 0x3bf5a721bd34cae0U,
  0xbc4bd4ef3d00b6c4U, 0x3d0587f2bd1534dfU, 0x3c8898143c89edbfU, 0xbd04fbd5bc9e67a2U,
  0x3cd472143d1078daU, 0x3a9c17d4bb3933deU, 0xbd31ac403cf9e2caU, 0x3c25ed5ebd1a6b95U,
  0x3c5e7be93c33b34fU, 0x3badb5d23a7b0445U, 0x3ca84107bb7f7d03U, 0xbd389f023d3949edU,
  0x3d08d502bd256e54U, 0xbbd1c339ba99dc02U, 0xbd1f084fbd2f7f98U, 0xbc8f4e9b3d015f88U,
  0xbd087cb93cc4b50dU, 0xbd2e16cc3b4b9bedU, 0x3c2d8014bd1d119bU, 0x3cd27a8c3d2f1dc3U,
  0x3ca33239bb4f3bc4U, 0x3cb41d8b3d075dddU, 0x3d04010abc0f1f0eU, 0x3cf0a2d03cc474a9U,
  0xbbe49a6bbc27832fU, 0xbd0dc85d3cb3be98U, 0xbbba20363d2a5580U, 0xbcfcb4de3c886452U,
  0x3d21de783d27994cU, 0xbd2d9b6b3d150178U, 0x3b9e14413c981254U, 0xbcddcc3abcc6cf8eU,
  0xbb7138e33aab0a09U, 0xbd2aab063c20dba1U, 0x3c614d033ca06050U, 0x3cc33fbf39bd5224U,
  0x3ce128c83ccff607U, 0x3cac75d9bd3696d0U, 0x3ce2ebfabb5cd058U, 0x3cebe6393c1b5ad7U,
  0x37b2a61a3d38835dU, 0x3d33f7fbbca3b22cU, 0xbbe3cbd6bc3b0063U, 0xbd36367d3cd5b5cbU,
  0x3c2afd5f3cb8d000U, 0x3c5cdcce3d203cf5U, 0x3ce44ac33c9440b0U, 0x3cada15abbb79353U,
  0x3b94fc6ebd2ce4c8U, 0xbcf8f45bbc27f915U, 0x3caf104d3d1ed569U, 0xbac631bbbcfd0c0cU,
  0xbaed21ea3d2bca7bU, 0xbb59190bbd17d8ebU, 0x3cda78453c1b9da4U, 0xbc6eddaf3bba419fU,
  0xbd399501b9f12fabU, 0x3d1f7e863d0ed658U, 0xbd34122ebcf14172U, 0x3cf6a757ba52c5f9U,
  0x3c1bd6833d2b9199U, 0x3bed6bdcbc89a304U, 0xbb256222bd362489U, 0xbd264c993d154aedU,
  0xbc69e822bd345d70U, 0x3cce0b7cbced4920U, 0xbc18db6c3d09755fU, 0xbd388ab53d2fceddU,
  0x3ca5428fbc402b1eU, 0x3c24d10e3d2587a1U, 0xbc6abc203b253f2bU, 0xb9cb38263bd9e765U,
  0xbd290d9e3cd6cc52U, 0x3d305da6bd26e380U, 0x3bccbdcf3b80b608U, 0xbd2e0a73bb89e287U,
  0x3b4611c83ccbc6faU, 0xbccb97dabc88bd0aU, 0xbc417e8b3d2da8d2U, 0x3d009d623bd5eebbU,
  0xbc56dd213c275b8bU, 0xbbbea7ecbcac9b9fU, 0x3c542ec33c861b49U, 0x3ca07275bca5b4dcU,
  0xbc7f11283d00937aU, 0xbc11da85ba0a2441U, 0xbd1094c2bc020f59U, 0xbd1169afbd37e79bU,
  0x3c5afa493cb29b3aU, 0x3d361047bcd26b97U, 0xbaaacffabb5de0eeU, 0x3d102a55bcfa092fU,
  0xbced312f3d116a67U, 0x3cfb7277bbfb50ffU, 0x3cda24373c5b7faeU, 0x3b6fe64e3bed0b24U,
  0xbcfe741b3c246db6U, 0xbd39d9b23d0034b0U, 0xbd2676c5bcf7076eU, 0xbcd9ef71bcba49ebU,
  0xb83563303d01616dU, 0xbc267701bce600f0U, 0x3cf343e2bc93a0e1U, 0xbc1f11873cf4855dU,
  0xbd2bfd74bd217333U, 0xbc904b70bcd0ec49U, 0xbd008e50bcc857d4U, 0x3c5527babc55b91aU,
  0x3c89525abc71b9bdU, 0x3c4dd1f33d1ed77aU, 0x3c8a98b73c17bf9cU, 0x3cd96dea3d1f6a63U,
  0x3d268d6cbc8c8659U, 0xb953a62d3d0387a6U, 0xbd24fe92bc701fb9U, 0x3c37067e3caeb9ecU,
  0x3a89fdbbbd14b388U, 0xbc96c264bd0e559cU, 0xbd35dad8bd0ec966U, 0x3d07b990bcceff61U,
  0xbcd43a76bc9d64a1U, 0x3d240a58bd322536U, 0x3cbc18583d10f40cU, 0xbb38d8663c1ac943U,
  0x3a5a8b4d3b9e7b39U, 0x3c7f670e3c6d3e1aU, 0x3cf929f43b4c3691U, 0xbd0ed61ebd308e37U,
  0xbc295506bca53079U, 0x3bfdef693d342491U, 0x3d0e08853cda9c6eU, 0x3d25716bbcfdcb42U,
  0xbc521adbbce82ca0U, 0x3b68d75ebc957ad4U, 0xbc1c74abbc0fc718U, 0xbd14181ebd274d78U,
  0x3c6c0f653c78cf17U, 0x3d05f49dbd0ab8e0U, 0xbc90558fbcd52a02U, 0xbb62dcc2bcd26561U,
  0xbd319a0a3c9f1ea1U, 0xba76a7483bb17af4U, 0x3c9d72b23ad5065cU, 0xbccf067dbb80ab7dU,
  0x3d28c3b63ca8c0ecU, 0xbc566e8fbb33518aU, 0xbd2185493d3a958eU, 0x3d01b5753be35923U,
  0x3c462f56bc90e914U, 0xbd05435abd1f6a32U, 0xbc17c3ac3c556327U, 0x3cfdc5a5bb98df24U,
  0xbcbfa6083cb04edcU, 0x3b8533f93b20631cU, 0xbb66b77a3d1b7b01U, 0x3d1cdbf83ad501ccU,
  0x3c36cfa7bc751a52U, 0x3d188ee3bceb74c4U, 0xbcd34979bd04ae57U, 0xbd0d53863d055815U,
  0xbc9a516a3ce5178aU, 0x3c54c3e13cffb648U, 0x3d34b01c3c940340U, 0x3d23f4aa3d318070U,
  0x3cad7a623cabf5cfU, 0xbd24f3bd3c399af4U, 0x3d2637a53d3538b6U, 0x3d1e68cc3cac3c4bU,
  0x3c02aa94bd3a047aU, 0x3c55de303b7bd883U, 0x3d00d4a4bcd26c2cU, 0x3cb0d14f3c9b4f42U,
  0xbd20748dbd262e79U, 0xbca5fcae3c9f8e69U, 0xbc6ebdc8bb891545U, 0x3cd51db5bb4e1bf0U,
  0x396401b2bbf556c0U, 0x3d0b70773cd9b19eU, 0x3c11c7f7bcac102eU, 0x3b96bc843ba4fed0U,
  0x3cc824f5bcca6491U, 0xbd26ebc6bd05d5eeU, 0x3ac34a1b3d2dade1U, 0xbcd88e1a3bc7da4fU,
  0xbc7d2fc63d058fd5U, 0xbcc74438bcabf6c7U, 0x3c4cc5f4bc9542e2U, 0x3cb2de53bd1e1b29U,
  0x3ca273f23d042a60U, 0xbc3de1eb3d1170f7U, 0x3cb595b7bcce54f6U, 0x3c7cada5bc30a9d7U,
  0xbbeaac153c9993e4U, 0x3d2f2fec3d2076c0U, 0x3d25d32ebd2ece6dU, 0x3d22b2d63c862d21U,
  0xbd14e0ee3d34e1a5U, 0x3cec6afd3cf7ecd8U, 0x3ba5c5f43b618f49U, 0xbd3adab6bcaac070U,
  0x3c93616f3c25b086U, 0x3cd301dfbc966472U, 0x3cac3c023c74519aU, 0xba8a3a2a3c48fa2eU,
  0xbd28d1f83c6e4a82U, 0xbbcf2902bd30a3b9U, 0x3bf702d8bd1ad0b8U, 0x3d0918783d1ab0e2U,
  0xbd092283bd185bffU, 0xbd325b74bcb4e3e6U, 0x3cd5abd43d384eb4U, 0xbb878b0cbd376a49U,
  0xbc9983b33cd407c3U, 0xbd04657b3caa4cdbU, 0x3d30150d3b862fd6U, 0x3d2f66a3bc8fa70dU,
  0x3c74bc45bcf46789U, 0x3d278810bd292db3U, 0xbccf9d983ce88688U, 0xbd2425b8bbea8554U,
  0x3d03fa47bce75900U, 0x3cf155a73d0f6521U, 0x3cf9c0423c282e93U, 0xbd36869bbcadbf80U,
  0x3c05b3693cc52fc7U, 0x3cb2e37e3cbc517aU, 0x3ca5c1a7bd1f524fU, 0x3c56a095bcf4ed71U,
  0xbd1da69c3c9580deU, 0xbd359194bb906f33U, 0xbd07640c3c471fcfU, 0xbd0b2f84bcecbd8fU,
  0xbd25052c3cda50deU, 0x3d0d3c903ca64e65U, 0xbd1126163ca8d92eU, 0x3cfe941a3d2e35c3U,
  0x3cb254b0bcf2a040U, 0xbd1f23a03b172a9bU, 0xbd2d6a613c8a5eceU, 0x3c4f8985bd1fc0cbU,
  0xbcf53e3ebc0c61dbU, 0x3c88d8613d392611U, 0xbcda3ba53d118011U, 0xbc5f1ec43c0a4a1eU,
  0x3c7155dfbd39537aU, 0xbd14b953bcf7538aU, 0xbce7a1f93ce76518U, 0x3c3ed60b3cccbc10U,
  0xbce63ce73d3a98baU, 0x3c809363bd28915cU, 0xbcfac33dbd26bac3U, 0xbb885eb2bccf4549U,
  0xbc262fa43c815819U, 0xbcdb554f3d17931eU, 0x3c9b8d13bbb4f339U, 0x3d0a20043d0f1e39U,
  0xbccf36593c8dd30bU, 0x3d3684cfbd15b88dU, 0xbd38bd983cea5fa1U, 0xbc8f30753b1273b3U,
  0x3bcc429ebcb6d547U, 0xbcf0d4413d201d76U, 0xbd36bc1cbcda1767U, 0xbc84da1d3c8c12d6U,
  0xbd26c247bd19faa2U, 0x3c9bdfadbc6c77c2U, 0xbbaaee6c3d34a92fU, 0xbcacb4c83d04c2b1U,
  0xbbd1b34b3ca019b1U, 0x3b8915ba3c365851U, 0x3d3adb61bd292471U, 0xbc62906bbcceaf32U,
  0x3cc824b23d295650U, 0x3c8307973a73f63fU, 0xbd16eed83cf04cf8U, 0xbc57fe713c47d359U,
  0x3cf24860bce19e70U, 0x3aa2eeb7bc69f648U, 0xbd34d347bc880f35U, 0x3ccf10e5bcc201c5U,
  0xbccf608bbbc483e8U, 0x3c2dc5c63b5c4d2aU, 0x3c893bb63d0e8e3fU, 0x3cf2d033b885dc72U,
  0x3ccf0f6dbd26c65eU, 0xbcb1f3efbc8ba732U, 0xbcfac90fbd219290U, 0xbc94797bbd174f15U,
  0x3b845418bd0a9464U, 0xbd054b0abc7b6c91U, 0x3cfec367bd07b93cU, 0x3b774e563cac2b21U,
  0xbc03ba463d0bedb3U, 0xbce272f43d31bf87U, 0x39e03fe5bb922b7eU, 0x3cd6ae063bf7d918U,
  0x3d171ed53cda71d5U, 0xbb5c0afb3ce5e322U, 0xbd39f4e23be7b0ecU, 0x3cd60e913cae3228U,
  0x3c13e0533c5aa355U, 0xbd033f29bd396612U, 0x3d07d4fb3d1a0fd4U, 0xbb12be31bcd537faU,
  0xba93c5ebbd1a8701U, 0xbccf6ae23c440f78U, 0x3d003edebc50f4a3U, 0xbd0c0bdc3c9d2fc9U,
  0xbc945ed6bd2a34f9U, 0x39ec7074bc90c0e9U, 0xbc6341b23b19ba81U, 0xbd315cfa3cb68a7aU,
  0xbd2a62863cb47f18U, 0x3d363282bbd0c594U, 0x388a356bbccaea82U, 0x3d08bb833d2fae7cU,
  0xbc91f697bd06d486U, 0x3c54ff323c5ecf88U, 0x3d1c51dd39ed8b14U, 0x3c106074bc0671edU,
  0xbcf82225bd09b92eU, 0xbce65c633d38700dU, 0x3c47b1293d0f587aU, 0x3ce4c273bbc7b741U,
  0x3b3ae5d93cecc11eU, 0xbcd914ecbccb3332U, 0xbcbb0018bc0a4177U, 0x3c92b1fe3c0b4a7fU,
  0x3cdd5e693d147c16U, 0xbd3aae713d03de38U, 0x3c760831bc8edb1dU, 0xbd1560ef3c177689U,
  0x3d2e0ddabc9f4bdfU, 0xbd2f6271bbf1a31aU, 0x3a095078bce30a1aU, 0x3c0879bd3c336b8eU,
  0x3d2736eabbd21532U, 0xbd37eabd3d0f972eU, 0xbb4d7cd3bd0cb42aU, 0x3cc93fa93cc7ee24U,
  0xbd0766edbc5bc28cU, 0xbd14683c3d369207U, 0xbcecd5cb3ccb9355U, 0xbd201fdabc0a5cb1U,
  0xbd035c3cbc888405U, 0x3cf13aeb3cdf6748U, 0x3d27f18d3ccba49fU, 0xbcdee117bcf781c7U,
  0x3c741c903c0b6a20U, 0x3d0e5e9cbd2939faU, 0xbb2047a1bc9f3992U, 0xbcbe266bbcbc7fe3U,
  0x3ce4e6cb3bef99ceU, 0x3c7a5cbc3beb4875U, 0xbcf7dbdb3d1caf84U, 0x3cec80913a408817U,
  0xbd13c923bd34999fU, 0xbd20e190bcaf62adU, 0x3c923b783cd2a9f9U, 0xbca71595bc37a9bcU,
  0x3acaa75ebc43c076U, 0xbd083b093d20c041U, 0x3d2634483bce7c62U, 0x3b74662a3b9c3eacU,
  0x3ce483763d0db95fU, 0xbc946d1f3cee38b2U, 0xbbdf30ddbca39e40U, 0xbc9236263d0fa864U,
  0xbd2ca5fa3d31b98fU, 0xbd0e9d26bc551bd0U, 0x3b175499bcf6612cU, 0x3bcde5ce3c2c291cU,
  0xbc50233abc30cc3bU, 0x3d2e7aee3c1e6360U, 0x3d37552bbc874f6fU, 0x3c6c60063d1c0dc8U,
  0x3cc1a6f03c931f43U, 0xbcd1e6a7baf843e6U, 0xbc9b35c23cf7768fU, 0xbbf9e1103c6b6a7cU,
  0x3ca44fd33d1dc182U, 0x3ce06f033c358257U, 0x3d304f8dbcef7fd0U, 0xbbee56493c3d943cU,
  0xbc51c8b33cdbab88U, 0xbce439b6bd096502U, 0x3be76201bd0816aaU, 0x3c191b7bbd355b22U,
  0xbcee3e49bac19968U, 0x3d10df0b3b3ea2feU, 0xbc4cdc173a832967U, 0xbcdb3b9a3c3000a3U,
  0xbb75a54ebb051227U, 0x3c5f5fa6bcc96c99U, 0xbb5f0855bc7cd37cU, 0x3d361363bc927ed9U,
  0x3cf789a93d17011cU, 0x3b91875c3d03cebcU, 0xb91084d53c4aec50U, 0xbc3a6cfc3ba3236fU,
  0xbcf7b2fbbd17eac3U, 0x3c05119b3c220e8fU, 0xbced0a1a3cdc3e9eU, 0x3cfab2ecbcee4a10U,
  0xbd191e693cedb775U, 0xbcea1c0dbcab31c5U, 0xbd0f6628bd1ba92fU, 0x3bf577b53adc7122U,
  0x3c4645383c159c52U, 0x3d0c2d493cba9f74U, 0x3d2dc6b13bd339baU, 0xbcfd9ce03a99bf29U,
  0xbd2b889abc3fbeb6U, 0xbd3718fd3cc4158dU, 0x3ca5431ebc97f43aU, 0xbd145a96bd25fd0cU,
  0xbc0e5590bceaa923U, 0xbc995e423cdf3897U, 0x3d0508c73d197263U, 0x3cb27232bd041fb9U,
  0x3c3c4cdb3d0797b9U, 0xbd368fbabcfe0032U, 0x3caf9e7b3c2d65d5U, 0x3cb5700cbc9f38fdU,
  0xbb79f095bd2a2f86U, 0xbd01d01bbc6b7397U, 0xbcd8629b3c3fce5eU, 0x3cf1468cbc61e2e1U,
  0xbd3473d43ca38733U, 0x3d297dc8bcd9ead2U, 0xbc4b14b5bc8e0c97U, 0x3c85bf0abcc3ac6fU,
  0xbd2daacdbcb1f48fU, 0xbcab6c5abc9edd73U, 0xbc26873bbc2d8d79U, 0xbd3260afbd0196f3U,
  0xbd15c0b03c954530U, 0xbccafa2439aa8fb6U, 0xbbf9e67f3d179ec2U, 0xbc09b984bc5a89c6U,
  0x3cc8c7c4bd0d4a49U, 0x3ccc927b3cd36427U, 0x3c01e5febd21fc8eU, 0xbd352146bcfe18ccU,
  0xbd33e51ebcbe75d1U, 0x3c8a3149bc21fae3U, 0xbc0986193cbf292cU, 0x3d16bbcdba5c6313U,
  0xbc95c301bc3de5b5U, 0x3cee68103c26dc27U, 0x3d10ce7c3cbc4cf3U, 0x3cceb564bd0948e9U,
  0xbd170fa33d2c763eU, 0x3a3e527abc1ba4bdU, 0x3cd63e0dbcddd16fU, 0xbd35165dbbf8aa99U,
  0xbb1c0bdfbd2894c1U, 0xbd287a0fbc886859U, 0xbcb28396bd01ad2cU, 0xbc5b4d273d2019d1U,
  0xbcb6f7da3d28b03eU, 0x3c76cc873c92c252U, 0x3c5b679abcea41c7U, 0x3d1f2fd9bd07b40eU,
  0x3d19e00dbc63e257U, 0xbd042368bd09a6d3U, 0xbc8d24f03d0c4762U, 0x3c94c5af3cf7ec69U,
  0xb931f2733d08abf9U, 0xbb8fa1933c86aa1dU, 0xbcad4f60bcbcc422U, 0xbc91f83cbcdc62a4U,
  0x3d188b3e3c6ff260U, 0x3d0d96eab9097d62U, 0x3d11a004bd22ff2eU, 0xbc9be34e3cf6b2a5U,
  0xbd092e573c7bc8a7U, 0xbcd2e6213ce0a7f7U, 0xbd2799dd3d0a30a1U, 0xbbddd5273a005f5aU,
  0xbc0c42803d1c8cd2U, 0x3bcedffabd2d02bfU, 0x3cf80af8bd359f64U, 0x3d1374b53c9cb07fU,
  0x3cdc7bd0bc49b1e0U, 0x3ced79f33bef63e6U, 0x3ab7097b3cda1dc5U, 0x3b820a42bd2a2183U,
  0xbcbb62d73cfb8f2aU, 0x3cdbef1bbb9244a4U, 0x3c7b12b13c5504b2U, 0x3ce49d5dbd32a7f9U,
  0xbc5913dc3d232181U, 0x3bcdb8d93d1395c5U, 0xbce91c8a3cf75badU, 0xbcea515a3cdc72efU,
  0xbd1d3f1cbd2416f0U, 0xbc49098abd108963U, 0x3c0ac5a6bc84af4fU, 0xbd0294e83d1ca4abU,
  0x3cb090a53d0e1a1fU, 0x3cd2119a3cc618a9U, 0x3d2ceeb8bd284584U, 0x3d117483bd2bab3dU,
  0x3ce7371f3cbb13beU, 0x3ccc699ebd21ec74U, 0xbc29abedbb03a1feU, 0x3c79143d3c189de5U,
  0x3cbe353ebd274296U, 0x3c81cb8bbd0eb267U, 0x3cac4318bb877b7bU, 0xbc8304e3bd3aaba2U,
  0xbd2a2aacbbfd475aU, 0x3d04fc5ebc2d7c27U, 0xbd0acd67bbd589d0U, 0xbc16240bbd2660d0U,
  0x3bcc41eebd214f5fU, 0xbc73be323c356b27U, 0xbd227d26bcf419f9U, 0x3d206659bd291d03U,
  0xbc5ba4b2bca8f01bU, 0xbc7f043dbd372074U, 0x3c839af0bcde3778U, 0xbd237bba3b0d4390U,
  0xbcbbea6d3d3083adU, 0x3cb96d933bba8d92U, 0x3c279c503d2e0796U, 0x3c443d4b3cb1385cU,
  0xbc860c36bcda4104U, 0xbd0b47ecbd23cf1fU, 0x3c3d7151bbc85158U, 0x3d2466783d084fffU,
  0x3ba7df5cbcdbdcebU, 0x3cf72bd7bc8fe5c4U, 0x3c8bb01c3cca473bU, 0x3c916acfbae7082dU,
  0xbbdb6dc93b07ba6cU, 0xbc48211abce2474fU, 0x3b63f863bd0bff86U, 0x3b0c84f53c0dd00eU,
  0x3c553935bd1becf4U, 0xbc65d4a13cc6345bU, 0x3c81a3f2bcb41b26U, 0x3c71317ebc9af751U,
  0xbd1ddf2e3b6b3e47U, 0xbc8f4fe23cc4eee2U, 0xbcf8e92f3d2ec79fU, 0xbba34e4bbd0aeedcU,
  0xbd0942c33d2ad8e5U, 0x3d2a449c3929f13dU, 0xbce1093e3c6cf991U, 0xbd3787b83bf710a0U,
  0xbc3b1d8e3c49af34U, 0xbd104cae3cf5e29dU, 0xbc8a7d743ce4f895U, 0x3ca0f97bbcd080c9U,
  0xbb233ec6bb7c0e77U, 0xbc22a69fbd29cba5U, 0xbc4eb0f73cc59798U, 0xbcdecc93bb6614ceU,
  0x3cf5bda53c7067b4U, 0xbd21993dbc78f3dbU, 0x3bd0dac2bbe87446U, 0x3b2cb1563d195f8eU,
  0xbd254d563c800d1aU, 0x3d2cc1da3d358d06U, 0x3cd36a62bc11890cU, 0x3c6806003c226da3U,
  0x3c920fcc3d0b4630U, 0xbca37defbb28ce1fU, 0x3b85a8debcc0bacdU, 0xbc1ca24a3d164f3dU,
  0xbc70710f3d09a59cU, 0x3cdcf8d83d30d477U, 0x3d077920bb8ec815U, 0x3a4b7639bbf69018U,
  0x3bd44aa1bd1a1cfcU, 0xbd34447abc2f36ebU, 0x3c5c95f7bc971828U, 0x3d22bb84bcaef040U,
  0x3d0b24133cf231a2U, 0x3cdc53453c7929f1U, 0x3a934bc7bc97c8c9U, 0x3c5a9ee8bd1f9da3U,
  0x3b98f0943cc08b8fU, 0x3d115440bc3ecc5eU, 0x3ccf455dbbdd42e9U, 0xbd2be9b93d07e97eU,
  0xbab09c1f3c313b31U, 0x3cca5c6cbae77ad5U, 0x3d263c46bc8f7b33U, 0x3b9747ae3a03a84aU,
  0xbccb5ed5bc3fad93U, 0xbc12b99a3d1827c6U, 0xbbbfba0ebacd4b13U, 0xbd01f1fe3bd268c5U,
  0x3d0476ea3d23b896U, 0xbab2342d3caf720fU, 0xbcc18dadbd22d5b4U, 0xbcf4b0d3bce37650U,
  0xbb43e219bd048ad3U, 0x3d2666cf3c85fb9bU, 0x3caa9596bcbfc809U, 0xbd0d0a72bd235661U,
  0x3d2cfffd3d108174U, 0xbb647d7b3ce3e211U, 0xbccd41e0bd06afccU, 0x3ce853aabce20bcaU,
  0xbd360a99bbe7f410U, 0x3d35ea71bd2e7fd4U, 0xbd0ad8513d05d02cU, 0x395456e8bd1c062cU,
  0x3d038acebce15b1aU, 0xbce37ca83d1189bfU, 0xbc81b9953d1dcd3eU, 0x3bba6389bb88cb0dU,
  0xbb5413a1bd1b38afU, 0xbcb993beba188091U, 0xbcc625713d20dcbfU, 0x3c8b205bbc3942e2U,
  0x3c48d7edbb794a42U, 0xbd030b113bfdd385U, 0xbc36d8b0bd0c2fd2U, 0xbd1e08fabca9e036U,
  0x3b97d8a53d3934eeU, 0xbd315d643cf4d268U, 0xba42418ebc8438c6U, 0x3bb0cc47bad156d1U,
  0x3bcbe9fa3d2b9abdU, 0x3d37d6de3d102718U, 0xbd01e68c3c8b7927U, 0x3d2c31e6bd0f5d23U,
  0xbb810e2bbcbff90bU, 0x3c97fd92bce15987U, 0x3bfe4d2939a330a0U, 0xbc71151a3cbc2829U,
  0xbd2645df3ce4e0d0U, 0x3b854910bd351a76U, 0x3cf547e5bc53d671U, 0x3c8ad5c63c56d463U,
  0x3bd38ef1bca53ed3U, 0x3d31990cb9d016c4U, 0x3ccf38a73d2f3267U, 0x3cc51c87bc831730U,
  0xbc91e6c4bbbe57baU, 0xbc3344ce3c8f44fcU, 0x3cf6649ebc8b9b17U, 0xbd0cc8e4bc356734U,
  0xbc801b64bb9d8182U, 0x3c3af0b0bcaeccf7U, 0xbd027953bce031a5U, 0x3c31086f3c2a5f89U,
  0x3d150374bca4034eU, 0xbd1c8ae53c4a4195U, 0x3d27a244bd042337U, 0xbc8a23633d34ea18U,
  0x3d2dabffba8c4684U, 0xbd1c69abbd21c254U, 0xbd356cd73d15eed1U, 0x3d26ebe23cb1b96eU,
  0xbcb276223d1705e0U, 0x3d1b539bbcb7c5c9U, 0xbd07fd043ce95cf1U, 0xbc8a5636bd0caceeU,
  0xbce4a26bbcf19842U, 0x3d1bd44e3d134733U, 0x3cb02acd3d372269U, 0xbc9dd1b4bc1ff5ffU,
  0x3c8d4b3e3c392044U, 0xbd2b78763c3b188fU, 0xbc493f7e3bdf8d34U, 0xbc1e1374bd260c13U,
  0xbd116a3abbb4fec6U, 0x3cf2194bbc34960bU, 0x3c06cf1c3c489e47U, 0xbcd9cc6cba32b1caU,
  0xbc8d6615bd294103U, 0x3c007b553c7f6350U, 0xb96f14b539fa4b81U, 0x3d3278d43d36447dU,
  0x3ccc59903cc6b91cU, 0x3cb8727dbbaf599bU, 0x3c7c2156bcf653caU, 0x3ca4ace73d0a6d1bU,
  0x3d05d1573c5b10c9U, 0xbc8744753d00f181U, 0xbccfa2ec3c13aff1U, 0x3cccdd043cfc004aU,
  0xbc351ce03d0929e9U, 0x3cfb57ec3b5a6554U, 0xbc02476b3d118eb0U, 0x3d0c08c4bbad276aU,
  0xbc3aa57dbd2d24c0U, 0xbc837c18bbf799f8U, 0xbb95d0203c1a31a8U, 0xbd14c15b3c9dfff7U,
  0xbd3464ce3c4573e0U, 0xbc62fa44bc35a4cdU, 0xbb03482a3cfc1ffbU, 0x3c5aaa633d1c433eU,
  0xbd0193613d229c94U, 0x3ba7a1ed3c8bac38U, 0x3c1d9dbd3d2bca67U, 0x3ca7c9513c6ea320U,
  0xbcb058353aa2f605U, 0x3ca5312e3c665ddbU, 0x3d09ae48bcd0a6f7U, 0xbb85cf6fbd173750U,
  0x3d1a98593d089d04U, 0x3bd31bc9bd221eceU, 0xbc98e565b9d71343U, 0xbcc7aed8ba8405c4U,
  0xbca622df3d1f7446U, 0xbd32e153bc969ac0U, 0xbce3a3513cef2486U, 0x3d147945bc6d11a5U,
  0x3ccbf1eebc9815d5U, 0x3d12e07bbd3331eeU, 0x3c301cc7bc8437c2U, 0x3c55eccbbd0ab3f6U,
  0xbc0f577e3cbaa2daU, 0x3bb8fddf3c95bc94U, 0x3c9b58f3bb38e1cdU, 0xbd30d63abcbc6d00U,
  0x3d20a514bc30fa09U, 0x3bf24eb83ce46264U, 0x3cad84ffbd280fd9U, 0x3cc983ba3c049612U,
  0xbca04d423ba1d99dU, 0x3ae3422dbc42bd23U, 0x3cab16abbb1c85a6U, 0x3b365b66bcdd1645U,
  0xbd34b60e3ca11a98U, 0xbb7c2af2bcd5e381U, 0xbd385c5dbd094774U, 0xbd1537f33cdc5bb4U,
  0xbc82135a3d32286eU, 0x3cc176d7bd005d44U, 0x3c92e91b3c388e5dU, 0x3d20554cbb381c9fU,
  0x3d20bda43cd2902fU, 0xb70518b9bbb1cf59U, 0x3ce415043d19693cU, 0x3d0e49cebd2fa4dbU,
  0xbc226c0abc2b25f2U, 0xbc8b60bfbcb253f2U, 0xbcad89353d3a0912U, 0xbbf0ba513cf0f992U,
  0xbcd5e0f33c2db6ebU, 0xbc2aef44bb9786e6U, 0xbd388142bc9d8d2cU, 0x3d09fe2a3d030d85U,
  0x3d14f44dbc2f25cdU, 0x3d17ecba3c814abaU, 0x3c98e1813d27e8ccU, 0x3d1bb895bb6f4dacU,
  0x3d1279723c9ea78eU, 0xbc3144a4bd1dccffU, 0x3c7de0a53d12596aU, 0xbb408901bc9f8a1eU,
  0xbc5fc0583d2a08aaU, 0x3cd8252e3c7d81a9U, 0xbc2fab553c0864beU, 0x3ca773243d01470dU,
  0x3d25e2ae39dd62aeU, 0x3c0278823cf2e6b9U, 0xbd3158c6bcc51cd8U, 0xbcfdab8cbcc30f9aU,
  0xbcc821803b2ae326U, 0xbd27f9aa3ccd35b1U, 0xbb30f769bc8acf59U, 0x3d267563bcbca5b1U,
  0xbcda48ad3ca0a741U, 0xbcff67b23cc8cc43U, 0x3cd2cf69bd24bc13U, 0xbc86a8763c3a94b1U,
  0x3c4bc9d8bd25a87cU, 0xbc9afafe3cd46681U, 0x3a6d2248bcb8b324U, 0x3cceea7aba4c3246U,
  0x3ccd929c3c83402aU, 0xbc9e0e69bd11421fU, 0x3d326866bc63aae2U, 0xbd2909553d05618cU,
  0xbcee5230bd35fffdU, 0x3ca3cff7bd250effU, 0x3cb34121bd357982U, 0xbcc392623d1e3e1bU,
  0x3d355961bc70787aU, 0xbce2ee343d16b0fdU, 0xbc89e3333bee4077U, 0x3c054c8dba210dffU,
  0xbca867583d2af543U, 0x3cc1884a3d22ab6aU, 0xbca5ac7c3d0fe187U, 0xbc333561bcd857afU,
  0x3d027cd33c628582U, 0x3b0cc76a3bfcfb5aU, 0x3ceea7473c8575e8U, 0xbc802b92bab809a2U,
  0xbc969713bcd3d00bU, 0x3cf21aaabc4dff3bU, 0x3b340f82bbbbeb1cU, 0xbcfd5f933bdc49d5U,
  0xbd26eaa53d355a9bU, 0xbc601f20bd19108eU, 0x3cba7720bd0dd6ceU, 0xbb0caf503d0cfad5U,
  0x3b8e59c3bd27a093U, 0xbc89bfb4bbe33003U, 0xbc756f373cf1a868U, 0xbc2265dabd23782cU,
  0xbb9d3eea3c65ac8eU, 0xbc176d563cff2a1cU, 0x3cac3ee53c731bf5U, 0xbcb22292bc0b9eccU,
  0xbc6eef36bc6e6f29U, 0xbc7df2ecbd2cfabfU, 0xbd3214d2bca80a90U, 0x3c578d4a3c7383d7U,
  0x3ce3ceeb3ce91defU, 0xbcdb883c3cccfb6aU, 0xbc7182d4bcd0f4d2U, 0xbd2a0f983a75950eU,
  0x3d165bc43bc54950U, 0x3c4c35153cd76935U, 0xbb9c7800bc1ed3a3U, 0x3b2edc733c6e3852U,
  0x3cf834ca3b7e20a9U, 0x3b9529933d0cad0fU, 0x3d0bb03cbb940208U, 0xbd2a37943d173ffbU,
  0xbbc7a9f8bd0a5b8fU, 0xbce6de2c3c712ce8U, 0xbbd076123c119e91U, 0x3c9a74f53c9e5c82U,
  0x3c74f9efbc656c27U, 0xbb9c38313cb687d2U, 0x3d0f5eb5bb05eb3bU, 0xbcb66b97bc44fef0U,
  0xbbec5a17bcb57367U, 0xbd19e43a3bff37dcU, 0xbc84579b3d381b7cU, 0x3d0a67eabd02f65eU,
  0xbc6999cfbbe0c0faU, 0xbcc2a1973cfe3f9bU, 0x3a02d8283d1d61afU, 0x3ce91ae33d39d448U,
  0x3d1f3bf6bd17c640U, 0x3bbf06d0bd05127cU, 0xbcc5b9703caa1147U, 0x3d1b6f763c067d9cU,
  0xbbc9012abc79ec57U, 0xbcae84533bcd5f05U, 0xbd38d154bd170f4dU, 0x3c99a14f3d39c27aU,
  0x3cae63503bee5784U, 0x39f1750cbbd33261U, 0x3d1f63e1bc04f1e8U, 0xbbec883c3c94d3a0U,
  0x3ccd8874bd012141U, 0x3a48fcb13b573efdU, 0xbcc00778bc1128d4U, 0x3cc7d8de3bbee668U,
  0x3c3ddac13c7b6a5aU, 0x3cbb4613bca4a083U, 0xbaa3b471bcd8bfbdU, 0x3ce9e8c0bba98ca3U,
  0x3bdb8d0d3d015d29U, 0x3d0538ee3be98f2cU, 0xbc1bdc7ebcba2951U, 0xbd1a6df73d2a021cU,
  0xbd088d1cbc5910dfU, 0x3cec3694bd1e1c1fU, 0x3cdd138b3d0e0d8cU, 0xbcbe9255bd2fab68U,
  0x3d25014e3c3927b4U, 0x3d38aeb4bd08928dU, 0x3d17e2ef3d25e593U, 0xbd35162a3bbfd49fU,
  0xbaa0394c3d071078U, 0xbc9d24423ce0a23cU, 0x3cc1ae72bc8676cdU, 0xbd0cbe983c328ff1U,
  0x3d0d1acebc5ebd17U, 0xbcdcd3b3bb8449bbU, 0xbce80be93d321e83U, 0x3d226bde3d310458U,
  0xbd2c2fb8bc74ff2fU, 0xbc8804b53cd0b88fU, 0xbba9bd923a78d2acU, 0xbc925596bd248848U,
  0x3d39245f3d2a6bb1U, 0xbd0de2403b0a72abU, 0xbc2b9aeebc8fe80cU, 0xbd0efa5cba812bd6U,
  0x3d1d46f6bcd766a4U, 0xbc81dbbfbcdd446bU, 0xbbaef38cbc899376U, 0xba4dfb71bd133bd9U,
  0x3cdc1c363b911cebU, 0x3d36021dbc300378U, 0xbbe3d1163d211bafU, 0x3c30645fbd29410cU,
  0x3d19bbc4bb93a3b0U, 0xbd215656bd35e021U, 0x3d0f9a883d291404U, 0x3d10284abcb75b3eU,
  0xba136e77bcc14130U, 0x3bb95911bcc66200U, 0xbb7fb1c6bd0648b1U, 0x3cd7f2033ce9b200U,
  0x3baffde0bb0441a7U, 0xbcfbc3d3bd2ca180U, 0xbd0aa0b23bb89c55U, 0x3aa14d2bbbbb92bfU,
  0xbcc38727bd0ef945U, 0xbadff73b3c23283aU, 0xbd2a4a24bccecc86U, 0xbaa35ea23b0f77feU,
  0xbc637cfd3d29619cU, 0xbcc0308f3cb6c221U, 0xbd27227a3c9c8d97U, 0x3ce42d753cb81147U,
  0x3b446ddcbc9e8e19U, 0x3cbe6c53bcc70454U, 0xbd0140fcbce93ec0U, 0x3d1f03b6bccbfc7cU,
  0xbcadff373b49fa8fU, 0x3d1a78e43b702c3bU, 0x3d32318f3b9b9146U, 0x3c5470d53d0091c4U,
  0x3cb803a2bc7f1514U, 0xbcd1eced3c62f859U, 0x3d00b4043b69cc79U, 0x3d009fe23c7f8b63U,
  0xbd078aaa3d0cf797U, 0xbc6f99c23d215a7fU, 0x3cfa7579bc8ddd94U, 0x3cc2cc64bc34c733U,
  0xbd119c983b934b75U, 0xbcb114df3d1d6f07U, 0xbc3084f53c6f3bd9U, 0xbcf6fb6dbc9c2724U,
  0x3bc378c13b4b9228U, 0x3d2a1c7cbc191bf6U, 0x3b356c22bc2e91cdU, 0x3cafa25d3b442b0aU,
  0xbc80c85ebce3cc6eU, 0xbcd49faa3d218785U, 0xbc276ba838c6006fU, 0xbcf9683cbc86bd5dU,
  0x3c8c176c3d202ff2U, 0xbcdfc913bd14586eU, 0xbd2ef5cbbbd16df5U, 0x3c95c5663c78f5a2U,
  0x3ba2c7473ced3643U, 0xbd333aefbd1f3683U, 0x3d229b623d036d6fU, 0xbc72cac7bbaee1cbU,
  0xbc74f31dbd27bd18U, 0x3a80dfe3bcd188fbU, 0xbd15f1413d248b6eU, 0x3c8c1a643ccba658U,
  0x3cbde0473c2e6137U, 0x3cb96fbbbc83e27fU, 0x3b79af503c74b2eaU, 0xbce786e2bc3b6b95U,
  0x3d19aeb0bd0ef004U, 0xbcdf84c5bcf608faU, 0xbcfd907b3ca7c422U, 0xbc8e2bc1baa8d584U,
  0xbc66fb253cbef422U, 0x3cdd57013cf9372eU, 0x3b2fa4eb3d2253abU, 0x3ccb5bddbc969188U,
  0xbd050b0b3d02bdecU, 0xbcdc369b3d0323e5U, 0xbc9993fbbd2c70aeU, 0x3c36dc17bcc63360U,
  0xba921d403c2aba29U, 0xbd368519bc90f341U, 0x3caf4ae6bc8fca7eU, 0xbc82e5fcbca4ddcdU,
  0xbc478939bc45ec43U, 0x3d16e718bcf5d174U, 0xbb123817bb70fe77U, 0xbc7edf273d015763U,
  0xbc46baa9bcb19f52U, 0x3ada36c53a706f3cU, 0xbcbe73d2bcfbbd6fU, 0x3c3006c7bb0e6c85U,
  0xbb10bab13ce20a40U, 0xbcbec91e3b14f3b7U, 0x3d344981bd393c84U, 0x3c8e5c8cbcc65d5bU,
  0xbcfb5aafbcded80bU, 0x3cf379e4bc9280cdU, 0x3d298f0d3bbd88d3U, 0x3b8d7bcc3c9426a0U,
  0x3cd989733c23f4d3U, 0xbcc2b58f3d30d403U, 0x3c4c7767bccb3488U, 0xbd350762b7db2e29U,
  0xbd2fd2f93cfdb7f4U, 0x3ce066cf3cc05236U, 0xbcd34fd1bd2f9812U, 0xbcd147b33c56c273U,
  0xbc85fab23c7a011bU, 0x3c9b38e83af6ad4eU, 0x3b1b1c6dbd3218c0U, 0xbbff94043d192ec1U,
  0x3d17913e3d0005b7U, 0x3ce5b63b3ceec310U, 0xbd0dd323bba95266U, 0xbc91a1913cd05c7cU,
  0x3ce893183d335c9dU, 0xbc1548c5babd36f0U, 0x3cebbe983bf91781U, 0x3c2c643ebd036ccaU,
  0x3d1e7a353c7d5f56U, 0xbcf176873c78865bU, 0xbcd1d1eb3c354c00U, 0xb98b96e1bc3238feU,
  0x3d1965a7bb60dc74U, 0xbc9c9a64bc90a44eU, 0xbcff3fc2bcaea302U, 0xbceeb71e3bd914ccU,
  0x3d068f1ebc9871edU, 0x3d206bf23c4c3376U, 0xbcc5c686bd1a2a2aU, 0xbd12b4293c4abe1fU,
  0x3c287743bd35418fU, 0x3b93e451bd26171fU, 0xbb8725e6bd022ab3U, 0xbd3803693bae8bd8U,
  0x3d26e9fdbc94f63fU, 0x3d0d7c6dbcc4a294U, 0xbcf67111bcfbeaf7U, 0xbd0f09f63cc4c056U,
  0x3d11b2a4bd258a03U, 0xbce56d02bc538697U, 0xbd12dc0abd387361U, 0x3d154ffd3d305541U,
  0xbc3fa853bb74fb6bU, 0xbcaf30d93b773827U, 0xbcad5fc93ca7a2c2U, 0x3a8da9fd3d00c276U,
  0xbcf78f2f3b8920e8U, 0xbc2f11833cf3e3e9U, 0x3c29961c3d18cde6U, 0xbd14adcabd1a63ecU,
  0x3d1a9644baca40f1U, 0x3c4b558b3d027cebU, 0xbd0f85753c3ae2a7U, 0xbd03c170bc8bc749U,
  0xbbbb3d9fbd1f24c3U, 0x3c6860c33c9766e4U, 0xbc2d0a86bb28e696U, 0x3c8554e83d0f5da8U,
  0x3cbf58123c93c1cdU, 0x3ae697583b703d7cU, 0x3cca5babbcb24a50U, 0xbc941c413bea5b33U,
  0x3c43de32bc7e06b0U, 0x3d3a0cd7bcd3dd04U, 0xbcdf569abcf059e0U, 0xbd2a155f3cf0e810U,
  0xbd1558c0bd0a5519U, 0x3b1cec12bcd1ef76U, 0x3ce8c16c3cdd7053U, 0xbbca8c70bc31cbd6U,
  0xb99549e3bd03585eU, 0x3c6cb3983d2026cfU, 0xbb957182bd29c7f4U, 0xbd287c07bce5c75cU,
  0x3a4aa3e6bd229dc0U, 0x3d2e848bbba510cbU, 0xbca25c5fbcecf25bU, 0x3c2fde503c702764U,
  0x3d0ee843bc165d30U, 0x3d182223bccc2bf7U, 0xbb29c6f93cdba434U, 0xbc873ec33d2bd558U,
  0xbd221ab5bc967d3bU, 0xbcdb98a83c2e1003U, 0xbc09dc92bd0efc7eU, 0x3c892f753ce48061U,
  0x3bcb6870bbfa29deU, 0x3cc8077e3ccfac8aU, 0x3cbab7623c85d914U, 0x3d3829723ce0c885U,
  0x3c9d2e04bd10d4f9U, 0xbc1605cebc27432bU, 0xbc223bdcbc9f56a2U, 0x3cc6d658bcc58769U,
  0x3ce65f3dbd211a4eU, 0xbc8688ab3cf165aaU, 0xbcd6df3a3c9df776U, 0xbd17ea323d21fe0eU,
  0xbcea16103cd531e5U, 0xbc8e0a09bd2480eaU, 0x3c172e543d2c8b6cU, 0x3b4f35ed3bea09c6U,
  0x3d1e9ee5bc040247U, 0x3c151f2bbc44a724U, 0x3cb073253d362538U, 0x3ce08eb93cf6c438U,
  0x3c4e092eba02ac56U, 0xbc228db3bb87cb0aU, 0x3c15ab91bcdf367dU, 0xba6d12f2bd239731U,
  0xbcc58160bd0f6ae9U, 0xbd239f083aba06d5U, 0x3d1894333cfd7b25U, 0x3cb7737dbc77380aU,
  0xbd1f8408bca7e601U, 0xbd19f7603d13e207U, 0x3c6de034bd1f1464U, 0xbbbe46f93c6e5d56U,
  0xbd3309293d0e0200U, 0x3d15750e3c879337U, 0xbcf863bfbcd6c2b9U, 0x3d05cf5ebd28d6eeU,
  0xbbf47d08bc1dae60U, 0x3ca69b513d02dfd1U, 0x3c58c3bc3852aaf4U, 0xbce905753c66d59aU,
  0xbcf216823d26e2ffU, 0x3cb5e7193ccbf95bU, 0x3bfa1530bca59142U, 0x3c9bf0933d11f842U,
  0x3c3e44f7bd373bbfU, 0xbbf3ad37bcb0db7dU, 0x3c36084e3d069f7fU, 0x3d3938b6bd37544dU,
  0xbcab49eabd245236U, 0xbbe70ecb3cee9c33U, 0xbcf28867bc04bf4fU, 0xbc02dfc1bb1231f9U,
  0x3d02f5aebc663103U, 0xbd20b2973c1b71e4U, 0xbce6e19bbcafab9bU, 0xbc893c343d170eb3U,
  0x3cd0596dbc3daec7U, 0x3c1d5149bcc31023U, 0xbc9cd84c3cf60793U, 0xbd13ceb33cf34050U,
  0x3c5ee71b3bae5ad3U, 0xbc8bb2c23d18bfffU, 0x3bf928583c7b053aU, 0x3cf343c83cc3bcc3U,
  0x3c54a76cbd2faba5U, 0x3c2bcc343d1e80a3U, 0xbae4199dba83ca40U, 0xbc5a4efc3d305cffU,
  0x3b6beba23d0bb4a8U, 0xbd2d558cbd02cbe8U, 0x3baa62863c4a486eU, 0x3d24375fbc9f6bfbU,
  0x3cb17b8c3d1959b3U, 0x3be623bbbd2d7574U, 0xbc040f783c4a08d9U, 0x3c842a3d3c4ab893U,
  0xbca5206b3c833de5U, 0x3d18fedd3d3a571aU, 0x3c5d99733c0c5b2bU, 0xbd091dbeba625caeU,
  0x3c78ac2c3c8f1350U, 0x3cd48ab63d22d178U, 0xba82a24cbd2262d0U, 0x3b109d63bd2d9b45U,
  0x3c188a5cbc6e2da9U, 0xbcb60b6bbbfeac54U, 0xbc7d5e843c9255cbU, 0xbcb6b4e4bd1c79deU,
  0xbcc1a907bbf89f81U, 0xbd1ed7ad3c9be5b6U, 0xbd1b5fe0bccf421dU, 0x3c3d006b3d1c7409U,
  0xbc7496d23c2811afU, 0x3d246167bccbc0e0U, 0xbc80021a3c63eab1U, 0xbc2a8588bbdd9866U,
  0x3cf05032bc99fdc5U, 0xbd01d7f53c187c47U, 0xbcda1b51bc4d285dU, 0xbca4348bbb040134U,
  0xbbf1e1c5bd01ad12U, 0x3c9942453cb98254U, 0xbd31d28b3ab1ab10U, 0xbd15d8a23cea9fb3U,
  0xbc8876973d10c5f9U, 0x3cde9f37bc90ca65U, 0xbcbed692bce8642dU, 0xbd2056323cbe17a4U,
  0x3c5d32e9bd27f310U, 0x3ca99f4f3c7b8577U, 0xbb333988bc3fcbd6U, 0xbad8ef0dbc3ee8b6U,
  0xbb9054ff3d319c89U, 0x3cfe718abcb97809U, 0x3cbb003d3c485d77U, 0x3c9d6c72bc47c090U,
  0xbb974537bd2504a7U, 0xba9c6ab8bcaf4557U, 0xbd01d0be3d0ac264U, 0x3cf430fa3c7a0352U,
  0xbcc14e32bd327ebbU, 0x3cb94debbc3f5a3aU, 0xbd1a21c9bcf2aa16U, 0x39eefc9c3cb76040U,
  0x3cdeaf5d3cbcab08U, 0x3c55e9413d2bb4adU, 0xbb96f6c1bcaa3d24U, 0x3c113aa73ceede41U,
  0x3c6d1754bcd889b3U, 0xbc0d3b25bcbd6e0eU, 0xbd38f27a3d050db8U, 0x3d1978a83d38025fU,
  0x3d080316bce65acdU, 0xbd19e8e73d17d562U, 0x3c41b11eba01f797U, 0x3d07a243bb18e900U,
  0xbd206dde3c91dac5U, 0x3cf13b5d3b7d8e53U, 0xbd02f861bcfad6ccU, 0x3d33eeeabc907a44U,
  0x3d304b6dbc1846e0U, 0xbd00e2e93cb59a24U, 0x3d2dc9633c9b54aeU, 0xbce2cd253d1d541cU,
  0x3d1e95123c871e8aU, 0xbd3a28a2bc339ae4U, 0x3cfadf983c192410U, 0xbd1456413b82e5b6U,
  0xbc84a3313ce35703U, 0x3ccfeffe3ae5f4dbU, 0x3ceab221bcae24eeU, 0xbd011024b9dbea93U,
  0x3d1ad55bbcd10f14U, 0x3d3313b6bcfea209U, 0xbbc00bfdbd2f3f19U, 0xbd0f031b3cea1eb6U,
  0x3ca25081bb29f7feU, 0xbc77fca0badaa47fU, 0x3c4828b9bae3f4bcU, 0x3c6d078e3c27e8b8U,
  0x3ca7cf083ce17998U, 0x3c492f2c3c421245U, 0x3a8c42ddbb3209baU, 0x3d25c0e53d0bdac2U,
  0xbbe6b7e4bd2a6929U, 0x3af631b4bd0072c3U, 0xbd00da3d3c17614fU, 0xbd0130dd3c0ed462U,
  0xbd1cc0e73c2f3575U, 0xbcbb20053b956fc6U, 0xbc3406383cf76453U, 0x3cf7bfc6bd123e63U,
  0x3c989d1b3d17f572U, 0x3cfd38f33c80b28aU, 0xbc3f3273bd1d66bcU, 0xbd20c9483acdc364U,
  0xbce0b6203c2a2f33U, 0x3ce077e1bcb819bfU, 0x3cd5987d3c1fc97fU, 0x3d3af43b3d23624cU,
  0x3b63ca493cdb4050U, 0xbc7b63bc3c2f63b7U, 0xbc6f35b0bc0ba565U, 0xbd0218ec3cbcb63fU,
  0x3c4b543e3bab8f7fU, 0x3cb000f83c95f790U, 0x3cf5b0a03be0f970U, 0xbd366367bcd9eaf2U,
  0xbc6420f1bcd41652U, 0xbc8d60b83ce5a46eU, 0xbd0b44f9bb30252dU, 0xbc73ecd23cdf2658U,
  0xbcfbbfe9bced7e00U, 0x3d18dd05bcaf88f6U, 0x3cc06c3a3c6a878bU, 0xbd04fa6ebcfb2323U,
  0x3cd65bc93cc0622cU, 0x3d2e7bf0bcd83d50U, 0xbb2660d33c958346U, 0x3d1e11423d054f8eU,
  0x3ceda3fabd31a2ddU, 0xbcfcb853bcae6c31U, 0xbc8093ac3cc0cd41U, 0xbcf02bf53d3a52b8U,
  0xbc20cf253b9c0182U, 0xbd0374923d20e10aU, 0xbccac6683cb5cbb0U, 0xbbfb4f663d24e54fU,
  0x3cfddc403bc81109U, 0x3a9596063d354e80U, 0x3c4035ef3c5e5967U, 0x3d1e6948bcd084f9U,
  0x3c9df0af3d10bb27U, 0x3cf77456bd1f5a99U, 0xbcbc1d493d2bb1d2U, 0xbcfcec68bcf3fbd6U,
  0x3bf65508bd2c7301U, 0x3cc9d0f83c2acfa8U, 0xbcec0a513d193f4cU, 0xbcf6e64bbd2a61deU,
  0x3c1fe76a3caaccfaU, 0x39e626263a4f29c9U, 0x3b5764dfbd294c4cU, 0x3d32ec93bd1d5198U,
  0xbc3b58b0bceb9ad8U, 0xbd16f7c4bcb751d6U, 0x3d0b34de3c87ab45U, 0x3d09dfb0bd2850f5U,
  0x3d2ffefcbca424f4U, 0x3bfb7c0abacc4572U, 0x3d20f9d7bc3dc23eU, 0x3cbf3ec939c4114bU,
  0x3c98938b3bb97910U, 0xbc09e09c3bd577f8U, 0x3c668db13ce00b36U, 0x3d0c49243d177cbaU,
  0xbca99ee83d04dc84U, 0xbca74952bccd5503U, 0xbbdb656f3ca55655U, 0xbc8a8383bcbe047fU,
  0xbce07f7d3d026060U, 0x3d3144993c025a34U, 0xbcc46d4d3d24f9e5U, 0xbca1e350bd05d240U,
  0xb9fb549a3d14edd8U, 0x3c0aba6cbcb304eaU, 0xbc8d22183c95fc03U, 0x3d1a41dbbca6e631U,
  0x3d25f2b43ca4f20bU, 0xbc454fdd3cebcd3bU, 0xbcd0be35bc689e04U, 0x3cb5d358bca4d07cU,
  0xbd3957bb3b024731U, 0x3d16ee1d3d087d6fU, 0xbc2dcd08bace3522U, 0x3d1b8b3ebce9a9b4U,
  0xbcba31cebd24a389U, 0x3cfe3561ba89fdbbU, 0xbcc8f0cdbd0ac679U, 0x3c6f46ebbb8ae447U,
  0xbb9b992bbcf0517fU, 0x3d26a1273cab6c4eU, 0xbb0617b03d1a7886U, 0xbcb1cde9bd3ae281U,
  0x3c91e63dbcb3ea78U, 0xbc4e483c3ba39af9U, 0x3d23cce1bd0727d1U, 0xbb658a53bd30bea4U,
  0x3c5ed7dcbd0394cbU, 0x3ceaf0bd3c700eedU, 0x3cb0adb5bd31d878U, 0x3c20c42b3c9b93cbU,
  0xbc321accbb258648U, 0xbd0a9ddf3d3a7450U, 0xbcb26b1cbb3f2e7bU, 0x3d2332163d06faadU,
  0x3cde1abc3cd43dbcU, 0x38cec6d4bd22eeaaU, 0x3d05f370bd3aa254U, 0xbcdcab1fbcc1a3e7U,
  0xbd1c5825bd1d83e5U, 0x3d3929af3c516503U, 0xbcb57ffa3b0b8644U, 0xbc932d6c3d13e552U,
  0xbcab14313c41d84dU, 0xbc86700bbcdbabfcU, 0x3d1b68c83ba3bbcbU, 0xbb1fd03a3cf497cdU,
  0x3ce10c6a3c3c96a4U, 0xbc8604a83c21829eU, 0xbd124b8b3cace0c2U, 0x3d1690ca3d33a9f2U,
  0xbc0203923d339b64U, 0xbbec38393cdf0bbfU, 0xbcf9f2ac3c953ec0U, 0x3d302a4bbc6aca98U,
  0x3997872c3c59dfefU, 0xbb9f78af3d14eee6U, 0xbbe1b2573cb6e642U, 0xbaa2da16bc05856dU,
  0x3c4ebe513ba24096U, 0x3cffcba73cdd0998U, 0x3d0dc01abd0d5f1fU, 0xbca21a27bd1d9ba4U,
  0x3b6bbafabc50ed0aU, 0xbcf118673cfafdc1U, 0x3d26fa253c43e1c8U, 0xbcd163dcbc3b20baU,
  0xbc38ecb63b19d8d0U, 0x3d1bb689bc098d4aU, 0x3d1dc872bcfc218eU, 0x3d03296b3a2059fbU,
  0x3d2d4ca9bbdbf77eU, 0xbd2a73b33cb0ad75U, 0x3d22c3e53d0b9d02U, 0xbcb8cfa83a9346d9U,
  0x3c13c2f93d208ec1U, 0x3d0f644cbc181b7dU, 0xbca36f6b3cc8a1bcU, 0xbc9e3670bd0ccd6dU,
  0x3c23b229bb6334aaU, 0x3d3119a63b437bf3U, 0xbd364a00bc6d5902U, 0xbc613238bd2d2b31U,
  0x3c3ec26b3c5c5729U, 0xbb81ca67bc9ffc7dU, 0x3ccaccab3cdecd9dU, 0x3c4a63bf3d16a719U,
  0xbcd1f5f73c1ffb7fU, 0x3c1dfd5d3cab87c0U, 0x3d091f1cbd206e2dU, 0xbbda09e73cd82f85U,
  0xbd1f79d9bd114362U, 0x3d22160abc6cb3bbU, 0xbd1e9bd0bce17f64U, 0x3d087b513c3a5820U,
  0x3ccc7570bce650b0U, 0xbd1588aabcbd83c2U, 0xbb59d91cba24ae92U, 0xbc90dd07bc8486f3U,
  0xbd13acecbcf35a86U, 0xbcfe335c3cafb652U, 0x3d3385dc3c932203U, 0x3d04ff533cf296a2U,
  0xbd2190a03c926951U, 0x3d05e1b13ce1a612U, 0x3d2644ab3d0d0b1dU, 0x3bbf2b3dbc9701f9U,
  0xbce0d8cd3c3b086cU, 0xbad1fd243c1f1e60U, 0x3d1b4c84ba15bf77U, 0x3d1921f1bc001592U,
  0xbbe32f25bc69db1aU, 0x3ba069513d022fe4U, 0x3ceb40c43c94d4d0U, 0xbd38f1863c1bb823U,
  0xbb579f7abc79972bU, 0x3c4cfcddbcbd4dbdU, 0xbd0b488ebce93cc1U, 0x3d20bbcfbd2c2719U,
  0x3d12b551bd1f050dU, 0xbcfbe31dbbf8bf75U, 0xbb57ef43bcda7666U, 0xbd14bef3bc1e9206U,
  0x3d126466bba88a6fU, 0xbc0529e33c107d9fU, 0x3aad3fd5bd04c5ccU, 0xbce9dcb0ba010e42U,
  0x3ce8b6e7bc9e8d47U, 0x3ce6cb2cbcf98d0fU, 0xbd149632bd14651bU, 0x3bc745823be93082U,
  0x3d0d0967b98c254aU, 0xbbc177ad3c10f61fU, 0xbb5560eb3c3d8fa6U, 0x3d0a5f21bd284450U,
  0xbcbe8152bcfa56f9U, 0x3ba4c6fd3cd238eaU, 0x3b4a141f3ce32febU, 0xbc5eddfabca0ac2fU,
  0x3d2eda933d274b44U, 0x3d39d8d03d01b75eU, 0x3cea9ec6bc9c1641U, 0x3c3192e53c50a746U,
  0x3ca8c7643c8b99e7U, 0x3d021eb93c084c81U, 0x3ce5b73c3ccbbbacU, 0x3d0dde533c9aebfcU,
  0x3d34711e3c152c15U, 0x3cf46b093cfb62e9U, 0xbc95e4c53bdeb98dU, 0xbbc862533ce74a4dU,
  0x3d007cb83d35e9c7U, 0xbcf9ac24bd220629U, 0xbd1dae473d1848a9U, 0x3bfba3fabd0a0acaU,
  0x3a78989dbc59b732U, 0xbcd650c9bc291386U, 0xbcc1e27838e6227fU, 0xbbdf4876bb867ca7U,
  0x3c5b43e2bb51d0deU, 0x3cce75953d05137aU, 0xbd1aed683c06b699U, 0xbc97119bbb0c09feU,
  0xbc8835a03a957a45U, 0xbcf8bd4db8ba5cd3U, 0x3d31a977bc6bdc34U, 0xbca5ffa33c442b9cU,
  0x3cfd48433d156087U, 0xbc3cf96fbb1e2d67U, 0xbbdbd716bc15fe11U, 0xbd05c19abd0ab108U,
  0xbc79aee7bc079a79U, 0x3d06e8bebc954a21U, 0x3d08c251bd3818c1U, 0xbc963b8cbd34195eU,
  0xbad4b4c03cb02391U, 0x3c3a5f73bc921b96U, 0x3c1502863cf62c80U, 0x3c8a8c3e3d270cc4U,
  0x3d27d38c3cbe3a63U, 0x3d294344bcc48aefU, 0x3cb872a93c941eecU, 0x3d3447e5bb97c046U,
  0xbba409d83d3955afU, 0x3ce1c51f3cb7a93fU, 0x3d10d7f93c40eac6U, 0x3c7498b73b4ade0cU,
  0xbd2509a73d058eefU, 0xbc609cabbd330f11U, 0xbb87bf95bcfd2a9eU, 0x3d162cddbafabd40U,
  0x3cac62e2bc126afbU, 0x3c2aba813c9b30cbU, 0x3c9c0c943d1aff91U, 0x3d25b0953d02920aU,
  0x3d1e6bc9bc889ef3U, 0xbccb409bbaa9aa66U, 0xbd128b283c3681c8U, 0xbcf46d49bce5575cU,
  0xbb9f2e60ba74bb6dU, 0x3cbdf4073c14dbf5U, 0xbc4904fabd32ad22U, 0x3d1869903ccc206eU,
  0x3c61ef17bb8fe0b3U, 0x3c9bf86a3d20f333U, 0x3c81c6a3bd28a298U, 0xbcc2393a3d08701aU,
  0x3badb8d6bc0574feU, 0xbc48349d3b5be8efU, 0xbd25140a3cec9b42U, 0xbbdf0985bca94194U,
  0x3d04d4683d14a467U, 0xbd372573bd074b28U, 0xbc09b24ebc3b5e2aU, 0xbc35c809bd142277U,
  0xbcf51503bd36db44U, 0x3b9aa1013d1d9aedU, 0x3cc42d92bd3086f5U, 0xbd11a75fbc5748d3U,
  0x3d0ac32cbbc26a51U, 0xbc9e9afb3b8faa04U, 0x3bcd1739bd1cc164U, 0x3d1dd9a83c08e90aU,
  0xbcb19f81bc49ff31U, 0x3cfdf57e3c1c9af6U, 0xbc55c6c53d200c5aU, 0xbd0e3c653c71f4aaU,
  0xbd09b5ac3d113408U, 0x3d052f113ced8441U, 0xbce877723bbc011cU, 0xbc652888bce2de49U,
  0xbc84dfe9bcd7474cU, 0xbb8ce6393ba2fb7fU, 0xbc5f14aebb7ac418U, 0x3d1565adbc2e3b2bU,
  0xba60152cbca895a6U, 0xbc3f7f623c8d9515U, 0xbca863babd16e566U, 0x3a3331f4bcdd4f8bU,
  0x3ca4d32a3d2f0583U, 0xbc1723bd3bb6d98eU, 0xbc853a0ebd1b8ddfU, 0xbcc20be73c99b17aU,
  0xbc52eab23cd25cb5U, 0xbcb1ef30bd09f48cU, 0xbce7885b3d0bafa7U, 0xbb6134173d004f45U,
  0xbd2bdbe2bd0b6831U, 0xbcf065b5bd38d882U, 0x3beea9fe3d020054U, 0xbd35ec7abcdc0160U,
  0xbd008547bce32644U, 0xbcdee654bc27d485U, 0xbc420fe5bd36ab9eU, 0xbbc17391bcff7988U,
  0xbc507befbb464d64U, 0x3cced024bca0f3cfU, 0x3b3b2764bcb2c310U, 0x3d0f4bc23d03e034U,
  0x3cb9b3a3ba8ebaf0U, 0x3ce4fb21bcfb6f1fU, 0xbccdf8073d05a475U, 0x3c69311a3cf8a2ebU,
  0xbd332becbd0a32d2U, 0x3d1c49703d189d66U, 0xbccfdecbbc253105U, 0xbcd1dd94bc6b980fU,
  0x3c639ca43c362757U, 0x3c7cd6b4b9293f0bU, 0xbd351a8a3c229f00U, 0xbd1a7571bca7a19eU,
  0xbcd0cb9ebd0e1e2bU, 0xbd0dd0ecbb13f05eU, 0xbc34fa29bc45c5daU, 0xbc7e9088bd3ae8f3U,
  0xbc796b773d17473aU, 0xbc3022cdbc7b7b1aU, 0x3d2a96c5bcfd0c09U, 0x3c88581cbd233c35U,
  0x3cd1db52bcc39dbaU, 0x3cdb78203c1021ecU, 0xbc2b0ae7bcf71c55U, 0x3c3c9ef8bd1616f0U,
  0x3c3dfc243cde64dcU, 0x3c656d223c4adb43U, 0xbcb9f2653d32e162U, 0x3d3a3e543cdf58dfU,
  0x3cd3ff173d072336U, 0xbcdb22f13d374ed9U, 0xbc1a46ca3d35846aU, 0xbab737dbbd30bd5dU,
  0xbba7d7f7bcd7a200U, 0x3cb0362bbc8f3b12U, 0xbc038a99bd16f176U, 0xbc4c6a01bc319960U,
  0x3c3b579dbb80ab59U, 0xbc76303eb984a556U, 0x3c6da631bc0cf122U, 0xbd2109143c6054e4U,
  0x3d32874ebd2eef01U, 0x3c493645bc67ea2eU, 0x3c23a9e03cd3003aU, 0x3d1cc995bd12c1ddU,
  0x3c1955a23ce35abeU, 0xbcd6fcbf3b0490fbU, 0x3d25a1dbbc3512a0U, 0x3c9fc9a8b8dc4698U,
  0xbd1c031ebc067bb2U, 0x3c83f4e7bc80b55bU, 0x3d1d7aca37c091f3U, 0x3d2a1845bcfba8faU,
  0x3d1cdb723d223a02U, 0x3d2cf48abd20c5d0U, 0xbc9b845ebd108eebU, 0xbcd414d93cf107e4U,
  0xbd084b7abc91625dU, 0x3d2e070ebd34b760U, 0x3d1f74cc3cea7da9U, 0xbcd0f9803d09ccb0U,
  0x3bd362b7bcfca7f6U, 0x3c5f439abc8700adU, 0x3c0aa6aebcebc420U, 0x3bb6b730bbb05c5cU,
  0xbc421ba6bc019193U, 0xbb6411db3c4fc13bU, 0xba8ca372bbcc47f5U, 0xbca6c75f3ce03cebU,
  0x3cf8fba6bd209357U, 0x39d2485d3cb4f556U, 0x3d0a88dabcdbd82bU, 0xbd2746d33ca63c8cU,
  0xbbce41523c9c36a3U, 0x3d010eb4bd31cc79U, 0xbcba32bebca9fc22U, 0x3cd54f9ebd0353feU,
  0x3d0bca33bd1d97d1U, 0xbad55b71bc9b1faaU, 0x3d392381bc92ed6eU, 0x3d2549833b9821adU,
  0x3b7bf52d3bd6139dU, 0xbd012ead3cd3eb88U, 0x3c8cfc073c51d193U, 0x3d08bd95bbaa3282U,
  0x3c93094cbcf99cf7U, 0xbbb7d475b9644081U, 0x3ca1a364bcee85b5U, 0xbd27ac99bb38ee09U,
  0xbb847ef43b91b581U, 0xbd2648d9bd354ab6U, 0x3d1d0996bccbb498U, 0xbc9568ffbd362828U,
  0x3c4aedd1bce87e17U, 0xbb2cdb6b3cecb6ffU, 0x3cc458bdbd209e46U, 0xbaf219e93bd730eeU,
  0xbd19b355bd2f64e0U, 0xbcb11a02bd260c8bU, 0xbd035b7cbd1544a2U, 0xbd2c1701bd3af2e4U,
  0xbd2ed1e5bc67476aU, 0x3c3e4fce3d27aa3dU, 0xbc07cfb7bcd3398eU, 0xbcb3439ebb872dccU,
  0xbc95b7efbcbdb129U, 0x3d3415243cecca62U, 0xbaf1d88c3d2e5f4aU, 0x3c92fb5dbcf7b9d4U,
  0xbadef7723c30c55dU, 0xbc4ff757bbca7226U, 0x3baa525e3c9a2d0fU, 0xbc353d1f3d1cd89eU,
  0xbc462de03b12ab7aU, 0x3d2c30313c186c07U, 0x3b337397bba1a2faU, 0x3d03469d3c893b1eU,
  0xbd11a8bf3cb29ac0U, 0x39de006c3ca7fd65U, 0xbd10d8233d136ffcU, 0xbcb533debd1831eaU,
  0xbc9f9b423cdbfad6U, 0xbcfe0387bc71b781U, 0x3c9140cbbcff2d05U, 0x3d1b7640bc94caaeU,
  0xbcd6777ebcb43007U, 0xbbbd7d243c83ad0fU, 0xbb3dd73dbc2c6568U, 0xbd21a2b33cf9d922U,
  0xbd11f3023c17a390U, 0x3c951959bd1d7434U, 0x3d0415ca3c84a9e1U, 0xbb6fced83c49c1f6U,
  0xbcd4046e3cd08c66U, 0xbbb9c2523b1cf64cU, 0x3c9e957bbb403e3eU, 0xbcc50e1dbc99240aU,
  0xbca95df83bf8d064U, 0x3c9fc7c63d2cfcf9U, 0xbcea5397bc950d89U, 0x3d1191d13ce17862U,
  0xbc92b8fdbd038ee6U, 0x3d32acef3c6fe61fU, 0xbd325dd1bcb5431fU, 0x3d219b31bd1d56adU,
  0x3c365c7ebc89f9daU, 0x3c8064c63ba3fd9cU, 0x3c86cda3bc6f455dU, 0xbd081d0e3c979555U,
  0xbd0625f53ce1eaf6U, 0x3ca7b183bd20df25U, 0x3c496bb23c76e02dU, 0x3d10246d3d0baec6U,
  0xbd17fa6cbb104f10U, 0xbc2bc9acbcaed4a8U, 0x3d2dc896bd09632aU, 0xbbd04f97bd22e56fU,
  0xbd20e12dbd1ddc05U, 0x3d0b8251bc6c7265U, 0x3d09c7633d0c419dU, 0xbc1593493d0e7df0U,
  0x3c08ef3f3d065848U, 0x3d1a6f2c3d2c4901U, 0x3c8969b53a71f822U, 0xbb4cdc6f3b0ad874U,
  0x3c33b0d23c8a457eU, 0xbcfcacf3bc8893deU, 0x3cf70719bbe7d506U, 0x3d0fd0f8bc9760b7U,
  0x3d1e3c58bb4c9be5U, 0x39daddd33cfc350eU, 0xbc234fa4bd305e35U, 0x3c36dff83c84f07aU,
  0xbcc19d20bd28b31eU, 0xbd2f8c3f3c53cc90U, 0xbd0fc3f7bbf80b1eU, 0xbccc25cb3d00cdcbU,
  0xbc7c27d13be206b0U, 0xbd00a44e3cc47584U, 0x3d1b4db83ca8a918U, 0xbc34c6ff3cfa1747U,
  0x3d2bed643b83e747U, 0x3c8776f3bd17ed90U, 0xbb1561e6bc09ffecU, 0xbbff28fb3c7c0aa7U,
  0xbd34553c3d29586cU, 0xbcef05c63c7367a8U, 0xbd0936be3ca70f1aU, 0xbbe385693b95bc74U,
  0x3c9093b63d2d6d05U, 0x3c9b42b23b84ca7eU, 0xbd012ccb3cf4aa52U, 0x3d0f2b2e3ca412cdU,
  0xbd1a81253d224040U, 0xbd1baaafbd19d777U, 0x3c213777bce83252U, 0xbcf5993ebd1946f8U,
  0x3b44b9e73d32d5d0U, 0x3bdc8b0fbcccf310U, 0xbcb140a23c9ab822U, 0xbc3fc62d3acfaa80U,
  0x3d371b86bd0e0ff0U, 0x3d109db4bd2ee78eU, 0x3ce294eabcb35014U, 0xbb329af7bcc6e23cU,
  0xbcdc74883d07c9b4U, 0xbcd6eb183d1f87fbU, 0xbce80d793c8d53adU, 0xbd0767d23d368c95U,
  0xbbcd2e2e3d250edeU, 0xbbd79db3bcf6ee68U, 0xbc9a8f80bc38db1dU, 0xbcc0d9303b141debU,
  0xbcf8c85e3d13fba3U, 0x3d242b57bc60fbfeU, 0xbc707be1bd090339U, 0xba598c6ebd1af62dU,
  0xbd347f83bd0259fcU, 0x3ba7e5283b880397U, 0xbd1175ca3d1f8a40U, 0x391eeb5fbca8ddcaU,
  0x3cd9cda4bce97f33U, 0xbced8d85bd382399U, 0x39e5e989bcb031feU, 0xbc885b053d12c0cfU,
  0xbcb6edd23d038014U, 0x3d00f9fabc0e369eU, 0xbd38b8d73d130978U, 0x3c6d6364bae5034fU,
  0x3c3222663b39cfb2U, 0x3d31d8d13c4e2a45U, 0xbbfc1e073c9e8c40U, 0xbd26a7333c592d37U,
  0x3d3aa78dbbc4e027U, 0xbd1125693cb000c1U, 0x3cd6b3c43cd5046fU, 0x3cd8bb47bc87d231U,
  0x3d1c597a3cb46422U, 0xbce997493ba0815fU, 0x3bd2aaae3d22fca0U, 0xbd0f1407bd26a45eU,
  0x3bdcddc43c4daa03U, 0x3ad39f3dbd08bd7fU, 0xbbc24255bcb4603bU, 0x3d26f62b3a839897U,
  0x3ce73f5f3d1774adU, 0x3c575d86bd067cefU, 0x3d1b7282bd29229fU, 0x3d2537343d12e342U,
  0xbd148cbbbb4c4673U, 0x3d080cdcbd112c21U, 0xbd08eec23c83db86U, 0xbb64f1b13d01badeU,
  0xbd3551663c8aad93U, 0x3cb7687abc9b297dU, 0xbc4caa6ebcd425b7U, 0x3d12c043bca9888eU,
  0x3d25d2373b6cb733U, 0xbd38ab66bba8ef42U, 0xbc2de903bc301533U, 0x3b5245cfbd03c3b4U,
  0xbbffcdaa3ce2bf28U, 0xbbc7fe75bd328f41U, 0xbca03256bd0c1d93U, 0xbd16ba4dbc953dfdU,
  0x3b7588ea3d0f017fU, 0xbcc01604bcd8680cU, 0xbc0cf425ba0c5b54U, 0xbcf65a053d292c5cU,
  0x3d330fb7bce90898U, 0xbc8de1db3d27904aU, 0xbd08eaebbd226f85U, 0xb817c3c9bd32a39fU,
  0x3c5673483ca4a871U, 0xbc3f53623c75aea3U, 0x3c0bcdff3d07ed12U, 0x3d1c33ffbd209807U,
  0xbc39eca23caffc96U, 0xbc301871397a1d7fU, 0xbc875f37bc264b3cU, 0xbba25ae03c6aaa4dU,
  0x3d20edb4bcfd70e0U, 0xbd2e8d803cd6beafU, 0xbd0e729f3c81cd07U, 0xbd12d37a3d32e146U,
  0x3ca9b92dbd12b4acU, 0xbbade66fbd04ca63U, 0xbc94d82e3a9bd4a4U, 0xbc84e94d3ca9535bU,
  0xbd33dbedbce2fbe0U, 0x3b8e2f213c0ba268U, 0xbc61b7103d109dd7U, 0x3cd948c63c930be3U,
  0xbd2f7296bd322fb5U, 0x3c6aa4d93d27be43U, 0x3cc506d0bced0979U, 0xbd1be3dc3bdecb20U,
  0xbca95df83cf4303cU, 0xbccd8531bd10277bU, 0xbc9d4363bc29e2edU, 0x3d31c262bd0538b6U,
  0xbce5b69c3d22fb04U, 0x3d2eb902ba4b36b0U, 0x3d1583a4bd13e4bdU, 0xbcfd0dc2bd33e2beU,
  0x3ad820bebc911c41U, 0xbb25aafabc9099b4U, 0xbc8f29ddbc804464U, 0xbcfd412abbdc3fa8U,
  0xbd23dd1ebcf5de2aU, 0x3bb6b8d43d18af7fU, 0xbd35d15f3d31c4c0U, 0xbc2b7ee83b960d0fU,
  0xbc91b5a7bb2a2a91U, 0xbc24524d3bea60f4U, 0x3c3235223d2e1475U, 0xbd21a95abd2bae06U,
  0x3bae0b21bbb39904U, 0x3d14c70cbd2da360U, 0x3c879b8e3d129511U, 0xbaf795b93ca2fce0U,
  0xbcd71718bc87f678U, 0xbd25fef4bb689b4dU, 0x3cd43143bca694e7U, 0xbd35e2e0bcd71683U,
  0xbca3c0d9bb81e009U, 0x3d1d1a04bcb9ecdcU, 0x3d080b583d1b8aeaU, 0xbaac7186bcf18003U,
  0x3cac2a8f3d22d20aU, 0xbd2cb7bfbbec70e9U, 0x3d19a1223d383c74U, 0x3c05d143bb7d7b3fU,
  0xbceb93c73cd00179U, 0x3b21fee73d2350c9U, 0xbc824cabbd2ee4d5U, 0x3b8b7e013cddb127U,
  0xbc2949913cd3fbffU, 0x3bdd73103c0a483eU, 0xbd235f603c80d39bU, 0xbca962e03cba9200U,
  0x3c6b1504bd2fb549U, 0xbcdb79523d0e5f4dU, 0xbc079aa83c4124e6U, 0x3d0983353cb6ad7aU,
  0xbd12296dbcc06c92U, 0xbcd1cb8d3a7610d7U, 0xbc3ae804bcfc3a88U, 0xbcebaff4bcdf7243U,
  0xbcb65c093c5d4e35U, 0xbce1156bbc7e965aU, 0x3ce14a403cfb91b2U, 0x3c11fd36bcb7e628U,
  0x3cdc27363d2c1784U, 0x3a86c338bd080c8cU, 0x3d0382823c932bd9U, 0x3d30c2f1bc209759U,
  0xbc742f763d396089U, 0xbd15bbffba80b440U, 0xbc6d5dc7bcd6b2b7U, 0xbccf18e23d084fecU,
  0x3c1ed6fe3c89b392U, 0x3d1a121fbce51383U, 0x3b25f5323d1c4016U, 0x3d1757d43c72d18fU,
  0xbc0ae08ebc7ad78aU, 0x3d10ceb9bc74c3bcU, 0x3cdfab10bd1914d4U, 0x3c50f3793c905ed6U,
  0xbd269f6b3d29d4c1U, 0xbc36667d3cc61a2bU, 0x3cf1c4a9bcd7b42eU, 0xbd269913bd33d63aU,
  0x3ce17ad63d20ca2aU, 0xbc7a6d9a3cc118a2U, 0x3c799f853cd479b6U, 0xbd2f2337bc9402e9U,
  0xbd374e2a3c86a457U, 0x3c31c01bbc550ad0U, 0xbc2ff8f2bca4e286U, 0xbcea783b3c23e3fbU,
  0xbc116c96bbe16d0dU, 0x3a4c1051bb775f51U, 0x3cf9c0b43d0b041dU, 0x3cc6b4663d15ecbfU,
  0xbcd651613d204c23U, 0xbcd1254b3b9f2326U, 0x3ccd7924bcfe9d2aU, 0x3c68fab8bc57d10cU,
  0xbc0d22793d24830eU, 0xbc48be863c428943U, 0x3ba5e033b96c54b4U, 0x3d2b9b223cadb422U,
  0x3cd4d97b3b9fda8bU, 0xbd1f72bdbd13b490U, 0xbcc72716bc8448b7U, 0xbc63a0cc3cbdd339U,
  0x3d10de1abcc4487dU, 0xbbe5c9733c12c841U, 0x3bba063d3cc79589U, 0xbc61f8bebcfa9cc0U,
  0x3d22e2e6bbfbd99cU, 0x3c117e5e3cc572fcU, 0xbd1bd57e3c9e6dc8U, 0x3d0f85d4bce904fdU,
  0x3c27747dbbca2d22U, 0xbc7186f6bc0fe335U, 0xbcb7c05dbc89b528U, 0x3ae3c8eabc8e4513U,
  0xbc404972bc8e9984U, 0x3c0b9c4a3c8869afU, 0x3cbda8ec3b714a81U, 0x3c70a766bd369d41U,
  0xba9986043ce98f96U, 0x3c24f85a3d35c206U, 0x3cca9a13bd315f47U, 0xbc7609033d37eb4eU,
  0xbc9991c1bce550f3U, 0xbc8687a73d2cacacU, 0xbcc2526fbcf8fff0U, 0xbd1f39ff3cace9a9U,
  0x3d20f216bc1754b6U, 0xbcee2c1c3ceaa241U, 0xbd127f14bd344fb5U, 0x3cb1d27dbd39cff8U,
  0x3cae205bbc0eb755U, 0xbc6d990c3c23e661U, 0xbcbcd6f3bbb74a1dU, 0xbbbaebdf3cc12763U,
  0xbcd5a5eebc5a6805U, 0xbade53ad3cce3a28U, 0xbc69b4cebcdbab44U, 0x3d3508cd3c5a62a2U,
  0x3c9905f63b566960U, 0x3d24a21abd042b68U, 0x3c783c2a3cdd5b9dU, 0x3a70554fbd195c56U,
  0xbc4c09a7bd34321aU, 0xbcbbbd4c3cb8d38aU, 0xbcde75a83ca34241U, 0x3cd0785d3d31dc18U,
  0x3c9090bfbd38d313U, 0xbd2e47b7bbaa5c97U, 0x3c38ac3dbd21ef1bU, 0x3c846131bd1d9b6eU,
  0xbc6f07393cf38c83U, 0xbc32dc77bd32c63cU, 0xbc232684bc578ac2U, 0x3c4df92ebad58c8dU,
  0xbd15affabccdb645U, 0x3c7aaa893c3c832cU, 0x3c961d8dbca9fc0eU, 0x3cd65f59bbd93d8fU,
  0x395e416b3d0da998U, 0xbca208723cca3ea0U, 0xbd20af71bc2f0da8U, 0x3bc18423bcb4fb91U,
  0x3d2bb97cbb8021ebU, 0x3a253a6c3ca49199U, 0xbc5524073c65d9dbU, 0x3cf159a0bd0b5370U,
  0xbcc353423c2d6de3U, 0x3b64bbd5bcac3c80U, 0xbbe637443c4d9e42U, 0xbcc51877bce162cbU,
  0xbd1ea2c6bc3034b8U, 0x3c5775dabc49556cU, 0xbc3bc7a53b2b4e3aU, 0xbd36b2703bee7928U,
  0x3c1868cf3cf9f94aU, 0xbd3215583d3a149fU, 0x3cb0d195bcef3deaU, 0x3c4f9d7d3c47448dU,
  0x3d0aed123a8de69aU, 0xbc7fe834ba159fb3U, 0x396f9b15bd1875d9U, 0x3d1f6e7bbbd98f1fU,
  0xbd187350bcb4492bU, 0xbd11079d3d1dba6aU, 0xbc2166a33ca8b3f8U, 0xbc7cbd073d2c50b8U,
  0xbcd933413b844f07U, 0x3d258d8dbce24b1eU, 0xbc9a717dbcc1dea3U, 0xbc33ffb73d103a72U,
  0xbd22c6a4bbfa87f0U, 0xbce54ba2bd0437c4U, 0xbc5ec594bd05f685U, 0x3c8a54cf3d26cc37U,
  0xbc316945bd2d0196U, 0x3cbf900ebc5eadafU, 0xbc57b7943c1e47cfU, 0x3d3089663c8d3183U,
  0xba478439bcfbbc0bU, 0x3be1ac8bbca88258U, 0x3d27aa59bcd3f25eU, 0x3c9de462bcb87352U,
  0xbcb004abbd1cf2d9U, 0xbbcdced9bd29eea0U, 0x3d18bc81bd36da0fU, 0xbbf8aba63bba0a1eU,
  0x3b3a1a18bd064a75U, 0x3cb2e4b43c778b6eU, 0x3b4db7863cc20c5fU, 0xbb6f3e10bcfe0113U,
  0x3caf66433bd45723U, 0x3c087d9ebd372e26U, 0x3cd8f0e33cc7134aU, 0x3c368c88bc56600bU,
  0xbcd44056bca7e0b2U, 0xbd3785473c532d6dU, 0x3c387b9b3ca82a6fU, 0x3d34b4d6bd341b7aU,
  0x3c4c5875bbb63f48U, 0x3d0e51633d37eac3U, 0xbd327b483d04c8f6U, 0xbc6a6bb33c494913U,
  0xbd221b023d0470dfU, 0x3c88ff91bc75fc81U, 0xbc6266153bc99cacU, 0xbcb62090bd29eb79U,
  0xbc5f7b953b8b1d9bU, 0x3d08d9883c9f84c1U, 0xbceb10b43d31bd72U, 0xbd3adb10bc070a60U,
  0xbd2ba3e8bb55cb8aU, 0xbd0760ec3c948f1bU, 0xbc5f03bfbcdee6c9U, 0xbc681e9a3d357f52U,
  0x3c0b8e5e3d30931dU, 0xbcb815b53c7ea16bU, 0x3c996b1e3cd4089bU, 0x3c4ca03bbaf29f8eU,
  0x3caa751dbc096790U, 0x3d32f59abcfa348cU, 0x3d146da03cec952dU, 0x3ca0d7efbcab3a1fU,
  0x3ce3ffa43c35b423U, 0xbb366715bcbd873dU, 0xbc0ab633bad2b213U, 0xbc9febccbc91ec15U,
  0xbd31684b3c30cf5cU, 0xbd0a640c3c8d53f6U, 0x3a9de2d2bd23f56eU, 0xbbe7ccf23cba9604U,
  0x3c3954b0bb2640f7U, 0x3d329c2ebc492354U, 0x3c9c18233d233793U, 0x3cbc2fc2bd0fecd8U,
  0x3d36210c3d27107eU, 0xbc910b3ebcf76cc5U, 0xbbfbc0ea3d3974d5U, 0x3cd7dc95bc46062aU,
  0xbbb10e6a3cd1a07fU, 0xb95acf38bad3b2c6U, 0xbd3aca3b3c66e649U, 0xbd31d748bc94e8d1U,
  0x3d39f0e23ca1bfdfU, 0xbc3c283a3ba02efcU, 0xbc48ea633cd96810U, 0x3ae11b5abd37df1fU,
  0x3cfd33b33cc0db87U, 0x3d04e109bcfcd396U, 0xbcc14d17bc512bd2U, 0x3cba9bfcbcb149ccU,
  0xbc1bc952bbe9549dU, 0x3b4ed2f8bc2ceafbU, 0xbcfd732b3cadc534U, 0x3a415205bca5ef00U,
  0xbb4d71b03d167d92U, 0x3d2ec4d83d3357b1U, 0x3cdb927fbcd50810U, 0x3cdaa7543c6fd6daU,
  0xbd2a774fbcc9fe1cU, 0xbd1743f93d2ebe71U, 0xbc962b3b3b176fe5U, 0x3ad8f458bca4e8c1U,
  0xbabd5ab9bce816f2U, 0x3cfde2a7bc2559d9U, 0x3c167a553b4f1bbaU, 0xbb85f9563c406b56U,
  0x3cf90e0ebce576beU, 0xbd129864bcb27700U, 0xbcf5c4ec3d3238beU, 0x3d003d563c6704b5U,
  0xbcf26931bd348084U, 0x3c1646fbbd1495bcU, 0x3d0b5546bcb22b29U, 0xbb574cddbc2a49bdU,
  0xbb9f3f7e3b6563e4U, 0x3af1a022bd155732U, 0xbcac72b0bcfca626U, 0x3d1db8cb3ccdfc63U,
  0xbc60c7353ccde074U, 0xbc747237bc7eb94aU, 0xbc1d74b5bcc014e9U, 0xbbd22263bd2e3772U,
  0xbd26da063cb6567bU, 0xbcc11fe13c9042e6U, 0xbd08da29bb2053aeU, 0xbcd7b0c7bd2e5827U,
  0xbd2852073cde4e88U, 0x3bae6c08bd0d6773U, 0xbcf513dc3c2c643eU, 0xbc9660913c8d7ee7U,
  0xbccfd0a83ba32132U, 0xbd28f05f3d066f83U, 0xbd2dce653c049742U, 0x3c9d5fdebd231179U,
  0xbc6568c0bd08a1dcU, 0x3cea7fddbd1aefe8U, 0xbbff1d9dbd31f9b2U, 0x3caa8cf03c11ed3cU,
  0xbd325badbce3d26fU, 0xbd2d5a473c41d134U, 0x3d0d2e5ebcd0532aU, 0x3ccdfd9f3caa1731U,
  0x3c977eb7bcb37de2U, 0xbb92bf783d2b11baU, 0x3d31919cbce45b31U, 0xbcfaaf3c3cafbb89U,
  0xbc0415323d056565U, 0xbcd35d89bd200801U, 0x3ca180f33bb1a489U, 0xbbea5cb5bc31b84dU,
  0x3c0146c43c471bbfU, 0x3cd48091bcdeb497U, 0x3cfdef7dbc7038c8U, 0x3c2c4cab3cb830e6U,
  0xbc1d7b2a3d136a05U, 0xbd36770a3d0e4179U, 0xbd07e2553cdac329U, 0x3d2de8683cd1413dU,
  0x3ca6c0f03d2e1288U, 0x3ba083ca3cd3f838U, 0xba9b922f3cc90b69U, 0x3cc7fac23d15f0f0U,
  0xbb86a78fbcea7d5aU, 0x3c63972a3c65bf1cU, 0x3ca7e86fbc297b2eU, 0xbcabd2edbca66e70U,
  0xbc119c4fbc4ee5a9U, 0xbce0fae3bd2feab5U, 0xbd0681ae3cadbc68U, 0x3d08eddcbbd4dfa8U,
  0x3cf9ee13bd11011fU, 0xbb917727bd02bea1U, 0x3b575f653bc8bd56U, 0x3d16b7373ca26becU,
  0x3bccce3dbcd78ad0U, 0x3c3d2c543c0d4cf7U, 0x3babfe69bce83c34U, 0x3c4b0cecbc18a07fU,
  0x3cf8fb1a3d0eccbbU, 0xbd1b624e3cedca2eU, 0x3c0b83f03d3941f3U, 0xbc9c24963c520180U,
  0x3d1cd5c0bd26cb29U, 0xbc97ad74bc844842U, 0xbcae65953bf907c1U, 0x3cfa8d353d341926U,
  0x3ce8b5313bbf29b0U, 0x3d384fe4bc5c7e8dU, 0xbd0e57b2bcc29d8aU, 0xbd30fc813d2378e2U,
  0xbcc053f2bd06f5e0U, 0x3d09a2dcbcf1162aU, 0xbd32bd4dbd1fb4fdU, 0xbd1124ad3cd828b2U,
  0x3d0c4870bcc4f5e6U, 0xbd20e5febc52e858U, 0x3d23b86ebc462c35U, 0x3cf7d473bcd36aaeU,
  0x3cab0a3b3b82a13fU, 0x3ce21e7e3cb2c0faU, 0x3d054de33d250fbcU, 0xbcaf028d3d3ad09fU,
  0xbc6b76b13d017dfcU, 0x3c81e829bd36fde6U, 0x3d1614db3cfc3fb3U, 0x3d1202313c934fbfU,
  0xbcafbe773d04470eU, 0xbd1bff24bb94acd4U, 0xba8b02ff3bf14204U, 0x3ce6d0aabccc27d8U,
  0xbd26e38f3d0380b3U, 0xbb2523b1bd1fcfe8U, 0xbb8ab11cbd2ebc2eU, 0x3d0047613cf1e14aU,
  0x3c3c49b5bcf65508U, 0xbc3c07bb3cd4657dU, 0x3bb4bb8a3c43dfeeU, 0x3ca5afe3bd20ac91U,
  0x3c02dec03c1f8b2bU, 0x3b75f2cebbe40f58U, 0xbd26b730bcd357f1U, 0x3c915633bcc7936cU,
  0xbca3c77dbc13915cU, 0x3cfaf3f1bcfbf955U, 0x3cfb7a85bc6368d0U, 0x3c05c0483d219e3bU,
  0xbb5ad7e43c94b387U, 0xbcf89bba3bd2c4edU, 0xbce1fdbebaf8a9f5U, 0xbd2839cbbd37ca06U,
  0xbaf36548bd10885dU, 0xbc9bf3f13c5cbfdeU, 0x3cb00f79bc35cfddU, 0xbd102e393cff4f03U,
  0x3aa7c77dbc1869e2U, 0x3d315f0ebcb1794dU, 0xbc5c8476bcab0e74U, 0xbc9bbb3ebd387e8fU,
  0x3d2fa5fb3bef57c2U, 0xbc5e9b1c3d352300U, 0x3cd8515a3cfe3e22U, 0xbd0dfe303d14fe1cU,
  0xba585be5bbaa08a7U, 0xbd308222bd2d0476U, 0x3c7386b73c887d35U, 0x3d1609b3bbea2d77U,
  0x3ccbf11e3cf52d7dU, 0x3cfb23263cf4de35U, 0x3c2ba4c43acbff56U, 0x3cba7b19bbba1694U,
  0xbc89a1c8bbe7ad74U, 0x3d10d985bd30b63aU, 0xbcd2f2e03c337305U, 0xbcfc66c3bb029f77U,
  0xbd3685a83d1c1f6bU, 0xbd2f49dfbca9f1cfU, 0xbbb8f909bcb3d5f4U, 0x3d1c61db3c132da1U,
  0x3b033e08baaddd65U, 0xbc17cb1dbc94a8adU, 0xbd116d473cedae71U, 0x3d0f9910bc8703f4U,
  0xbb0dc4ebbce7a8e9U, 0xbd1b0f4a3cbb4679U, 0x3d33f096bba458f1U, 0xbae62e8cbcfab39bU,
  0xbc754cc7bcab1a03U, 0xbae3cc91bc7d8096U, 0x3cfc9450bc7312ebU, 0xbd1d359a3cdf90a0U,
  0x3c343a35bcee21a8U, 0x3d212643bc89b571U, 0x3d0017683c13506fU, 0x3d281cbdbcefaa1cU,
  0xbd275768bd121ab5U, 0xbb4c72ffbc926974U, 0x3cf2739f3ac978d7U, 0xbbb46fe83ce5f23eU,
  0x3d316f723d2bbe02U, 0x3ce790eabd210256U, 0xbd33af0d3d02b1d8U, 0xbd3416dd3c2abeeeU,
  0x3d224ff23d298419U, 0x3d1073b03ca21a39U, 0x3d0809603b7257b6U, 0x3a43f8d43c99962fU,
  0x3c9866123cab8bc1U, 0xbd0f1209bc4258f3U, 0x3ce1d9be3d29a1a8U, 0xbcd884e5bce14878U,
  0x3b8f2ce93b1a56f8U, 0x3d23f2bf3d1a2a9fU, 0x3d17edc7bc7e44c3U, 0xbcf7c7973c8ef23cU,
  0xbcf4a33cbd300070U, 0x3d2f904ebc6f265fU, 0xbc4541b73bb32538U, 0xbc8f15a7bce19ab5U,
  0xbd30281abcb8703dU, 0x3cdb36e63c2f1cb2U, 0xbd2059e8bd06cb4dU, 0xbc91f660bcc8f001U,
  0xbd1e3b59bd0e345dU, 0xbcf2f451bb549d79U, 0xbca4d541bd14d969U, 0x3c423a8d3cdfef1bU,
  0x3d1f5e113d1e9d75U, 0xb96e59c1bce2416bU, 0x3d19ded9bc3919daU, 0xbd38721bbd36b060U,
  0x3ce770843cd27937U, 0x3cfd5d6e3b1e2171U, 0x3d287c74bb87ab97U, 0xbcdf6841bb96b083U,
  0x3ca7cef73bb9a46dU, 0xbca899ae3ce503d8U, 0x3c66422dba7b341bU, 0xbbc7e42a3d03e1d9U,
  0xbb4350393cae10aaU, 0x3c1a1d0c3cee7d6fU, 0x3d0cbdeb3c1e5f6dU, 0x3ce557c93c8c1e74U,
  0xbce512363d3a4b42U, 0x3c5762f4bd174f7aU, 0x3c266bd83d1204a5U, 0xbcfbca05bd0f85bcU,
  0x3ca0adf73b19b7f3U, 0xbd304408bc0342b6U, 0xbbfb907dbbb01d82U, 0x3c1acd1e3c2d24c4U,
  0x3bb31224bd276a7eU, 0xba1e935f3d220fc2U, 0x3c17b81abc289d8fU, 0xbd239c0fbcb770e3U,
  0x3c321cd43c471105U, 0x3cf4233abc4dac11U, 0xbcbcac063d0c7718U, 0xbd2353133d17d604U,
  0x3cf35b64bd053aa8U, 0xbd377d9bbb6b2dc1U, 0x3cc318d03d0992eeU, 0x3c98d0d23ce09c6aU,
  0x3c0ae291bd13b807U, 0xbd12c4693d2be6a0U, 0xbb5e26203d0ef6d4U, 0xbd19bdad3d39b46eU,
  0x391ae145bc8f0b97U, 0xbd2ad63abb92b8fdU, 0x3c9f10be3d399d2eU, 0xbd17cc16bbe66a92U,
  0xbcbc8aa2bd18fde5U, 0x3c3ee7d33bac57c8U, 0x3d1718f9ba9a25c4U, 0x3d00fef4bd0210f3U,
  0x3c23a253bd14d3d8U, 0xbd07b9883ce16b60U, 0x3c3b8ba03be0e7ddU, 0xbc96cd96bcec985eU,
  0x3d127ed6bd120e2dU, 0xbcd4fdf33a99b8c5U, 0x3d32d0ba3d0caea5U, 0x3d1f8c8f3ac788f8U,
  0x3cdc601b3c99b5d0U, 0xbcb9e500bc6dbcbdU, 0xbcb5eaf13b5fb8caU, 0x3c376ecabcd28081U,
  0xbd352a0cbd2784b6U, 0xbd366d8f3d27eb68U, 0x3c807c733c5de919U, 0x3c83a7cabccd7a7cU,
  0xbc8898d2bc78b6f1U, 0xbc4bf14d3ca45b88U, 0xbd34a9623c407dfbU, 0x3b1372f0bb6355ceU,
  0x3d12e66ebcee704dU, 0x3d02d87c3b810241U, 0xbd23a999bcf82b8fU, 0x3d33bff63cedd580U,
  0xbca9393abcc9a9e3U, 0x3d2497c7bd1898ceU, 0x3d1fcfcd3cbf3940U, 0xbd2e72f23c82d874U,
  0x3cd60d1f3c4ba7b9U, 0xbc6a0e27bcc3fd99U, 0xbc2f93413c63fd74U, 0xbd012d07bd3812f9U,
  0xbc1449653d267a0dU, 0x3d20df42bd307a0dU, 0xbd0e62b73ca41b3bU, 0xbbed26cd3c7785f4U,
  0xbc0dff063d33cae9U, 0x3d296e393c96820bU, 0xbcfe82b6bc370f99U, 0x3c2bd65c3c6b673eU,
  0xbcb45a6c3c6ba349U, 0x3d28caa73c55dabdU, 0xbb6fddb9bc1cffc4U, 0x3cce369b3ce8602eU,
  0x3d38fbf0bbad0321U, 0x3d02700b3d0da29eU, 0x3d1240583d3a572fU, 0xbcfdab15bb744923U,
  0xbbfaa58fbb9065b4U, 0xbd1df182bd14195cU, 0xbd22d0e53d1d8741U, 0x3c259b933cd99361U,
  0x3d3ae9753d01e006U, 0x3d03317f3cb26475U, 0xbd00bb1c3bcebee3U, 0xbcb187f43d170777U,
  0x3d132069bd0246d3U, 0x3c215c2f3d377e44U, 0xbd108a77bcaa265bU, 0xbabb26633d37a1d3U,
  0x3d3ab9adbc5b848aU, 0x3cca182f3d16274aU, 0xbd1852ce3ca0563fU, 0x3c6e2efcbc6eaf6dU,
  0x3d354b1e3ca5b23cU, 0xbc42622bbc0354f2U, 0xbc6eb89abd2bb31fU, 0x3cc6adcd3d2a385eU,
  0xbc84b7adbcf3281fU, 0xbd225c68bc8d6020U, 0xb8c06622bbc524fbU, 0xbcaccc7e3ce72468U,
  0xbd0be501baae47d6U, 0x3c0690243d080863U, 0x3d047829bc93bfe8U, 0x3d179b51bd02fc24U,
  0xbcb15148bd1d8f9bU, 0x3ca0824e3cec001dU, 0xbcc05e603cfd71eaU, 0xbd106716bc58b1efU,
  0xbd1c1d74bcfca816U, 0xbd31401a3d33e0b3U, 0x3d132c47bd371a1bU, 0x3d04f8ffbcdd6472U,
  0x3caab13dbd2abab5U, 0xbc63f3c13c8cdf2cU, 0x3b85faef3aea996aU, 0xbd162162bd072171U,
  0xbd2b50e0bd309e56U, 0xbcd25952bcb73c8eU, 0xbcb93ccdb98872d3U, 0xbc87f91dbce6df13U,
  0xbcbe1cb03c6645bcU, 0xbcb7258ab960669aU, 0x3d004f8ebd256447U, 0xbccf2ed73d02a7c0U,
  0x3c91bcae3c94257cU, 0x3c19c9223d0b7e90U, 0x3c564277bcfff005U, 0xbd15e821bd0c3f8bU,
  0xbcbb11273d29d3e0U, 0x3c91325fbc83bb56U, 0x3b88bf24bb72a24bU, 0x3c90ac2dbc98594eU,
  0x3d087ef53c676e82U, 0xbcaa742d3cf7e649U, 0xbc8489e2bced8003U, 0x3ced9a87bd01b4baU,
  0x3bb2c9a93d1c94b6U, 0xbc6158d53d268f65U, 0x3b63c5b9bd220fa8U, 0x3c3cf0893c4aa724U,
  0xbcf133113cab5f5bU, 0x3d09db58bccd3a81U, 0xbd11a2413a10913fU, 0x3d32c306bd092951U,
  0xbc5c246e3cbe33aeU, 0x3c1abcb6ba511e09U, 0x3b219a20bc32234aU, 0x3ce4f82f3cf56fc1U,
  0x3cc2ace0bd2ee6c1U, 0xbd2adb0abce0f066U, 0x3a2454be3c162e90U, 0x3d1c88b23c9b6be4U,
  0x3b69c4713cae20afU, 0xbcf322213c3dc8a2U, 0xbcdb64b4bc35f8c9U, 0x3d1082aabd002310U,
  0xbb1f62af3cf20360U, 0xbcc0c512bb884903U, 0xbd225b3b38264d61U, 0xbb5bd6383cc169f5U,
  0xbb687bb73cd8251cU, 0x3d34c05cbd106635U, 0x3ab88fd3bcea45b7U, 0x3ad2745d3d3605d4U,
  0xbc2aff6cbd1bc9e7U, 0xbd038f703d0b6bdcU, 0x3b199874bc1329b4U, 0xbcb472a23ccbd1f8U,
  0xbd0080173ccf3240U, 0xbcfe5ac03d29f127U, 0x3d1dd24c3d370568U, 0xbd1a953f3d222b87U,
  0x3d087f313d1f6820U, 0xbc24bb0ebc9de982U, 0xbce7cf463d311c37U, 0xbce8c1bebcca7f9aU,
  0xbd0b12623c8f769cU, 0x3c30e58abc752ae3U, 0xbcd4a7b23b3365ceU, 0x3d335664bcf870e7U,
  0xbd323427bb9b1b1aU, 0xbd2403d13c8d5c56U, 0xbc9f6352bc88795aU, 0xb907f8dd3c4aa9c9U,
  0xbd2d106d3d2ff544U, 0x3d03ee08bcdb3f9eU, 0xbc0e4d3b3b996aacU, 0xbd1a72843cf54f6aU,
  0xbccbcaedbbc33eb2U, 0xbc72d11abcf2aeb2U, 0x3cd926ab3d301dbcU, 0x3bc098fbbb30aa8cU,
  0x3d331488bcf8145fU, 0xbbd2db853d0aad01U, 0xbce802d13d1b01d9U, 0xbcff86ff3cb3a390U,
  0xbc3774adbd002c43U, 0x3cc95d263a8188c4U, 0xbc94b80cbd35a6d9U, 0x3c3a1e5d3c46ba3aU,
  0xbceb469b3d0384f3U, 0x3c910c4b3d004a41U, 0xbc49007bbd0a7631U, 0xbbcebbd43c1bee57U,
  0xbccb4b343d06e9c3U, 0x3ca305ad3d0f1e59U, 0x3bed6f0ebcb05febU, 0x3d1242a2bd06a8f2U,
  0xbd27cf7dbcdb9a52U, 0xbd1c22c93b8f4cd0U, 0x3d10f2f53cf94133U, 0x3cd720bdbcf3fb30U,
  0x3cb6a62c3d2317e4U, 0x3d3565c33d084eddU, 0x3d0d24593bbea6dfU, 0x3bd7d8143ad0642dU,
  0x3c907646bcba2616U, 0x3ccf379abccad9d6U, 0xbccd7f73bd1a37dfU, 0xbd2965f33d23689bU,
  0x3d021c06bd1c4605U, 0x3bbce6d6bac951f4U, 0x3c39c67abc35a559U, 0xbc7c361b3cb9f3cfU,
  0xbba90750bd1ab7f6U, 0x3bc3ddc3babd4a4bU, 0xbd0c3250bd327dfdU, 0x3cd240efbc6e642fU,
  0x3c424b8dbcd5937bU, 0x3d11444d3d0cffd0U, 0xbd28d3923c91faffU, 0x3b298b2e3c958306U,
  0x3cc0091f3d14e556U, 0xbce87513bc595680U, 0xbd00701cbccbf83dU, 0x3c66ae543d3a1409U,
  0x3cd035a5bce1bd31U, 0xbc6428f93bc319a2U, 0xbd211e8ebcdb3920U, 0x3d08323dbd3a593eU,
  0xbc2e7c193aeafe03U, 0x3d1a4d8ebc8d22fcU, 0x3c805aed3cc3cee2U, 0xbd1ab3b8bc27c0f6U,
  0x3bb1b180bc938630U, 0x3c98b24f3d157893U, 0xbcef71b23cf40e79U, 0xbca88e1b3c927e01U,
  0xbc60b0913d0f1c5bU, 0xbb8bd8263b38d87dU, 0x3b6c582cbcc49012U, 0xbd271f24bc4d3c95U,
  0x3d1f5f6d3cf1a074U, 0xbd259d12bd01f154U, 0xbcbfaeddbcd9c472U, 0xbb60c85fbc903e4aU,
  0x3cc087ef3d3a5356U, 0xbc7efd1ebc44123bU, 0xbbafb9afbc9f05c1U, 0x3d3abe89bd12bb5eU,
  0xbc085f78bb9cf3d5U, 0xbd00a48bbccbb874U, 0x3d00d57f3d273558U, 0x3d3770f23d3aca5cU,
  0xbd2cf3d83cdbddcbU, 0xbd3138a5bd31d517U, 0xbd082d9f3cd6e9a0U, 0x3cf7a54d3d17f5aaU,
  0x3bacfa513c01e80cU, 0xbd15a11e3d2f1f9eU, 0xbcff4da2bcccbceeU, 0x3c2130353cf32dffU,
  0xbc8e0d9ebd32f57bU, 0xbd1b3726bbbbccabU, 0x3d06114e3d18123eU, 0xbbcf01cdbd01a613U,
  0xbd0cc11f3b91b6d4U, 0x3d26d228bc7ecd54U, 0x3d01dde0bbf62218U, 0x3c8518c8bd0545d3U,
  0x3b99f6b53d18b948U, 0xbbf168153c7dca0dU, 0x3c9b7fcabc9f71d9U, 0x3d38eecebcd08a84U,
  0xbcbfb0d63c12b96cU, 0x3c542e543cc3423bU, 0xbd2805b83d05d4b5U, 0xbc9b28103d03db4cU,
  0xbbf503393cb7b924U, 0xbd30359cbc640eafU, 0xbcba749b3d0fe31dU, 0xbd2333d0bc772c5bU,
  0x3c47afa73ce6c2b5U, 0x3cd61d2dbd15a3b1U, 0x3d220a6e3ced3db9U, 0xbcb363d83c9075ceU,
  0xbc04c37cbb53f422U, 0xbc8c2e503d28e00aU, 0x3d10b4443b62edbcU, 0xbce576f2bcc91f0aU,
  0xbd2f052a3bb25545U, 0x3bb5c619bcdcda2eU, 0xbd0e5d15bb4c87feU, 0x3cc2c930bb921650U,
  0xbc364424bd24d13bU, 0x3bf100e23cde12ceU, 0x3cfcf5b7bd1cf293U, 0xbc623914bd0b6f73U,
  0xbd0be1463cde2af9U, 0x3bab1191bc26414eU, 0xbd0645093c659a46U, 0xbcfb4596bc040bb4U,
  0xbd10e4ec3b9fe2b6U, 0x3b49d597bcc2004fU, 0x3b94a0813d120871U, 0x3d13532d3c9fa55bU,
  0xbc000a06bcc377faU, 0x3d10713cbd37f9caU, 0xbd141577bd0bb758U, 0x3baf7b043c535c0dU,
  0xbd1df4d83c39ea94U, 0x3c83d5543d1d1b5fU, 0xbcfa6f82bced953cU, 0x3cee7e8bbb91298fU,
  0xbcb15cf83c075682U, 0x3d0c4ab7bd2f5925U, 0xbc98490bbc9d6c46U, 0xbd06b110bd021be3U,
  0xbcbca5393d03b523U, 0x3c9623bfbd08e152U, 0x3c9bcc3bbc88a681U, 0xbc411dc2bcaa18eaU,
  0xbb4e1a7a3c44143dU, 0x3d0090d53d0b92cbU, 0x3c5562ffbc900944U, 0x3c31f363bc4333a6U,
  0x3c1f6b8a3d14ef12U, 0x3b82aba7bcff44bbU, 0xbd273ecc3c8a935aU, 0x3c0d8ad6bce6e6e1U,
  0x3d1cc6cbbb34b74bU, 0xbba3706f3d19aff0U, 0xbc8d9411bb8bc5c1U, 0x3c1d0de5bd2d2b63U,
  0xbadaddd3bc5f3dceU, 0xbc5f5cd23c9dc356U, 0x3ce50c1e3b765851U, 0x3d0336f3bce91c6dU,
  0x3d1d1b343b8336c6U, 0x3ca96b433c5c79fdU, 0xbd2ffe033c6e3834U, 0xbc5428e63a9cd153U,
  0x3b963aa9bc2bf81dU, 0xbd207a8f3ce5c5b4U, 0xbcdc280cbcf1e060U, 0xbd02bff5bc8504a7U,
  0x3b6ae4d13cd58976U, 0x3bfdd5ce3bc767edU, 0xbd3805ddbc6a0108U, 0x3c425e043d3951cfU,
  0x3c448cc3bc63f210U, 0x3c4f159c3a0d0003U, 0xbcfb9f03bd2e1ef5U, 0x3909c0923c84ddd5U,
  0x3d267fac3d0035a1U, 0xbcccba94bc16c15aU, 0x3cda3d033d11126bU, 0x3d004af6bb04b438U,
  0xbb57e6513cdbf960U, 0xbb4c76ecbcd99f6bU, 0xbd373fff3be5f622U, 0x3d1e84d6bce00fcdU,
  0x3b2ea4f33c908d5bU, 0x3d2c7d4b3d07c262U, 0xbcf52de13d0cb538U, 0x3cdc6755bc793133U,
  0x3c85a5fb3a42ca7dU, 0xbb91675c3cae7661U, 0x3d15344f3b92124cU, 0xbd26d66f3ca0470aU,
  0x3d177f31bc38e33dU, 0xbcbfeccabd260094U, 0xbd28ca813cbbba71U, 0xbbab23813cf7a734U,
  0xbd234bb5bd0e9c59U, 0xbc76a069bcf4faf3U, 0xbc9ae27ebb9ea739U, 0x3c7d2b653cbf1ca2U,
  0x3b67fa5cbc1f40dcU, 0xbb96db013b2f3214U, 0xbc8ee86ebc42490bU, 0x3c419b70bc908322U,
  0x3d093cba3ccbf349U, 0xbb4c4c333cc63492U, 0x3d143d11ba40e303U, 0x3d2f6d97bc90b2ddU,
  0x3c91eb053cb41be1U, 0xbd118604bd060ad9U, 0xbc8614d33cff3089U, 0x3d111775bbf8d8caU,
  0x3bd42713bc09c9d6U, 0x3d3a16e8bd0b3971U, 0x3c7d1b71bc95befdU, 0x3d2523813d0f4f9dU,
  0xbd37ac5e3d20478eU, 0xbd0dca32bcbc4e8eU, 0x3cabc11abd0f6166U, 0xbcfdfb2abd1e9ff8U,
  0x3d35da643cc8a756U, 0xbd2e1afcbca0aef2U, 0xbd1ad6e9bc22c534U, 0xbc80d6f63cfe713eU,
  0x3bdd4627bcdbc3d6U, 0x3bf683aebcdd2266U, 0x3c69aa893d0ed99dU, 0x3d00109b3c0ac032U,
  0xbcaeae603c9ca4f2U, 0xbd1b0d24bc807681U, 0xbc6caec8bd3605b2U, 0xbc4855aebd292012U,
  0xbd0a68403c984489U, 0xbcd988dbbd212e24U, 0xbc444dd73b7bfedaU, 0xbbca78a13d2e7932U,
  0x3d2446073cc637eaU, 0xbc92c17abd24a831U, 0xbcd57ef6bcbff836U, 0xbb4cbdf2bd2ed31eU,
  0x3ca16934bc31fa99U, 0x3d1754e13ca2eb19U, 0x3cbcaee93d177650U, 0x3cddef663c945350U,
  0x3cbfd7d13b583891U, 0x3d026ff23c88688eU, 0xbbc66f2bbcfc7393U, 0x3c774fdebc2562a8U,
  0xbccffd173cef0282U, 0x3d165d10bbe034daU, 0x3c0c7ffb3d1330a0U, 0x3cf5452bbd00b033U,
  0xbca057f03c02a5c4U, 0x3d106b4ebc0c10e3U, 0x3d32b8383c554c20U, 0xbcd93cbcbb849ecfU,
  0xbcc2059d3ce3b52aU, 0xbd21c5473d0563a7U, 0xbd22d0e73c0bec82U, 0x3d04747abc77c3d3U,
  0x3d02192d3d164cadU, 0x3d181305bd187c28U, 0xbd279757bb781bbcU, 0xbd07057f3ca076ceU,
  0x3cef1afcbce04c55U, 0xbc64acd03c8e3e6fU, 0xbd19de313d024257U, 0x3c4984f63cc5145bU,
  0xbd38546ebd28cff4U, 0x3cf4c0d0bc7537f1U, 0xbcf111a2bc0dc4abU, 0xbd1f7911bc07c17aU,
  0xbd2e3d643c90e602U, 0xbd2e9aacbd1438b5U, 0x3d2aabfebc58085eU, 0xbd09ce7abc9a9fb7U,
  0xbc1e01bebbf9e0edU, 0x3ce38941bcf1609cU, 0xbcae7a943c091a9cU, 0x3cc316b0bac01d49U,
  0x3d09a5eabc511598U, 0x3d12aff4bbfb88f5U, 0xbd0f36d2bc89769aU, 0x3c69f6d4bbc37ddeU,
  0xbccaf455bc1c8470U, 0xbcaf379abd2b20ffU, 0xbc907a90bd0c41beU, 0xbc66c0443cde4134U,
  0x3be244c3bd05a36fU, 0x3ce50147bccd6575U, 0x3b2615f83d155a9eU, 0xbb2b9e493c940ef6U,
  0xbcdc5677bb8681b8U, 0x3c3b3409bcf3287fU, 0x3c63ba72bb4b3f16U, 0xbc724170bc53e0ebU,
  0xbd1f4c613c373ee8U, 0xbbf0b1f73d0ea59bU, 0x3b608a4b3c8bd774U, 0x3d21ef7b3b3a05d4U,
  0xbcaa7df8bc5804a0U, 0xbc95f0fdba01a16aU, 0xbc092a72bd30db31U, 0xbd1d05e33bb6343cU,
  0x3b10aea43cefc969U, 0xbc70137ebc1ab98fU, 0x3af662a2bd216684U, 0x3c554bf2bc821236U,
  0xbce61c8e3d2e9971U, 0x3c62ad26bc419581U, 0xbc8378463d0299a1U, 0x3d1681383d1bc315U,
  0x3bfaf0bcbd21f686U, 0xbc516a20bce4acb3U, 0x3ce99b513d339089U, 0x3b088976bc51da45U,
  0x3cee07c7bd2ab942U, 0x3bc0b48c3d1b55ffU, 0x3d24f45dbcca45f1U, 0xbbfffce73b622141U,
  0x3c6c94723ca832d2U, 0xbcc3b82d3c08dc4eU, 0x3cf5cde43d3ae81aU, 0x3ba40c14bcae25b2U,
  0x3d1f41da3d2494dbU, 0x3c7eedce3ce2e16cU, 0xbc9216fabcc7757bU, 0x3d21ee433c9c6598U,
  0xbd1fe4c0bcbf4aa4U, 0xbc957b693b46a709U, 0xbd112ac2bcce7f6bU, 0xbd1bdcb73d04f013U,
  0x3c30ecbb39b7d8b4U, 0xbbccb99cbd2b1fe0U, 0xbc5baa32bbb9bb62U, 0xbc456b113c94941aU,
  0xbc126dbebd1ad6d3U, 0x3d34b0fc3b985390U, 0x3d1a5708bb1aa101U, 0x3cd51d263d1bff11U,
  0xbcafdb3f3cf92ba4U, 0x3d1d854abc03afd8U, 0x3d1fa10c3cd1fadcU, 0xbd307f25bb1d5d2dU,
  0xbd2e0602bd36b8c6U, 0xbcdbb5a13c41a439U, 0xbcee8075bd285923U, 0x3cb38bb9bc532a24U,
  0xbb4b23e23cf26287U, 0x3be801353cbddde1U, 0xbad776c43ce124fbU, 0xbd383c79bd10346bU,
  0xbc1429543cad788fU, 0xbc8a22073ce890edU, 0xbd3211683d265ec8U, 0xbce689033cf5d058U,
  0xbd15c77d3b5e5de6U, 0xbcfa52053bd62af0U, 0xbc172a553ce66690U, 0xbd23ba033ce45fffU,
  0xbb176508bc62482aU, 0x3ca2593ebd26d7c1U, 0x3cdce4883d2db88eU, 0xbc2e201abb99e979U,
  0x3bfac91e3d0f6a1cU, 0xbb29bb1b3cb54a84U, 0xbd1e89ef3d1a92acU, 0x3d296c7c3ceceb6eU,
  0x3cd66888bba4a19bU, 0x3cc8ca383c77e1beU, 0xbb4295b9bcf8a9f5U, 0xbd307ad8bc0da162U,
  0x3ccd3ba8bd06dfd0U, 0xbc8641f43b2fa8c0U, 0xbce7089c3bfb3175U, 0xbd2952173cced7acU,
  0x3b778b80bd2b51b1U, 0xbc060a223c442982U, 0xbcd518953b2ae6e4U, 0x3cc06c3dbc55e4e5U,
  0x3cc6a42fbcd6bbb8U, 0x3cc2aca63bfb49f8U, 0x3d2055853bfb6211U, 0x3d2bdc5e3c8c0701U,
  0xbcdde4943d33d73bU, 0xbb8ce9a53c56c79bU, 0xbc9447c6bc98ae3fU, 0xbc0688973d19b6ecU,
  0x3c80afbebbaeab6eU, 0x3c79d590bba029f6U, 0xbc4584b8bc9d42f1U, 0xbcd2bf383bfd5854U,
  0x3bb724d2bc7c4262U, 0xbd2163403d354794U, 0x3ce7b83fbcc796edU, 0xbccf0ca1bd1f9ef7U,
  0x3c927c8bbc906655U, 0x3bffcb9cbd2d1ad5U, 0xbcaa7ab4bcbfdb23U, 0xbd0c5b72bd0fb4c4U,
  0x3c4dd6dbbb85948eU, 0x3c4a184c3c954c26U, 0xbbabf8d83c9a782aU, 0x3d255c3bbc982530U,
  0xbcd834fc3c65c242U, 0x3d1d68f1bd0c1ceeU, 0x3cc78c04bc31b313U, 0xbd2476603cfd27c9U,
  0x3d06ab603d38f45fU, 0x3cb830dabc0c063aU, 0x3d2b8950bc6c1e80U, 0xbb38889dbd2a41a8U,
  0xbd2fa15d3c6a5d53U, 0x3cda0d59bc624b6dU, 0xbc14d9d0bc9fc6d6U, 0x3c2535203d31d05fU,
  0xbb57d787bb516269U, 0xbd1c67ad3d21a735U, 0xbc0c45773bc02fbaU, 0x3d18be26bc2bd313U,
  0xbd01dbbb3ca535cdU, 0x3cf79ad3bcbfd1e2U, 0xbc8e1def3c074048U, 0xbc22e466bc8817b8U,
  0x3c0c7559bcf2d945U, 0x3b125fcd3cba9500U, 0x3aad51babd131ebeU, 0xbcfb503b3ce8b7dfU,
  0x3c44bc98bcf3e42fU, 0x3ca0bcb8bd15520cU, 0xbd278bbc3cd03189U, 0x3b855ebebc96ec74U,
  0x3c8bf86ebc28c65dU, 0xbd02af6dbcae9236U, 0xbc330909bcdba78fU, 0xbcbde2acbc654437U,
  0xbc4322fdbc91d447U, 0x3a867c61bd01f2dcU, 0xbc9318733d253b84U, 0x3cbecc32bbeade61U,
  0xbd27b67d3d19331fU, 0xbc9329313c4dc015U, 0x3ce03aec3cb75309U, 0xbbe9f316bd1d52f4U,
  0xbcf79ce9bd210701U, 0x3b85b46abc74c604U, 0xbb7e1aa23d236a0eU, 0xbc18ec5bbd379f9cU,
  0xbcdfacafbc40f854U, 0x3cd90f35bd2073d3U, 0x3cf1af8d3d04bf88U, 0xba68e399bd258d88U,
  0xbc5d7c373d0a07f6U, 0x3be944c6bd22cfb0U, 0xbcd957503d21cb13U, 0x3c59be8c3cc239c6U,
  0xbc1338e1bc97f21dU, 0x3d142a513b870307U, 0xbc93cba63b4cefb2U, 0xbd0e6c493b9c5157U,
  0x3bf331c0bcf76af7U, 0xbc3629a53c959943U, 0x3b2da7a03d021ebdU, 0xbbd4d6c13d1727a1U,
  0xbd27af8d3c78babbU, 0xbccf23d1bc50c1bfU, 0x3c7237ec3c4e2c19U, 0x3b82d3173c5b884eU,
  0xbcdd27a3bc59e77dU, 0x3d339d03bd1b08c5U, 0x3c8590093bc55d4eU, 0x3ce0b1b2bbf8ec5eU,
  0x3caaa4523d10682eU, 0xbd0aee17bc1936aaU, 0x3d0d8da3bbbbec35U, 0x3d14b3c3bc8410edU,
  0x3d0a92acbccc8ca3U, 0x3d21a049bd2cec0dU, 0x3d25015fbcd60776U, 0x3cf8b8b9bca9fa29U,
  0xbd212681bc234e51U, 0xbc85323d3c0a950aU, 0x3b1536cf3cc30572U, 0xbc663c673d35e80aU,
  0x3a26bd7b3cf19f2aU, 0xbc0f45cfbb0c9b3bU, 0x3d1dbc00bc444fbcU, 0xbd01e7943c45141eU,
  0xbbe247523b881873U, 0x3d1a06ce3b955bdfU, 0xbbf824393d23cacdU, 0x3b98a752bba04715U,
  0xbbc47019bd046b75U, 0x3d355bc43d176eb9U, 0xbbd2f1333d38b402U, 0xbcdd09cf3d3550ddU,
  0x3d333c1e3d09ffebU, 0xbc353b11bc4aba49U, 0x3ce71b933c72938dU, 0x3c2e827dbbd8550cU,
  0xbcd07aa23c8b4b9dU, 0xbc8749a33cf32ef4U, 0x3a94094a3c3f7574U, 0x3d11790cbcc5aeffU,
  0xba47069d3c81aa8bU, 0x3cfc2d43bd293742U, 0x3c5191dbbd29d0efU, 0xbb8a55eabc23f184U,
  0x3d2d1a2a3d1c5869U, 0x3d2e90d6bcc66b87U, 0xbafcc9f8bb66832cU, 0xba7fa415bd24608cU,
  0xbc4ba7d73d081382U, 0xbcd539be3bb6482eU, 0x3d1b95cd3d09c3b2U, 0xbc256952bc45bae0U,
  0x3c0c07643d3a5196U, 0x3c6f89a0bc0a6f0aU, 0xbd321460bcca813eU, 0x3d21fb26bd0bcdb7U,
  0xbd10453a3d18f9c2U, 0xbc9f05d8bd326fdbU, 0x3d341f1abd2988faU, 0xbc39f30c3ca54bf6U,
  0x3c358ae6bd24f153U, 0xbd1b6bf43d39fbc6U, 0x3cf49ed53d29827aU, 0x3c9e5d05bcb630f3U,
  0xbd2c24dbbccd40faU, 0xbcfea9f7bd2c768fU, 0x3d119c853c940bacU, 0xbc810c493cb9333eU,
  0x3cc2ed07bcb522daU, 0xbc278b383ca81556U, 0x3c0d6eadbcf0ff95U, 0xbc90b8663b818c77U,
  0xbc3875db3d0c578cU, 0xbb33eca3bd36a937U, 0x3cbd54b03d38d888U, 0xbcf0c21d3b3d80e2U,
  0x3bf165933cda0ddaU, 0xbd17a66abcb2bf0fU, 0xbc355dbcbd23950dU, 0xb933ea5b3a6824feU,
  0xbd3054a4bb5fd2cfU, 0x3cfacc0c3b2084faU, 0x3ccfaaf4bcd1ab22U, 0xbcde41133d36a538U,
  0x3d00c7ccbce1376cU, 0xbd0fc7dd3d00170eU, 0x3cbc5700bd14cecbU, 0xbd0ef6b6bc233d16U,
  0xbc2bf257bd0e5667U, 0x3ca4ea3d3c11f691U, 0xbd1d847bbd383e70U, 0xbd24eddf3d1faa40U,
  0x3cb0b066bcefb32cU, 0xbd3342dfbd2a7a02U, 0x3d36999dbd385b87U, 0xbcf809e6bbd0d2baU,
  0xbd091231bc6916edU, 0xbd13c06d3d06ec3cU, 0xbc6582503ce15a16U, 0x3c5753643ce919c1U,
  0xbcf4cdc1bc507e03U, 0x3c6f4a7abc7f6512U, 0x3ce0eb553cb7bda6U, 0xbc8a24d63caa4c89U,
  0xba14ea96bc9a10e5U, 0xbd0769973c852391U, 0xbd1657553cd30828U, 0x3c8f9196bc510b18U,
  0xbced5954bd358b19U, 0xbd28cd773cd65b63U, 0xbcfb3cf03c6cedc5U, 0xbcd61a183c982c1bU,
  0xbcf5fdbd3ac95197U, 0xbca2274f3d158dbdU, 0xbcb394aebd1bd5d4U, 0x3c2190783c0cd859U,
  0xbd18837d3d02d7cdU, 0xbcc69babbb668c4dU, 0xbd1d0a96bc58bfacU, 0xbc0a333a3d32de4cU,
  0x3c619d2fbd0ae861U, 0xbd110f8a3a6b5d7fU, 0x3c76d16f3d173f9aU, 0xbc7614b83cc0839eU,
  0xbc27bfd23d2993feU, 0x3d0d5ff43d299d4cU, 0x3beacaccbc7d3428U, 0xbd08e810bc57bdcfU,
  0x3c3c38e93cff33bbU, 0x3bc5f31c3c6cd0c3U, 0xbcdbf5bfbd0fe7ecU, 0x3cc740b23d371e74U,
  0x3c972f923ca5c33aU, 0xbce753d2bc87833bU, 0xbb4fb4153d0ea51eU, 0xbc876ee8bb979035U,
  0x3d2eb36e391a781bU, 0x3d3199403d343456U, 0x3d2e2688bcc9e02eU, 0xbcf7956d3c88b071U,
  0x3d07f512bba0a022U, 0xbd1fc5573cb9ac7eU, 0x3d19e7fabbda07d9U, 0x3d35a729bb54bc6bU,
  0xbd29834a3cc2b02cU, 0xbd24428f3a4ded33U, 0xbca23eab3cacbeedU, 0xbc5a4ec7bc00a5ceU,
  0xb8c1f36abd2fb881U, 0xbc1b1184bc3407aeU, 0x3d17c1a6bd2d9c93U, 0x3d25f4ba3ca600f0U,
  0xbd388e863c9c8a2dU, 0xbd113f72bbad6c27U, 0xbc072b203ce7775aU, 0x3c9c4c83bd2f62dcU,
  0x3d3a4b9fbd0bd80eU, 0x3d0dd62a3d17ada9U, 0xbc95685b3d0abb6aU, 0x3cc4093a3cc4ee7fU,
  0xbb908a443c8014a8U, 0x3d399928bab73232U, 0xbbb242023cfff62fU, 0xbb7748f3baa994dbU,
  0x3997fcc0bd221167U, 0x3ccd5e5fbca99636U, 0x3d1374223cc29f8cU, 0xbb888a493a7a68b7U,
  0xbd1228c43c760ba3U, 0x3c52daf8bc26c19cU, 0xbcf5b7aa3d0d9feaU, 0x3d0c7bd0bb48d0f7U,
  0x3c97fa0bbd10f431U, 0x3d1713c6bc55acb5U, 0xbc8c015b3cb896c0U, 0xbcbdf5e63d286fdaU,
  0xbc2dc2bd3cafb82bU, 0xbcf07158ba720f23U, 0x3d0ab81ebd06ddcdU, 0xbd146b88bd22b4b7U,
  0x3cfdfa8f3cca1e7bU, 0x3d373fbdbc2867b3U, 0xbc6cb9d93cb617b5U, 0x3d23a5fbbd24d6eaU,
  0x3d0aaff5bd164919U, 0xbd1a2997bd28c6baU, 0x3c8a5fc63b854b87U, 0x3b0e6d9e3d0d86eeU,
  0x3d1282e2bd011cb5U, 0xbced97323d12d7e9U, 0xbc347b86bc80a4feU, 0xbc03e2b1bc20a909U,
  0xbd35db4bbb51ed88U, 0x3c8cf064bca75718U, 0xbd0c7c34bca3c748U, 0xbbc44a883c91a685U,
  0x3d066aab3baee211U, 0x3bf3dbbabc37f4e3U, 0x3cce8fcb3d1ef204U, 0x3cd3edaa3c95cdeaU,
  0xbd1e4694bc90a6dcU, 0x3bcc2f953d0a90fcU, 0xbc7d6b0b3b4acfb7U, 0xbccfc1033be91de3U,
  0xbc91e01f3b607278U, 0x3c3b61ffb9cbf31bU, 0xbd3779bfbd2404e7U, 0x3b8a315bbc709b48U,
  0x3d39bcbf3d08f30bU, 0xbb998ebbb9b3b0a9U, 0x3d0fe51fbcfa3fe6U, 0x3d199f593c944b5eU,
  0xbd18b08ebd39a2faU, 0xbc8ea8b9bc012f88U, 0xbd37ea37bc74d543U, 0xbd1e2d513cc8fb7bU,
  0x3cc34966bd168113U, 0x3b034123bd081782U, 0x3c314553bd0f2184U, 0xbbb214973c1b640aU,
  0xbcf0880b3cf0990bU, 0xbd3038863c078f85U, 0xbcc2c1fcbc98dfc2U, 0xbc0353593c2b8737U,
  0xbc3d06b23caaf689U, 0x3a50a3b6bcd4417aU, 0x3cb1ffe1bc5a14ffU, 0xbd2dcb9cbbcdafdbU,
  0xbd28187fba50dbf2U, 0x3d27ff513d059786U, 0xbce454733cf75d17U, 0xba5071b0bc02a07eU,
  0x3c7b5e703cac4b81U, 0xbc52d9da39d2f3fcU, 0x3b2c6cb0bcac5d45U, 0xbd280239bc954a64U,
  0x3d104a693c3e5549U, 0xbc2bc5e23d2a967cU, 0xbc69c8d8bd18050dU, 0xbcb95874bc9e4f1fU,
  0x3cc0c77b3d012bd0U, 0xbd1481d13d321a6cU, 0x3d087c383d0b66b0U, 0x3ccbb5c2bcdc2000U,
  0xbcf742e43ca2b2c9U, 0x3d06fd24bc81e35eU, 0x3bad7ae53c61382cU, 0x3bd4b405bbc43621U,
  0x3ce20150bd0bc93bU, 0xbc00694e3d3928deU, 0x3b2504613d2ec669U, 0x3c3ab7e83d0d696dU,
  0x3c1cdaefbcf1fbc0U, 0x3d274efcbca960fbU, 0x3c1b512abc82a0eaU, 0xbd0cd51a3d2217baU,
  0x3bb506e5bb96c76cU, 0x3c3ea80fbb5e7776U, 0x3cd808a13d373628U, 0xbc3bb4c6bb979754U,
  0x3b1cfbae3cac4b8aU, 0xbcd383423c9e454cU, 0xbd3025a0bcd771e4U, 0xbc57c72aba5da2f2U,
  0xbcff2f423cb3bdb7U, 0x3d192d43bc8544a5U, 0x3c6ee370bc820e60U, 0x3cb3c9383c618409U,
  0x3d1a8f253bc4c700U, 0xbbb3e22f3c099304U, 0x3d06c716bc71e482U, 0x3d388b3e3d05fdafU,
  0x3cb056413d2dc322U, 0xbca4ffc2babfb079U, 0x3d26f8febb929147U, 0xbc8e376abb5b1e00U,
  0xbbcfe5ca3d1da9e0U, 0xbcbe28dabced2464U, 0x3cc39a30bc223616U, 0x3d2b729b3a92baffU,
  0xbbb2978b3cd96d8aU, 0x3bc20a483c3fd728U, 0x3b8181193bca9f27U, 0xbb90e5243c1296bbU,
  0x3d05fae63ca8f10dU, 0xbc27026cbd1d2a11U, 0xbd0d887fbcd50fecU, 0xbcaabbf63cc574e1U,
  0x3d126674bcfa03a7U, 0x3cca43543c95a472U, 0xbb8b1310bc57335fU, 0xba56d0ce3cd4ed7cU,
  0xbd1720fd3d1eb91fU, 0x3c3f1c9c3cee649bU, 0xbce7c4d83b73d377U, 0xbd03c12fbc05dca0U,
  0xbc916c793d1cae48U, 0x3cea24253ca7dd40U, 0xbc4b5640bbe75409U, 0x3a93e581bb2d0da0U,
  0x3c14cc643d248d19U, 0xbd29b5cfbc708bd4U, 0xbc99a68c3c569edfU, 0x3cacba193d21af60U,
  0x3cb5ccc3bb4a1b55U, 0xbcdeb6e5bceb93f6U, 0x3cd916c2bd17f252U, 0x3ccbfef9bc2e73edU,
  0xbb6f045ebd09bdc3U, 0x3cdd4cb6bc058691U, 0x3d0412a93ce8c0bdU, 0xbcd041b1bd1bbf8cU,
  0xbc4a9e26bcfdad14U, 0xbcdb645cba8069f1U, 0xbc94c7a53d2820f8U, 0x3b78cbeb3c846957U,
  0x3b759020399e9b0aU, 0xbd043df63c6076f1U, 0x39b76a6e3d075d21U, 0xbcebc1d83cb30135U,
  0xbc3402573cf1920dU, 0xbcb4b027bd3a855bU, 0xbd2035fcbb9049f4U, 0x3cc80ad33d34257cU,
  0xbc4c9933bc954706U, 0xbd1d3473bbfededbU, 0xbd34243f3d0ee399U, 0xbcfa61643d37d9d4U,
  0x3d3100edbd2fcc8fU, 0xbd2d28483c565c8dU, 0x3b97d45b3d3a0bc7U, 0xbd18063d3ccaaf4fU,
  0x3cc036cdbd30f4e5U, 0xbd12c7bb3c128bafU, 0x3ce60e01bcebcac2U, 0xbbf475a33cdda863U,
  0x3d12e3b33d325892U, 0xbcf37242bcaa2369U, 0xbc161a523cc78b6cU, 0x3d1b6a283cabe63bU,
  0x3cd73facbd2779c1U, 0x3c2092083d0b7da8U, 0xbc58c0c43cf72094U, 0xbd1dfb553d1c793aU,
  0xbb3c613cbd1ef041U, 0x3cf46ab8bd162ae3U, 0x3c89501a3c9efd32U, 0x3cdcac15bd067f99U,
  0xbc1ec0b23d1d21e8U, 0xbcc783553c988409U, 0x3bebf0263c97c380U, 0xbd065b6bbcf080e3U,
  0x3b7d9902bc495af2U, 0x3d0add5aba8dad17U, 0x3d165e3abbbf0b0fU, 0x3c261fb0bd0e1758U,
  0xbd1cc2ccbc22a855U, 0xbd1f2d653cd489f3U, 0xbc971542bd15c53cU, 0xbcaa2d5fbcb6e4daU,
  0x3d393dd13bd87731U, 0xbcf326ccbd1654daU, 0xbd33d667bd2407f9U, 0xbcc614d93cbc5e4eU,
  0x3d3a3705bd2ea448U, 0xbca93d09bc61b049U, 0xbcacdf613d139c6eU, 0x3cdaa6c53c8fd740U,
  0xbc8ef9233d0ecec6U, 0xbca7341bbb55ce01U, 0x3d2d626bbd01c6faU, 0xbd1e3dafbc4c196cU,
  0xbce1c85d3d06ba5bU, 0xbcc1e0bc3cf261d5U, 0xbd1335d8bd07f69cU, 0xbc12e1d6bc72741aU,
  0xbc784490bcc2bf85U, 0x3d065fb53d2c4e17U, 0xbc7c2c623d0412bbU, 0x3bcc3b733d139ef5U,
  0xbb0e6ee53aa95b29U, 0xbd391bbabcd6b721U, 0x3c2878ad3d38d02fU, 0x3c2be5783cba6834U,
  0xbc6ce2d6bcbfe198U, 0x3c67956cbb872cf9U, 0x3ce37cba3c403f56U, 0x3c55f7163ca7c549U,
  0xbbf4f487bceea1a4U, 0x3bfd71113cb2e5e7U, 0xbcb3f6b63c889a1cU, 0x3c6938c5bd182d78U,
  0x3a9a66373cd4f896U, 0xbc4df59f3c3efa3dU, 0xbcb8f54abd19a976U, 0x3c85c501bc83dfbcU,
  0xbc85d6c33d180d43U, 0xbd2d1742bd031e6cU, 0x3d398640bc626e64U, 0xbb8fe2ef3ccf1dd6U,
  0xbc6feb3cbd1354f8U, 0xbd07a16c3ccd0defU, 0x3c76477abd0941ebU, 0x3b381c2a3b7bc72bU,
  0x3cba4bed3d21886aU, 0xbd1bc999bccad777U, 0xbca184efbd135c51U, 0x3c8c0e233ad3b7e2U,
  0xbb9d3dafbac19c54U, 0x3893f130bccd42adU, 0x3cbccffbbcb24f90U, 0xbd0c7c7a3d31d740U,
  0x3d0fdb63bc796f9eU, 0xbc31002cbcbb7ca4U, 0x3cd3c98abd04cf73U, 0xbc76e723bce909d0U,
  0xbd0acb13bd091582U, 0x3d277c87bd07cdb1U, 0x3b4b63e03cabf770U, 0x3ca5d051bd12248cU,
  0xbd15227abce2385fU, 0x3cfbf7b03d354560U, 0xbc3e800d3cbc848dU, 0x3d32d6c2bb4e5b05U,
  0xbae9c286bb45ff11U, 0x3a9b7aa23bf3f449U, 0x3c904d06bcb29695U, 0x3ca51d56bcf2e411U,
  0xbce206c23ce94e16U, 0xbc01eefc3cda2f8cU, 0x3bd4ea853ca51a38U, 0xbc6543ebbc0717efU,
  0xbd181384bc9f2d39U, 0xbce202d2bca26f8dU, 0xbca63f003c2c3272U, 0x3c99e0663c7de7b2U,
  0xbd02bf0c3c2fc593U, 0x3c23d121bcc5e1f8U, 0xbc01598cbbfc4b66U, 0x3d36f37abbe1e631U,
  0xb9e6ea99bc45bb9bU, 0x3ca6c24e3cddabe1U, 0x3c9cf52dbbe2f83cU, 0xbca15c06bd331f46U,
  0x3cee3f85bcc0c772U, 0x3cf63d4f3d37323fU, 0x3d328d7cbc420be1U, 0x3c4b79ec3ce2fc49U,
  0x3b3d4ba9bca25116U, 0xbd29ee5b3c9132e8U, 0x3ce63fcdbbd1fb2eU, 0xbd0af111bcc254e0U,
  0x3d3817d1bd0a34abU, 0xbc7fc0dcbc4121e9U, 0xbc691482bd2e75b4U, 0xbc6fbc4a3d0c5430U,
  0x3cab0bc53ccda013U, 0x3cf701073c09e19dU, 0xbbfcbaff3c29d02bU, 0x3d108c6f3b5809d4U,
  0x3cc42d78bd2c8df1U, 0x3c4097eebd0cdcdcU, 0xbcfc054dbd1e8b17U, 0xbcac03e93c8ed702U,
  0x3bfc82c33b35b82dU, 0x3c9b3df33cd6be86U, 0x3c1268ca3b6c8b91U, 0xbb6ff22cbcfe5d4fU,
  0x3c4a9dd4bbbf4df9U, 0x3bc7e8debd2f9253U, 0xbcdc611f3c1b6de0U, 0x3cf0dc47bc878701U,
  0xbcc78069bb9ce984U, 0x3cb4c77cbc0697b2U, 0x3bbcaf553d1b0db1U, 0x3ccf8c3abd2d1b07U,
  0xbb95f07d3c535c36U, 0x3d154bb73cb8f9c9U, 0xbcb11f50bd1cb61dU, 0x3d25a768bcf0ab5fU,
  0xbc4b417bbca5c0b2U, 0xbc973d87bcfcd465U, 0x3bb701383d12323fU, 0xbd0c7a4b3bfd61c7U,
  0x3d3044ecbc8104dbU, 0x3ab62b4abd132245U, 0xbcec13053c42152bU, 0x3d35e90fbb35ac09U,
  0x3c7215cdbd0c4e0cU, 0x3c852c283cdfc77aU, 0xbd34852c3d2b662fU, 0x3b1140e2bd2230bfU,
  0x3cd965363cbaba3fU, 0xbd35ea19bc86ce64U, 0xbcb07470bca6dd77U, 0x3c1991843d0c3842U,
  0x3d0667c73d149893U, 0xbd006951bcb86026U, 0xbbb35216bc401a80U, 0x3b8cdc74ba81a3f8U,
  0x3d2c6a883c828f2fU, 0xbd225d733b9e030bU, 0x3cb8b786bd0a83b0U, 0x3d320469ba8c7974U,
  0x3cd4680fbaed9178U, 0xbc9ddfecbce8475aU, 0x3c9a6ee3bd27b9a9U, 0xbbdfa839bcb6afeeU,
  0x3cc132753d293231U, 0x3ce654083c34fe10U, 0xbd27a2ee3ca5c83fU, 0xbb5e99e0bd01f159U,
  0xbb764f5fbd034afaU, 0xbd10d6e0bcdb0b67U, 0xbcc5b0debd1c019aU, 0xbc40aa99bd17abb8U,
  0xbcc4a45cbb8ac936U, 0x3cf348323d2b4dd1U, 0xba48da5ebc32e575U, 0xbcd034693d06c833U,
  0x3c09e899bd19a7d2U, 0xbcc357a93cba8cb7U, 0xbd0a65203d395f49U, 0x3c76cd2a3bc745d4U,
  0x3d1186e13d05a23eU, 0xbb91efa7bb82fa63U, 0x3c4151bf3a90f77dU, 0xbd38329d3c02e980U,
  0xbd040b3dbc31fbf1U, 0xbbda7593ba8c6d96U, 0x3d1958ae3ce4c11dU, 0x3d22ceeb3cda58cfU,
  0x3d2b52a23c31bda4U, 0xbce55f7c3c9463b2U, 0xbcb801483d25e590U, 0xbd22569a3cbc8003U,
  0x3af33cef3ccc75c5U, 0xbd239b02bbcc2a03U, 0xbc46cbf63d1db8faU, 0xbd17d6b6bc4cf8bcU,
  0xbd2fe51dbcc9e213U, 0xbd0bcaa13ce38785U, 0xbb7c7ebfbd0079d9U, 0xbd2f0befbc8ff3d0U,
  0x3c3530debc7cdba7U, 0x3c0fcc92bd3896aaU, 0xbcda14953d08912eU, 0xbd1c50e5bd2a8d3fU,
  0xbd1175ba3bfc3335U, 0x3c1d2eb6bd06090fU, 0xbc45a4f7bb55963bU, 0xbc5236a1bb747e8aU,
  0x3ba02d4bbc05d195U, 0x3d2169a5b99202c7U, 0xbccc54853c98b9b7U, 0xbd278c56bca2cbbbU,
  0x3c8ef0313a2dc1a5U, 0xbd013c103cc7cee2U, 0xbcec00a93cb15c2bU, 0xbd08c46ebcbbd79fU,
  0x3d2053f43d19db42U, 0x3c611b25bc8a1799U, 0x3d029ee8bb4d0f19U, 0xbc1c317bbb357211U,
  0x3d00220f3cf4fba0U, 0xbd089d57bcddc3ddU, 0x3c8285043cad2054U, 0xbd2f4f033c897b16U,
  0xbc987222bd20d1f0U, 0x3b7edb113cd35ffaU, 0x3d03d981bbf6a266U, 0xbbfcde82bd212f71U,
  0x3c2d4fa03ce6bf57U, 0xbc9d6a38bc8ee947U, 0xbd1bbe603d106c71U, 0x3c65174dbc4a73e2U,
  0x3d1d378abd277761U, 0xbbc231c3bbd37383U, 0x3d10ed783c6923ccU, 0xbc0a4d673bc36e70U,
  0xbc4a22743d192c7cU, 0x3cff59c9bd13155aU, 0xbcabfe203d27a135U, 0x3d2f5e0e3be97d8eU,
  0xbc93f19cbd01441aU, 0x3add1ba8bca556caU, 0x3cc245613a8007e6U, 0xbcc7f1edbd0d5f67U,
  0xbcebcd763d13b847U, 0xbc6ae7363cad60a4U, 0x3d0c13cebc8566a6U, 0x3b219ac33c2ea8b1U,
  0x3c8210c03b81be14U, 0x3c9b160fbd1f3a63U, 0x3d2788e13d2cf747U, 0xba86375ebd1f4232U,
  0xbc253370bbc84563U, 0x3c9aadba3d1b2a48U, 0x3cb835fabb25a9b3U, 0xbb048a51bcac6109U,
  0x3bda24f83c51cbf6U, 0xbbc41d06bcc80897U, 0xbc9c985c3c98b5fbU, 0xbca6b108bc288356U,
  0x3ca9b6c23ca809c1U, 0xbc05dda73d0cc6f1U, 0xbd018b22bd02758eU, 0x3b7cb4263ca6d871U,
  0x3b0172213cb400beU, 0xbbe7e3963c7cc691U, 0x3c9b8e57bce54b53U, 0xbce7f433bc3b3ef7U,
  0xbcc50a0dbc975773U, 0x3d15196abc8d50d9U, 0x3c4f90293cb34886U, 0x3c5c498f3ac219f0U,
  0x3d01656fbd0f9833U, 0xba90a1ddbc6f9b8aU, 0xbd040c0d3d2eb753U, 0xbcfceb44bce5f134U,
  0xbbd746cb3d370287U, 0xbc5e23d2bd30e388U, 0x3c6333a93d1938c9U, 0x3d2734873cbd8067U,
  0x3c001b35bb60ed86U, 0x3c8f1fd23c05d9baU, 0xbbaa0f2ebc406801U, 0x3c818e9f3d25092eU,
  0xbc0ea744bb59a1caU, 0x3d07f35cbd2daba0U, 0x3d253adf3c8d50b8U, 0xbac33baf3cefb9cdU,
  0x3d389a3dbc921b21U, 0xbc7594d93d2f5969U, 0xbd22eafabd110de6U, 0xbc93b78d3d122a71U,
  0xbca92d0dbceeae06U, 0x3cc34224ba097f35U, 0xbc31ee2fbc892e10U, 0xbcd34122bbf216ceU,
  0x3c68c736bcfb6979U, 0xbd024bb93d27a679U, 0xbd2fd0e7bc3127b3U, 0xbc419ba43d0c2bb0U,
  0xbcde2ba53b98b419U, 0x3d093a01bd29e540U, 0x3ac85600bcb7e3aeU, 0xbd34c6703cec5af2U,
  0x3ca2c7823d0bb430U, 0xbc826141bd00b81eU, 0xbc64cb193d25dfc4U, 0x3a98987c3c6d158cU,
  0xbcfa1f4abc5cb108U, 0x3c060ea7bce14500U, 0xbcf26ccfbc668a3fU, 0xbd1424d3bd10a47eU,
  0x3c74a4553a812e64U, 0x3d32efb03c8018eaU, 0x3c42e8ae3bb08974U, 0x3cf1bbcb3cdd9e58U,
  0xbc911459bc8c33a4U, 0xbd380dfe3be3c21dU, 0x3cc164093d09593eU, 0x3cfbba233c12a894U,
  0x3cd698263c46b896U, 0x3c8ae7e8bd27e297U, 0xbd28a4e93ca688abU, 0x3c36a29a3b98d0feU,
  0x3d2c7241bca544cbU, 0x3ccf95a9bcbde3bfU, 0xbd074bba3b0336baU, 0x3c2e2407bc200bd6U,
  0xbbe626ed3c9b907fU, 0x3b9a95803d13b2e1U, 0xbc5cfc523d003ca1U, 0xbd128f22bccd6664U,
  0x3ce948963c620d77U, 0xbccec619bcafbccaU, 0x3d0d7afd3ce554e3U, 0xbb4766bdbc2c9aa6U,
  0x3d2db8483d17315fU, 0xbcd27cf53c971c12U, 0x3a52a51c3cecd4f3U, 0x3c36390d3d013567U,
  0x3bf2b300bd2898bfU, 0x3cb46ead3b570534U, 0x3cf887ab3cea16d9U, 0xbd370e2a3c4cf105U,
  0x3c9285cc3cd67388U, 0x3c4b8eb03d2e30e8U, 0xbb9cc6533d223a9dU, 0x3c857a87bd19aeb2U,
  0x3d278a93bd220aabU, 0xbc9fbfae3c68a8beU, 0x3ba9cb663cdb2d56U, 0x3d26683a3c478f05U,
  0xbcb832d4bc8a932bU, 0xbc192023bd0a3416U, 0x3c805acd3c7eec2fU, 0xbbaa7ec7bca8b9d0U,
  0xbc8bf2453c0e9d68U, 0x3ba8121ebc68a72bU, 0x39564782bd050fb4U, 0x3d09ca463bf8e26bU,
  0x3c6476a33cf15151U, 0xba870263bcfd4d31U, 0xbd375feb3c2efe4cU, 0x3c4ba918bc2ddc87U,
  0xbd3043183b9952d9U, 0xbcd449343c984c2bU, 0x3b991f0bbce54c65U, 0xbd280af93d353a2aU,
  0xbbfcea60bcce8630U, 0x3d0f9ffe3b551f8eU, 0x3d2cc8283d0c4a24U, 0xbd1c99a8bb48d126U,
  0x3bf1dbed3c468ccaU, 0xbc9dc16c3cdbfe97U, 0xbcd170fc3ce2cdb7U, 0xbbfa9191bce74d2eU,
  0xbc963bca3d144fe2U, 0xbd16a1573d2cf8e6U, 0xbce1ceb5bbbcbe42U, 0xbbee8e793cd7bfeeU,
  0x3c1ca296bb4b7c57U, 0xbd1995fc3ba2a24fU, 0xbd15d7de3d2b21b8U, 0x3cce8a48bd1a8471U,
  0xbc3362e2bd349694U, 0x3c4a553b3d371679U, 0xbcf0de833c2cecacU, 0x3baa4c403d26ca31U,
  0xbbfb03c5bc4b98eaU, 0xbcb088d13d206bb3U, 0xbcd4cf0abcadb5b5U, 0x3c3f18ccb91e060fU,
  0xbce2337d3d0f8fc7U, 0xbc1c26aa3caaa437U, 0x3cfa9cc6bc59fcb6U, 0xbcadebccbc3bebefU,
  0xbd2aa15a3b5c24baU, 0xbd0042f43d24f8bcU, 0xbcb0c1c73cfa021fU, 0xbcb472d73c474407U,
  0xbccd158f3c9f210cU, 0xbbc8f51d3c16d68eU, 0xbc7414883cd4184fU, 0x3ce48327bd0828d3U,
  0xbc1a2c80bd2b7b12U, 0x3d0b71653d1a9153U, 0xbd2fd2b63b6fed9bU, 0x3c13765dbd22db66U,
  0xbd0665a0bc10528eU, 0xbc484da03d30e859U, 0xbce9dc4abd368867U, 0xbcdd6e773c7210f7U,
  0xbc86a4543d0575e8U, 0xbcb1dc873ca9bd63U, 0x3d2555bc3c6f0ca7U, 0x3cbb3dfc3d2a3b74U,
  0x3cdeaee23bb720ceU, 0xbc7cf95e3ce27ef8U, 0x3c1a52eebd252a0bU, 0xbd15d3ab3c2cbc67U,
  0x3d32a3e13cba7c29U, 0x3c194ccdbbfd421aU, 0x3cd808d93d30122cU, 0xbd31f975bd25672dU,
  0xbc988536bcc9dd88U, 0x3cfabb5bbaacb13eU, 0x3c5d76cebc095a48U, 0xbd099890bd0d0a49U,
  0x3c9a14f8bc477bdfU, 0x3b2d7d743cf59984U, 0x3cc9f5613cd095a7U, 0x3d2fcceb3cbb0eeaU,
  0x3d258d9b3c13d772U, 0x3c048405bc032225U, 0x3cc6e2f4bd115871U, 0xbd219c3a3d0db92aU,
  0x3d22ae363c35f271U, 0xbc5876c7bb45b44dU, 0x3cd014963c79fb78U, 0x3cc2342c3cb084c1U,
  0xbcb36a39bcf2e561U, 0x3d35c42b3d11e7d8U, 0xbca2f9e33cb81e8dU, 0x3cd3ef3abd0e18e5U,
  0x3d379cec3caf8965U, 0x3c4978babca699a9U, 0xbaf228e23ca05507U, 0xbc7d83b1bd31d174U,
  0x3cc77e3e3cd34d43U, 0xbcc73f793cd2d936U, 0xbd32088abcbc37c5U, 0xbc98504abc75f5efU,
  0x3d25c551bcbbd51fU, 0x3c1d5267bc7c0bfaU, 0x3919d485bb8c6cfeU, 0x3c58415abd2842aaU,
  0xbb40bc4fbc66a281U, 0x3d2a26eb3cf25282U, 0xbbd4a625bd0bd757U, 0x3c4940443d222825U,
  0xbd0054d4bce88b01U, 0xbd1684e1baacb19cU, 0xbc32ec0dbd265f47U, 0x3d20ba6e3d226e40U,
  0x3d05b3aebcecca9fU, 0x3d154058bc9aa234U, 0x3c01f987bbb9485dU, 0xbd396657bcb6dd21U,
  0xbcfb16583c8ac0adU, 0xbcc30f7a3cc2a8b0U, 0xbc17354f3cb4155aU, 0x3ccf2734bd217117U,
  0x3c8224923d32bf98U, 0xbce861cabc929a25U, 0x3be6d554bc5be3fbU, 0xbcf86e70bc8f1fe1U,
  0x3d3acd4f3bade51cU, 0xbd109d0d3b955e33U, 0x3ccef3233cccd90eU, 0xbc2982bc3d03920eU,
  0x3c715dbfbc30048aU, 0x3c55dc56bc421900U, 0x3b3e5d6e3bb560f3U, 0xbd2a958bbd227609U,
  0x39ab9d313c41eeceU, 0xbd14323a3b70bb47U, 0x3d2736aeb9c5789aU, 0xbd1d56c6bcb312a7U,
  0xbd2b7a4dbd217606U, 0xbd2375073b641d8aU, 0xbd267525bd07a881U, 0x3c2283a33ca019bfU,
  0x3c0578c2bc7458a1U, 0x3c0c4156bd28ac4aU, 0xbc923c0f3d192a90U, 0x3d2cb6bb3c3aec02U,
  0xbad5aa21bd067ba5U, 0x3cf4610d3bdc4a4aU, 0xbd1ee38bbcc7dc7cU, 0x3d33b3e1bc077f97U,
  0x3cdf312f3cc2f703U, 0x3c81e9ddbc59c09fU, 0x3c1891233d3419e0U, 0x3d350a36bc8114beU,
  0xbd3502e8ba951263U, 0xbcd1e6123ca0f12fU, 0xbca66a42bd2a8bd2U, 0x3d16e9a23cd34aecU,
  0xbca8331bbb2938a8U, 0x3d0fab8cbd1b00d8U, 0xbd371c78bbd7e50aU, 0x3d27fcd13c99ac32U,
  0x3cac6aff3cb98133U, 0x3bbcb0b43ba0854cU, 0xbc936842bcfd4b64U, 0xbcbc2482bd2524dcU,
  0x3c8b4ca7bbdccd78U, 0xbcbad87fbb96f2f8U, 0x3c8c88aa3c0b4fb9U, 0x3cd13f2dbcd7aef7U,
  0xbb20c0673b3a7663U, 0xbce272f4bcabc58dU, 0x3d1ef7e03c904745U, 0x3cb9cd87bcf82e98U,
  0x3bea2e0fbcf88a25U, 0xbd1686433c959767U, 0x3ccd4b04bd3029a5U, 0xbd2e6e78bc925db6U,
  0xbbae59e9ba29fe62U, 0xbd339a413cd331e3U, 0x3c727a9bbd0751dcU, 0x3c87945bbc78da69U,
  0xbbaf825e3cfd7aadU, 0x3d2c24f73b97c77cU, 0x3c0817723c02135dU, 0x3aba5b2f3c3a84e6U,
  0xbd3703203c16e6d3U, 0x3c7fcc3f3d08c756U, 0x3b90befb3bb965b6U, 0xbc079c9ebb5b2bc9U,
  0xbd28ad78bd107e41U, 0xbcee59603d285525U, 0xbcde0a2e3d0fd6b4U, 0xbd2eca6dbc5d88e7U,
  0xbbd3ee05bcec937fU, 0xbaca5bf7bba4bef5U, 0xbcd5938c3bd6ee85U, 0x3bdee0653cfa180eU,
  0xbb9e5ea73caab671U, 0x3bc885273d2a01a7U, 0xbd382a763ce8c88eU, 0x3d2aab7f3cfcfd80U,
  0x3ccd3babbc503f6fU, 0x3cc1f7ecbc340661U, 0xbd25492dbb1b3b5fU, 0xbc2107783cdfefcbU,
  0x3cfaffcc3b5c011fU, 0xbc1605ebbccaa224U, 0xbb400b4db9b84584U, 0xbd3a9dea3c57a45dU,
  0x3d30824a3cd70da6U, 0x3ce8c6be3d10ec54U, 0xbd2a3a113d0398a8U, 0xbbdef2903c2ab2c4U,
  0xbb0c8910bbece160U, 0xbc4f13b1bb1c2c01U, 0xbcaab6a83b1cb80aU, 0x3b98fe5d3d19f17eU,
  0xbc0100a83c202b43U, 0xbd12c9353b8effc4U, 0xbc89523dbd39f20bU, 0xbb27f669bd30db96U,
  0x3bb5ea9d3caa65e1U, 0xbb5c2e67bcf1dc59U, 0xbd22e5d3bd07015eU, 0x3d383926bc7f1892U,
  0x3cb0e735ba25e14bU, 0xbcd46f1f3bd46dafU, 0x3d0618dc3cd48e43U, 0x3d04a562bc8ce2e4U,
  0xbcd0f016bcac265fU, 0xbb55d41fbb3af777U, 0xbc4bbe803c039be0U, 0x3c6c1bb7bce39e69U,
  0x3c310fdabd150daeU, 0xbcf6b635bccd423eU, 0x3d1171c9ba40ed3dU, 0xbc2872c4bcfd6672U,
  0xbc6296893c8d630fU, 0x3b926648bc0f75e4U, 0xbd18614d3c31c7e9U, 0x3c0a59853c66bc4bU,
  0x3bbac3a93d0f9746U, 0xbc8c7048bd20bb16U, 0xbd1a63053b7e2a3eU, 0xbc614c823c28c66eU,
  0xbd37962d3d1f8f1cU, 0xbc780b933d3408f1U, 0x3cc24a923ab92f94U, 0x3d0ee8febcf9da23U,
  0xbd0dac8a3cd1a8cbU, 0x3d2617863c24bfe4U, 0xbca2b2d5bbc3f545U, 0xbd36b4d9bd19ba3eU,
  0x3b98e4583cb77ff6U, 0xbd22d4f7bd2ca9a6U, 0xbc6155d23cddebf6U, 0xbb710d9e3d32a835U,
  0x3d1fb7bcbd19787aU, 0xbd3806b83be5f573U, 0x3d013e25bd082f44U, 0xbccedb18bb4cc56eU,
  0xbd146ef43c129f50U, 0x3baa455cbd00f7dbU, 0xbc1ab7e53c0161a6U, 0xbbfc27573d23d1f2U,
  0xbd02fac73d293397U, 0x3c600758bc0d7b2eU, 0xbb17f229bd156966U, 0xbc32b4bbbcb885fdU,
  0xbd37078fbc69844fU, 0x3d2d76e3bd2a5ec7U, 0xbd1cc50c3d2d0696U, 0xbc0c97bdba801165U,
  0xbbac08f53c93b84bU, 0xbc54338e3d33b436U, 0xbd334b8fbd17f552U, 0xbb21f53a3d147e36U,
  0xbcd494e4bcb0af3cU, 0x3b7601c73be695faU, 0x3d1ee568bcff6b8aU, 0x3d2714223d2cfc13U,
  0xbd38eb1ebc13102aU, 0x3bad14a8bd11bda4U, 0x3c9df9cd3d1dc9dcU, 0xbc108df63c487622U,
  0x3d1fa5d4bd0d3918U, 0x3ce9a9ec3bf076d0U, 0xbcfe79753cd2866dU, 0xbc017f693d0fda0dU,
  0x3ce4c7553d1cab74U, 0xbc8f28213c2aa40cU, 0xbca7bad3390c7946U, 0xbc006a493d05e152U,
  0xbcafe1253cd71acbU, 0x3d18e490bbce9da8U, 0x3cd5e7973d27f2a5U, 0xbd3477343ae9a550U,
  0x3b07ee75bcf4ad79U, 0x3c83b2febcb0726bU, 0xbc8c9fef3d0e9affU, 0xbd2be7253d196339U,
  0x3cad6d773aae1ba7U, 0x39e6d9cdbc5234e0U, 0xbc487ae13c84558dU, 0x3cada59bbc78613fU,
  0x3ba1f63b3bfdee68U, 0x3c6dba4cbbdaddbcU, 0x3c4a95ee3d13208dU, 0xbb8b82ccbd10a7ecU,
  0xbcdfb2f33cac0635U, 0x3caa5ef1bd375b26U, 0x3c628e28bcca902eU, 0x3cd43db9bd2a3370U,
  0xbcaead88bb1ac8fdU, 0xbd24b2203d1b841cU, 0x3d0521a63d0cdd17U, 0x3b3318dabd268d9bU,
  0xbd1b709cbbf25db1U, 0x3ba29203bd20ff47U, 0x3d2a7bc13ca0aa59U, 0x3b9f9f06bb2ef779U,
  0xbc8fb0a9bd07d87fU, 0x3ca983883b9b3125U, 0x3c65f2583c8c381eU, 0xbd2e8c033c80d950U,
  0xbc8aff03bd239aa8U, 0x3b3e04cbbc8acd40U, 0x3c9ce840bc8fede9U, 0xbbf2c9af3b8b536bU,
  0x3c3362b9bb9ef933U, 0xbd024a43bd09d0d9U, 0x3c6d28a6bcdccad2U, 0xbd311e77bd2bee52U,
