/**
  ******************************************************************************
  * @file    network_data.c
  * @author  AST Embedded Analytics Research Platform
  * @date    2026-01-22T14:00:35+0000
  * @brief   AI Tool Automatic Code Generator for Embedded NN computing
  ******************************************************************************
  * Copyright (c) 2026 STMicroelectronics.
  * All rights reserved.
  *
  * This software is licensed under terms that can be found in the LICENSE file
  * in the root directory of this software component.
  * If no LICENSE file comes with this software, it is provided AS-IS.
  ******************************************************************************
  */

#include "network_data.h"
STAI_ALIGNED(8)
const uint64_t g_network_weights_array[15337] = {
  0xbe3a1b3bbd248a73U, 0xbd47b3653e637fa1U, 0xbe24a62b3cc0c49cU, 0xbd75b880be94bcdeU,
  0x3d56c1113c88f63aU, 0xbe29a4dd3e7b0bd4U, 0xbea1dd653e75d0dcU, 0x3e4567203de72948U,
  0x3bdf3f36be7647f3U, 0xbe7463273d242d5cU, 0x3d081513be6a5005U, 0xbe727451bea025deU,
  0x3dbb09c9be1e7826U, 0xbe7bd571be331f06U, 0xbde30dbabe3aeaa5U, 0xbe6fd6ddbe98e48eU,
  0xbe3efb4b3e6f100eU, 0x3e64d8123e977a3dU, 0xbd254f42be482415U, 0xbe24c0113e7a1689U,
  0xbd3e7a0b3e9790f0U, 0xbe17237abe9f58d9U, 0x3e84c0f3be24a7b5U, 0xbe0085073e557944U,
  0xbe90d18abcecd710U, 0xbde761653d0dd148U, 0xbd81bcb6bd9bdc4cU, 0x3e64f645bea170beU,
  0xbe3e6798be2e211bU, 0xbe861f90be9d299cU, 0x3dcae788bceed4d2U, 0x3e0c23e93e6e0801U,
  0xbe69ce473d6f1cebU, 0xbc7ce7afbdedf123U, 0x3e72c7473dae73c3U, 0xbe2d48ae3e459e4eU,
  0xbc2b58be3e04bf6dU, 0xbe506bb3be9e2d26U, 0x3e8647c3bdcad1b2U, 0xbdf0c894be779f23U,
  0x3e05e98a3e941fb1U, 0x3c6da70f3e7e37aaU, 0xbe9153bfbc8cffbdU, 0xbdae49aabe9921c1U,
  0x3e5722283d37dfb0U, 0x3e23e4c9be9c7d0cU, 0x3b2042c23d1e85f2U, 0xbe3279af3d359270U,
  0x3d8d63b03d5bc577U, 0xbd0df25d3e81e31bU, 0x3ea02112bdcb2ef1U, 0x3d926b72be9dbd17U,
  0xbd347630be299ddbU, 0x3e957872be3b57bfU, 0x3e037fdebe9c92beU, 0xbe835976bd195740U,
  0xbb9ab5a1bbcd6933U, 0x3e3b028bbe8c8b12U, 0xbda519433d500c07U, 0x3d151abfbd4466c0U,
  0x3e82150dbe342002U, 0x3e5933c3bde7185dU, 0x3d96090bbdd84218U, 0xbe76ae82be945239U,
  0xbe11c44f3e4e8db6U, 0x3d8bf4823ded2e15U, 0x3e19745d3d178f0dU, 0x3e945030be364c48U,
  0x3d189e9d3e87a110U, 0x3e9602b23d4f5628U, 0xbde6ac233e8ddc21U, 0xbe6935f43e542f69U,
  0x3e821973be0c6fe5U, 0xbe9720433b2fd3dcU, 0xbdc3f8ce3d1ba745U, 0x3d9c59493ca7d319U,
  0x3d8e2a7abe88f99bU, 0x3e112d0bbe94967cU, 0x3e0502b9be0dc884U, 0x3e892aa1be602318U,
  0x3e3a91edbd6a95deU, 0x3d962e1f3e40b837U, 0xbdf8ec20be49d646U, 0x3e6ddc9fbdc24089U,
  0xbe2623b7be4c02d5U, 0xbe99d44ebe0cbe45U, 0xbe882e28bd643112U, 0x3e3ed50fbd9b6500U,
  0x3ce514d0bcf22772U, 0x3c9557e43ce64140U, 0x3c76099b3d04bfacU, 0x3ae1b488bc70c344U,
  0xbcc33c93bc9cb0f7U, 0xbd18c80cbc38418cU, 0x3b938ddebccd8edbU, 0xbd0b3589bc95f2fdU,
  0xbd35f1ef3c8c2b64U, 0xbbeb4bb2bd1cfddbU, 0xbb061984bd271478U, 0xbcb2af04bceab7eaU,
  0xbb9793d1ba7a6051U, 0x3c1b69673c6c6421U, 0xbc03e7303cf9f557U, 0xbc906cc73c96fa54U,
  0xbcb66f1db9e4f13cU, 0x39c51d50bc977949U, 0xbc2731d9bc04031fU, 0x3c23bb393d08b31bU,
  0x3c0b9ea93d108de3U, 0xbcd000093c07d9b6U, 0x3c0d5087bc8096deU, 0xbc93683cbc2f8532U,
  0xbba8c7c73c65942eU, 0xbbb893e33cc75b3cU, 0xbcee30d5bc406287U, 0x3cbe8a963ce2113eU,
  0xbc6df3f2bcaa6818U, 0xbcbc07ef3ca7db7eU, 0x3d38595b3cb567feU, 0x3c963bd53a0a0133U,
  0x3d1b002d3c3ebabaU, 0x3b38c569bc00eeedU, 0x3d25e8ba3d2f0bf9U, 0xbd17b5eb3ceff794U,
  0x3d38db46bc941edeU, 0xbd012001bd1ef33aU, 0x3b024f97bd069aedU, 0x3c0f9ef33b5ec398U,
  0x3cfb3dd6bd0b8ad6U, 0x3d02635f3d010df2U, 0x3c7e46aebd19de87U, 0xbca54dbd3ca983ceU,
  0x3ce2af1a3ce47c89U, 0xbcfc4bbabc142cf0U, 0xbd22dd553d231748U, 0x3c98f4a73caf648fU,
  0x3cb93e46bc04dfabU, 0x3caf08ebbba5a289U, 0x3cf82e7bbccadb49U, 0xbab91a953d10c88eU,
  0x3c4ffe2a3c9a5a88U, 0x3d2b2abc3ccd335dU, 0x3d173b3b3c9f9aa7U, 0xbd0df2f03d12e2f0U,
  0x3c0f2745bd09dc06U, 0x3c573fa1bd0a227cU, 0x3d20894dbcc48f1cU, 0xbcb0c1eabcf01dc9U,
  0xbcc5b875bd25cd36U, 0xbccc6e92bc239158U, 0x3cd3923bbd36b693U, 0xbcf8ab19bb28c2e5U,
  0x3cb2f1b3bcf1f55fU, 0xbd19799b3b3bcf5cU, 0xbcf6274cbb9dc02dU, 0xbcc39020bd2597e5U,
  0xbb89367f3c858971U, 0x3c23e2283d273dcaU, 0xbb7939bc3ac6f2b6U, 0xbd322517bc8c2c66U,
  0x3ba822c7bd13002eU, 0xbcab42453bad9322U, 0xbd29f76cbc140d48U, 0xbcbfbc3cbcce3597U,
  0x3d1b1db53cceac23U, 0xbca8d8adba1134d5U, 0x3b93cb71bcda0719U, 0x3b52ee24bcec951bU,
  0xbc9358663d22f333U, 0x3c8ab240bd0cce89U, 0xbcfa9723bcb4be15U, 0xbcd631563d1b9492U,
  0x3b485141bcac8c69U, 0xbd20ddb33c34338bU, 0xbce8b332bcd7fd90U, 0x3cf51cba3d269b92U,
  0xbbb6cc5dbce2d39bU, 0x3b2ccde83c726e48U, 0xbcdd4f563d17841dU, 0xbcf03fb2bcf2b42dU,
  0x3c8211c1bd1418c1U, 0x3c0a31b83cf08c72U, 0xbd0d221e3c016cdbU, 0x3c68d2d3bca0ff73U,
  0xbba5c2ab3c9d60abU, 0xbcf75cfabd29e3c4U, 0x3d0017673bc3eed5U, 0xbc7fcce3bce25fddU,
  0x3d053640bc17f3bcU, 0x3caf18623d11a3f8U, 0xbcfb99c4ba54a50cU, 0x3ce924df3cde7dd1U,
  0xbca8ee82bbf5bb2bU, 0xbd1077bd3d0172eeU, 0xbd2460173d178e95U, 0xbd00dd2ebd28649aU,
  0x3d206c54bd082097U, 0x3d3697393cbe07e2U, 0xbc29555dbc80c725U, 0x3cf5b181bb13d03cU,
  0x3cf017a8bc974503U, 0xbd04f411bd2f1aabU, 0xbd3a58a2bcebad14U, 0x3d2e3dabbcc7fc67U,
  0xbd2417c23d30f661U, 0x3cac462d3a734298U, 0x3d020c4e3bcfa820U, 0x3c0b3ed5bc1f849eU,
  0xbc5230e73d021ed6U, 0x3d0bce143a708525U, 0xbb902dd63b7adc03U, 0x3cdbb861bcb5dcf7U,
  0x3cea659bbd1e1ae3U, 0xbd366142bc5eecc9U, 0x3c799e78bcdd8050U, 0xbcbc1b75bc0f7148U,
  0x3cad8ba33ce85bbbU, 0xbcc53af8bbad2e7dU, 0xbcab1c22bd082d20U, 0xbcd6e0e5bd0a433fU,
  0x3d2e80de3c39f381U, 0xbc71c58a3be2aed7U, 0x3cf107c13c4f90b0U, 0x3d279b9cbd04d66dU,
  0xbbad9631bc4404a7U, 0x3ca977e5bc26b1f4U, 0xbd2ab3e7bb92fac2U, 0xbc9c023d3c71085eU,
  0xbcbbb5eabd325edfU, 0xbd292064bca1c1b8U, 0x3bc29723bd253dedU, 0x3c6c4081bd0ba3e0U,
  0x3d2aa74c3c45fd66U, 0xbb9d4750bcf03541U, 0xbd2106c33d1208e8U, 0x3c55ece23c8ecfe0U,
  0xbc745db2bb9270a4U, 0xbd3ae0b6bba3166dU, 0xbc518c44bbaf62ebU, 0xbc80e9873d15b72aU,
  0xbc26b9dabd1dcc47U, 0x3d39c15bbc977934U, 0xbcbb4e13bd1927edU, 0x3d0d8a143cb73209U,
  0x3c088abd3d0b08b5U, 0xbb3954d3bd33660aU, 0x3c73f5bebd38911dU, 0x3d00c767bac76e22U,
  0x3af948fb3c4a1ceeU, 0x3c48c79cbd269230U, 0xbb91227cbc2e6997U, 0x3c9fc4c83d1ecc82U,
  0x3af2d50c3b312e00U, 0xbceae72b3cec2241U, 0xbbb34b3ebc334e06U, 0x3d1abc743bfe8744U,
  0xb9b268073a6c78daU, 0xbcdb2a8d3c043335U, 0xbcc45cff3d0872fdU, 0xbcf9e96ebd31c610U,
  0xbd01859cbcb67772U, 0xbcc0e27dbc98109bU, 0xbd26773f3c4c90d3U, 0xbd2823d9bcd2ccd5U,
  0xbcc21f7c3cc7c881U, 0x3cf7775cbcf2a107U, 0x3c1276bc3cb04f74U, 0xbc47409abccf383eU,
  0x3c1ce294bad7daa2U, 0xbd08500f3d24374eU, 0xbcbc8b9bbaf5b6d5U, 0x3cffb49b3bc8c548U,
  0xbc9a7fedbd25831dU, 0xbba1e7a0bcf8a155U, 0x3d1013c3bc8b73c8U, 0xbcb5d6d9bbc2fb19U,
  0xbc8ba22a3d04caeaU, 0xbc3d64723b9d1dbbU, 0xbd2f98fb3d086544U, 0x3c621658bc9c67c0U,
  0xbcb5f155bd0c0f77U, 0x3d0493debcbde07bU, 0x3cdeb90abcd29627U, 0x3cb8604abcbb391dU,
  0xbcc65a063c9ef90dU, 0xbd1415e9bb9a4b26U, 0xbd1460e7bbed0102U, 0xbc87bdd33d042fceU,
  0x3c1dbd0d3cb841c9U, 0x3cf585d83cc5bd7dU, 0xbd11af0bbcec763aU, 0xbc4536e0bd209cb4U,
  0x3cb6190b3cc5e16fU, 0x3d173cc03d2c50a2U, 0x3d2b5a473c86cd34U, 0x3d24f058bd160d73U,
  0xbceba4593d276d9bU, 0x3d03561dbd355443U, 0x3d32c54dbd044a62U, 0x3d17a2493c8c6e7aU,
  0xbcce318dbba1c4b5U, 0x3bd2221d3d20315bU, 0x3cbf582d3cbe39aeU, 0xbb4d863a3d35167cU,
  0x3c6eefb13cb96088U, 0x3cc15ed23cef2fe9U, 0x3ca89240bb7d74f3U, 0x3cb76c6d3b5568adU,
  0x3c8410563c16a5a6U, 0xbca48647bd1f061dU, 0x3c31ed973bc46c72U, 0xbd0cc916bd0702b5U,
  0xbbc1dba2ba2ddad7U, 0x3d313fe33cb29f1eU, 0x3cecee05bc374416U, 0x3b70765bbcef6311U,
  0xbd25a0363b9c9285U, 0xbcd717393bb13816U, 0x3c46a8eebcbd0e1cU, 0x3d047ba93d061aa9U,
  0x3c32c4a9bce4eb35U, 0xbb06ebc03c92006dU, 0xbc29d1953cee5f46U, 0xbcdd67bf3cdd732eU,
  0xbc6342213cb427cdU, 0x3d1c8249bc621df2U, 0xbca710843d2f80f2U, 0xbb73795ebd380113U,
  0xbd04636fbd27474aU, 0xbc56e0123d2f5dc4U, 0x3c91ed33bd20a429U, 0xbd3678db3c15105bU,
  0x3c720e513d050a61U, 0x3c9c583ebacf9035U, 0xbc7854db3c5b1981U, 0x3d37db47bb6df842U,
  0x3d06a21d3d1a575dU, 0x3c2a498f3d374a2aU, 0xbd1f30d13caf1b6bU, 0x3cdf4614bc9dcab6U,
  0xbc938c313d2568e6U, 0xba532dad3c1c35baU, 0x3ca0aa363cbe7475U, 0x3c1594dcbd18d379U,
  0xbd2f25d33ca97c32U, 0x3cbda6e43d04fe85U, 0xbc11d978bcffb8adU, 0xbd1390eabaf8e2bdU,
  0xbcb5057e3c2d9ce7U, 0xbd14fe363c71e10aU, 0x3c7cb55cbc5e92fcU, 0xbcaf9b67bbbb2556U,
  0xbc5c9dc6bd315161U, 0x3ce0f7abbd1b3860U, 0xbd32f1833d061177U, 0x3c81282f3c4d77f1U,
  0xbc9e3a693cc57712U, 0x3c43924b3b93b060U, 0xbd08297e3d356d0cU, 0x3c5f03f33ac69654U,
  0xbb05ff97bcc674fcU, 0x3c4bbaaa3cc0eb5eU, 0x3d0f5cea3d23b799U, 0x3ca18e04bd15dac4U,
  0xbcefb84ebcf580d9U, 0x3d38ea4cbd0a74bcU, 0x3d204e71bc01dae7U, 0xbcb5bafcba5e7f21U,
  0x3a3e00af3c22105dU, 0xbbfd1631bcf149d8U, 0x3d0ce382bcc0997eU, 0xbcbc6595bcf79486U,
  0x3c0bbd613b88bf98U, 0xbce8ec203d1582a4U, 0x3cd1ba61bd2dfce2U, 0x3d258e2d3c9d7642U,
  0xbba3955c3cd31de2U, 0x3bf3f6a8bc241850U, 0x3d026a7e3d101d03U, 0xbd010380bd1218aeU,
  0x3cabdc193a8fab05U, 0x3cb8d104bb5623b9U, 0x3cf6d7c73a435a5bU, 0x3c60d7063d330402U,
  0x3b902b3c3cf737d0U, 0xbd2895f73d2d3dd0U, 0x3ba93065bcf6877eU, 0xba3c27d1bca241daU,
  0x3c4594a0bd138ff8U, 0x3c1b572bbd16dd2eU, 0xbd0110f7bca19332U, 0xbccfd18f3d110449U,
  0x3b0c3c33bb12ccb4U, 0xbd35f3d13c15c812U, 0xbadfd8be3d1f7f7dU, 0xbbfbec18bc304073U,
  0xbc6b1fc9bcc358d3U, 0x3cf7ef58bc987918U, 0x3c57ffec3cb058f2U, 0xbb8ea019bbe77ffeU,
  0x3ca65dedbbb797b5U, 0xbd369ad7bca6cb9eU, 0xbcd5ece53d38b929U, 0x3cd46cc83c4ec760U,
  0xbc8f20aa3c8b1e44U, 0xbd16f9833d0470d2U, 0xbd04de1d3c8537baU, 0x3d1ca5083c836f10U,
  0xbc0e0d493d0fc720U, 0xbd08cc7f3d17d5abU, 0xbd1f6f6c3a72f12aU, 0xbca1cc4f3c115711U,
  0x3bdb446fbcda1666U, 0xbd08e7efbbf8f343U, 0x3c9b54283d0cfdaeU, 0x3d35f7deba61e1a0U,
  0x3be4975dbc37cc67U, 0x3d2177dabd2bb7caU, 0xbcfaf4b53c978836U, 0xbb1101883d07310eU,
  0x3b0fa4d03cf4facdU, 0x3cea08d33d3576d8U, 0xbc8a11ee3c912cf9U, 0x3d27069e3d2285b2U,
  0x3d1198ae3c571f56U, 0xbcb609953d10cbefU, 0x3c7de4053cbc1370U, 0x3d23808f3c647deaU,
  0xbd06252c3cc51c00U, 0x3c3de06a3b56814bU, 0xbc8079b63b656ceeU, 0xbc719181bd1fd9e3U,
  0x3a4ad2a33b83a530U, 0xbc8401a0bd0d76e1U, 0xbd37f137bd065bb3U, 0xbccd404dbc392ffdU,
  0xbd2c8a9e3ccfe71dU, 0xbb53b50e3d38a60bU, 0xbd2433493b85c05fU, 0x3c94d3efbcca70cdU,
  0xbcbebcaebd2f0cf7U, 0xbabac3fb3a2f6c23U, 0x3c81d913bc4c9b24U, 0xbd0fd8a63b53c291U,
  0xbbd61abb3d1a66dbU, 0x3c16ded7bd050825U, 0xbc88f06c3cedbb50U, 0xbab4829f3d157f56U,
  0xbcf1fdab3d20daf3U, 0xbc0cb3f83d0a6588U, 0xbc85718cbcb778e0U, 0x3d24b045bb27ca52U,
  0xbc885c493af5cc02U, 0x3ca73e433d097179U, 0xbc6f516a3d0b0938U, 0x3d0515e93d2e0782U,
  0xbc5ad4ad3cf6bf04U, 0x3c5295983d2066c2U, 0xbb025aba3d3596a9U, 0xbc4057eabb4f7879U,
  0xbcf8f44d3c95b5d0U, 0x3d1cfc56bc72ee67U, 0xbc7eabb03d0a3556U, 0xb9db9ea03ce87160U,
  0xbd007bba3c82cfd6U, 0x3d10bb893c1eafdaU, 0xbb9cf1c7bd20b2bdU, 0xbccc29c03b952577U,
  0xb9c341e4bcf51cb4U, 0xbc94a31eba090bd2U, 0x3cb486efbd0a5089U, 0x3cd0b8f3bcfec725U,
  0xbd069a3e3c95457fU, 0x3c59d373bd2e4835U, 0x3c54c8a1bcce91d3U, 0xbd3793db3d1e819cU,
  0xbd02be353d12ef69U, 0xbb9ffe3c3d0cddc0U, 0xbc0140c3bcf24465U, 0xbd1d625e3cd37e57U,
  0x3c95dccebc2402ffU, 0xbd1b2d0abcad73acU, 0xbc2437423cefc92cU, 0x3b2e24823b4baea4U,
  0x3d28fccebd115162U, 0xbcaf3dd23c48ac7fU, 0x3b70e78dbc37ee22U, 0x3cf90e253c1a3eaaU,
  0x3b94be67bcfab81dU, 0xbd000b2e3d0df440U, 0xbd08cca0bd354471U, 0xbd109ae8bd1edfcaU,
  0x3d0c2a5ebc923975U, 0x3d2185593c189f26U, 0x3d167825bcbc8b3aU, 0x3c8672163cca9c58U,
  0xbd021af63cb60267U, 0x3bc7cccc3d30b77aU, 0x3cf7bbed3ccc54a2U, 0xbcb8ca283c29e60eU,
  0xbcb815f5bbd0f599U, 0xbcd32177bc1758e4U, 0x3c815c20bd253434U, 0xbcd4283dbd2e638dU,
  0xbcb70fcebcb7d23cU, 0x3d0bac563c2d19e1U, 0xbcd67b22bccc3af0U, 0xbbd8a0c53cc8df83U,
  0xbc9258dcbbb9a9f3U, 0xbd2ead0dbd01bd2cU, 0x3a3ee9a63bacfbeaU, 0x3c6cfe4a3c1f36f5U,
  0xbad9de39ba2ab8f9U, 0xbb2f95dbbcb9ae17U, 0x3c4bb6db3cea9cf3U, 0x3ca3fa2d3cafd20fU,
  0x3c20f6c4bbf14a8dU, 0xbba56b14bc7aecb8U, 0x3d0c456fbcfb25abU, 0x3ce040e63c043e0cU,
  0xbb8bf8d5bbb4c9a4U, 0xbcee4e143cb5bd8dU, 0xbc3fd98dbd1fcb0fU, 0x3c84bf4fbd0cb292U,
  0x3b9499cc3ccf20f4U, 0xbc923485bc5d5441U, 0xbce203383d26f50eU, 0xbc73b9b3bd277ad8U,
  0xbc3cb9f2bbef39baU, 0xbc2ceb70bd2691deU, 0xbd3726773ce464bbU, 0x3c966117bcdea708U,
  0x3cb571883cd30e0eU, 0x3a8f55c23d09bacbU, 0xbb70e22a3c78cd66U, 0x3b17c8a039f908b7U,
  0xbca51ca43d0887d0U, 0x3d33657fbd07b889U, 0xbcc865cebd03c03fU, 0xbb8e96c9bd000f9aU,
  0xbd2577bebcd01f21U, 0xbca9ae50bcce6f46U, 0x3d3a234c3a6d6690U, 0x3cb911a0ba1a18ceU,
  0x3d146e9bbbd25e46U, 0xbce1b3433a8d0bb2U, 0x3ab078b4bd33b69dU, 0x3b98e1bebd17f157U,
  0xbd3729ac3d34bf54U, 0x3c1575a33c71b634U, 0x3cac22c4bd07d325U, 0x3d0d8a413c9effccU,
  0xbcb976453cd5de01U, 0x3d2479a03cfcc148U, 0x3d2a1cc83b6cb48eU, 0x3d29cb95bc8f9690U,
  0x3d059426bc364987U, 0x3cb5b65f3d23542bU, 0x3cfe7158bced5f4eU, 0xbc341b1abd0c9a05U,
  0x3c81d9193c10cefbU, 0xbc1f0687bc99b78fU, 0x3aac74a13cf5e79dU, 0xbd0d0c21bd1cd433U,
  0xbc98ac1d3c2f86e2U, 0x3d03364a3d07ee07U, 0x3beb3ca23a964e3dU, 0xbb70709bbc31ba66U,
  0x3ce34f153c7914e7U, 0x3d0d7675bbc67dc6U, 0x3d14adb2bc948ab9U, 0xbd1d68653c4ba369U,
  0xbcdd65763cc5e749U, 0x3c3dc7153cded351U, 0x3bb6f6c4bd39f63cU, 0x3c5a60833c21257bU,
  0x3cf193c1bb0df6c3U, 0xbd2f1a063ccb07f0U, 0x3d1783b13c96e327U, 0x3d2de06a3cc9833dU,
  0xbcba5dce3d128687U, 0xbd29cc1fbd273847U, 0x3d0ff445bc37b48eU, 0x3b7398dc3be55c7fU,
  0x3d1136313caa18fbU, 0xbd16d2ad3d2b0ed8U, 0xbd14e430bd29a4ffU, 0xbaee437abcc7317cU,
  0x3c37b8afbcacf4d4U, 0xbb20b5b93c92719fU, 0xbce4b6f03c7180eaU, 0x3c9fc82cba572d30U,
  0xbc2d65c33c5cb6bdU, 0xbd34debebc02137aU, 0x3d22cfa0bc9b76a9U, 0x3d2d5b703ced0bdcU,
  0xbd2261c83c913689U, 0xbc7acf703cf63200U, 0xbd2447893bf30ea7U, 0x3d26c2023c700872U,
  0xbbb42d683c5444b2U, 0x3c887abb3d005215U, 0xbc2bf436bc95c1ebU, 0xbd355d74bc0b5319U,
  0x3bb452ecbd0600dbU, 0xbd13aeee3d0c6eb7U, 0xbc9bc2b13c526b76U, 0xbccda18f3c992cc2U,
  0xbc6ef79cbb356cf4U, 0x3cfaf88a3c4a2b4fU, 0xbc072e3b3b68c9dbU, 0xbc425ebfbc1da1dfU,
  0xbcfb8d393d167b41U, 0x3ce741c1bc1e2e9dU, 0xbca953b93cdbaefaU, 0xbca432cc3b4f4846U,
  0xbb85cc49bca2dbb7U, 0x3d185024bd26e386U, 0xbbb99ef33d39ca30U, 0x3d0559093ca65468U,
  0x3d2bb085bc94d854U, 0xbd241ae2bd309b17U, 0xbcf2ff13bd09fdcbU, 0x3cc90e523aed9031U,
  0xbd265ff9bc978c97U, 0xbc750434bbcd212cU, 0x3c30ce143c9ef9c5U, 0xbbeb47d13c59e843U,
  0xbd3a20df3ad5ee3bU, 0x3d0129c2bd392f5eU, 0x3d1d34bc37bcb0bfU, 0xbd0ce19abcf3736cU,
  0x3caccd9cbd0382eeU, 0x3c801572bd26eb47U, 0xbc423821bcfd112cU, 0x3ca5c4903a10d126U,
  0x3ceb5435bc8f30f3U, 0x3cb95e773d39637fU, 0x3d31bc5bbb9dbf8aU, 0xbcaa4f9bbc3bd1c7U,
  0xbd29f7d9bc8ead90U, 0x3bf0e495bcb7d836U, 0xbbc82c543c1f604fU, 0xbd0c85833d143218U,
  0x3cd63e44bd19f821U, 0xbc8b965e3d0fa575U, 0xbaee8ee23c53de3aU, 0x3bfa30883d13a0a4U,
  0x3bd9c31cbd35b22cU, 0xbcdb6acf3d130ab2U, 0xbcb9de2d3cff4e5aU, 0x3c01b52d3bdeaed3U,
  0xbc94b6e2bd0bc6daU, 0x3c0146e13d149639U, 0xbd1c9a79bcfbdafaU, 0xbc2de65d3d015747U,
  0x3bb84d6a3c2f0986U, 0xbc2c6181bcedaf78U, 0xbcaac5cfbd31a866U, 0xbaa7c7203cb1cd52U,
  0x3c52a9a73cbd18d6U, 0x3d03c1cbbb84171dU, 0xbd0cbc64bd2e4a12U, 0x3d07bded3d00286fU,
  0x3c7a00c3bc4794f9U, 0xbbc292aa3d092748U, 0xbc314ff53ca5b901U, 0xbd11dee2bc32e5d2U,
  0xbc67dbd3bcf6259cU, 0x3cc53d20bc4f1645U, 0xbd0b7c23bc3f3f23U, 0x3caaa8d73cef11b8U,
  0xbc5d4710bc93600bU, 0xbb6ae1b63d1fb295U, 0xb92e86183c9c9aebU, 0xbc8691b8bc2dc938U,
  0x3cec88a23c3dd5bcU, 0xbc55a9a73c33a479U, 0xbc287778bd39b97fU, 0x3c183b6bbcf2f31bU,
  0xbc8475e73d020ccfU, 0x3c6f9fc3bbd7ebeeU, 0x3c3ec99bbce086eeU, 0x3c6e962fbc8518eeU,
  0xbd0e9abe3d37baccU, 0xbd1277edbd03fa63U, 0xbc9017353cf24c79U, 0x3bca094ebba5ffe0U,
  0x3b071bdb3c8b1838U, 0xbc83462b3cefed95U, 0x3ae0af15bd393088U, 0x3c70f5f3bc9ac73bU,
  0xbbac714cbcae7182U, 0xbc757f313d31fd40U, 0xbb3ef53ebc834fd2U, 0x3d06bd04bd183523U,
  0x3c4ac4d4bcafcdc2U, 0xbd2f9c9c3c91d921U, 0xbcfaed24bd2aa51bU, 0xbc1769bbbd033cdaU,
  0x3bcb49093d3514edU, 0x3d17a0ba3a5ab0eaU, 0x3bb642a8bbfc9895U, 0x3d34e8de3a40cd1bU,
  0xbc80c1d4bcf84239U, 0xbd102a283cdbbb55U, 0xbc06ad6cbd1f1e89U, 0x3d1a82eebc58e386U,
  0x3d2cf250bc81fa7dU, 0x39a18105bbb2cd15U, 0xbc8f87343c3e7d5cU, 0x3b9f11fcbc705050U,
  0x3cb062cebc8ab2afU, 0x3cb9419e3cdb1733U, 0xbcd979c63cf49a5eU, 0xbd29a8f1bcee302fU,
  0xbd0c80d9bcefff28U, 0x3c38d8773d0986c6U, 0xbc534855bd2e9e1cU, 0x3c467c6dbce2b1a0U,
  0x3cad66aabca7b5cbU, 0xbc8e87133cf6e772U, 0x3b2be0783c0a5dd5U, 0x3c3498c23d2982a6U,
  0xbbf6ffecbcf93e1bU, 0xbc8be87e3b153155U, 0x3cf6ae353d249bbfU, 0x3b851d79bd35d7e9U,
  0xbd3a6aac3d038630U, 0xbc8836e23ce81357U, 0xbc78ad39bd35db8bU, 0xbc9dbd13bb68da1bU,
  0x3c133165bc82389fU, 0x3cbbd6b23beb60d4U, 0xbd27aed93a145482U, 0x3cf0cb63bcbb91acU,
  0x3bea7240bc87af2fU, 0x3d07ad4bbce94bbfU, 0x3cd182ec3d399274U, 0xbc372e6e3a37cdc0U,
  0x3b6735a3bd1c7de3U, 0xbac50a25bc0e8d74U, 0x3d01756b3d34f981U, 0x3b9811843cc0ac6fU,
  0xbd1f989e3caaa097U, 0x3a6769acbb866af1U, 0xbc13a7e3bd347e93U, 0xbc84518f3cf00647U,
  0x3ce05c5b3cc0bc11U, 0x3cc99a21bd05e12bU, 0xbc0ac7a83a70f198U, 0x3c026e033c93142cU,
  0x3d1708783c4334adU, 0xbd1357703d364528U, 0xbd0add0fbc6f8ec2U, 0xbd327699bd3957b9U,
  0x3c132aafbcedfdb3U, 0x39dbbb1b3a32062bU, 0x3c4da6c0bc55fb2bU, 0xbd38281b3d32d202U,
  0x3d30fa523d188985U, 0xbc2272e2bd001be3U, 0x3d2600583bb0a8a1U, 0xbd2709673c245192U,
  0x3c0fbcc1bd138fb7U, 0x3d16f6723cc52071U, 0x3b5fd8323d1ce902U, 0x3ccf5ceab95914a9U,
  0x3d20a7fa3d2223a9U, 0xbb5e30423c86d1c7U, 0x3d2837243b6f11b2U, 0x3c6cdadf3cdd2526U,
  0x3cab436c3cb9fd80U, 0xbcf297c3bd2ca0fbU, 0xbd38ad643c5cceeeU, 0xbcba2dd93cbf4abbU,
  0x3cff0ce03c8bc506U, 0x3b3e8ab6bcdeb785U, 0x3ca95b06bd3aa5b5U, 0xbcbcb922bc82af0eU,
  0xbc3bfe6bbad08ffeU, 0xbcb4eae8bd05e7d2U, 0x3d1418ec3cb071e7U, 0xbc89578bbcbdd9f7U,
  0xbcabc4b8bc77210fU, 0xbd3154e63d104ad8U, 0x3c0a52be3cd50a78U, 0xbd32269f3c7c3a42U,
  0xbc21ba70bca28674U, 0xbc2da3e2bcc7a296U, 0x3caeb3f7bc756971U, 0x3cd9078a3be93f7bU,
  0x3c900cca3d120f4cU, 0x3d09b3f73c877b64U, 0x3c48ce053d34d4cdU, 0x3d1e7b223c93ddf3U,
  0x3d09e5eb3c4a1408U, 0x3cf3c5b43cf90c20U, 0xbb5e990e3ce6f680U, 0xbcb06c35bc6f9bb3U,
  0xbd2a9e863d1ceb9aU, 0x3cb9172e3d2ae6daU, 0xbd1e56c93c77fb94U, 0x3cdceea13d1df320U,
  0x3d1a86563d2087b7U, 0xbd10f5eebc84c37cU, 0x3cc39db73948a79dU, 0xbb9838ae3bf3208bU,
  0xbbf5fba93d36214fU, 0x3d0ad3503d160460U, 0xbc55a1183ce73863U, 0xbd12f41e3c76becaU,
  0x3816b709bd1e655cU, 0x3d0a9b4e3c9d0357U, 0xbd1bbe903ca1da69U, 0xbd1e4c493bf4986bU,
  0x3c853159bb38eabfU, 0xbc9b01933ce1b944U, 0xbb244623bc88337bU, 0x3d017d81bcffacbeU,
  0xbd06ca203ca337a7U, 0xbc6959503c58569aU, 0xbc85c3e0bc0d991fU, 0xbca235933d0906eeU,
  0xbbf3ce373cb4855fU, 0x3cc9d62c3c9ce955U, 0xbc846f233d3973f9U, 0xbac8877a3ce6cfddU,
  0xbcf5d6ebbb9028aeU, 0xbbcc00d83cbe61f3U, 0xbbfdf1eb3ba43e1bU, 0xbd3580cfbd156d91U,
  0xbbb298003b8b00abU, 0xbd22a920bcc01cf4U, 0x3c26dc153ce2a73aU, 0x3c61903e3ce76b4dU,
  0xbcc13fe33cbb3a2cU, 0xbb2fc3683cc142f5U, 0x3c1e8353bc83edebU, 0x3c983f553d35fa36U,
  0xbbfec2483b432e8aU, 0xbccb2a663cfc3970U, 0x3c838d30bd310452U, 0xbccb591abced3533U,
  0x3d0807e63cfcfe09U, 0xbc19fa223cb19833U, 0x3d1304193b92d33bU, 0xbc365d043ca8a736U,
  0x3ce507d13d21c123U, 0x3d1024bbbd26fcc9U, 0xbd0caf92bd05f267U, 0x3cbbb604bc858168U,
  0x3d03dc11bd11e3fcU, 0xbd1f2619bc5338adU, 0xbd36e89d3aaff9d0U, 0xbcf1573bbcd23c2aU,
  0xbb03d38fbc828a32U, 0xbd2da12a3cea1b5bU, 0xbc9423e9bd1f5be9U, 0xbcda298cbd1032a8U,
  0xbd22efa5bcd08596U, 0x3c43be91bc8d38d4U, 0x3c8fc93dbd19b2eaU, 0x3d183d3ebc9cbf26U,
  0xbd1c6708ba899148U, 0xbc39bfcabca09ad7U, 0x3c97f6aebd1d6297U, 0x3c1e5b92bc857198U,
  0xbc185b703bfb4c1dU, 0x3cf34668bc92e35eU, 0xbc3ba4ccbd18b115U, 0xbb35c4dd3cba87ccU,
  0x3cf624c1bcdfebd2U, 0x3d39fb53bc536112U, 0xbcf6dc26bd1b02dfU, 0x3ca811ecbd184251U,
  0x3c37efa43c16daeaU, 0x3c1ed7f3bbbc79b3U, 0x3cee4eaf3d153515U, 0x3c70ed6abb4188f9U,
  0xbc0d565ebc7a34fbU, 0x3ca8a378bcbeff63U, 0xbc3b0ef33bc47076U, 0xbc9519a5bcd6143aU,
  0x3a5c564b3d21abebU, 0xbceb46b63d2a0a85U, 0x3c8adc99bc84af8aU, 0x3d25210ebc499f6fU,
  0xbaf528ca3b3fbb6dU, 0x3b18635b3bfd4ee1U, 0x3c884f563d32d804U, 0xbc4d28b43cc2b7a3U,
  0x3bae1211bc9d8e56U, 0xbb8b1ca53d08704cU, 0x3ca37615bac6035bU, 0x3d034a35bc4ce022U,
  0x3c5a359b3d12634dU, 0x3d117d85bd0cf4a7U, 0xbbfbc9733c6fc5ceU, 0xbc875ff5bd2e6a9fU,
  0x3bc15bd5bd3ae71eU, 0x3d3920513ca9e2ffU, 0xbd01db6d3d0b6127U, 0x3d051078bb76dcf5U,
  0x3bc3fe20bbf76921U, 0x3bfe608f3c9975fbU, 0x3c5b52f8bca2c06cU, 0xbd01d2713d2d821dU,
  0xbd153b3ebc232268U, 0x3bde26c33cad4f8fU, 0x3d0f91503d126e98U, 0xbc9bc7563d36899bU,
  0xb7f4f80a3c60f684U, 0xbd15c60b3d265872U, 0x3d310613bc19c076U, 0xbc2449f3bd0f80b6U,
  0x3cce48bdbc497a76U, 0xbb3ae9aebcff2355U, 0xbc8627643c6af92cU, 0x3cfdbfb9bba1da29U,
  0xba6d8da2bd32df11U, 0x3c16ce7a3ca3c43fU, 0x3c618ba23d34ceb3U, 0x3d1e9d06bce72702U,
  0xbc7a589b3d3352ceU, 0x3c971cc7bc69b4b7U, 0x3d153aaebd296c3aU, 0x3d135f873c72fb69U,
  0xbb2e1c333d0cedbbU, 0xbd165454bd006e86U, 0xbca4b8593c1dba67U, 0x3ac310983d206fc9U,
  0xbce0638b3b42d1caU, 0xbcd27633bd0fc811U, 0x3cdcbb333d27bff8U, 0x3bac9b0fbd34ca47U,
  0xbb618050bd1d55b8U, 0xbd0db4fd3c308f69U, 0xbaa0651e3cc1ab75U, 0x3d38a579bc7de3cbU,
  0x3d15ef20bc5148b7U, 0xbcb80a973d1b65efU, 0x3c7915153b14da56U, 0xbcc74d6bbc237967U,
  0xbc25ef60bcee374bU, 0xbc4206ad3cd874cbU, 0x3cd422763c5d4537U, 0x3d24d98ebbb8840dU,
  0x3cd75f31bce84846U, 0x3ce3e4d7bcc4bbddU, 0x3d08401d3d31331dU, 0xbd3562e4bcd48e83U,
  0xbd2ea25cbc8e1c48U, 0x3c2d717e3cb1a873U, 0x3c55c3a53ca23af3U, 0xbc54027dbd02dac3U,
  0xbbd3ef1dbc5ae270U, 0x3b8049febd0989bcU, 0xbd062f72bd0100c4U, 0x3c81dc1f3bd146d8U,
  0xbb873296b92ea4c4U, 0xba9addfcbc043d51U, 0x3d03b29cbd385218U, 0x3c5350e43d27a9bfU,
  0xbb5e7f67bd2dc442U, 0x3d1fea74bd37e384U, 0xbce3553ebce2eb22U, 0x3cc489cbbb93dd4aU,
  0x3bb49253bcf04cf5U, 0xbd28d6fd3d1edf9dU, 0xbd18fdd9bcebc126U, 0xbd02a3a0bd244422U,
  0xbd311e18bc985bbcU, 0x3d3999513cf0c8dbU, 0x3ceb18e2bbb7a6a2U, 0xbd39f9d9bc975b92U,
  0x3cf118debce61d7dU, 0xbcb2dde1bc9604cfU, 0x3cc7dc4b3c44adb7U, 0xbc59b3e3bc615260U,
  0x3d180d023ca49e20U, 0x3c2f0a1e3d0891a2U, 0xbc447d72bd1ea173U, 0xbc9e6cdc3ba98fd5U,
  0xbcd70c61bb0d4592U, 0x3d31735c3d17c1c0U, 0xbc9860eabc2706fdU, 0xbd1cbdd63a8f2246U,
  0xbc869ecbbce16834U, 0x3d2e981cb8c36c3fU, 0xbc70e6803b4777cfU, 0x3c573455bb84ba78U,
  0xbcded7643d22bee7U, 0x3c325420bd02ae05U, 0x3d06ac0c3b83bfd7U, 0x3d0c08a43c80832cU,
  0xbc2530dc3d0684d8U, 0xbc0c5fe5bc0d4dc4U, 0x3c974cc2bd37761bU, 0xbbeea8893d206d7fU,
  0x3cef4f6ebce19b84U, 0x3c34ca713c2c530fU, 0x3bd08b9d3c5ee822U, 0x3d227d8f3d2e3e14U,
  0x3d17fde83c3e33daU, 0x3d2d909b3c52f48eU, 0x3d28407cbcf08f44U, 0xbcb73815bbc57f67U,
  0xbc18f221bcc8caf1U, 0x3d14e3cc3ce51e17U, 0xbc948a5e3c77e1d0U, 0xbc7518a13adf6d92U,
  0x3cdd776f3cc0b836U, 0xbd270cdf3d2d4401U, 0x3cad73b2bccf9055U, 0x3cbe5a34bc7ff784U,
  0x3d05c24abba75c3aU, 0x3d291e74bd2ce743U, 0x3d3653b8bd078eebU, 0xbd1348aebd335720U,
  0x3b1276ce3cd52f99U, 0x3cdc3216bce4d57cU, 0x3d0285403c7c4c38U, 0xbd1d8fb4bc9fbc68U,
  0xbba871bdbc8231f5U, 0x3b542427bb50a2fbU, 0x3d3312d0bcc09800U, 0x3cf5fa7c3caf4184U,
  0xbc135a85bd155e03U, 0x3d18c79abcf5d636U, 0xbd262d80bd272b4fU, 0xbc0b29a2bcdbfd2dU,
  0xbc4766023c63ddafU, 0xbce225e03aee5042U, 0x3d1b98a83cb92c73U, 0xbd335d72bc44cb68U,
  0xbcea298abcd105d3U, 0xbce262efbc8cd96bU, 0xbd3955373d1f9999U, 0xbb80506dbd384ce4U,
  0x3b4dcbe1bb2c140cU, 0xbba318a9bc0cc0aeU, 0xbd0561593d39e0a0U, 0xbce044ca3cebd58dU,
  0x3bf3fda43cfcc362U, 0x3cfd317abd0ed516U, 0x3bb53e203c8df654U, 0xbb5b0abdbca155faU,
  0xbce5bda63d241f47U, 0xbc789ebb3d23aa58U, 0xbd20dad63c876f08U, 0x3d2dcd483ba5f353U,
  0x3d07543abcee0c7aU, 0xbc006723bcea616bU, 0xbd2270c63d1ae633U, 0x3d10a602bcff92f4U,
  0xbd0c2a1cb964d9ddU, 0xbd1fad67bc94b301U, 0xbc09f2aabcb476fbU, 0x3c9a99f13c7edbb5U,
  0xbc900ea33cb48f4cU, 0xbd2ddcb93c93a794U, 0x3c9ef9babd173861U, 0x3c96298ebd1b9d16U,
  0xbca711073ca5934dU, 0x3cee80c1bc2fc469U, 0xbcda2db33b913cd2U, 0xbd1c17d03d0f10e9U,
  0xbd0e1777bca4095aU, 0x3b8e813e3c295303U, 0xbcac4465bcfae7cdU, 0xbcd1a92e3d38008eU,
  0xbbe5fd64bc07e643U, 0xbcd61420bb89c164U, 0xbc95a6bdbc5e8e8eU, 0x3d1fddb63be249c9U,
  0x3cbe1ef83d30355aU, 0x3cd1abee3caf7fdeU, 0x3d1f4f5a3cfd3979U, 0x3d089ac13c5bec8aU,
  0xbb9575c1bc510baaU, 0xbc2e37673d1a378aU, 0x3d1cef31bc47da5aU, 0xbca6bd1abafd115aU,
  0xbd39551fbd040671U, 0x3d1dab54bcd6ad42U, 0x3c44a3143d1520b3U, 0x3d112f1fbcb08605U,
  0x3cb29eb23cb0858aU, 0x3d369ba0bcf7ae59U, 0x3c501329bc772d21U, 0x3d288ba03ac8282dU,
  0xbcf64ababb6a43c9U, 0x3c183f873d164bc3U, 0x3c0490403b11ade1U, 0x3c89fcc6bd239c16U,
  0xbc7990f03cfe2412U, 0x3d091b543c6bf56cU, 0x3bde4e043d090d8fU, 0xbce5f4c93d0ca801U,
  0x3be57e5d3d19b043U, 0x3d3ade543cb98e8aU, 0xbcbb1cc43cd87953U, 0x3af70e6f3b97a5d8U,
  0x3d0d2d83bd36b8d4U, 0x3d315bf23d1d03faU, 0x3c9067823b80cc4eU, 0x3cfa8140bce02ee2U,
  0x3ca83309bd2f1997U, 0xbd1a71dcbc33928fU, 0x3d168cc5bc24c9d7U, 0x3d13107fbd27aa46U,
  0xbd3258da3cbe1ed5U, 0xbbae29933c9e1dceU, 0x3ccab30abce216b5U, 0x3b7a42a63d06ecc2U,
  0xbd18883fbc4654c3U, 0x3d2b0631bd11ef27U, 0x3c7ff4d33cc58b4eU, 0xbc570f163852820eU,
  0x3d0e008c3a6140f6U, 0x3c9afa973c852be8U, 0xbd2a20b93bd35349U, 0x3a793026bd189290U,
  0x3c7e60b83c15074bU, 0x3cbceef33c25cabfU, 0x3cae044e3c6cdb9aU, 0x3c40d3ffbc93df46U,
  0xbd2bd908bc99792aU, 0x3967a704bcd7af14U, 0xbb2fd0303c26c7eeU, 0xbc91a735bcf15a64U,
  0xbace216bbba5a9b3U, 0x3b53e4e4bd379e3dU, 0x3d363f79bcea9c21U, 0xbcc9abad3b4cac25U,
  0xbd301ae63b3510c1U, 0xbb5ecfbc3b1a08d4U, 0x3d0488a9bd284d80U, 0x3cf982553ce4f6caU,
  0xbb8ee404bd23e529U, 0x3c9fe5b73d01bc6eU, 0x3c4808453c96c0e0U, 0x3bc874f23ceb8dfbU,
  0x3cde79843c981a10U, 0x39cc335f3cd1bbfaU, 0x3cffbc9dbb90ec71U, 0xbd17abb6bd0cd0e1U,
  0x3c9bd3db3c2c971dU, 0x3cf67f753d10de7bU, 0xbd0943a43c9b9492U, 0x3cf444353c749201U,
  0x3c79a3e1bd241eb8U, 0xbc7382383b5e23d7U, 0x3d0eb8a7bd23ea62U, 0x3d161e55bd3a82d6U,
  0xbcc7c6c3bcabee9bU, 0xbd35af463c917f96U, 0xbc8a0f19bad18072U, 0xbca176683d0c9458U,
  0x3ba5b6923d1721adU, 0xbd16adad3c8fc2dfU, 0x3c218a60bd31bc2eU, 0x3cfb84df3d0a174dU,
  0xbcbfb2eaba4141f4U, 0xbc0c1be83ca95ff7U, 0xbc81e8ed3d0f3f1cU, 0xb9ad21b5bd1e23f1U,
  0x3d1d94a6bccacedfU, 0xbcbf3219bd3720c2U, 0xbb796e0bbcf9af7cU, 0xbd10ed60bc9eaafdU,
  0xbc26c609bb90c81cU, 0xbc47b6573c99f50eU, 0x3ce48c283ca66491U, 0x3cb06638bd014bceU,
  0xbbf4b8813d1e0f71U, 0xbc7f7bbbbcf1552aU, 0xbc8428003c9abbf5U, 0xbcdc66e83bda05b4U,
  0xbcaf25753d1e6b8dU, 0x3d0851dd3cb8945bU, 0xbc9be9b23d30f6c5U, 0x3c499db3bcc91739U,
  0xbcbb07e33be4b0d5U, 0xbce4e21d3cbbf642U, 0xbccda515bb99a99eU, 0x3d0af244bc95278bU,
  0xbd089ec6bc83647fU, 0x3c76b7c2bbc1d758U, 0xbc9eb8313cc5bf10U, 0xbd22d6243d162776U,
  0xbd302035bbc5d178U, 0xbd2941b03c091ebdU, 0xbccafa193cc6d583U, 0x3a37738f3c40fd5fU,
  0x3cdc164dbb6ec3a5U, 0xbbeb08533c921a51U, 0x3d14b882bc7a71aaU, 0xbd1d978cbc16f9e8U,
  0xbd1701f33d19bfacU, 0xbd0456ddbd04be02U, 0x3cda2305bb8fd039U, 0x3caf3d86ba289485U,
  0x3be0db39bc6e9fe8U, 0xbd1ce3edbd3404f7U, 0xbc40ecf73caa6038U, 0x3b8009ae3d021047U,
  0xbcd342603d1c5635U, 0x3cf514223d099c01U, 0x3c8e09623acb98eaU, 0xbba4e82c3d319ddfU,
  0xbc90fe933c1e93e5U, 0x3bf3716cbd2ffa07U, 0x3b3d1fd83bd376e3U, 0xbd25b571bbe09ed6U,
  0x3ba23d063d12c98eU, 0xbcac4df5bc71819fU, 0x3c8b23df3baca17fU, 0xbc256f1e3c7f5429U,
  0x3d0718bfbd03f5c6U, 0xbc84f8283b930946U, 0x3c81c6af3c860892U, 0xbc1bd2733cbad92eU,
  0x3cd147be3c2f0778U, 0x3c27a4923d15930bU, 0x3d2f87a3bbebe757U, 0x3d07475d3d18ca50U,
  0xbb696f8b3d305199U, 0x3cdbdcbcbb03297eU, 0xbc8e5aaabd20586dU, 0xbae3d2c6bd2b6746U,
  0x3c6e02aabce5df2cU, 0xbca99ccf3c703fc4U, 0x3d08205dbd3a613cU, 0xbbc4002e3c8c0221U,
  0x3c8c8a3dbb8918ebU, 0x3ccdf15dbbf8dc1fU, 0xbcf81f3c3bedbfefU, 0x3d3190f63d0bde02U,
  0xbcfbdab1bc71efdfU, 0x3d09e4d83d34f447U, 0x3d0c0b81bc03d181U, 0xbcc6df5c3cb8c1f4U,
  0xbc0a3b25bc541caaU, 0xbacfbe953c8cd7a4U, 0x3c156b1e3bbeec63U, 0x3d138d723ce85265U,
  0xbc1c8363bcd0510dU, 0x3c192b18bca608bbU, 0x3cd23638bd204abfU, 0x3ba023aabd3a50c3U,
  0xbc8c6b1c3bb6088eU, 0xbd195237bbb71291U, 0x3b825592bd1ab63dU, 0x3d2365a1bce3395eU,
  0x3b4d414e3d2e2c17U, 0x3ccda54a3d267ce8U, 0xbcd91177bc84aec6U, 0xbad1c71abcc326edU,
  0xbb407e6a3b06b456U, 0x3bce7d293d35270cU, 0xbcc503fe3ca750faU, 0xbca50da2bc84d6f1U,
  0x3cce81a23af8dcb7U, 0xbcef5e493cf5a6d5U, 0x3d2bb0103c915110U, 0xbd2df51d3d138a19U,
  0x3d27400f3d078459U, 0xbc9ed6483d193342U, 0xbd39612ebd018dabU, 0x3d0083193caf2662U,
  0xbba60fb73d2ca257U, 0x3cfde2eabb17d550U, 0x3c8e18f3bd3a89b1U, 0x3bd4ce96bd29ede5U,
  0xbc9e03bebd17ccddU, 0x3d1f8e04bcaa04ceU, 0xbd2fc6bf3c732807U, 0x3b8a664dbd2be332U,
  0xbc18a7efbbe5052eU, 0xbd3046acbc2538a4U, 0x3c6a99debd0fdf47U, 0x3ce4c4673cbd1d0cU,
  0x3d38c9d93d01b59aU, 0x3d2aca873c8f1812U, 0x3d17561b3d29f017U, 0x3d0318f23ccf520bU,
  0xbce19e853d2d08f1U, 0xbcba62653c4debe6U, 0xbc937c37bc877c07U, 0x3d167053bc128db2U,
  0x3c49c652bd0b4236U, 0xbcb099743bb44acdU, 0xbc3bb0f6bcf2bf47U, 0x3ce0e7fdbca0a04eU,
  0xbce113c63bc766f7U, 0x3ceaa4523c022c9bU, 0x3d013b3c3cb16540U, 0xb9fdddd63c7cf297U,
  0xbcb42af43c766b14U, 0xbc7db4d93cf7b3f9U, 0xbc6050943d30851dU, 0xbc719b1dbc771c67U,
  0x3ceed0503d1c656bU, 0x3d2ef92f3cb38a4cU, 0xbc07c9fdbacdc0d6U, 0xbc96801bbb94d75eU,
  0xbcf3aa57bbc7ee87U, 0xbc637428bd0b8c92U, 0x3bbc5498bce45a3fU, 0xbc8e7a65bc3b35dcU,
  0x3d260d573d03455eU, 0xbd1b84b23d211930U, 0x3a4ae0e1bc900638U, 0x3cc645f33cd2b6b5U,
  0x3bb952e83c0f9a6eU, 0xbd12c5f9bc890d19U, 0x3c1c94d93cab1bcbU, 0x3d113be03c94ae2dU,
  0x3c02a566bcb9b7b3U, 0x3b4fc5273b0401c0U, 0x3bc458d13d15e41bU, 0x3d02a864bbe3add9U,
  0xbb8a67c3ba855f04U, 0xbc3f0150bd29d270U, 0xbd12d819bae7dd0fU, 0x3d06cd4fbc34e862U,
  0x3c28000b3bab524aU, 0x3d328962bbe9d43bU, 0xbca19142bc69e87aU, 0xbba0e92abc208193U,
  0xbcd8544c3bd33440U, 0x3d1470283c72a54eU, 0xbca402703d0b5875U, 0xbd3a7ea63cfcb1c7U,
  0x3ae988193ceaf25cU, 0x3c117cdcbc845923U, 0xbc2b71a6bd0268d6U, 0x3b0320e93d0398c5U,
  0x3cbe3ffb3bfb103bU, 0xbc89ce75bcc45f4aU, 0xbcc4ecc5bc8e2dccU, 0x3c33fe593d335837U,
  0x3d3660d4bd090f3bU, 0x3d133f0c3c9fe52dU, 0xbc8b89d6bb992ba4U, 0xbcd47817bcb1cce8U,
  0xbd1ed9b2bd1ddc18U, 0x3cd5cf143d188f9eU, 0x3d13c7273d15caa5U, 0xbccf62933c65a1a0U,
  0x3cb128ac3d2e6adbU, 0x3c636ac7bc2baeecU, 0x3cb95bee3cf1b954U, 0xbc453b93bd229c22U,
  0xbb7a34803d086c7fU, 0x3cd68353bd105628U, 0x3d27f34f3d2e1358U, 0xbc22ba63bca79834U,
  0x3d181075bb5ce3b3U, 0xbd385799bb101963U, 0x3c92deb33bd827c5U, 0x3d325ac3bb0bba7bU,
  0xbd0101b13cf83291U, 0x3be3aea0bd053f05U, 0xbd0a736f3c944b7cU, 0xbc11458abd176484U,
  0x3c98838f3ce244d8U, 0x3cbdad773d03a755U, 0xbcb7aecabc980d34U, 0xbd03d7983b307008U,
  0xbbe40bf7bd296235U, 0x3c61948ebbdb2d27U, 0xbc763275bc4801dbU, 0xbd194c1d3cd0450fU,
  0xbaf50df3bc4c173bU, 0xbcaff3ea3d1c6829U, 0x3ca36a463c10d28aU, 0xbc6d439a3d1ff57dU,
  0x3c3c399ebd1bad58U, 0xbc99fc2f3c9563dfU, 0xbaa37ec43c2f4bc1U, 0xbcef0f44bb694e0aU,
  0x3d26bcea3d37fdceU, 0x3c55d038bcff337dU, 0xbc1d09ecbcb1900bU, 0x3cf80c25bd3474bdU,
  0xbd1c8cb63ba98966U, 0xbc4388403c52f323U, 0x3d37e79dbb8cc343U, 0x3ce9c3d33c224ebcU,
  0xbcb26f6cbabf3c2cU, 0x3cbc4770bd2b5c04U, 0x3a8355f3bd08b2f7U, 0x3cefce3a3bba7449U,
  0xbd1ba0d0bd25d5dfU, 0x3c8335823bbe3639U, 0xbd0d42a53c82bc82U, 0x3d1d45a6bc871f08U,
  0xbbb32c7a3c9b1e11U, 0xbd01cc533d0cc52fU, 0x3ba111603c33a08cU, 0x3cafc5533b1c91e1U,
  0xbb2d343d3ced7e75U, 0xbd2558803c80462bU, 0x3cdca59c3d29c86dU, 0xbccfceacbc99b573U,
  0x3d0e1ffd3bc8e194U, 0x3cb800f33c5d6524U, 0x3c942ce43ccaa986U, 0x39ba1025bd22a187U,
  0xbc0bdda6bd2fa156U, 0xbbdc2c2a3c91cc91U, 0x3cf2a46a3cdc6044U, 0x3d2eccd7bc8f22f2U,
  0xbcc2b3cd3d072498U, 0xbccfdf693d1aef74U, 0x3d11d09b3cf905b9U, 0x3cb702483d1ed26aU,
  0x3b22a96e3d0d7e23U, 0xbc96ab6fbd044d38U, 0x3d33bc2b3d2b52dfU, 0x3c1e552ebc3e0101U,
  0x3cbad15abcf51812U, 0xbc9a00fdbd274311U, 0x3d0e38ffbc86c612U, 0x3aed931dbc76263fU,
  0xbd15b9643d0f92b0U, 0x3ac0f7a53d2a406fU, 0xbcbee0a2bc7e586fU, 0x3bccbed0bd1d7f53U,
  0x3c673b00bd28f16bU, 0x391689c2bc9bdc2fU, 0x3cf4cc253cc3c84dU, 0x3bdc004dbd302f97U,
  0x3d3707a93d032b25U, 0xbcf3f7d5bbf6a48bU, 0xbd1eca19bcd58947U, 0xbacedae93d0e3aceU,
  0x3d34198e3d1ac9bcU, 0xbbfc4992bc19e713U, 0x3bc57ae23cf5f0a3U, 0x3b9ee0d43a89b59dU,
  0xbd01ffeebc74a6e3U, 0xbd2c82153c8d0f59U, 0xbb0ea391bc29bcd1U, 0xbd18b47d3c5c81dcU,
  0xbd2b8ef2bc2d8ce1U, 0x3c7480053c9d67beU, 0x3b98ac1dbbe53ed4U, 0x3d2e8fbbbcf93d5dU,
  0xbd29d411bbdc5ebdU, 0xbd1f629abd3863a6U, 0xbc3b611bbc9e16c0U, 0xbd11795a3ceda4bbU,
  0x3bcbe9fa3c90d351U, 0xbb83fed4bbc81f75U, 0xbb58c0503cdffaeeU, 0x3c5e5cd4bce566b8U,
  0xbd2d89273cf4de29U, 0xbc6879003c93cf55U, 0x3d30d8d73c0baa47U, 0xbd069c26bce469d5U,
  0x3b7b2fd03c90491fU, 0xbbe28392bd241f41U, 0xbd33bf86bc523442U, 0x3d2cc9fd38ad3d76U,
  0xbd0330023d172feaU, 0xbc0e07c3b7fef700U, 0x3cc43ada3b00709bU, 0xba818e10bc9ab0afU,
  0x3d2ac15c3d034806U, 0x3cea7bb0bd19897dU, 0xbcf5a4adbd39da80U, 0x3adf8cca3bcb66a9U,
  0xbb57cf503ca24d43U, 0xbc13dcc9bb1758fbU, 0x3d118260bce3c87bU, 0x3cb1e0a63c845b82U,
  0xbcdac9a43d0db83fU, 0x3c4844f43cbc6b4dU, 0xbc661c333d261502U, 0x3ca236c8bd0722d9U,
  0x3baa8c27bc400019U, 0x3b7593c7baf19aa8U, 0x3cde4336bd062199U, 0x3d1eebb1bcd6451dU,
  0x3ccd7ae9bcbc0e85U, 0x3ce99c433b73f252U, 0xbd33b8c9bc717693U, 0xbd14e8b8bc9f86beU,
  0xbbebf205bbfe9a1eU, 0xbcd538c6bd2ec3b9U, 0x3bb9e9ce3cb36b74U, 0xbc8141733d140c30U,
  0xbcffc1b13c91e8e9U, 0xbb9a14f8bcbf311dU, 0x3c10ca8e3c819accU, 0xbc7967bebcf10016U,
  0x3c34b6adbb676a09U, 0xbd0ef8053c96903aU, 0x3c372bfdbcaae8c0U, 0x3b8653f0bd09aa90U,
  0x3d3241a7bd3402dcU, 0x3b11db29bd00594dU, 0xbccb28323d34ed82U, 0x3c00ed08bb606f00U,
  0xbd3457703c9b8458U, 0xbd2fd4cf3d08dd62U, 0xba10ba82bd10acacU, 0x3d14d40c3ca97f1eU,
  0xbc9e93d6bd276577U, 0xbcc4c3c93b9a296bU, 0x3d1544093d043d35U, 0x3d141e39bcae5536U,
  0x3c4e48a6bd254644U, 0x3ba1ac79bd0661c8U, 0x3cce5fcd3a364363U, 0x3d2e539e3d29750fU,
  0x3c60d9cebd15e257U, 0x3c0daf71bcf7b295U, 0xbd00f5da3b5ff7dfU, 0xbcdad842bc8ea6e6U,
  0x3d39de63bcc16debU, 0x3d13bc22bd18673bU, 0xbbbed5cbbcaec9baU, 0xbd0df241bc61b127U,
  0xbc83e262bd3024d5U, 0x3c11d551bc44f7cbU, 0x3c20ce3cbd1936f3U, 0xbcf615ae3d2b7c61U,
  0xbd29d047bd09fa63U, 0xbd03aa843d20c580U, 0x3d2309263d36fc7fU, 0xbc4580ba3d395f42U,
  0x3cd9bc5e3ce2c6a7U, 0x3d017701b9f769e8U, 0x3b3dfe7ebd1d54adU, 0x3ba9ee743d064f2dU,
  0xbcc5a982bcbbd170U, 0xbcb57924bc424abbU, 0x3cc780aa3d203524U, 0x3d2832afbcb1ab16U,
  0xbd071c303c6fb055U, 0x3d1486c33d032b0aU, 0x3b35c209bc536f27U, 0x3ccb0af9bd1f17f4U,
  0x3d298582bc87d09bU, 0x3cfa5289bca098a3U, 0x3cb530773c870b53U, 0x3cdc14babd1839b5U,
  0x3cf03d70bca8a8a3U, 0xbc9a76ef3cad1970U, 0x3d39e0063d26cffeU, 0xbd1f401c3a85d5dfU,
  0xbcc2e7d93d3565a5U, 0x3ba39a10bcd3f60aU, 0x3d31b4e93bd9c2b3U, 0x3c060a913b9e5814U,
  0xbd002078bcc0b126U, 0xbce09c2d3c41188eU, 0xbbd3146f3bc34a0fU, 0xbd0d4a9f3d2d2c28U,
  0x3c9bda7c3d1c1b49U, 0x3a5c2849bce8f896U, 0xbd393086b92cb5a0U, 0x3c1ba1eebad5e94dU,
  0xbc71d44e3d2ad072U, 0x3c5669893b5688c7U, 0xbc84a565bd2570cdU, 0xbcc96b9e3c875e53U,
  0x3cef6eb5bd04e816U, 0x3ba99b273ca85acbU, 0xbd1ad359bcd7491fU, 0xbcecefc13d0cf4cdU,
  0x3c8171453b088110U, 0x3cab9db7bc94b200U, 0x3b52c758ba26a218U, 0x3be33cb3bc9bdf73U,
  0xbb99e3fe3a224e99U, 0x3cc37dd2bd2b7ee9U, 0xbd2127e63cd674efU, 0x3d2eab6e3ca0e5c0U,
  0x3ca1baa8bd0c3c4bU, 0x3d28e011bce4117dU, 0xbce0de2a3c14d37dU, 0x3d2f91fd3d16ef49U,
  0x3c7d941f3ad7ec58U, 0x3be9aa0fbbd75f65U, 0x3cd02c43bcf9eabeU, 0xbd2f72a73c9251ccU,
  0xbcaa4fc7bd15e577U, 0xbd39d1393c949440U, 0xbc947caa3b87a13aU, 0x39e312e43d37bfedU,
  0x3c3a0d5c3c8fdc60U, 0xbc2a5fc93d20e39bU, 0x3b3317c1bcb755b2U, 0xbd3a95ab3c607ac7U,
  0x3cb018343d0940d3U, 0xbcff30233d0dda7fU, 0x3c580038bc566623U, 0xbb4e3d2bbb0a0078U,
  0x3d0ab79dbd15520cU, 0xbd1e7e453d035b2aU, 0xbbe896823be2d7dfU, 0x3ca9e7673d16e745U,
  0xbc1478573c9f0d92U, 0x3cd595803b13337eU, 0x3c51dc30bbc94ce3U, 0xbc1fbdfebcbd34a5U,
  0x3c742b4f3d0cd71fU, 0x3c0cf5f2bc71c229U, 0xbd3716c1bc80f5aeU, 0xbd1e15d7bd16f9d9U,
  0xbbe1b5ac3c0cfe64U, 0x3cb564fbbc9f3cdbU, 0x389effd23d1f0511U, 0x3d3aef643c597168U,
  0xbd2b178a3d056d60U, 0x3ca188013c02ee68U, 0x3cce2d0ebb78f158U, 0xbc2fa2623d2f94bdU,
  0x3babcd7b3ba4fbb5U, 0x3d2c4a5bbc282eabU, 0x3cd7b5173cc40b19U, 0x3cd8f764bc8b759eU,
  0xbc76767d3c6f9633U, 0x3bbf1222bd28722fU, 0xbcd855bc3cdd6c89U, 0xbb194eb2bcde3f78U,
  0x3bf6345abcfd03b8U, 0x3c99f5fdbce55e3bU, 0x3cbb41efbd00e87dU, 0x3bb33841bcd417a5U,
  0x3cfb214dbccee6cdU, 0xbc5a3f2bbd389459U, 0x3c8b774b3d37dad5U, 0x3bef6f96bacef64cU,
  0x3ca6f6b73c5380bfU, 0x3be4af19bc53d709U, 0xbc552179bcc4e58cU, 0xbc6eef77bbe621e8U,
  0x3d112f3b3cd7c19fU, 0xbbf15b65bd358b14U, 0x3c0bc327bce73849U, 0x3cd7f8273c30d836U,
  0x3c3d82efbcade03cU, 0x3c60acf63d21529bU, 0x3d219b723cebad05U, 0x3c89191dbd34fb13U,
  0xbcd942c5bd31287dU, 0xbc9d05903d0db840U, 0x3bc431333b61f0c7U, 0xbcc452453cc3fc4cU,
  0xbcd265c8bc9b3f03U, 0x3b038a70bd3377b1U, 0x38e2e4e13cced7e3U, 0x3bb0ea213cf53bdeU,
  0x3cd92f91bbdfbdc4U, 0x3d1af901bcc6b292U, 0xbcfd8ac43c03e106U, 0x3c296046bc8fd8f3U,
  0xbbd29d373c004a32U, 0x3bfe7b4e3ce8a251U, 0xbc0abdcd3c92c48cU, 0xbcf4f40f3ce7e9b3U,
  0xbca29beebc9efd46U, 0xbd2a61e7bba43202U, 0x3cb50804bca08f4aU, 0x3ce8c779bd275e08U,
  0xbc8c29a8bd30f074U, 0x3ba3511f3d3141ffU, 0xbd2b8d3e3d22f57eU, 0x3d0719173d1993d4U,
  0x3cce1efc3bb7222dU, 0xbcd4d99b3d0e2c3dU, 0xbd2533cc3d14ba0cU, 0xbcd16f42bd0e5e2aU,
  0x3cd41a743c618d9eU, 0x3d010898bd05854aU, 0x3c9f091bbc50242fU, 0xbbcd598bbd30f085U,
  0x3a3ab5ecbc66c780U, 0xbd29e75e3c626032U, 0x3cd3067b3ca0d9e8U, 0xbc00f0f5bcf18012U,
  0x3cf367aebc6c5d08U, 0x3cb643753c778a33U, 0xbd34e41e3d2ca462U, 0x3ce2c5803ae8154aU,
  0x3c8817a33cbfe750U, 0xbccfc888bc53184bU, 0xbbb51ff4bd0e9f18U, 0xbd2c76e83ca1dfe7U,
  0x3c4e64e13d0ae207U, 0x3b16645539a9644aU, 0xbcd70d3d3bcfd9e0U, 0x3c8912d63ccf402fU,
  0x3d12dce1bcb0a6ceU, 0x3d1b3a823bb0c74dU, 0xbd1194eabce3d56cU, 0x3d133e613c9aa2b7U,
  0x3b3f31ac3cd7b338U, 0x3d16a9f6bd011158U, 0xbc3f468e3d2e8813U, 0xbcf1088139ce822eU,
  0x3a2a7fa5bc7e5073U, 0xbd18c1c4bd32e2f2U, 0x3c3923a43d21e081U, 0xbd286de23d0c1000U,
  0xbc45c2dd3c4b4b00U, 0xbd0e0f48bcb10390U, 0x3d2fa7f03d2215b3U, 0xbb391a37bd038a57U,
  0xbbff3e063d130983U, 0xbd37f5c1bd2fbea3U, 0x3d23f4b6bd096d74U, 0xbcd0f01cbcbcb102U,
  0x3a973e243cc3626cU, 0xbc44b10cbb97ef03U, 0x3aa086b63cb26890U, 0x3cc1dd123d01211bU,
  0xbc119dd0bce48e3cU, 0xbd1e3069bc7f1c8bU, 0x3c17bd7d3a9d10adU, 0xbd3067c5bc3617f5U,
  0xbcb790183d1e5955U, 0x3c9ee0ebbcda2e0dU, 0xbd0e65c5bc935fe5U, 0x3cf82c3e3c1542b9U,
  0x3af367a83b8ffae6U, 0x3ccd9a0f3c911bfeU, 0x3c5849173ca28862U, 0xbd3455463cccb1cbU,
  0x3d0526493d3411eaU, 0xbc89f460bbc9c4d7U, 0xbd1870fcbc77e767U, 0xbc1310dabd0d1bebU,
  0x3bf441263c989010U, 0xbd24edc53c95e6f0U, 0x3cda7fc73d2aae77U, 0xbc03d40abcc89771U,
  0xbcedbed73c755b85U, 0xbce009e3bcd51035U, 0xbbef85dcbca2c586U, 0x3cc1f523bc7e9209U,
  0xbc6fa78bbc2f92a3U, 0x3d1e7155ba2fd148U, 0x3caefa90bc660edfU, 0x3ca584313cfb086cU,
  0xbd341d7b3c414c44U, 0xbd0d25403d1f75f2U, 0x3c5083ec3cb55151U, 0x3aa5c7013c8f6e9dU,
  0xbcf202c8bcbd9fddU, 0x3ccaab51bb64cc43U, 0x3d001e0c3c055c01U, 0xbd03cb0bbcb696b9U,
  0xbcedf7c1bc06b2ecU, 0x3c95a42f3cbc30d5U, 0x3d249602bca6df67U, 0xbc8f923abc887b70U,
  0x3d3836a3bcc9b75dU, 0x3ccd273bbab64796U, 0x3b84d5f33b2023f0U, 0x3bb29133bcaab6a5U,
  0xbc704e533d342890U, 0xbcae96123caebc77U, 0xbcf7f908bd137f03U, 0xbd289ab43d2b0616U,
  0x3c80e006bc69b252U, 0x3d2329e03cb8c1aeU, 0xbc985f083b36bf15U, 0xbd21218a3d124efeU,
  0x3cfc44dcbd130835U, 0xbc6e759ebc81e8f0U, 0xbc34bc45bcdcb377U, 0x3cb49e223d03d037U,
  0xbbc7d8063c070e64U, 0xbd29c1b93cdcbf9bU, 0xbca3a137ba2fdb24U, 0xbd235857bcdceff1U,
  0xbc765b8fbd0f4fb8U, 0x3d16bbdfbbc6b6d4U, 0xbc107f8a3d074e17U, 0x3cbd69efbcbe3339U,
  0x3d39199d3c92ce07U, 0xba6d3831bd359befU, 0x3ca8bd45bc809305U, 0xbca05df6bd2bafeaU,
  0xbcc9342fbcec47b5U, 0xbb1956ba3d069ac8U, 0xbbeb9a6e3c71e91eU, 0x3d121ee9bd1ce32fU,
  0x3bbd03173d0a76abU, 0xbd0e2ad03b85475fU, 0xbc9c460b3c045986U, 0x3cd795e2bd0f9716U,
  0xbcd55adfbd2e55b0U, 0x3cdc7b76bd24fa29U, 0xbc4d96693cca6f7dU, 0xbca6e30e3b190535U,
  0x3c9e56323ca9643cU, 0x3b273f043b91675cU, 0xbd23d1293c05c83fU, 0x3cdb1a88bcaa206cU,
  0x3d07b0febd33ebd4U, 0x3d1a7502bd0452fbU, 0xbd384f0c3d3a36efU, 0x3c9389b1bd0df576U,
  0x3d3672223b92015dU, 0xbb6427c33c86986dU, 0xbd261206bc984d84U, 0x3c17ca273c8762f0U,
  0xbcb5a4983ccb8f7aU, 0x3c8cb6d83d1a0c48U, 0x3c6288a8bd10aa76U, 0xbc077a74bcbcfbe0U,
  0x3b9fe2653d1f1ac5U, 0x3c93a21abc5f2f8aU, 0xbc1cf573bc3679e9U, 0xbcdb06fcbcd38e71U,
  0xbc6a9c96bd378c4cU, 0xbd32866abd24adf8U, 0x3ce8866e3ce40062U, 0x3ca638b73cca3323U,
  0x3d2878a63d398c7fU, 0xbaff0ba23d1bb5ebU, 0xbd15f1ce3cdfcdb5U, 0xbc032df7bbf5a464U,
  0xbd2f76783ca54fd1U, 0x3a5f0d89bcba6e5dU, 0x3c16359d3d1773a6U, 0x3b822ddcbcb3f110U,
  0x3d3968e83d2e5185U, 0xbd2916a9bcfa9ab5U, 0xbd0252683d2d7b89U, 0x3c90d58e3c13f3f9U,
  0x3ab06e4c3b9b0c8aU, 0xbd136afbbcd81f85U, 0x3d01eeb8bcce92d7U, 0x3c6f3c0ebbba609dU,
  0x3ca488d3bc9b669eU, 0x3c65d288bd23c626U, 0xbd18f14c3c49f584U, 0x3d11b5e73b83e16fU,
  0x3d197a493ba67b57U, 0xbcf625793d106041U, 0xbb9bfafbbc9b3d18U, 0xbb7ab9813c75ff04U,
  0xbcf6bd0bbce791cbU, 0xbc6b4d9d3cf1f571U, 0xbb0a897e3cf9503dU, 0x3bfd0c03bbd97cd2U,
  0xb93984a83cb03c3aU, 0xbd25a9d5bd013c68U, 0xbabe5bca3c96f263U, 0x3cf06c703d3a5a02U,
  0x3c8d7a3c3d346ea7U, 0x3ba35de7bccb8e87U, 0xbbb936bebcca9715U, 0x3cf13369bd0dd285U,
  0xbd367716bc8a9a53U, 0xba372109bcea0f20U, 0xbd2e817fbc643ad2U, 0xbc80dcb1bd32c3c2U,
  0x3c979c2b3c6a6cefU, 0xbc968cc2bc553a7cU, 0xba163d71bb8e78a9U, 0xbcce682a3c803dabU,
  0xba1b13a93cf1639fU, 0x3d14ae133bf81ecaU, 0xbc4abd8d3cea2c41U, 0xbd107c72bcd10e79U,
  0xbc44b253bd36bb51U, 0x3d1b89113ca03098U, 0x3ba67b11bd01e295U, 0x3c8c1c7d3c87005eU,
  0x3c365c5b3d1c7ae3U, 0x3cac454fbcf2f2e0U, 0xbd0d0346bd13487fU, 0xbcca04a03d31c603U,
  0xbbd6784d3ca9fa32U, 0xbc749ebd3d1de63aU, 0xbcf8725d3bbe1438U, 0xbb3e801fbcc6953fU,
  0x3d06d97cbcad5ffaU, 0xbcb0e819bc710e7cU, 0xbd004dfc3b011a66U, 0x3c02c48d3c9a5831U,
  0xbc0459fb3d0ecc4cU, 0xbd07b45fbbec58e7U, 0xbd3a02333d065436U, 0xbcc369023cbf16b3U,
  0x3c51b737bc4d2571U, 0xbd07dffdbb4c0141U, 0xbbe2e2b13c629013U, 0xbcf70c04bcdea991U,
  0x3d18d5373c4a4bd4U, 0x3cec18a3bcfe3b28U, 0xbb986575bd2c79feU, 0x3c900cf0bcdf7e4cU,
  0x3a33c8083d04ba1fU, 0xbce72728bc01014cU, 0xbc7753153ccd6843U, 0x3cd313f8b9a35de7U,
  0x3d067e8dbd09f8bfU, 0xbcb59f5bbc9e7ff0U, 0xbb2981c63d111836U, 0xbc4a28fbbd350fe3U,
  0xbcc816d23bcb7f37U, 0x3bfea9973cb520b5U, 0xbc919f123c2c9ff8U, 0xbc6ca31ebbaaf8c8U,
  0xbc610becbb392589U, 0x39df9ff63cb4b647U, 0x3c94b0033cf46f51U, 0x3d02d92f3d2a4da4U,
  0xbc8849e13ccb4edbU, 0xbd11b187bbd76684U, 0xbc6950d33c0baa18U, 0x3ca6f963bd0eaa52U,
  0x3ba4c7a1bd0f865aU, 0x3d0d21d1bca60c68U, 0x3c0468b3bd0fa248U, 0x3d289ccb3c07bf49U,
  0x3c3716b83c19aef5U, 0xbca8df0b3c091d13U, 0x3cb090dc3cf886fcU, 0x3c5660f4bd0a89e4U,
  0xbd002a223d2136c9U, 0xbc6f2322bd366271U, 0x3cc7ac203cd859d1U, 0xbd1aaf3abb5d1d1eU,
  0xbbda11d8bcd26c78U, 0x3d0fd511bd299309U, 0xbc8b06f4bd34df4eU, 0x3c3f641cbca63baeU,
  0x3d1f08103c8b83f3U, 0xbc1f8689bce121c3U, 0x3ca31817bc3a7039U, 0xbc3a1077bbc5b70aU,
  0xbca1bceabcbefa23U, 0x3b67f586bd2bcb09U, 0x3d1c30e23bb28ac3U, 0xbc4f6014bca4b019U,
  0x3c81670cbc5c39edU, 0x3d210838bc148abcU, 0xbb0ebbd9bbafa583U, 0xbce1e6a3bd0ecc5bU,
  0x3a14599fbd07ff57U, 0x3c0fb527bd09cc67U, 0x3cc3444f3d1d8df8U, 0x3ca9dd91bd185aa0U,
  0xbba1d189bc8a3f1bU, 0xba241df9bce5fbb9U, 0x3b43a1033d17d375U, 0x3d204a173d2ce626U,
  0xbcef13633bacef80U, 0xbcb2f7ddba83a879U, 0xbc1122bcbc177d73U, 0xbd1025a23c7682ffU,
  0xbc0e6b613c51f18dU, 0x3d0839e93d3035d4U, 0x3a9c0b3bbcf78ad3U, 0x3b61e0cebcaaebb2U,
  0x3cd3aed3bd1a5b0eU, 0x3aa8eee5bc48e861U, 0x3d2b853dbd1ce3f2U, 0x3c0e27ebbd1cb184U,
  0xbd1b3ce63c48f390U, 0x3d1fe1fdbc554542U, 0xbd1d07b13d046844U, 0xbbc9fefdbd1992d0U,
  0x3cc687393b896531U, 0x3c8539d73cf7efa1U, 0x3c283d463d19a014U, 0xbcab7e3f3c8e676eU,
  0xbd1746a3bd264ce6U, 0xbcb3688bbd163b97U, 0x3c3c9c24bc81efb4U, 0x3c66733839964af4U,
  0xbd356d9ebbde9723U, 0xbc8b91e2bd21625aU, 0x3a741d513cf75791U, 0xbc926581bd10d30eU,
  0x3d0fae0a3d2efe9bU, 0xbc8384cabc0ef995U, 0xbc44dc283c433fedU, 0x3ae8a0c7bc95d3c7U,
  0x3bb0b500bc29e053U, 0x3c120403bcb02fa7U, 0x3c86e95dbd31cfc1U, 0xbd0c06193b10ab72U,
  0x3ce193303d01942cU, 0xbd2505fd3a81b265U, 0x3d04fe4dbb4a3ad4U, 0xbb5213243c9edd7cU,
  0x3d3a4c1fbd232bf1U, 0x3d075d64bd3348e2U, 0x3b9f3163bcaefc7bU, 0x3cb0169e3c9de881U,
  0xbaa852cb3c076304U, 0x3c2188d33d161808U, 0x3d30635bbac281a4U, 0xbd2fd6a83d296a8bU,
  0xbc1172a33cdf2811U, 0x3d3029233c3477ceU, 0xbbfb8a53bd08e305U, 0x3c707239bc631ab8U,
  0xbca18e93ba9c5fc3U, 0x3c89f506bce4a9bcU, 0xbd024d4fbd09bb7fU, 0xbc8f445ebccda4f2U,
  0xbb0050a83d2fed40U, 0xbca322fa3d208017U, 0xbc5b42d0bc37c0b2U, 0x3c9995b7bcaf8b87U,
  0xbc224ea5bc2292d0U, 0x3b47b1f5bc3cd797U, 0xbc92aebd3cd7becdU, 0x3ce488adbd2b370dU,
  0x3d2b79593cc299fbU, 0x3d1b4f61bc0c07eaU, 0x3bf1f880bcc51cb0U, 0x3c9852fbbcea36c1U,
  0x3d28f5603c98125fU, 0x3d2e850b3ccf6591U, 0x3d2172f73c8012a9U, 0x3cc447f43d186106U,
  0x3d0ebafd3cfb31edU, 0x3c1f72dd3b6004a7U, 0xbcfac97bbcd11b32U, 0x3bc40debbd39a963U,
  0xbaf3d0743d01298cU, 0x3cee95253b879edbU, 0xbd0be4c5bd100238U, 0x3c87d9a23d190f43U,
  0xbd2ff69d3cbfa853U, 0xbb313149bcd313e9U, 0xbc50986abd2becb8U, 0xbd01975bbc85d63aU,
  0xbd14974fbd23775fU, 0xbd30f5a63aa67edbU, 0x39a2fd81bb7af177U, 0xbd0cced63d06b422U,
  0x3d1bfb2f3d3603cfU, 0x3c8871f23b3e420cU, 0x3d1532a4bd003103U, 0xbd15af03bd128a3eU,
  0xbbbc66e5bd39e8acU, 0x3c91727dbd283875U, 0x3cdcb3573c9fdb6cU, 0x3c0c0545bb420b84U,
  0x3d1de660bb793c62U, 0x3ae8437b3d00cbe0U, 0x3b7ba463bd083e31U, 0xbcc5aa943c46109eU,
  0xbcd2c4693c73a136U, 0x3b653d75bcf8c592U, 0xbd003497bc18bbbfU, 0xbcfcb7a13d284154U,
  0xbcfd9b15bce57db4U, 0x3d165077bc2275b1U, 0xbd377e013c1222fbU, 0x3c74ff6f3cdc0396U,
  0xbd16f3fd3d0f7934U, 0x3b8b743cbd10ff6eU, 0x3bce5bee3cdc0ac1U, 0x3cd94a88bc5e3bb1U,
  0x3d016e113cfb61a2U, 0x3cf504ef3c2b92fdU, 0x3cef0571bd22e57cU, 0x3beed509bd24de47U,
  0x3d262e2ebbcbec4eU, 0x3cc2f1b23b115b44U, 0x3d228ced3cefac50U, 0xbbdf743c3c92944dU,
  0x3d10c427bc9f8e95U, 0xbc009aebbcd35586U, 0xbd0223033bbac49eU, 0xbca7717fbc271422U,
  0x3a4b47d9bc3b5ceeU, 0x3c7e7c613c975b2fU, 0xbc81ba043ca326c7U, 0x3d070912bcfbdb49U,
  0x3ae424c03ca55b49U, 0xbc95f2e8bd121cb7U, 0xbd3815db3c5604b6U, 0xba96da173d000574U,
  0xbcd8f175bb82ed84U, 0x3c8e0cec3ca5d5ffU, 0xbc347a453c8a427bU, 0xbba49a1fbd33730fU,
  0xbc8421ce3d21ab4dU, 0xbaf4379cbcddaa88U, 0xbd0340033c74168aU, 0x3cb660da3b4ce22fU,
  0x3d355748bca9e4deU, 0x3cda41fa3c9ca89cU, 0x3d15ad2abcbf9513U, 0x396fe41dbbff4805U,
  0xbaafc1373c4bbb37U, 0xbd16282b3c89d0c6U, 0x3cae433d3d374290U, 0xbd369d8fbcf2a0c4U,
  0xbba993e5bad1b44cU, 0x3cccb2a0bc35f7a5U, 0x3c9e45bb3cc45943U, 0xbd23e7de3cc28d0aU,
  0xbd12e3e0bd21a0a1U, 0x3a59bacdbca63cc6U, 0x3cbfd1933ce191e0U, 0xbcbb448cbd0366a7U,
  0xbca4726cbd05590eU, 0x3ca5cc49bd2e72deU, 0x3d032c54bc34eca7U, 0xbcf3eb1fbd03ea20U,
  0x3c05c84b3c2148e1U, 0xbd0cb2d3bcff75beU, 0x3ceafa6bbcc65c4bU, 0xbd03dce2bb56a6ffU,
  0xbd1795c63d021f81U, 0x3cdf8d573d06a70dU, 0xbcd2c7293cc21e95U, 0x3d1deb953d1b0241U,
  0x3c9254723c6cff80U, 0xbd0c4157bd1387adU, 0xbd051772bc7c98bdU, 0x3d2e8e7bbcaa0563U,
  0x3d2758653cbb4446U, 0xbd377cf13d002915U, 0x3ce0f3463cc9bed9U, 0x3d33b98abcdbab7cU,
  0x3cf92959bc9f2b86U, 0x3cca2c563c799569U, 0x3d0b97fb3c587d1aU, 0xbca73d77bc150538U,
  0xbb6834c93cb4ce7bU, 0x3be602d23c6cd3d8U, 0x3c470e25bd0951b0U, 0xbca0ff4a3c863adeU,
  0xbd2182c4bc4fdf60U, 0x3d377e6a3d2cefe6U, 0x3c875685bc38de61U, 0xbc7e20623becd3c6U,
  0x3c9cf8fabce88e3cU, 0x3c73b1b1bcbb11c4U, 0x3d37584c3cb4d208U, 0x3caca19c3cefd2caU,
  0x3c939f4bbd2ed01eU, 0xbd1715793b70efc4U, 0x3ba47c0b3bd3d71bU, 0xbd01a9123d1c667dU,
  0x3c09b1fc3cc089dfU, 0xbd0f2b0e3cf89918U, 0xbcfde8dc3cdc319fU, 0x3c95e389bcf69b8dU,
  0xbd06a177bcf5e53dU, 0x3b8b0215bbce8f99U, 0x3d3749983ce8dbd1U, 0x3ca30ed93cf184f4U,
  0x3d332de63c2a9a53U, 0x3d0f760abcd9daedU, 0xbd3918dd3d0576cfU, 0x3c2849fc3c30b404U,
  0xbb15f037bd069c60U, 0xbd265816bc828e08U, 0x3c57005dbce412f0U, 0x3c6d31c7bcc350daU,
  0xbd05449c3c88284fU, 0x3c3d7876bcecbe21U, 0xbca78156bc839876U, 0x3d180314bc5c8dccU,
  0xba218e883ce2cd5dU, 0x3cf4078c3bf82320U, 0xbcf8cbdc3ac600fcU, 0xbc1c28fe3d0ebd8aU,
  0x3cab85d53d21e4c6U, 0x3ce470c53d0896dcU, 0xbcda8a5bbcb04af2U, 0xbce782b8bc816865U,
  0xba58f8e9bcf94f3cU, 0x3cfddc3d3d2ddf6aU, 0x3d3381713cb60ff3U, 0x3c184ddc3d314844U,
  0xbc3870383cb9fc38U, 0x398cdc983d1c1337U, 0xbca979953ce0b545U, 0x3c8d352d3d37b377U,
  0xbd31d055bccaed5fU, 0x3d04341a3ccde262U, 0x3d326fd7bce01578U, 0x3c77d81d3ce05e3dU,
  0x3cc5a05ebcea0eb9U, 0xbd14afda3d108829U, 0x3ca4e42ebb5d59eaU, 0x3cbcdac6bd263b33U,
  0x3d3920dd3b3bb9d1U, 0xbc38a96ebd3316d3U, 0xbd1ec95b3d11a53eU, 0x3a3edd993c7465bbU,
  0xbcebb4323c0d3417U, 0x3cc0ae033d384e0bU, 0x3d0d6cef3c61a9bcU, 0xbca32057bc9c6985U,
  0x3b81dab2bd103ec5U, 0xbd306d253ce22080U, 0x3c5946523c616c64U, 0x3d12918bbd20cad8U,
  0xbcf0d736bcce0fd5U, 0x3caf7677bcb29e0cU, 0xbc914783bd2ee8b0U, 0xbc0de4c73b64a58fU,
  0x3bb12ab7bb7a45aaU, 0x3b4802bf3caaf6e9U, 0x3d251c163d1d6d57U, 0x3bbe1e2b3d2afc66U,
  0x3cb2e38a3c8cc1caU, 0x3d2b5c13ba7a8995U, 0xbb268bba3a9c191bU, 0xbd1d1b463cc0d102U,
  0xbd29fd083cbf1ad7U, 0xb9dbf412bbd135baU, 0x3b81922b3cb4a4e3U, 0xbcbaa1f43ba9512aU,
  0xbbc26592bd27a2c1U, 0x3beb148fbccb1cafU, 0x3cce19cebc22b5bbU, 0x3d2d1dce3bd03a6aU,
  0xbcad1906bc790074U, 0x3c28b9493cf64fc5U, 0xbc70d7a53c8db869U, 0x3c865818bc3d8bb3U,
  0x3bcca2f83cfb492eU, 0xbcfc2a863ce73a9aU, 0xbd03f0e73cb979f1U, 0x3c6c2103bc8b10bcU,
  0x3b91fea03bfe8b77U, 0x3ca9cb5dbb64efc6U, 0xbbd4802bbcf0d193U, 0xbc82c7a83b150c45U,
  0x3d2a6d653cfdbf2dU, 0xbd2859c03d33ea19U, 0x3c693172bd0a97a3U, 0x3ce5fa583d2372e9U,
  0xbd1a19733bb0a670U, 0xbd354e64bd12911cU, 0x3ce472edbc42d1d0U, 0xbd359c3c3d0c40e1U,
  0x3b25b6353d136fedU, 0x3d1f9585bc43b01fU, 0xbcb1f8d7bc3f7ca5U, 0xbd321726bc528451U,
  0x3cfa46c83b9d6dbfU, 0xbcaf76ce3d0a7300U, 0xbd040f67bae5cee1U, 0x3d231ba43c6a4e0eU,
  0x3c8df076bd1382c8U, 0x3d098b29bd2410e8U, 0xbcd9648cbcd47c93U, 0xbce737a53aa59a75U,
  0x3c5150a2bb8d9853U, 0x3ca88fda3c1f0a34U, 0x3ced55443ce7562bU, 0xbb88253bbd32b562U,
  0x3b91f129bcc2b9dcU, 0x3d1779a5bcaed462U, 0x3c1b207dbba3aa38U, 0xbb5332e1bca37843U,
  0x3d03c7bb3cf319a4U, 0x3cecd0573d211586U, 0x3b9d2ab23cb4bc56U, 0x3b48568c3b2a87f4U,
  0xbd2abbc0bd1788c8U, 0xbd1ef47b3c441d0cU, 0x3cc080aabd3a0842U, 0x3d04234f3c173d46U,
  0xbd26a4133d2cfc62U, 0xbcd9b429bc4b1ce6U, 0xbd19d4a73d14d27bU, 0x3cc2f90ebc23268fU,
  0xbbb2d33e3c25be78U, 0x3bb1bf253bd0dd73U, 0xbcf69411bc87f7f0U, 0x3a1933dbbc90b6c7U,
  0xbc810c0cbd26902cU, 0x3d288458bd1d9a2cU, 0xbccca00fbb9492a1U, 0x3d20ee55bbdfd849U,
  0x3c4a25ecbd362428U, 0xbd2941edbabeaedcU, 0xbd2a49c03cc3c66bU, 0xbcae0fdb3a1ef194U,
  0xbd371b87bd2cd432U, 0xbc868a933d0d17f9U, 0xbbe4d1313c1e294bU, 0x3c1b2c2c3bcc1383U,
  0x3c8d2357bd0eefbfU, 0x3cb9298bbb26dd10U, 0xbd062f233d1ce301U, 0xbc948813bc59ae63U,
  0x3bd163243d2b1259U, 0xbcc5aa6f3d17b409U, 0xbc5fcaa9bb4369c8U, 0xbb52cc5d3bf555a8U,
  0x3c9360d4bcef5aa5U, 0xbbd380793c13b357U, 0x3d14ecaebcb721ecU, 0xbc3e75763d11ac04U,
  0x3c2ce114bd15dd57U, 0x3c3b88a2bd30201dU, 0x3c0fd56dbcc3388bU, 0xbc9410efbc1a59a4U,
  0xbd053683bd135372U, 0x3d06af7ebc97ce1dU, 0x3c066a193cfc7832U, 0x3be629d93be50dabU,
  0x3c4db47dbc530fc8U, 0x3d0d44473c9cc58fU, 0x3c1fdfc53b53d732U, 0x3d0119863ccb1f05U,
  0x3d1e37863ce9e14fU, 0x3ca4aa0db9c3bf80U, 0xbd1b7bdf3afa102bU, 0x3ceaf57d3d268f57U,
  0xbd3735cc3b1089c3U, 0x3d158af73bca8b34U, 0x3c78f2763c47a6fbU, 0x3a60a7f7bc9137fcU,
  0xbcae17b73c815df1U, 0xbcfdde483c94d652U, 0xbbcb507abcf9e437U, 0xbc1d3eb5bcadcc16U,
  0xbc633da83d239727U, 0x3d0786f73cda56dfU, 0x3cd0920cbc614f57U, 0x3b42e267bd2ac118U,
  0xbd1aae033d2ca3beU, 0x3d0fcac9bcbe5d37U, 0x3d0a84113d2c6591U, 0x3b866b38bcd6844bU,
  0xbbfe4acabcd16c85U, 0x3c220f503ce5170aU, 0x3b37d9b5bd1512f6U, 0xbcabf6be3c1cbfafU,
  0xbc7bfb3fbbb2b1e1U, 0xbd10238fba76c597U, 0x3c95c5953bfa79d5U, 0xbcf22a7d3d2fd75dU,
  0x3be28a0dbcd1a429U, 0xbc52797a3ce432c0U, 0xbbb6faecbd267fcfU, 0xbd3018ad3d1e5462U,
  0x3c41a80f3b765695U, 0xbcc23c80bbdd6631U, 0x3d07b3793cd8db55U, 0xbd381fe4bd17c672U,
  0xbb4dfc5a3d028725U, 0x3c59847d3c3c5eeeU, 0xbc1b1cc43d34d7c3U, 0x3cbaf266bbc5423dU,
  0x3c9ea34dbc603c33U, 0xbcf03f8f3c461753U, 0xbc1779b5baf4cbadU, 0xbd24d972bcce75beU,
  0x3d12076c3b3c6fc0U, 0x3cade4eabc91d2b1U, 0x3c8e90603c8f512cU, 0x3c31d9c23c09b62fU,
  0xbc0c4aa6bd139d8dU, 0x3cdb7f99bd22942eU, 0x3cb6e08abd08a2b0U, 0xbc882afbb884a0f5U,
  0x3cbdcc17bcd0cebeU, 0x3aaba308bd390dd6U, 0xbcf3cedebcf307ebU, 0x3c90951b3c96713dU,
  0xbc5563ae3bf7ab16U, 0xbd23d7a5bb874362U, 0x3cd70748bd094cdaU, 0xbc6eaa9cbbdd40c4U,
  0x3d2fd9c03bff87e0U, 0x3b13ea58bc0c23abU, 0x3cc97545bbf1edc6U, 0x3cd885143ca71800U,
  0xbcabf60c3cdd70a2U, 0xbcbd275aba9440f9U, 0xbc773ca03c913f61U, 0x3ce8845abd154a32U,
  0xbcc62f99bbbd8ff2U, 0x3cafd1c0ba321fbaU, 0xbd3624dfbce2d9dfU, 0xbca12be8bcfab31bU,
  0x3c3ec8313cf94773U, 0xbc88eab5bd04d87bU, 0xbc16f7c83d33dc4dU, 0x3d2657ebbbc08650U,
  0x3d3af1923d2c5307U, 0xbc9eab613d2b155aU, 0x39ff32e3bd074a6bU, 0x3cff21d6bcd99026U,
  0x3c2599a8bce61f79U, 0x3c9485e23d09521bU, 0xbc1957523d2d9ff4U, 0xbd1a7863bd1a5f9cU,
  0x3d0eb3a83d29bfabU, 0xbc607962bc412388U, 0xbd131217bd086612U, 0x3c10a5a6bceb9304U,
  0xbc9c40d73cedc69fU, 0x3cd6f3fc3cec8100U, 0xbd1b5df23cfd22f9U, 0xbc619d9e3c3db65aU,
  0xbc735f13bd0e0a59U, 0x3d1d50df3c8f4b95U, 0x3ce7afcdbd3aa9c9U, 0x3d385199bcc005e2U,
  0xbcaa80ec3d368fb6U, 0x3b0e91c43cb9e020U, 0xbd1148a33d344799U, 0x3cbb7d8e3ce950c4U,
  0x3bda4b2c3cc8527cU, 0x3cf0720dbafbc7fdU, 0xbcf009d03d175651U, 0x3a4860c63d042261U,
  0x3d068cd5bc2de259U, 0x3d2061f2bd1ca16aU, 0xbc9304e1bce7952bU, 0x3cd7f584bcad223cU,
  0x3d13b7c53cfbc791U, 0x3d23fda33cfdac10U, 0xbbbcffcdbc1e6490U, 0x3caab0b9bd16e669U,
  0xbd2650dd3d11fcc2U, 0xbc52cf3d3d14f6c7U, 0x3cf1e1f93cec5679U, 0x3c216b283bd78553U,
  0x3bcc563e3cd09f37U, 0xbcc1d5303d33ae4aU, 0x3d2a28513c942599U, 0x3bb9555f3d14cc2eU,
  0x3c2778643cc381c2U, 0xbd269e19bc2bd8eaU, 0x3b435d5e3d10dd0aU, 0x3b23c3993b84a18dU,
  0xbb97d6803bfb9f18U, 0xbc25d63abc18b18bU, 0x3d08da2fbc60e81dU, 0x3d36b27ebc5ce4c5U,
  0xbc3f9949bd2eac2cU, 0x3a8daebc3c40202fU, 0xbcb5af953c1d388cU, 0x3cdc5be0bd2334a7U,
  0xbd380ad03cb00b06U, 0x3ce629d0ba8e67afU, 0xbcc24336bba9588fU, 0xbcfe24723c6061b2U,
  0x3bb323fdbcc5cc61U, 0x3c91a8d9bc9c08b9U, 0xbc3de1c3bd23b8baU, 0x3c112080bc105d2bU,
  0x3d181c17bcee7e10U, 0x3d1a5ce93cef4d9aU, 0x3c17e3253bf7ada4U, 0x3d178df5bd2f9b39U,
  0xbca94f863c6e4834U, 0xbca5e0883d03cf56U, 0x3c15192abd29b924U, 0xbcfe05ccb9f650beU,
  0xbcec00debc9da863U, 0xbcffa533bd0afd6cU, 0xbd08fe843d23ecacU, 0x3cc1a39b3cde2420U,
  0xbbae55f13cf317dcU, 0xbd33cf6a3c142989U, 0xbcabc4bb3b3802e1U, 0x3d30691bbaca0711U,
  0x3bd54fb6bc5c3ac5U, 0x3c4833273b3b7c90U, 0xbd34b50c3b2aeea6U, 0x3cc8441c3d1bb38eU,
  0x3d24fcfe3bbb5185U, 0xbbaccff63ca1044fU, 0x3cdffb573d37b1cfU, 0xbc4ca18ebc7f0dfbU,
  0xbac88ac43c8cde36U, 0x3b48d13d3c8f8a66U, 0x3d005cbfbd019012U, 0x3c1322b83c9b04d6U,
  0xbd252f8f3c83dfd9U, 0x3cfcbad3bcb1f40cU, 0x3d35d7eabcf72df7U, 0x3d02c5413c0bbbc2U,
  0xbc227b143c8fbcedU, 0xbd3a2b7f3cae19f4U, 0xbc55c7a33cf71bd8U, 0xbcc414c9bcb50832U,
  0x3d30ba71bca72b5bU, 0x3c94d435bb012717U, 0xbc59cf86bd13439bU, 0xbb867af7bd004775U,
  0x3d009200ba36a59dU, 0xbd1d5b2f3ce4bc6aU, 0xbcde73c9bcbbeca7U, 0x3b8a60a4bd2ce426U,
  0xbd15424bbc909b01U, 0x3d24fd4ebb8ce751U, 0x3be44081bb871f3cU, 0x3c024f223d01a158U,
  0x3c8345243d014f76U, 0x3cf8507f3b83c3a1U, 0xbc906802bd39b677U, 0xbc93556b3c8d5b8aU,
  0x3d36f2c83cb8918fU, 0x3c04cbe83cc10aabU, 0xbcc823933c7ed208U, 0xbd2dd7b33bde9c40U,
  0xba64e4d2bd16dd46U, 0xbc9182763cef9e36U, 0xbcd62e07bd1313d4U, 0xbc2feb6a3cdafd63U,
  0x3cc167843d1afb13U, 0x3cc11f2cbcd8d33bU, 0xbce278de3ce3d4d1U, 0x3d05126ebc322e55U,
  0x3c148bbdbccb8bd6U, 0x3a9008223cb38b90U, 0xbd0537863d0f2654U, 0x3cb2847fbbcfae9bU,
  0xbbfe7ff63cda5286U, 0xbcd8a8b7bc91b3c8U, 0xbd1ade7b3acc3d98U, 0xbca669793ccc74beU,
  0xbcec309c3d3a45f4U, 0xbce1480f3c51f984U, 0x3d13744f3cfeaee8U, 0xbc0a7bfbbd2ad42aU,
  0xb9a9205f3c2da91cU, 0xbcb0ae963c379cafU, 0x3d1dbc05bd08b890U, 0x3cc29ab8bd024e35U,
  0x3d1218aa3ceae26eU, 0xbccad18ebd106721U, 0x3ce0ef713d0d80b1U, 0x3d0fd59e3d293d0cU,
  0x3d25360fbcd695a9U, 0x3d3762223cfa867dU, 0x3d2a19733b1f8edeU, 0x3ca44f813ca0170eU,
  0x3c43ea0a3cf69780U, 0x3d21824fbd1b1591U, 0xbd36ccb9bc84ea7dU, 0x3cbf2de83cd15c8fU,
  0xbd2d54a3bd30eb61U, 0x3cfb0f773cfcfbc6U, 0xbd364e9a3b9d59a9U, 0xbcc7a9323cb78f69U,
  0x3cce4d8bba9f14ffU, 0x3c27fe66bd1e195cU, 0x3c6d080fbd003b57U, 0x3c9d92253d06dadfU,
  0xbba33bb73ac3f3b8U, 0x3c5d8a983c088515U, 0xbbaff635ba98d7d7U, 0x3d07a3553cb4fb50U,
  0x3cf0941d3cdd490aU, 0x3c4357cdbbdc97cbU, 0xbcce2361bc774e4aU, 0xb896396d3bc3f091U,
  0x3c85a9e83cbbfbfaU, 0xbbc33a68bcb983e7U, 0xbcfad3803d1836a4U, 0x3cf0b17fbd16ff17U,
  0x3c3582e3bd13be26U, 0x3d264a36bc96b52aU, 0xbd1358aabd18a410U, 0xbbde828dbc02c50eU,
  0xbc4910af3cbe635aU, 0xbcc9a6943af5d007U, 0x3cccd9af3a22659aU, 0x3c9655eb3b73f1f5U,
  0x3c34245ebc83d6ffU, 0x3cba5f7fbcd41dc6U, 0xbcd4dc0abbbe484cU, 0x3d12c5d3bd012dcbU,
  0x3cd6270e3d125413U, 0xbceb13cebd168cb5U, 0x3d1933fdbd18acf3U, 0x3bd2a6123d085b27U,
  0xbb0a4d0f3bfb0b41U, 0x3ccda61f3bb7c80bU, 0xbce933393c8d621cU, 0x3d146d27bcb777a7U,
  0x39fa15773d342865U, 0xbccd70c4bbcc8c3dU, 0x3c3f53623c2ece4dU, 0x3ca4f476bd0f2e2aU,
  0xba446833bcc1a708U, 0x3d1af595bd1f2fa9U, 0x3c0dea30bc86fc49U, 0xbcadab443d17d774U,
  0xbcc9df563cb8f770U, 0x3b34b907bd3555a7U, 0x3c911b98bd14746bU, 0xbd1a89c13c2017d7U,
  0x3cf5d1513d29fa6eU, 0xbd242192bc84045aU, 0xbd39a57e3d2ac5bbU, 0x3c9fa1663ce6eb08U,
  0xbc651fb93c81e301U, 0x3bf4e4f63d074ef9U, 0xbd098f52bcf1ef3fU, 0xbbfa33503cfc3950U,
  0xbd0b54193d332486U, 0x3bf51c023c10deb4U, 0x3d36a4d13b05b173U, 0x3c43ce333d1a55daU,
  0x3cbfc1c2bc209f1bU, 0xbcc4a14d3bf5f4e8U, 0x3c9210e5bd385574U, 0x3b28913cbc0d8ad0U,
  0xbce88252bd26c261U, 0xbcb0d0913d0f6ba7U, 0x3d2aed74bc2d9821U, 0x3cc7d4c9bc673f45U,
  0xbcc9f596bcff163eU, 0xbd399e3c3c98aef1U, 0x3d321c1f3d082b66U, 0x3c44d9193d09df1eU,
  0xbc07efdfbce79a9aU, 0x3c8d7bdbbc15d1f4U, 0xbc8b1512bb5f3888U, 0xbd2bdad4bcefc868U,
  0x3cbb3aaa3cf5e497U, 0xbc9844af3d1a9f7fU, 0x3d2c6f74bd139d0dU, 0x3cee425f3b660d98U,
  0xbc2d2a0abd2d9bf1U, 0xbd304c4b3d138efeU, 0xbbdde0bfbce2e47bU, 0xbd0465b6bd2741faU,
  0x3c8d947abd223ca5U, 0x3c589ba33d3ac0baU, 0xbbac49d1bc2b58a8U, 0xbcf93182bc8774f7U,
  0x3d090b0b3ca136adU, 0x3d2c629e3cd9ef36U, 0xbc69ffc7bc0021fcU, 0x3d25bafa3d2ddc6dU,
  0xbcc43a1a3cff8b60U, 0xbc922cc83d1ada25U, 0xbd254bb7bc284cb9U, 0xbd3a16223cea68bfU,
  0x3c2380233b3af272U, 0xbac5c6edbd0c3db8U, 0xbc7d5fe23d0e7402U, 0x3c93998b3c686b37U,
  0x3b8d1a65bd3205a3U, 0x3c3132d6bd063c21U, 0xbd22139cbcffc99fU, 0xbd19db3cb9dc0ce6U,
  0x3d2fb62dba6d6badU, 0x3c58cb733cf71231U, 0xbd3ae6613d100013U, 0x3d3a192bbcf017bcU,
  0xbc8991913c81aaabU, 0x3ca459b23d330317U, 0xbca5bdd43d18a96aU, 0x3b81c12f3cb8c0bbU,
  0x3c301718bbd6ff68U, 0x3c9131afbc0c82c4U, 0x3ca077a3bc17c057U, 0xbcbff86e3a8a0049U,
  0xbad3b43c3d2c0767U, 0xbd273749bd171d07U, 0xbd13c75a3bec2761U, 0x3d368d45bbf2c923U,
  0x3c011b0a3cc7d18eU, 0x3ce648a8bd3491a2U, 0x3ca81f323d26d489U, 0xbb8e0a29bc213451U,
  0x3c9a1e88bb2d06f6U, 0xbd0d27e7bc30298fU, 0x3cb79b563c66ae31U, 0x3cb003e43cf80d43U,
  0xbbeee97cbcbeb756U, 0x3bce6ab8bcd3a150U, 0x3d2e5b533c59e107U, 0x3ce863dbbaba2c71U,
  0xbc710fe6bd21c67aU, 0xbcd1787ebca22ef2U, 0x3a7569f8bd35a84bU, 0xbcfe00a73c90c713U,
  0x3c14f942bb123c79U, 0xbc49a2d53d1fc8b8U, 0xbd23a92b3ab2319fU, 0x3b4ef490bd19245cU,
  0xbd27deb93c56588eU, 0xbcbd7cb5bc308be6U, 0xbd0d716abbad8b31U, 0x3c47cbf43cabd6abU,
  0x3c883d9dbac7834fU, 0x3c45ae7cbd16f47dU, 0x3d16d03d3d302e4cU, 0x3c238ea6bc91da0dU,
  0xbc951f883cacc600U, 0xbc553c4a3c1d4514U, 0xbc1206e3bca92aadU, 0xbd2e6c70bd310a40U,
  0x3a8201a1bc1c91b2U, 0xbc4c0d19bca0c994U, 0xbc6172a5bc825d25U, 0xbc8504673cc96c33U,
  0x3c35e1413ca3addfU, 0xbd0f319cbc0054cfU, 0xbbd9b5bcbc3f5fc6U, 0x3d0aa3be3d38f442U,
  0xbc0341173cd81cf7U, 0xbcfe15a6bc8ca6b6U, 0x3d1a8f123d14bff6U, 0xbc99eee73d00bdccU,
  0xbb458478bd04da1bU, 0xbca348dfbc50d59aU, 0x3d38072b3d2ba012U, 0xbd2fa2c6bc9edd07U,
  0x3bde28e8bd244ec2U, 0xbd322565bd102531U, 0xbd24e6b6bcb203b1U, 0x3ae2b451bce8b060U,
  0x3cbe3703bca22299U, 0x3ad7b8acba323a05U, 0x3cbf76dc3c790e6bU, 0x3cf1872d3bbd9072U,
  0xbccc7c9b3b911866U, 0x3d38c7c0bceedcb7U, 0x3c9be8163d086aeaU, 0x3c73fbb3bbd50408U,
  0x3cea8bc4ba6fb0a0U, 0x3b55257dbc80d220U, 0x3d1591c33d27fa75U, 0x3d190a783c06a8d0U,
  0x3d22b13abcc4116eU, 0x3d14007cba35358bU, 0xbd1be62a3bd16d2fU, 0xbcd7a194bd019a32U,
  0xbcb331fa3c6c5630U, 0xbb9bbeb03bc27719U, 0xbc498d563d260f2fU, 0xbd37ea9b3994bb7bU,
  0xbce088a1bcedbc7aU, 0x3cbd74e4bd08c77eU, 0xbc07286f3d0f9e2fU, 0x3d235303bcea2300U,
  0xbb93cb883c7ddccfU, 0x3cf6402c3d38f2beU, 0x3d0a88083b53c67eU, 0xbcdb4376bd04b29dU,
  0xbd12c7a53c1e87c7U, 0xbb6718e23b66e262U, 0x3a227149bc59eed0U, 0x3d1bcbdebb0f5de2U,
  0xbcaf200a3cb0fb90U, 0x3c9c41033d02db0fU, 0xbd2102033cb02798U, 0xbc65f4ac3d322fa5U,
  0xbd2bcb7fbd206ff2U, 0x3c234b423c51543dU, 0x3cbe79d2bd107829U, 0xbcb2693d3ca30dbbU,
  0x3cf44a67bd2321c4U, 0x3d376790bcf5636eU, 0x3d353021bd13429aU, 0xbd052cfd3ca4123eU,
  0xbbd847a13be7a912U, 0x3cafbb1d3ca7f854U, 0xbd39d5b23b492265U, 0x3bcd012d3d05eb77U,
  0xbd36a3463c9226d9U, 0x3d035ce73bb3b3acU, 0x3badd58bbca0f129U, 0xbcea146bbd3011c7U,
  0xbd02aacd3cd63a34U, 0x3ccb68ce3c8c9cd4U, 0xbcafd0c83c8c52f4U, 0xbb325ee63c3db5c8U,
  0x3c7ff0bd3d1dc8b6U, 0xbc888cc53cd11142U, 0xbd11e8e1bd13cc89U, 0x393cef8dbc3ee6baU,
  0xb9df1b0cbcbcf3e9U, 0x3c97a1ebbd214161U, 0x3b5df679bc0bc076U, 0x3a80bb01bd3973ceU,
  0x3d1b087d3d1909b4U, 0x3b172b56bd1e87d2U, 0x3d1034143bf415c9U, 0x3ca11da73d172a48U,
  0x3c9166383cb2279dU, 0xbd1ba4093bed5307U, 0x3d1f810f3d32a40aU, 0xbd102531bcdde8dfU,
  0x3d312fc0bd1a83a6U, 0xbb7118aabd1a6077U, 0xbd2ab12f3ca33392U, 0x3cc743f23d04c932U,
  0xbb846af63cd3ce54U, 0x3d181cb93cfafb82U, 0xbcce8ef03c80e4c8U, 0xbcb1c7e3bc04d76eU,
  0xbc6a2202bc95866fU, 0xbc22c58b3cba84deU, 0x3a83590dbc310393U, 0xbd1b8bfabc04a02eU,
  0x3cc61ab7bd1c334aU, 0xbd334305bd09cb9aU, 0x3c9ae40e3d0ef201U, 0xbd2c98e1bcb4f58aU,
  0x3cd8a227bbf01961U, 0xbd06c875bca0a103U, 0x3b96982f3b88f601U, 0x3d0319df3c568f08U,
  0xbb0716333c92bec6U, 0xbd1db13c3d073b9fU, 0xbcf2f6b9bcc9873eU, 0xbbd5495e3d119b16U,
  0xbb6fb6bebca48b5eU, 0x3cb7ae5e3cf592a0U, 0x3d2cefb0bd27349fU, 0xbc871b213b2eb02dU,
  0x3d288988bbbf4bbcU, 0xbc9f2989bd280fc7U, 0xbd3a622d3d20328dU, 0xbd074d9a3d1f8d48U,
  0xbcd9b1e13b8a47feU, 0x3d2c00e53b376753U, 0x3d1fef5a3cae7904U, 0xba4b16eb3d04f02dU,
  0xbca539623cfe64cbU, 0x3b8f5b8ebc104199U, 0xbd157d50bc283e7bU, 0x3d035c32bc4cf425U,
  0xbd33fdb43d006385U, 0x3cacceef3c3ac0fdU, 0xbd332623bb9cf92cU, 0x3d01cd913cd6ad11U,
  0xba1aeec83d0c9813U, 0x3c7cc515bd33dc93U, 0x3c9dd157bc0d4087U, 0x3d34f2533c2c9728U,
  0x3a7a1bac3c0a0c04U, 0xbc9ef5b8bbf06964U, 0xbd1cbfd53c8a4a81U, 0xbc3456593bb0cfa8U,
  0x3cb4fb0abd27a0e4U, 0x3c4dc9abbc441414U, 0xbc9b5a253d2c5b99U, 0xbc1273043d000f3bU,
  0x3d1c6b223ca56562U, 0xbd05a69abc46160cU, 0x3cbab5c63cb49f0cU, 0xbce22e573cfec326U,
  0x3d0b044dbd2b9cd0U, 0x3ca9ad433d15ce73U, 0xbcedfdebbd386c06U, 0x3d15aa3f3d2893c7U,
  0x3cf833803d29f191U, 0x3d1f88b03c105670U, 0xbb4f57563c580e99U, 0xbc720643bd19b3c1U,
  0xbd2ff132bc6b8064U, 0x3cf2671e3d2824e2U, 0xbc4d9d933cddeeb3U, 0xbc44eb3ebc468008U,
  0x3c32f1fcbcff67c9U, 0x3d28bdda3b00691fU, 0x3d08d84dbd02e78fU, 0x3ab8b36d3bba35fbU,
  0x3c8b15153d1768c9U, 0xbac7fab7bd32b123U, 0x3c4dd01abc1b5321U, 0x3c25be1abd0cf6d6U,
  0xbabb9a81bd28e11fU, 0xbc182b083b720189U, 0x3c89055d3d0b3c77U, 0x3c9fcc1ebc9443dfU,
  0x3d1966e73cf63a9dU, 0x3d2e5e8fbaa4164eU, 0xbc548be6bd1c0f5aU, 0x3cb29d0ebc361864U,
  0x3d02dd723d375bfaU, 0x3b6c15fdbb12cee5U, 0xbce3ba093c95f66cU, 0xbd34417ebccf44a8U,
  0xbc951fc5bc23d8b5U, 0xbc75b1033d1a0360U, 0xbcf4cdd83c1b5777U, 0xbbea5489bcb5fa8bU,
  0x3b8233eebc195c98U, 0x3d34b6293cef6248U, 0xbd1594033d1ce724U, 0xbc8a608a3c447c5aU,
  0x3bdf5c223d130a95U, 0xbb83630c3c9cbca3U, 0x3c1ffe0ebcd3cedeU, 0x3c9a1625bd32550cU,
  0xbbdb5a6fbca4b239U, 0xbba06d03bc82d6f5U, 0xbbcde21cbcc0c32aU, 0xbce8a5eabcbc2d57U,
  0x3ca62617baadaf34U, 0x3d0643b33c15ac46U, 0x3c62f3d4bd32971cU, 0x3d162e07bcf79efdU,
  0x3c4dde8c3cf7c9dcU, 0xbd345956bc066583U, 0x3d1e453fbd26c8dbU, 0xbcff6f863cba0a0aU,
  0x3cc01fd53d151352U, 0x3cb35522bd150d33U, 0xbce227703cd96a0cU, 0x3c400d38bd0710a0U,
  0xbcc4513bbce89203U, 0xbc09d0a8bcb907b5U, 0xbce4f0093d345389U, 0x3c898224bbf93c79U,
  0x3c5e31c93c03a564U, 0xbc66d6383cfbe0d5U, 0xbccb54d33d0b1b71U, 0xbcd98b6dba9b25bcU,
  0xbd306714bd2c181dU, 0x3b9253fa3d1a84c5U, 0x3c8549703b98e672U, 0x3ccde25cbc257e74U,
  0x3ced08723c905404U, 0x3d2594c33d025bafU, 0xbcbac1d83d285d7bU, 0xbcfc6680bc93c403U,
  0x3bf854553d0691e8U, 0x3d2e9e8dbc3ee1bbU, 0x3bcec53bbc9749c8U, 0xbcc44ddd3cba39d7U,
  0x3cf102a4bc73fcccU, 0xbc8f8dc6bce4f018U, 0x3cf10d0fbb00b613U, 0xbc716aa4bcd8b616U,
  0xbc5f51513d0bb2adU, 0x3ba96ba3bcb3610fU, 0x3cc3640e3cee78b9U, 0x3d15e4143d30832eU,
  0x3c9629e83caef817U, 0x3c49a9c53ce53512U, 0x3ab2da523d1ea95dU, 0xbd3a4cd2bd2241cbU,
  0x3c1ae1c0bd0a9b46U, 0x3c8245f83c32ae7aU, 0x3d0a4756bafb63f0U, 0x3c1de621bc9ee8d6U,
  0xbc7ec08c3c840f7aU, 0xbd1c7ee7bc705ce9U, 0xbd10847dbbe8d259U, 0xba9e69ed3d00e3b1U,
  0xbbe979c4bbdf83d8U, 0x3d124575bcb665c5U, 0x3cce5bf73cd21afbU, 0xbd3ac809bd1f884bU,
  0xbd16da23bd04aa1dU, 0x3cc13dc9bc0a2912U, 0x3c599127bc72bd27U, 0x3d0bc1e0bcc03fbcU,
  0xbc1034a3bce5e5bfU, 0xbcffff353d236ee3U, 0x3d249ccf3c5abdb1U, 0xbca51e89bc5970d0U,
  0x3c809c3e3c84a429U, 0x3c00d4dd3cc76b7cU, 0x3c35c9223b5d4419U, 0x3d375fa2bb8df95dU,
  0xbd0a44c13d21da4eU, 0xbd19c11839a5e37cU, 0x3cbd5da53cf9cecfU, 0x3b102310bc592f62U,
  0xbd02aef3bd052223U, 0xbce9b67f3cae2f16U, 0xbd1bd56e3b841c68U, 0x3c0d8a3ebb6b6311U,
  0xbd3aa59c3d0cebe2U, 0x39d47fce3d3631fdU, 0x3d35831cbc738b19U, 0xbbe4593e3d1b482fU,
  0xbd216008bcbb8037U, 0xbd05fcaabd079c2cU, 0xbcc6403cbc3df5b5U, 0x3c9961143cc8671bU,
  0x3b5624a3bd18e73dU, 0xbc5df1683d0785c2U, 0x3d11b9503c8ebb76U, 0xbd37161a3c278032U,
  0x3c5db747bd343ce5U, 0xbb7a7a853b362d7bU, 0xbd336d86bd1e694bU, 0x3d01cc89bc2d2242U,
  0x3d2f9dfcbbcff413U, 0xbbff127a3d2f21eaU, 0xbd1f237abd136014U, 0x3d1f0b81bc9e742cU,
  0x3ca645f63cdc973fU, 0x3ce9761d3d27d422U, 0x3d363d87bd2ae3fbU, 0xbd13a2b73cc8ad8cU,
  0xbd09078f3ce687e8U, 0xba1d3cdcbc9e536cU, 0x3d3452203ce739a4U, 0xbd2eb8623cdca244U,
  0x3d239f6b3cac9f2bU, 0xbce579b23c2410f6U, 0x3ce155603d10c974U, 0xbb6ad0ea3d38aca0U,
  0xbd0c0888bc964548U, 0xbb96087f3d04fe07U, 0xbd3479dabb10be6fU, 0x3c2f34913c8b4b05U,
  0xbc9a63373d07c4bcU, 0x3d0ca584bbf8bdffU, 0xbc4152ee3b676ac4U, 0x3c4c22cd3cf92604U,
  0xbd33fdbbbd22b7a8U, 0x3b64257b3ca7cc1fU, 0x3a81086bbcdbc12aU, 0xbcea48dabcee0df9U,
  0x3b6d2eb23cd45d0cU, 0x3c278875bbc4f9e5U, 0x3bb4bbdcbb9a0b85U, 0xbd01140abc6cb4ceU,
  0xbd092ed43ce81914U, 0xbc553811bd2d8139U, 0x3bbd79883cb7ebbaU, 0xbcf9b0c0bc8bbdb9U,
  0x3d1303f83b064b15U, 0xbd2e2ff2bc3371ecU, 0xbb4bf2d5bc8bf202U, 0xbd0a6b2bbc354596U,
  0x3c90464dbc6d98c0U, 0x3cd5c350bcd5ea97U, 0xbcc74b45bce57328U, 0xbcfd50ccbcb9f4d6U,
  0xbca6fa41bce01ce9U, 0x3d0bb8d83ac5945aU, 0x3d3996be3cb7653dU, 0xbce92d36bd0a8cefU,
  0x3c820e92bccc5029U, 0x3c01e763bcaf3f8bU, 0xbbee2e41bca52798U, 0x3c458a61bd2fc615U,
  0x3cc27236bc9ab24bU, 0x3cf6f08a3d06f4dbU, 0x3cb609a3bbc7590bU, 0xbbe5821b3d0dddc4U,
  0xbb6c14703bc61e61U, 0xbc8d9b0a3d1a898aU, 0x3b25c6a3bc1ec750U, 0x3d1186663d148f19U,
  0xbc98a45abcf47147U, 0xbd28f23ebd20ed77U, 0xbd1238903ceae5f2U, 0xbcbd21513cc8e70eU,
  0x3c7da020bd2d40abU, 0x3d0bbc1a3d3af1bbU, 0xbd34db933c287ac1U, 0xbc7d121bbd2b32efU,
  0xbd0ccff33d0b55deU, 0x3d04c0ae3c772088U, 0xbbba6f5bbcafb285U, 0x3d2cf369bc1bf3a8U,
  0x3cdf9034bd37a172U, 0xbbb2b29cbd0887f3U, 0xbce5db893d1f4dc6U, 0x3ca53581bcd590f8U,
  0x3ca899c5bd0af06fU, 0x3cee3a34bba19c68U, 0xbcaf16e6bc780036U, 0x3ce4b73b3cbaa35eU,
  0x3d38febabd2b2400U, 0x3d37b886bcee7cecU, 0x3d00948d3c912f50U, 0x3d35ff353c489c79U,
  0x3cd47dd7bce599ccU, 0xbce76ea0bca9b6edU, 0xbc7b4b68bce10d3fU, 0x3d0469423cc4f3beU,
  0xbd2eae0a3ccbc691U, 0x3d0338853ba5bbc6U, 0x3c104b3bbd08343cU, 0x3c7d8801bd2c01e7U,
  0xbcd0aecbbbc25315U, 0xbd0051183d015debU, 0xbd1c34bcbce8d565U, 0x3b1d46a13d1b78fcU,
  0xbd17bf79bba1aad4U, 0x3c773917bb4cfdd8U, 0xbce42b10bd1a1043U, 0xbc1cf995bd07edb1U,
  0x3c3cefb03b61348cU, 0x3ba22556bcd5e162U, 0x3d11de19bc82762eU, 0x3d067097bcbb3d56U,
  0xbc5148e0bbe01edaU, 0x3c9205f33c81d9efU, 0xbbd64aa8bcfd2af3U, 0xbb871caebd37ff61U,
  0xbbcab6853b73345aU, 0xbbea8369bc8ad282U, 0x3c5851d53c09c9feU, 0xbd0091dc3cd5ee61U,
  0xbc9ed7d3bbdbc5f8U, 0xbc71d56cbc237abaU, 0x3ced44cfbd08522aU, 0xbca7fd973d259017U,
  0x3b16b1d5bcb0ca48U, 0xbbc7f2f43d202c3dU, 0x3ca7bd76bd0b5456U, 0x3c2542463c90dc17U,
  0xbc7a7d24bcaea37aU, 0x3c398f68bcf4ad76U, 0xbcad09c53cf02897U, 0xbd01b2433d1864fbU,
  0xbcbdd1ec3d2930dbU, 0xbbb1b3763c337923U, 0x3bdfd208bcc4529cU, 0x3aa25a773ae07131U,
  0x3cf0e9f83d2b8f33U, 0xbd30ca6b3c4f7af6U, 0x3ceec0a53b5c184fU, 0xb92f8728bd03adf2U,
  0xbb9e238b3c3b1aa8U, 0x3d38a6ca3cf19828U, 0x3d2b910b3bae9383U, 0xbd22932c3bc3d2f2U,
  0xbbd513533ce72725U, 0x3b769ac63cdc1174U, 0x3d08ee6e3ce6da16U, 0xbd18fa8bbcfb4cdbU,
  0xbd2b86b03cb3f6b6U, 0x3ce34516bc55aef8U, 0x3cae098bbb270480U, 0xbcbaf610bd306b7dU,
  0x3cbfd90abbb9153eU, 0xbceb65cb3bbfe25cU, 0xbcfe1a19bc0bf85aU, 0xbd2977703ab12138U,
  0x3c8b7ed93d1ace1fU, 0x3cf9e471bb72e1ecU, 0x3b73df3e3cceea14U, 0x3cf17269bb9f8424U,
  0xbc9c0471bc63f571U, 0xbcc4cbd4bca4ef7aU, 0xbcf9057fbbc9f472U, 0x3bff73ed3abf812fU,
  0x3c2683c93c8d5866U, 0xbcfad50a3ce7c0fdU, 0x3abce20bbd35b488U, 0xbd122a0b3adf8952U,
  0x3d360e763d328d26U, 0xbd0662c3bc3cf834U, 0x3d19a51a3cde5ea1U, 0xbd1080933caf9c3cU,
  0x3c339968bc477405U, 0xbccb9beabcf9e930U, 0x3c512c87baa2cf50U, 0x3d1c98dbbd0631c0U,
  0x3ca9b6e83c8d206bU, 0x3d07b8533d1147eeU, 0x3c8446cfbd0d2a12U, 0xbb8e7526bc362aa0U,
  0x3cca1006bcecdc2fU, 0x3d1f2a03bd12a38fU, 0xbce286debd07fff2U, 0x3cecee9d3cdb05c6U,
  0xbd01dddd3bae6e21U, 0xbbfe67223a6fe6abU, 0x3adfbd2c3c215c01U, 0xbc106da53ce7b58bU,
  0x3ce27436bca01fbdU, 0x3c8592203ce91508U, 0xbbb8f5e23d19a4e9U, 0x3adf1d9a3d2adf80U,
  0xbcaa6a6cbc3514faU, 0x3ab49ce93be7775dU, 0xbcdeba9dbd0a1b46U, 0xbada923dbcb9bf12U,
  0xbc19429f3c35899fU, 0xbbeb5f30bd2be516U, 0xbd21954cbad33558U, 0x3cec4a7d3ca0c177U,
  0x3d305a99bce4b4eaU, 0x3bcf5a65bb0a1a7dU, 0x3c7ac65bbd1a4677U, 0xbc934e87bd15aac0U,
  0x3ad38723bcdb8fcdU, 0xbc321249bc881d32U, 0xbca714b43cdc4fd0U, 0xbca0ff903d158fa0U,
  0x3c9ef0c23b3d9ed3U, 0x3c628aa5bbcde508U, 0x3cf880ed3cb9a5e6U, 0x3d15e0b63cb75788U,
  0x3ca4baf6bcca463dU, 0xbccaf08e3cd6d7a1U, 0xbc39fa82bd0d2ee2U, 0xbc0b93a93d362617U,
  0x3d0e1ee33d288038U, 0xbca38389bcfca764U, 0x3cc7fdb43d377519U, 0xbc85bea63b40cea8U,
  0x3c89fdb5bcda6129U, 0xbaf1d8bb3d1fa252U, 0xbc7d5860bd0bce36U, 0xbb58674e3cae20c4U,
  0xbd2a9383ba27fcfcU, 0xbb8e9d68bcd0d87dU, 0x3d2ef883bcb1bc22U, 0xbc24623bbca49930U,
  0x3d247d19bab056bfU, 0x3c87a3f23cb85137U, 0x3bf5d24fbc282061U, 0x3d1997863cda0089U,
  0xbc42c52bbd29c61cU, 0x3d114dc43c05b167U, 0xbca667163c452755U, 0x3ce0ade83d17a282U,
  0xbd2bcfd4bc7ba5c2U, 0x3b5fb86d3c5e2d85U, 0xbaa9c886bba0cc97U, 0xbca59619bd2511e7U,
  0xbc88c9ac3d2a6d4fU, 0xbcdc5440bcc45c92U, 0xbd080f0fbcacefc9U, 0xbcdcaf5ebd2ed6d8U,
  0x3cb5a4c1bab9f80bU, 0x3d09bfe1bcb190a6U, 0x3cfc8ae0bd202d4aU, 0xbd397601bc116c16U,
  0xbcb5c6da3befb906U, 0x3d0eb6f7bcb382f3U, 0x3d152fc33d24254fU, 0x3cabdbeebcdcac95U,
  0x3c30e3e0bcf6a777U, 0xb9b4696dbcb68a86U, 0xbc7a2adf3c464fe7U, 0x3b9a9d143c684b0fU,
  0xbcccff223c6fbba6U, 0xbcc65731bd1ca54dU, 0x3ad4d199bd0aa915U, 0xbc954c83bcad3804U,
  0x3cb70372bc716c9aU, 0xbd37d5d5bd0cb01aU, 0xbcabd61c3a3ec236U, 0xbc9248543d3554e1U,
  0xbce9e495bcf13eeaU, 0xbc507e8f3c039923U, 0xbd23dbcdba6b724fU, 0xbcd3afd43d2cbb59U,
  0xbd075f43bbd41990U, 0x3a70e98fbc28606bU, 0xbca9da563c43aaeaU, 0x3b8ddb023cd0532fU,
  0xbccaf9233c566712U, 0x3c69d23f3ccdce47U, 0x3cfa6f53bc988533U, 0x3c98a628bd23194cU,
  0xbc17a3ffbac554a2U, 0xbd20014eba5c12beU, 0xbd3a4fdb3d11d0b9U, 0xbcaecdaf3cdee830U,
  0x3d293e7bbce1a15cU, 0xb996b64e3b58f715U, 0xba29f4e3bba4b3d2U, 0x3bddf1babcc0e531U,
  0x3d22048638c89a77U, 0x3c0442223c912222U, 0xbc37170a3bc2ce52U, 0xbab42d5c3b826d1fU,
  0x3ca4a101b936eaa0U, 0x3d2b945c3cc04299U, 0x3ccfc4be3bff6194U, 0x3c2ca9823d26cdc2U,
  0x3c99bff0bce80e23U, 0x3ca8ca5b3cb0e680U, 0xbd1405643cb44067U, 0xbd15249fbcaad1f9U,
  0x3d0ec0fcbd100d61U, 0xbc7a6ec4bba05b9fU, 0x3cc556d9bb7dc089U, 0xb961e25b3c59a583U,
  0xbccece7cbc5a5083U, 0xbadd67ca3d1a47c7U, 0x3c1d52853c95dac3U, 0xbce605d33bcba6b2U,
  0x3cabadb13c0c87acU, 0xbcbb00463c6978feU, 0x3cd1fd223bda97dbU, 0xbc4888fcbcf4885aU,
  0x39e76ec8bc6e5204U, 0xbc0e5c57bc087f14U, 0x3c729739bcebffcbU, 0xbc419d5a3d280627U,
  0xbcfa72793cdf2932U, 0x3bd0c0e13d1c811bU, 0x3d05ef90bccbdb21U, 0x3c3324a03b374a7aU,
  0xbbd7931c3b8cc646U, 0x3d0463453d2a4e77U, 0x3cde4fd5bc99b8cbU, 0xbccdb0733c8788efU,
  0x3cc7b452bb04ce82U, 0xbd1c4016bbc264a8U, 0xbc85544d3d2935bcU, 0x3b812ffdbd1358fcU,
  0xbc3f7c5f3c3e274cU, 0xbd1ed3b3bc408b03U, 0x3b704f033c9952d9U, 0x3d30f17dbd36c862U,
  0xbd1ba2fbbd219d8aU, 0xbcdd57673cbb6d83U, 0xbb40c226bbddb9dbU, 0xbc4036d3b907ea42U,
  0x3d06b4683d0b31efU, 0xbd020b723d20be58U, 0x3d0558f8bcf1ab16U, 0x3d266190bc828f78U,
  0xbd1f5ea53cd49045U, 0x3c921a00bc86f778U, 0x3c2bf8463c7ce3aaU, 0x3c1de9fdbae4bca7U,
  0xbccd7e15bca5bde0U, 0xbc805b7cbc3d2eeeU, 0x3d2e047dbcbea9b1U, 0xbd260a013c1bbfe6U,
  0x3c9948e6bd041f35U, 0x3c451d3f3d11dba0U, 0x3d14a3f23ccafb17U, 0xbbc0ba1e3c215c93U,
  0xbceb2261bc3681a5U, 0xbcca1f36bd0d35c8U, 0x3cb0605d3d05634bU, 0xbbfa87c1bc76e893U,
  0x3beb0a0f3d1f6160U, 0x3bd9b0cebc10bb43U, 0xbcf383c9bb20634aU, 0xbd361ce9bcfaa832U,
  0x3c538af3bd3194a5U, 0xbd0079ebbd09d519U, 0x3d2a4b383cdbdd7dU, 0x3c883bf63c797a12U,
  0x3b8fdaacbcc6390eU, 0x3cf6b3633d0e3893U, 0xbb4eb7ad3d230982U, 0x3c6f8dfcbccf6cb8U,
  0x3d379b34bd0cf910U, 0xbcc76016bcea3306U, 0x3d1acb0fbc9067dfU, 0x3cd64a62bb7da99fU,
  0xbcbc8690bd095dd7U, 0x3cfeba6f3ad3f79aU, 0x3ce171f8bb8c1beeU, 0xbbbf21ed3b1d1f77U,
  0xbcac1a9c3d121e49U, 0x3ce27e8cbcf2e5d3U, 0xbcf9c0ab3d19a05bU, 0x3d018f9b3c2377a5U,
  0x3a58dd283d046a88U, 0xbce3afaabc6de686U, 0xbca568743cd69864U, 0xbc0491813b3230b5U,
  0x3baa22593d1d9ec3U, 0x3d028696bc6f8d2fU, 0xbd30c54d3ce0a112U, 0xbd1ee7073b56310dU,
  0xbcf4a24dba260ba7U, 0x3d18b948bd25f2c4U, 0xbd2d44143c1fc8a1U, 0x3d1205383d03e22aU,
  0xbd0e3565bcdbb3bfU, 0x3cfb4073bcfaa4fdU, 0xbc60fcb33cb7c883U, 0x3d206e593ccb0152U,
  0xbb9d2ba73d1d8015U, 0x3cd065713bd7dceaU, 0x3b6687013bd30167U, 0x3ce5e2eb3cc0a5c3U,
  0xbd29c8acbc6cd20aU, 0x3d3165e1bce606b1U, 0x3cee4340bcc043afU, 0x3cd7f58d39ff6d4fU,
  0x3c421ec13c9e3fc6U, 0x3c82f218bc6093a1U, 0x3c13e5293c3d5e31U, 0x3c9486863c6847a8U,
  0x3c80e62f3d32cce6U, 0xbce34998bca49d7aU, 0xbb46631ebc9c8646U, 0x3d0570a83d1cd045U,
  0xbd277e7938e7c14eU, 0x3cd1b1e9bc80e228U, 0x3abefa143ccb91bfU, 0xbd2b4717bccdba49U,
  0x3cd7c358bd31f50fU, 0xba08ede13cfd6fe7U, 0xbd00d33ebbb9efe0U, 0xbd151b68bc4b5a56U,
  0xbc965c643cd04642U, 0x3c4fdad6bd39c288U, 0x3d183c5f3d384fe4U, 0xbd34aedbbd035e5fU,
  0xbb5c786fbc8fc908U, 0xbd320f043d36dfd9U, 0xbcff96cfbd391776U, 0xbab7d27fbceb2171U,
  0x3d1ed042bcd65776U, 0x3c8c53893d178defU, 0xbc726899bd289052U, 0x3c245617bd088ec0U,
  0x3a023a0cbd27682dU, 0x3cc742503c14e3f2U, 0x3cf7b2693d381ac6U, 0xbc552514bc93595bU,
  0xbd35bf103cb8162cU, 0x3d0eda623c9c96f5U, 0xbc80d5263cbc14c8U, 0xbcf54fe2bc09e5c5U,
  0x3d3020bebc48ab38U, 0x3d09c2a1bce0fe92U, 0xbba476fabc4b579fU, 0x3bee9ba9bd1a212fU,
  0xbc82bf88bce2be04U, 0x3d19f07c3b7c5efaU, 0x3d0d9b433cfea420U, 0x3c2f9aa0bc940c59U,
  0xbd10ab0c3d15f4c0U, 0x3c7c73dc3d2d615fU, 0x3cc1bb3d3c1e60a9U, 0x3d29a79cbcc1b427U,
  0xbd23c819bd29cd38U, 0x3d36ac893c7f9d36U, 0xbade71123d130f61U, 0xbd06cca2bcdf956bU,
  0x3b614c5fbc93dc03U, 0x3cb807803cb92514U, 0xbbcb5c1e39a4f799U, 0x3cf78c12bc9e4263U,
  0xbb02c7ffbd2bf0ffU, 0x3bfcedccbb1b1981U, 0x3d2123093a4a0e8dU, 0x3c9f764cbd293c40U,
  0xbc22fc34bccaa2cbU, 0x3d1db2ce3cb66c09U, 0x3c9cc9fabcd7b0fcU, 0x3cdef515bcdee8f7U,
  0x3b25d426bcce3664U, 0x3cac78393b7e72d1U, 0xbc1902033a643e50U, 0x3cd40e58bac7d460U,
  0xbc7ee3a6bb466335U, 0xbc3f8193b96c3492U, 0x3c6375bb3c44e62dU, 0xbd25db293d0c22a7U,
  0x3c1cab7c3ce44707U, 0xbc9771a93ce25324U, 0xbc43078fbd04c070U, 0x3cf6ff7abcc04320U,
  0xbd0bf6f1bc90aaf5U, 0xbc19030a3bea69ceU, 0xbb29ead93cfdd440U, 0x3b1b9ddfbd18723bU,
  0x3cb10ef33ca51530U, 0x3c4510ec3bb3917cU, 0xbbe2c2ec3ca482c0U, 0xbbf38a64bc1ce16aU,
  0xbba509383d0107e3U, 0x3c9b07c5bcc1dc0bU, 0xbcda59f33d113a50U, 0x3c8101afbd0aa205U,
  0xbd177664bd218606U, 0x3c424aea3d2062a8U, 0xbca86f493c8615d1U, 0xbc955b93bd2d566dU,
  0xbbff86b0bd291a17U, 0xbd20f48a3c70cb75U, 0x3d0a3f583d324310U, 0xbcd32541bcc9dbd5U,
  0xbd086732bd2351daU, 0x3bb3465b3d09c307U, 0xbd1186ccbc0d1b1aU, 0x3d378ae0ba9415b4U,
  0x3ccaf7593d0d8213U, 0xbc0f5c5b3c264e22U, 0xbb9b6b583c85a7aeU, 0x3d2c1ebfbcaafa3bU,
  0xbcc463133ce5f8dfU, 0xbd17ba09bad1c45dU, 0xbd1512793c2f2102U, 0x3c544e073d19285aU,
  0x3ce95bd63bf1f8a3U, 0x3d041948bc9b4165U, 0x3d3a0c1f3d1f370fU, 0xbb84dad53cb09633U,
  0xbcc161d03c4a8aa8U, 0x3be1e1f2bccba421U, 0x3cbd28553d13d56aU, 0x3cd0cb95bd0d5ca7U,
  0xbd38371c3ca8ef91U, 0xbc1706f03af95851U, 0xbcba17413c0e34e7U, 0xbb3008c93d0366adU,
  0x3d0f00e8bcd7fe02U, 0xbcf75abbbbefbda3U, 0xbba06c77bc15421bU, 0xbcd140dabca62978U,
  0xbbec3024bc970135U, 0xbb4cf75d3bc84cc8U, 0xbba6dd3fbbc0f24eU, 0xbca5792ebd03fbc0U,
  0x3d04d8d4bc82320cU, 0xbd32aea03c9f74a5U, 0x3b805954bc49871bU, 0xbc715a063cf557e7U,
  0x3d16522abcf3ddd4U, 0x3b8a102c3c39b9d5U, 0x3d3ade74bcb3b88fU, 0xbd103521bb6c31bdU,
  0xbcee496fbcccb9e2U, 0xbce17fb2bcd0e78dU, 0xbd09949d3d1c09d8U, 0x3cb1992c3b1525d5U,
  0xbd1e4a3bbd1e5a81U, 0xbd2a2d97bc0decacU, 0x3d39a7ffbd35103fU, 0x3ce121803d05d570U,
  0xbc186fb43c101f75U, 0x3c78ea6e3d208c98U, 0x3cb325b93ccc2acaU, 0x3d0054263d2675bcU,
  0xbce8052b3c7f0e30U, 0x3cf045c43c758d3aU, 0x3b29335cbc2a236cU, 0xbc46014dbd12d945U,
  0x3b259512bc2a8b2bU, 0xbc2692eb3d2d367dU, 0x3cadf6f53c280c1dU, 0xbd129219bce90987U,
  0x3c4328083bb331e9U, 0x3d04ccec3d330f11U, 0x3c829afebce91b3aU, 0x3d15559dbcf66d6bU,
  0x3d06644a3bf25147U, 0xbd03e4e9bd22839aU, 0xbcaa78a6bcaa1c90U, 0xbd1ba106bd107f74U,
  0xba90be873cd62b70U, 0xbc80e9093c8031e7U, 0x3cc675c0bcb7e7f9U, 0x3cc1628bbc8b0945U,
  0xbca90ccd3d1586b8U, 0x3d14fb19bce79edeU, 0xbc1a15273a3bb23dU, 0x3ce2f8fd3be48afeU,
  0xbcffdf08bd2e69cdU, 0x3caf1143bc83f013U, 0xbd092354bc012e64U, 0x3cebfa143b9d82f8U,
  0xbc39dab2bd12efd8U, 0x3cf028fd3c0c8099U, 0x3c88598f3bcdb51bU, 0xbbf64419bc6b5002U,
  0xbd0bd0e2bd35b9adU, 0x3d07956e3bb1362bU, 0xbc22ef72bcfac623U, 0xbd1fbcfe3a6475d0U,
  0x3cd9ac7e3c3323f7U, 0x3cd3aa1abd2f13f0U, 0xbc69dbf83c84aebdU, 0xbc8f6b79bcaac852U,
  0xbd31447ebc78379fU, 0x3d14e13a3c5fe0e4U, 0x3d0e4a643bbc47e7U, 0x3ce019d43c56cadfU,
  0x3c22d0af3c429cd8U, 0x3ab23f7f3d11785fU, 0x3cd0ad7e3a590380U, 0x3d19c3d4bcbcce64U,
  0x3c84071d3d205f8eU, 0x3be979dcbd0f8958U, 0x3d27869b3c63a623U, 0x3c1d645dbcae87c5U,
  0xbcca0a5abac9b7d4U, 0x3c2eeca2bbe3cfc3U, 0xbd10352fbcb70929U, 0x3cda981b3c9cda91U,
  0x3d247e9e3ba2cfdcU, 0xbd2860dabd244e04U, 0xbcfc050dbc517095U, 0xbd03a6d3bb24b1dbU,
  0x3b8c7c9b3c891594U, 0x3a3de31bbc9bf16eU, 0x3cf812ecbcc518a5U, 0x3caf81b1bb5ef7b8U,
  0xbc541d31bc8161cfU, 0x3aa73282bcfd284dU, 0x3cb794543ccb9dc3U, 0xbc925cf83d24b6b8U,
  0xbc82f8d6bce860acU, 0xba91faed3bfe17abU, 0x3ca175213c816fc7U, 0x3cf21fe73c1f2fa7U,
  0x3d2a18acbd2c32c7U, 0x3d2b75f9bcc1dc7dU, 0xbbc53c2b3cb0dc58U, 0xbc99b322baad9a64U,
  0xbd0d80d33c19feacU, 0x3d358192bc452660U, 0xbd37b32bbc8561e7U, 0xbcde6a333c94e9afU,
  0x3d08047f3d3330b4U, 0x3bddf6d63cde6470U, 0x3cfd2cd23ce7fb1aU, 0x3ce5d87d3bb10a43U,
  0xbbaeee583d1346f3U, 0x3d0b23743d240f93U, 0x3c847e043c874dd9U, 0x3be28b25bbd9d474U,
  0x3ca89b2cbc37ddb3U, 0xbd3268663ca376e5U, 0x3cfc8bea3bb0075fU, 0x3d2b7bb03c94e4f3U,
  0xbb9f99bb3d145468U, 0x3cf0858e3cc45dc2U, 0x3a3d331b3cbbae6aU, 0x3c5a3f9abc82db2bU,
  0x3b3f57313be2603eU, 0xbc9d52c5bca244c3U, 0xbc9026da3cc8ff7aU, 0xbd37765dbccbbc92U,
  0x3cf16cf5bc9c0e76U, 0x3ccf94543be34530U, 0xbbdc40c0bc333f02U, 0x3d015fc73d1744a0U,
  0x3c6adcf1bd11ab63U, 0xbbe1ddbf3d3251a2U, 0x3ca9a39f3d0ea848U, 0x3c974df53cf694c0U,
  0xbcaa762abcbdf7d7U, 0x3d0c60e0bcd4991dU, 0x3c9aa753bc04c700U, 0xbc850369bb2ebb50U,
  0x3ca731b03d2be55cU, 0x3ceabb4dbd01f696U, 0x3d230dae3d15a419U, 0x3b33641239ef2e45U,
  0x3d3270503d0dca38U, 0x3cedda543c1e5574U, 0xbccf81a03c5b94b8U, 0x3b8b5d18bc95aaadU,
  0xbc26d178bd0e0bb9U, 0xbceb27c63cdda04fU, 0xbd10f84dbcd1bfbbU, 0xbce83d203d151f1aU,
  0xbd24140bbd057237U, 0xbcc43be4bd14d47eU, 0x3c8e1cdabcde10a0U, 0x3cf81a513d0a6136U,
  0xbcb5bf433d335831U, 0xbc84fa133ca05697U, 0xbd087a2fbccddf76U, 0x3d1ffd433cc585f9U,
  0x3cff59d2bd025049U, 0xbc98556f3cb50870U, 0x3c7620d13ca9eeabU, 0xbbc8c626baecdee9U,
  0xbd2ed085bc89c4b9U, 0x3b338b0d3d366a4aU, 0xbc7e42bbbd12769dU, 0xbb863d7b3d11b110U,
  0xbcd88326bb9584adU, 0xbd03f8fe3d207d2dU, 0x3c0983913ca51ba5U, 0xbc7ca640bd069ba6U,
  0x3cddc54abce5941aU, 0xbceb28013c5cf31aU, 0xbc0c19fe3d0416c4U, 0xbc12b02dbc188fcaU,
  0x3bdc139cbc81e0e7U, 0xbcb8f8b4bcbbc525U, 0xbd0f8ce03c3d5f38U, 0x3c3f7372bd25816dU,
  0xbba1f979bc93bcb9U, 0x3d11015d3ccf0320U, 0xbcce36b5bcc7f710U, 0xbb79e8183b557171U,
  0x3c8e06f13ccf1fcaU, 0xbcd966acbc3b35dcU, 0x3c3faaffbcc67eaaU, 0x3c5df532bce9dc9cU,
  0x3c0bd4ae3d06f241U, 0x3cf5a2103ca5673eU, 0xbcd473e43cef0c8dU, 0xbcc826913cfbb9d4U,
  0x3d0946d23d203226U, 0xbd176ba63cb0c964U, 0xbb39a9e73b82d013U, 0x3d16a051bcd3fb5bU,
  0x3cbf6f6bbcf7d822U, 0xbc42c42abd1e72c6U, 0x3cec81033c093454U, 0xbc9f865d39fd0db4U,
  0xbbd59395bcd89db4U, 0x3cc50b143bb15541U, 0xba38e3fe3c299241U, 0xbc49e2abbcf2b14cU,
  0xbc8e08d6399cd069U, 0x3c8a949ebc20fd05U, 0xbd2676eeb8e7acdcU, 0x3ce38291bcc0e800U,
  0x3bb415943cdbc7e6U, 0xbcafbc983cc40c46U, 0x3c51f6a93b43cf34U, 0x39a8a4393b8d0875U,
  0xbba0f279bb893752U, 0x3d0881203d32bef8U, 0x3b857218ba6967c8U, 0x3d07ce173d1e62c5U,
  0xbccc97cfbc32c25bU, 0xbc50dd9cbcf9269fU, 0xbc84322bbcf909e4U, 0x3d252b473bc34c29U,
  0xbd096cb7bc30da8aU, 0x3cbb1bd5bcb5cf05U, 0xbca57b653d1dd03eU, 0xbd21251e3cabc9e3U,
  0xbc44cf2c3d0dc309U, 0xbd2c1fca3c935b43U, 0x3ce87a6d3d050c30U, 0x3c3b8e34bb6b4739U,
  0xbce072b83d0b49fbU, 0x3c4ff1babd074bb0U, 0x3d0b9732bc875555U, 0x3d05f4053ce26c2aU,
  0x3d3031d5bd061643U, 0x3c6348223cdfb610U, 0xbd19b1f4bbd23e6aU, 0xbc952fab3d10c84dU,
  0x3d3a95e03ba01145U, 0x3d0c015c3d015969U, 0x3c5d81dabbe5670aU, 0xbced255dbca26ff4U,
  0x3d214893bb21a228U, 0x3d1b115a3c9fc94aU, 0x3c56138bbcba130eU, 0xbccd737bbcfab54eU,
  0x3d280b13ba7218a2U, 0xbc6eac29b92ea7b0U, 0x3cb700293d06b054U, 0x3d11e5ae3d00e2d1U,
  0xbd120f31bc59f7d4U, 0x3c99037c3ced46a3U, 0xbcf7b916bd0c4561U, 0xbcd9c79ebca7baedU,
  0xbcf340ca3c13c649U, 0xbd20106a3d383c22U, 0xbcf82dd5bc23dbedU, 0xbcba6487bc0c12bcU,
  0x3c0bde213bfdc58eU, 0xbc5458c13d100648U, 0x3d0a72e4bcb0c6feU, 0xbbfc6215bc7b475eU,
  0xbd159425bd31b0aaU, 0x3d013709bcdf1e8dU, 0xbcf95ec6bcbad1b5U, 0xbd1e58343c4339a1U,
  0xbc50e784bca87100U, 0x3d2c4fb83cbdb19eU, 0xba953f7b3d1c2d5fU, 0xbcfcbd3e3d2baa66U,
  0xbcf9a3063d10adc3U, 0xbd369ebc3a1bffe9U, 0xbd323237bc02d0ecU, 0xbd19bdedbaff27eeU,
  0xbca1e05e3d1c10b0U, 0x3c166764bd24ba91U, 0xbc2677f73c65d05dU, 0x3d199471b8d5e2baU,
  0xbcf18964bc8db20eU, 0xbcf8825a3d20f06fU, 0x3d0150d4bd372c8eU, 0x3d15371d3d0cbd02U,
  0x3d0874203c021839U, 0xba97f3413d208d08U, 0xbcceb4a73d0fdd4bU, 0xbc6821afbcc0b042U,
  0xbcc50d9dbc81f664U, 0xbd018983bccdd42aU, 0xbbe0f9933d1bb071U, 0x3d361017bb6fb6beU,
  0x3cace6a2bd2ccf5dU, 0xbbd889dcbcfb6adbU, 0xbc6fb8283b6df068U, 0xbafd07dc3a140141U,
  0xbcf5c1233d1f7dd7U, 0x3d184b3a3d178037U, 0xbb9fabf13b9c9594U, 0x3cb30f47bbf69f57U,
  0x3c94ad9ebcb05ee4U, 0x3ce2f1173bcb9982U, 0x3d326bfeba96c804U, 0x3cb1c9193a2bdc5dU,
  0x3d307b8bbcf2e032U, 0xbd2e813a3c3fe710U, 0x3c4934a63d17cabbU, 0xbc30755fbc3ac138U,
  0xbccbd75dbca720c4U, 0xbcc63940bd1f170fU, 0x3c50b8693c3b3a8aU, 0x3d19c119bd2187a3U,
  0xbc4fb3fe3cc16cb0U, 0xbc6ecaf9bce4bd42U, 0xbd32f9e0baa8243dU, 0x3c2f93c7bcdb39d2U,
  0xbd0d52833b8aaa15U, 0x3c671d9bbb9d1376U, 0x3cc9d354bcf58797U, 0xbc47c99abcf828d2U,
  0x3c42c2d73b3b1208U, 0x3cf277f83cfcd529U, 0xbb8eb0653cbe16a3U, 0x3cddea29bcc7f381U,
  0xbcd51ae43be84751U, 0x3ce989f83bb4767bU, 0xbcccad493af9ce42U, 0x3d04ea2f3cd34fddU,
  0x3cc3ebbebbda77dcU, 0x3d23e6323c829c2bU, 0x3c2a4a21bc8ec27eU, 0x3c948c833cd56daaU,
  0xbc771ca73c6ff5a4U, 0x3d1e7f42bcd87d08U, 0x3d19dcbdbce24dbeU, 0xbc8809d23d30325eU,
  0xbc98d4213c015ec0U, 0x3d1d6c6abc1a590cU, 0x3d355140bc5a1a4aU, 0x38d8bff23ca6b5a1U,
  0x3d340233bcc0f03dU, 0xbd34f8883c8a6959U, 0x3d08b4dfbc5d3e01U, 0xbc652ae23cf57f0eU,
  0xbb9912a13d202553U, 0xbc9cb6c53c35736aU, 0x3cb76addb9607997U, 0x3ba067febce35be5U,
  0xbc8c6a82bcd57abbU, 0xbc983c783d0fb464U, 0xbc4dbfe63cdf496cU, 0x3b193c12bb335bdbU,
  0xbac5e654bccb1b56U, 0x3c022b88bcc316e2U, 0x3d02f42dbc18df0dU, 0xbcc3a8f13cee7515U,
  0xbcf44943bbde7a79U, 0x3c5bde81b9f27e25U, 0xbd0c6a37bcaf1131U, 0x3cc0a9cdbcdc6b6aU,
  0x3b8eb322bcb9190aU, 0x3bb43ab03ccb51fcU, 0x3b97a3f9bd165dfbU, 0x3cead19c3c5d6fbbU,
  0xbcfd2ddebbd7790cU, 0x3cf968763d1b5a28U, 0xbd2a27cb3c065fabU, 0xbce5a4083cd69c07U,
  0x3d09e5fc3c133e61U, 0xbbb8e58bbcbd469bU, 0xbcb8f3683c3c0769U, 0xbd30de01bcedeb20U,
  0xbbf77e093d28bd0aU, 0x3ca2a535bcf7665bU, 0x3b9426513ce0281eU, 0xbbb36c3ebcc177cdU,
  0xbd316a903b863775U, 0xbcba1cf83cd23b92U, 0xbd3371c93ca2e0c5U, 0x3c8756ec3a10fac6U,
  0xbcd51d26bc9d17feU, 0x3d258af63b6e5bf1U, 0x3bf500423d1570dbU, 0xbd30a0d9bd1f40fbU,
  0x3b60af73bd389c16U, 0x3d136e183cf69aa6U, 0x3cce35e3bd2ec8eaU, 0x3c20364fbd02389fU,
  0x3c684436bd1e43f8U, 0x3a3c8a68bd2d0e5aU, 0xbd3792babd362f57U, 0x3c7f1e99bc94c3e4U,
  0x3cc9067e3bbc975fU, 0x3b5b2e57bce04c6dU, 0xbc8fe0ea3d1d99e9U, 0xbc6fb6323d081773U,
  0x3d0289bdbd04c27aU, 0xbd1e2c13bbf655b7U, 0x3d232484bd22c213U, 0x3d3641573b4458ddU,
  0xbce2fc8cbd2604b8U, 0xbb8d38043b87517dU, 0x3ccb58c93d128d87U, 0x399930343c75bf1dU,
  0xbd1de9e13ceb3fa0U, 0xbc7965bcbbcc08bdU, 0xbc9235ac3d12d4a1U, 0x3ccc60b2bca3604aU,
  0xbcaf86dc3c989a2fU, 0x3c43ea053cd2abc3U, 0xbd0c8e23bd1e1885U, 0xbc47f7dc3c79cc1dU,
  0xbcb7152dbc8a564aU, 0xbd0cd3cd3b258013U, 0x3c7eb25abd0777f1U, 0xbc57c9a13c7be39bU,
  0x3cbc62d03ca122beU, 0xbccafbf53c8d4c94U, 0x3a30086c3bb75bafU, 0x3b83accf3b42cf82U,
  0x3d06b2f23c0b5287U, 0x3c28433bbacab30dU, 0x3d246264bc6d40a8U, 0xbcc41e423d27f8b7U,
  0xbcc633543d18ee05U, 0xbcb5d00c3d34a454U, 0xbd06a037bb5469b6U, 0xbacc9eb9bd2944adU,
  0xbaea15c73bbcaac5U, 0x3c245057bd3350fcU, 0xbcab8272bbe5fb04U, 0xbcedcc68bce0b166U,
  0x3c40c362bcf590fbU, 0xbd0646883ca30b27U, 0x3d16af743c8f6c49U, 0xbb8135f83c3e8dd6U,
  0xbc8e4ba03d1bf10fU, 0xbbeb0539bd1ed79eU, 0xbcf01b11bc1b169bU, 0x3c885981b981bd2aU,
  0x3cebec0e3b324b5dU, 0xbcde6be43ca45bb4U, 0xbd01dad8bd216e51U, 0xbce7849dbc22613eU,
  0x3d33d967bd1686b3U, 0x3c36745dbc82c98dU, 0x3d116869bcbdd1c9U, 0xbc08d272bbecaa77U,
  0xbcd4408bbd2d112bU, 0xbd289ed63b454968U, 0x3ca62750bd0e31eaU, 0x3d37f3d83d0a0d4cU,
  0xbc32d642bd0c154eU, 0xbbbbb5f03d108068U, 0x3cbfdcff3d0bbaf0U, 0xbd0052fc3bf46aafU,
  0xbcaf33703d175be1U, 0xbc7a0a4e3d2cb821U, 0xbd2ed9043cab63c2U, 0xbd0cd6ae3c451dfaU,
  0x3d3544b33cb9b8aeU, 0xbce771543d37a145U, 0xbbdd2b39ba350d61U, 0x3cd056f63c4a3273U,
  0x3cd244613d270c1aU, 0xbcc6d2373ce3cc74U, 0x3d2e49303d1f3719U, 0xbd12678c3ca9e1fbU,
  0x3c929efbbd371d40U, 0xbc1271943c3b4e19U, 0x3d0eb44e3c646b39U, 0x3c6f43ffbc867de8U,
  0x3c98dc6abc6f1542U, 0x3ca3d3b5bce21dd7U, 0x3bd90ce73d200e17U, 0xbc8f847a3ca6f4edU,
  0x3d2532423d16b5a7U, 0x3c956da1bd36c833U, 0x3cef0a7fbd1f6cf2U, 0xbd3443883cf62d15U,
  0x3cb4446cbd2318d1U, 0xba36f70b3cd6e0e8U, 0x3b11ea96bceb41b0U, 0x3c1b648a3c8883e2U,
  0x3ba17ec8bc5aa396U, 0xbd28ba90bc7260ddU, 0xbca2fad83d079851U, 0x3c6a87cbbd0fa332U,
  0x3b8a8e9a3d30a457U, 0xbb5aae8abcc4c98fU, 0x3ccd9178bd1b604dU, 0x3c3ad3e3bcdbeefeU,
  0x3c157ed6bcc9d0bdU, 0xbce2041c3bfe76f8U, 0xbd369d90bc72c02bU, 0x3d29623e3d349281U,
  0xbc4e65d63b1aaeb2U, 0xbc702b22bd3a2905U, 0x3c80ca9d3c88a482U, 0xbc9d78e83d33f4f4U,
  0x3c9cca083ce34a1bU, 0x3b81fee43c98e13bU, 0x3ba5bc3b3d1e0665U, 0xbd2b601f3ce3d543U,
  0x3d0e83603d328a91U, 0xbbf8b2d0bc5ec72dU, 0x3c80f611bc95adfcU, 0xbcf956b83d25b63bU,
  0x3bca68d63d261d77U, 0x3d2f44723bb6f800U, 0xbcf190a0bd26fb9bU, 0xbcaed5ac3a3cf3efU,
  0xbd15e596bae58233U, 0x3bce0e4b3b34b532U, 0x3c9ac16f3af2c210U, 0xbb10ad8cbd18cbf1U,
  0xbcbee3fabca8f257U, 0xbd2f2fe9bd276695U, 0x3cb9c64e3d322a31U, 0x3cc99d013d0d1b8dU,
  0xbc0c8564bd092e8bU, 0xbc83ace93c9b81a4U, 0xbc75fee73c0cffb1U, 0xbcd2e5debc84023bU,
  0x3d39f5473cdef35fU, 0x3d1516b3bc1206f4U, 0xbd110fa13b0d1fdfU, 0xbcb156053d21a52aU,
  0x3cfb27df3cdc8e84U, 0x3c88dc3d3c4a7271U, 0x3d0ef4b1bce08bcaU, 0xbca752a73d28ad2bU,
  0xbd1bb8d8bd132b53U, 0xbc82063e3cabdf14U, 0x3c8a335abc142943U, 0x3d297663bd161137U,
  0xbd3060963cc0ef1cU, 0xbbda5dfabd107f38U, 0xbb580d35bb876457U, 0x3d072dd43d2a8d0bU,
  0x3cff556dbbccbba9U, 0xbc8f048c3d20e7b1U, 0x3c1bca25bd213a3aU, 0xbd0d19edbbb1205aU,
  0x3a9173a43c7e9f2fU, 0xbc777ccdbc94b038U, 0x3c163973bc6eae37U, 0xbb192c193bfb730cU,
  0x3ca6e8773c8617abU, 0x3cc021043c9c451eU, 0x3d086a903c6cc459U, 0x3b76bd5f3d204b06U,
  0x3d30e5d8bc5498baU, 0x3c8c11e43cec70f2U, 0x3cbcd2693cfef709U, 0xbc442cd7bccfc6e3U,
  0xbd1b896c3cc23ce4U, 0xbd1308d0bc868c2fU, 0xbcfc01ccbc8aab01U, 0x3bee3af1bd043e6bU,
  0xbcd87ecabb8edc88U, 0x3a9c67cc3cec527aU, 0xbcace43d3d1daf3bU, 0xbd351bd43d357f16U,
  0x3d0d7bf6bbba7432U, 0x3c855d94bcca5d4fU, 0x3ce12aa43caa59c9U, 0x3d23c307bc5676efU,
  0x3ce815d13d043dd4U, 0x3c2034eb3d374272U, 0xbd370f47bc93a9cdU, 0xbaa7e1993d1252f2U,
  0xbd13d30dbd3609bbU, 0x3ce8b1103be4baebU, 0x3cd76bbb3bdfe51cU, 0x3c116e7b3d000f30U,
  0x3bf02989bcdaed15U, 0x3d251ad9bd11c59bU, 0xbbbf92b63d3328b6U, 0x3cea0c66bca77f51U,
  0x3b9848eebd047f17U, 0x3becba7dbd0bf9c0U, 0xbd2042533d3420f2U, 0x3c8042a5bb381063U,
  0x3b51eafabd207142U, 0xbd35e3d1bc9f9957U, 0xbb30ba283c49e175U, 0x3d2ca07c3ac3a1beU,
  0x3d396e1abcba0dd1U, 0x3c4004a33bee1e3cU, 0x3cf9c703bcc011bdU, 0xbca9fea23b178b48U,
  0x3cb82c78bcf16443U, 0xbd2d0153bd1622efU, 0x3c924cd0bd389482U, 0xbd26c2e23c5c093aU,
  0xbd2ac741bd05620aU, 0xbc756645bc7b6358U, 0x3c3e7677bc2fe194U, 0x3d22e84f3d0b5dccU,
  0x3c31c1ee3a6c2ab6U, 0xbcfd84fb3c890d2eU, 0x3c37a7d2bc105fb4U, 0x3d2db9a6bb07e886U,
  0xbd26cc8d3b5ea318U, 0xbb9da6293ccac887U, 0xbc6c18a3bc71f9bbU, 0x3d3614a63d315cfaU,
  0x3cb76b173ce7c611U, 0x3cf9bd013bd32d50U, 0xbcd0aa60bb8755c7U, 0xbc8cc983bb571a04U,
  0xbce44052bba5f0a1U, 0x3d1c4e903c16c8bfU, 0xbc437cd7bc89663dU, 0x3cdc05993c926223U,
  0xbce887203d2879d9U, 0xbd1742183d1df37fU, 0xbc985a49bd123831U, 0x3c16e4ae3bb8be85U,
  0x3c8907bcbcec8a61U, 0x3d1b6159ba9cb90bU, 0x3c1ad1e3bce20e3bU, 0x3cfe2e2b3d2f2834U,
  0xbca93ea5bb873655U, 0x3c1f6be1bceff437U, 0xbc885678bd18c21eU, 0xbd14e110bce87ef7U,
  0xbb83cf97bc90772fU, 0x3cac749ebc90e06bU, 0xbba88a9ebd28d25eU, 0x3cfabd9d3d2631aeU,
  0x3c3a27c93d141be2U, 0x3d0fc5a33d317e5cU, 0xbc7f7e04bd2925eeU, 0x3d314bed3d0dd069U,
  0xbd0060f63d18f1b5U, 0xbc502f64bce59864U, 0x3d3a4d563c74a0a8U, 0x3c36f8753c04409aU,
  0x370df3913d183859U, 0x3cc19650bd2bbf48U, 0x3b181621bd2b4fbfU, 0xbce346d23cd212d3U,
  0xbc9bb4bdbc5c80f3U, 0xbd09f894bcda39f1U, 0x3c3ae05fbd22e4f7U, 0xbc9182763c6e8826U,
  0x3c97345a3d0f62dfU, 0x3b8f2c223c57a9eeU, 0x3cb7e348bcc1261fU, 0xbd0381fdbc880e83U,
  0x3c8b5305bcd91fe0U, 0xbc6e09c9bd177889U, 0x3b50e7a1bc4c75daU, 0xbc895d8e3cc0228cU,
  0x3cb897963c7ad47bU, 0xbc0f4fa53bc30a7bU, 0xbcebb2883d02b940U, 0x3bc96c1b3c117251U,
  0xbcc9be1e3b1c314cU, 0xbcd85134bd1c6f4aU, 0xbb9f883fbc5c0f00U, 0x3cc0569a3d360124U,
  0x3ac37e24bbf51743U, 0xbc969cd93cc66084U, 0x3d220bbe3c97e703U, 0xbb9fbf863d0eb7ffU,
  0x3ce2e6863b887353U, 0xbd1e0bb33cd976f4U, 0x3d035d9f3c762a49U, 0x3beef34c3ba17792U,
  0x3ce9bbaa3c8809e3U, 0x3c1abb0bbd21036dU, 0x3c83f7cd3cfe2935U, 0xbc1b72ab3ce0bf92U,
  0x3d260ca63c07e251U, 0x3d08002ebd36fb68U, 0x3ce6c3b63d38a3f4U, 0x3c9054a23d030631U,
  0xbbd172c03c482ca0U, 0x3ab21469bcf0e239U, 0xbc8e60ad3d0ace67U, 0x3cc49e8dbd25859cU,
  0xbc61b476bcf37b51U, 0xbcee68a83d08af7aU, 0xbc9d61b5bd013cdaU, 0xbb81c2013c36d2a4U,
  0xba71d1cbbcac1426U, 0xbd32a20abcf6b9adU, 0x3b5be5bdbd337ce2U, 0x3cceae9abc8d7f87U,
  0xbc8d86d2bd0adbceU, 0xbd2580f13c7c0616U, 0xbc19b67dbb8352c1U, 0xbcd282433c4d2d22U,
  0x3c157ae3bc921647U, 0xbc8151b8bcf96377U, 0x3c746af5bd2c11ceU, 0xbce1511b3c7d766eU,
  0x3cf8858cbd037022U, 0xbccbbf2fbc38a8ffU, 0xbd0e71b2bc3a58b2U, 0xbb05a3c13d35d536U,
  0xbc533ad8bc2d1f6dU, 0xbd0e9182bd340f38U, 0xbcfcb5b3bc9fba83U, 0x3c1946753c8f0af9U,
  0x3c83afc6bcfa59b3U, 0x3a1eca243c8944fdU, 0xbb98f2c53d0f9012U, 0xbc164d82bc2b1b4aU,
  0xbc8194d4bb8b6538U, 0x3c9ebbec3d175bb5U, 0x3cc22caa3d15b5daU, 0x3d19dbecbd0dc2a6U,
  0xbc8196f0ba5b0084U, 0xbca04ff93d06981dU, 0xbca88a11bc19b75bU, 0xbcf74efabd141932U,
  0xbd2e92133c172c69U, 0xbca21ccd3d142d89U, 0x3d15b79ebd22292cU, 0x3c0356aebd116592U,
  0xbc9d7440bb9cd7e6U, 0xbbab2d2ebd2fb8b7U, 0x3d093f71bd2918a6U, 0xbcb53fa73c44d7a9U,
  0xbd20bb843d1edf6fU, 0x3cf9cca63ccf57cbU, 0x3c0f1c1dbd17a3bfU, 0xbc5b1a363d0628cdU,
  0xbc31263ebc8c6d6aU, 0x3c345815bc8c3895U, 0x3cb35be7bc0a8ee1U, 0x3b811b733bdf56faU,
  0x3cd17cc23cd13b66U, 0xbcfa9e99bb52621bU, 0x3ce1ca9cbcd0c42dU, 0x3d078aa23cf64185U,
  0xbd39c05d3c4ffc7fU, 0xbd1cae0c3ccc6461U, 0x3d1b2a0a3cf0167bU, 0xbb9a5ae5bd28e5bbU,
  0xbd2f3e5d3cf7b9c5U, 0x3d12c90c3c4bb470U, 0x3b1770cebcbf3d62U, 0xbcf9c674bcff1d03U,
  0xbd1f8a1a3ccd2f79U, 0xbd1c9f48bc2ca28cU, 0x3d23042fbb4960a7U, 0xbccac8dcbbcc9350U,
  0xbc531683bcdf1546U, 0xbd190a10bcb84ec8U, 0x3d072a7f3d27f6c1U, 0x3d20b53abd002869U,
  0x3ccefb083c89e22cU, 0x3d00205d3cd6722fU, 0x3d056321bcf7df4dU, 0xbd27d05fbd11a681U,
  0xbc13b5e6bcfeb973U, 0xbd208c1dbd28cebdU, 0xbcf8129dbd144005U, 0xbd1dad30bd39b8bfU,
  0x3c18e22dbc92d21aU, 0xbd071f843bdf7150U, 0x3c4886fa3c3b1fa8U, 0xbd1899673c1ced54U,
  0xbc354c2fbd0e61f9U, 0xbc9f21e43d0d83baU, 0xbc897c753b5137f6U, 0x3c253111bd300932U,
  0xbd14e34a3c15cfe0U, 0xbd15fb99bcd3a731U, 0xbaf2a5373b85bdbaU, 0x3c055f10bd1a38bbU,
  0x3c7ad6543cfad0a3U, 0xbcb4620e3cb1d08fU, 0xbd072974bc0340eeU, 0x3d2018393d24a24eU,
  0x3c36b1813bb42935U, 0xbc2fecf13d018265U, 0x3c7ea910bbe78402U, 0xbcc92669bceee2bbU,
  0xbb9ffd3b3c82b751U, 0xbcae92fd3c168d1dU, 0x3cf06a05bc8eaa09U, 0xbd15408ebd079c31U,
  0x3c016885bc4b5b0bU, 0xbd0b3ca7bd3707f4U, 0xbd0893853ba3d566U, 0xbc81dcc63c41eb79U,
  0xbce04e6cbc914290U, 0xbcb1b24f3c6b85fcU, 0x3cffced63d262c9dU, 0x3bc90d94bcc08855U,
  0x3d3004adbcf11f68U, 0x3d2201143ca478dfU, 0xbd36e0043b1b0c5cU, 0xbd0e5473bcbc9ba6U,
  0xbbc852da3c484332U, 0x3c2d96ec3c0dd660U, 0x391f4a4f3c177216U, 0xbbcc411cbcc85b9dU,
  0xbc9158d3bd24b9a9U, 0xbcab1ddebd2de402U, 0x3c5282e13c3474b9U, 0xbb9a7761bc9924aeU,
  0xbd24a437bcb8242aU, 0xbd18eb3d3b39d9bdU, 0xbbfcd9133bd02732U, 0xbb8788e63d2a779eU,
  0xbd36dd77bbe6a674U, 0x3d042168bce02da3U, 0x3cb916b1bcab66b7U, 0x3c4191c33cf37eb8U,
  0xbbe9a5093b00f1c7U, 0x3c83e7d33d04f2d3U, 0x3d3a7c753d359510U, 0x3cd0820d3d1b6b21U,
  0x3c81cbcbbcfce0f3U, 0x3c2568a9bcdb066dU, 0xbcae5d0cbd225501U, 0xba334032bc67f5a3U,
  0xbc5d61d53cccbeaaU, 0x3a4642e43bc43494U, 0xbc8182febbc9d7a5U, 0xbd21703a3c196402U,
  0xba26d5943ca405c8U, 0x3bd1180f3c3cbffeU, 0xbc16029cbc835e90U, 0xbd193fce3c3a0d39U,
  0x3b2ff0f63d30add7U, 0xbc1218183d33a24bU, 0xbcf56807bc5d4ab7U, 0xbc361218bcb8d9a4U,
  0xbcdd992a3a3b5639U, 0xbcc1afc8bca854dfU, 0x3cf5368abd12d9d8U, 0xbbf8a00ebb075677U,
  0xbbb2a9c13aaf4c01U, 0x3d227851bccdebfeU, 0xbd0c13a13bc6154bU, 0x3ccaba003bcd702fU,
  0xbd288ca83ac584a6U, 0x3c98e915bc02a2ccU, 0xbd2434753c5fca11U, 0x3c74e51fbc6ebc5eU,
  0xbbb426b2ba07e297U, 0xbd209cc7bba31af2U, 0x3b27bacd3afede5aU, 0x3c37efa4bc81ddb3U,
  0x3c168fecba50c609U, 0xbd2613063c2386c7U, 0x39bd0b4e3c451296U, 0x3d115db4bd23531cU,
  0xbd1402dcbcd52b4fU, 0xbcf0c07ebbe4191dU, 0x3c78f2dabd08cbb2U, 0xbbac314e3b9c94f0U,
  0x3d168633bc28d98eU, 0x3cec82a5bd295238U, 0x3c65a4e33bdc4d07U, 0x3c8ee4933d309b2dU,
  0xbc96312a3d0bf896U, 0xbd305a83bd2c2c11U, 0x3cb08853bb96602dU, 0xbcb0d8b73cf8ff9cU,
  0xbc841803bcb2df51U, 0x3cec2c323c327336U, 0x3bdee7bebcab8dd8U, 0x3c7525173c23a718U,
  0x3d2114243ac8a2ddU, 0xbc6905d5bd136a12U, 0xbc4cc75fbd1bbc8eU, 0xbd0c57ffbcb600f7U,
  0xbd25a071bca37d6eU, 0xbd1d47f13d363db8U, 0xbd1e5d8e3b6c116cU, 0x3ccbcea03d2d7772U,
  0xbcfd6cd33d27d6ebU, 0xbc6a865bbd058d0bU, 0x3cd5f900bb91589eU, 0x3d086876b9e791d6U,
  0x3c503a813d137f86U, 0xbce69ecf3d2cafe7U, 0x3d1d7d623ca5f7afU, 0x3d117892bb86598eU,
  0x3ca7bff8bd1b794bU, 0xba96ee8abcfd6539U, 0xbcd019e73cfebbd0U, 0xbca6777c3d0e2e97U,
  0xbd1da0213c0516e0U, 0xbcd124dcbc539e2aU, 0xbb4a4b71bb205036U, 0x3d0c458c3d0fe687U,
  0xbcbd62ee3c48e867U, 0xbb65255c3d09ed1cU, 0xba7003e13c0ace41U, 0x3d0bbeec3d25a13fU,
  0x3d1b842bbd1345f3U, 0xbcd29739bc0a7332U, 0x3cbf2b2e3d36e51bU, 0x3b07282e3d210d21U,
  0xbd039647bd23b01dU, 0x3bde77bcbcd6d070U, 0x3a4d274a3d16dce0U, 0xbcd42d2a3c204e97U,
  0xbc5a0909bd212c45U, 0xbb4724773cc44173U, 0x3cbd4bbb3c1b4e44U, 0xba931e22bca26a45U,
  0xbb980145bb2ad68dU, 0x3d3222b0bd26f70cU, 0x3cb0b05e3cb9e1bfU, 0x3d0b8445bcbdb9b5U,
  0xbce37dac3a6786e2U, 0xbbf1d413bc75964fU, 0xbc889c073ce24c5aU, 0xbd3a369f3ccd07fdU,
  0x3b8ad3583d28e2c4U, 0xbc8db7cebd2868b4U, 0x3d1bf3883ceeb6b5U, 0x3c6b8896bc7c95d2U,
  0x3cbdf60a3cd0e3a9U, 0xbb0771653cc807b0U, 0xbb2f49443d1fbff7U, 0xbcfdea063d357fcaU,
  0xbd33cd0cbcbfbfb4U, 0x3c393b9bbd036075U, 0xbd35e009bb8ae32eU, 0xbd1a328cbd2db82eU,
  0x3c06a3103c996dc1U, 0xba81ca4f3cd132bcU, 0x3cf3d2f1bb7f6547U, 0x3d2856b93cca0855U,
  0xbd2ce6593c99c8d9U, 0xbd20f8dfbd243318U, 0xbc0bcacdbc0fd521U, 0xbd256588bca1db70U,
  0xbd181c9f3c413717U, 0x3d1a2a3d3d18accdU, 0x3ce9a22cbca9ed30U, 0x3d351cd73ce8abd6U,
  0x3c372c49bb0cf56cU, 0x3d0d6a72bc80655bU, 0xbc2a263bbd099027U, 0x3b9af797bc5d8602U,
  0xbcc0f389bd15e6f1U, 0xbc3423d2bd211632U, 0x3cde894c3c85d614U, 0xbca4ed51bc010b8bU,
  0x3bd95758bc92a5b1U, 0x3caabca33c18f7caU, 0xbcabd28fbafe247eU, 0x3b7ce6b9bc34d83aU,
  0xba2d5bc4bbce5062U, 0xbd2668ca3c88f8c9U, 0x3d35a5c1bd13647bU, 0x3b4f3ac33d34ee2bU,
  0xbcb8afefbd11b133U, 0xbb3e827e3ca4bfb8U, 0xbcc3680cbd09b25dU, 0xbcf7f25ebd25bb59U,
  0xbd1b1339bd35bb9eU, 0xbc61cf70bcd97e50U, 0x3cf09870bd123b85U, 0xbc788dfabce88dc1U,
  0xbce5f9ccbd0307c4U, 0x3d2d09cfbcb809a2U, 0x3ca2e0a8baa7b8e2U, 0xbca05d7bbba304b7U,
  0x3d15e405bc141432U, 0xbd2348da3ce76677U, 0xbd2d0b783c59f5c0U, 0xbb178429bbc1501aU,
  0xbd387f2cbd334ed7U, 0xbc9342d53c0cfd17U, 0xbbe5b6993b14dc41U, 0xbd1bf24b3a8c1596U,
  0xbcec3b9fbd167767U, 0xbd22eac03c72bd91U, 0xbd0f01abbc835a09U, 0xbb2dbeb93cb92bbeU,
  0x3b509a09bd282698U, 0xbab5dcf7bd277097U, 0x3c73ee4e3d077309U, 0x3d0764223d1e3daaU,
  0xbd2e074fbca97031U, 0xbb04d6d13d09e3a2U, 0xbc2170333c5fd9c5U, 0xbd1c23f1bcb9bab3U,
  0x3d26b44bbc56fc36U, 0xbd0843da3d29a731U, 0x3bc228d13c52d8f6U, 0x39826984bbed7defU,
  0xbd2966f43d3105daU, 0xbcdff87dbc4cf5d6U, 0xbca816b73bb481b5U, 0x3d225a083d27b58aU,
  0xbcf5e170bcfb1422U, 0xbc57774abc34c6d0U, 0xbbaae3b23cbf818aU, 0xbc38952abccf5464U,
  0x3d073c19bd1b9d38U, 0x3d00d6563c8047e7U, 0x3c8cabac3ba79430U, 0xbb2f63ec3cf6b5fdU,
  0xbc87ddbd3c89faacU, 0x3cd020efbad9e2c9U, 0xbc0fe2d23d0c1a28U, 0xbc1000a0bcba3d09U,
  0x3d075d5539de5523U, 0xbccbd11cbc07007eU, 0x3d1bff4abd25041dU, 0x3d2aa4c8bc8f35beU,
  0x3ac014e33d10a61eU, 0xbcfab286bb203d68U, 0x3b8b9fc8bca6b9a2U, 0xbd33b60f3d2c75b2U,
  0xbc6718383c3576a8U, 0x3ce2f0e0bca2062cU, 0xb9d394a63bc32170U, 0x3c6b14e73d1da212U,
  0x3d138d5b3c94cd42U, 0x3d22ef0f3cc4bac8U, 0xbce5e1003ba3ad76U, 0x3cdfe8313d39d1d0U,
  0xbd31200b3d2ec92cU, 0x3d34b6d23bef7169U, 0xbd1346ad3c477a17U, 0xbd00ac56bd27c7d1U,
  0x3c2957653c522a37U, 0x3d13c5ce3d1df662U, 0x3caf0068bc6172dfU, 0x3d1f779cbcce9b4fU,
  0x3c9a096f3d3478efU, 0x3d0ea62d3d13dae9U, 0x3c314ff5ba97a02fU, 0xbc47284cbce6a7aaU,
  0xbcc8cc5bbbd57035U, 0xb950c31d3bb459aeU, 0x3d1735983cdeb5cfU, 0xbc42f5d33c5b4524U,
  0xbc25c2073ca145baU, 0x3d0d203fbcea2de0U, 0xbd2df0da3c18e2b4U, 0x3c30aeadbb947fd3U,
  0xbce503613c8d0f68U, 0xbd266a513cd50899U, 0xbcff14fdbc916d08U, 0xbd28aca33c6f25a4U,
  0x3cf9aa4b3cb26d38U, 0xbd040bec3d313616U, 0xbcb48bd73cd00265U, 0xbcba4decbc0cfccbU,
  0xbca294a33d2201e9U, 0xbc897ec6bc8ea302U, 0xbd3365a4bceaac35U, 0x3ccbd6a2bd2ac637U,
  0xbc01fa88bcd54470U, 0x3c1fe3943cdec901U, 0xbcc901413cd1f4b0U, 0xb9f855cb3a98e6a0U,
  0xbb9ae1223d069e19U, 0x3bdfa31cbbbd30d3U, 0xbd255f7f3ced0361U, 0x3d143739bcda9982U,
  0xbc70a304bc4aca60U, 0xbd1783303cf5bc66U, 0xbc6d8603bc5a0005U, 0x3c881f8cbcec27deU,
  0x3c4f2f953c691d5cU, 0x3c4e8078bd1e4277U, 0xbc94d83a3d148261U, 0x3c3c5f52bc8aaf80U,
  0xbcc5e9ef3b08da58U, 0xbb4134143cc55d08U, 0xbc6b2b503bf3ca3fU, 0x3d375efa3b9466ffU,
  0x3cb96b96bb416bacU, 0xbcd89805bc84b9c6U, 0xb9810697bd3802b1U, 0x3c07bbd73c9e3a09U,
  0x3bec4e73bccee658U, 0x3c314b42bd35d240U, 0x3d29ffcebc8466fdU, 0x3bad606c3c3a009aU,
  0x3be379e8bc952996U, 0xbc2c68dabcd860ffU, 0xbd0e52a0bd205ff7U, 0x3c7fc971bcbec571U,
  0x3cf47f45bc634b54U, 0x3b6af198bd3690a8U, 0x3d1a4c793c651c3bU, 0xbd33524c3d3346fcU,
  0x3d28383b3c99207eU, 0x3cfee3ec3c550f0eU, 0xbb2c79d53be6ac34U, 0x3d0ec5263cab42b1U,
