/**
  ******************************************************************************
  * @file    network_data.c
  * @author  AST Embedded Analytics Research Platform
  * @date    2026-01-19T21:04:59+0000
  * @brief   AI Tool Automatic Code Generator for Embedded NN computing
  ******************************************************************************
  * Copyright (c) 2026 STMicroelectronics.
  * All rights reserved.
  *
  * This software is licensed under terms that can be found in the LICENSE file
  * in the root directory of this software component.
  * If no LICENSE file comes with this software, it is provided AS-IS.
  ******************************************************************************
  */

#include "network_data.h"
STAI_ALIGNED(8)
const uint64_t g_network_weights_array[2145] = {
  0x3dae99313e28b4bcU, 0xbdad01673e20e3cbU, 0x3e1a17983cc85625U, 0xbd1ce8703cefca0fU,
  0x3e1e1dd03dc2f615U, 0x3cf250c1bd600d63U, 0xbdc34a0a3d8558baU, 0x3e011dcebd856af0U,
  0x3e0c5d673dba2e85U, 0xbcb2041a3ddd369dU, 0x3e160a5b3c9c238dU, 0xbde05badbc8c24ebU,
  0xbe152c083b2657bdU, 0xbd379fb53d9f48b4U, 0xbda3deb03e087770U, 0x3e227f043dfaedf7U,
  0xbd56dacf3def7a6fU, 0xbc489b0b3d2f7c98U, 0x3df237cebd3c3346U, 0x3dc69dafbd89f6fdU,
  0x3db891cb3d71cd9bU, 0x3be861f4bdc3bd0eU, 0x3a3b1a00bdcf19baU, 0xbdd3599c3e2db228U,
  0x3d18a455bc103dbcU, 0xbdc5befabd664c99U, 0x3e27c557bd204d3bU, 0x3d2d62dc3deda55bU,
  0x3e1af955bd838708U, 0x3d931255bdbae8b3U, 0xbd37d2d7be0d5f8bU, 0x3c074a88bd999fd2U,
  0x3d98e0593c0a94f6U, 0xbe312ae63e21b86fU, 0x3c6f38a93cddff30U, 0xbe1d9131bd9dc20aU,
  0xbe0fba7ebde6c2b4U, 0x3e32e42a3db42dd6U, 0x3e0eaaa8be1a9807U, 0xbe225736bbb055b2U,
  0xbd34ebdebcca9226U, 0x3e247e1d3c006afcU, 0x3e0226d83e11fbbfU, 0xba566b493db8397bU,
  0xbdc705983e322303U, 0xbddd1bf93de49a39U, 0x3d5eb386bcf5d1ceU, 0x3cb8a8a73d1b379aU,
  0xbddebe813dcbebd3U, 0xbe20434cbd34ea63U, 0x3e0ea8203da4c6adU, 0xbe1c43a73e18e4f9U,
  0xb91cde02bde849e7U, 0x3cab78bf3e1a0af9U, 0x3e085d8abdf20c24U, 0x3de3d6cc3d9ab4a4U,
  0xbd9e0f723b6f7973U, 0x3d661a313d5b77d5U, 0x3d9f5e70bdbf0047U, 0x3e08b8443bc7b788U,
  0xbe1ae7f63c292847U, 0x3de2133bbdf37e94U, 0x3d85d854be0b6fb5U, 0x3e12f0013dd1566eU,
  0x3cece8c5ba77f938U, 0xbd4d634a3e1fea52U, 0x3e1874803e108950U, 0xbda67be63db2eae3U,
  0xbe1ec560be09894aU, 0x3d0446fdbd8f93ccU, 0xb8ef884dbd94e6cdU, 0xbd215c3a3e19167aU,
  0x3dd042fdbdec2b2aU, 0xbdaf4a823cdc8f51U, 0x3d016b33bd08c19cU, 0xbe2633463d3fd529U,
  0xbc71ca2fbd8bbc47U, 0xbe0c12fa3c331a21U, 0xbdbb319fbd98bf59U, 0xbd9a3384bd748d11U,
  0xbd9c4d153d930c1fU, 0xbdc21ee63dbd10f9U, 0xbe150aad3e05cf6fU, 0x3dd8aa7c3de426b9U,
  0x3e221639be23fceaU, 0x3d889438bdc51ae0U, 0x3ca87a6b3da34f42U, 0x3d9563d63dd7a647U,
  0x3ca55b853db0e19bU, 0x3dd0f02d3d3168d9U, 0x3dbe3ce8bdcd1097U, 0xbdec33e53cadb794U,
  0x3cd81e823d63cc17U, 0x3caa7943bdba2b70U, 0x3dbe82b13e303a2eU, 0x3de9346e3df8e052U,
  0x3c8a43f4bdfc6a39U, 0xbcfc243ebdfafc73U, 0xbc769ed33d2a7bf5U, 0xbd8b8fffbdd234deU,
  0xbdf2d4a4be0576abU, 0x3d1611f9bde67d2dU, 0xbd2c1d81bcd4f61cU, 0x3dab131c3b771d4fU,
  0x3b2ab114bd87abd3U, 0xbd2d932a3c473e5aU, 0x3e13e36b3de1abc3U, 0xbd807b073d8c26a7U,
  0xbe1190e63ddb7d77U, 0xbde97acc3d2e4533U, 0x3e11a825be34a083U, 0xbd11d409bd229dbdU,
  0xbdf6300a3e0b1ba7U, 0xbe0b6b04bd4555ebU, 0x3e15defa3e06af32U, 0xbe1148febe05dac4U,
  0x3df2c734bd852612U, 0x3d200959be2093d3U, 0x3e07fefebda7bc43U, 0x3e2db8f33df44f57U,
  0x3d9d59f03d89c3fdU, 0x3e1d21233d676519U, 0xbe217e56be220222U, 0x3c14e5d4bd977578U,
  0x3e3125ecbd462b11U, 0xbe0868c7bc6b9129U, 0x3de65d09be2ce885U, 0x3e2776aa3d745425U,
  0xbe2759ddbc5a00efU, 0x3ba480a1bdf5b161U, 0x3d89577e3dfc8e4cU, 0x3c6476373e0ff9c2U,
  0x3daa82163dfb300fU, 0x3d4ccc09bd9d2570U, 0x3de2aa273dcda975U, 0xbd4dfe47be18b52dU,
  0xbe0b6e9d3c5170b9U, 0x3e27788f3d9ebe1fU, 0x3d6fa621be08f288U, 0xbc689f08be14b9b5U,
  0x3e07d7ca3e16197eU, 0xbd9f6b38bd8637aaU, 0x3ba9429e3d3c20deU, 0xbd4075cf3d5f40aeU,
  0xbdae25f2bde10e2aU, 0xbd0aff01be2ae996U, 0xbdf452553cc85871U, 0xbc4fe398bc066cdbU,
  0xbe1ad7163d663fe4U, 0xbe21fae8bcb3ff0eU, 0xbe2cc39fbe0638a1U, 0x3e3111babe2a0780U,
  0xbdef8bf23d5f8cefU, 0xbcb909a83e0b359eU, 0x3d3301e3bdc0e492U, 0xbd5d1676bdde48d9U,
  0x3e172a9a3db5262cU, 0x3dad68fb3d9daa76U, 0xbe0edc6f3aed95caU, 0x3d453d473c04d508U,
  0xbd80af11be071b5eU, 0x3dcc5a20bdcaba00U, 0xbdeaee423dacbc3fU, 0x3d2457edbe058bf9U,
  0xbdc6431e3e24f4c4U, 0xbe0b6bfdbe200bacU, 0xbccedc333ddd9ddaU, 0xbe28216b3dda58b1U,
  0x3e1ec6e8bd1b81f5U, 0xbdf84d003d6d3fc9U, 0x3cbebf4a3da1470fU, 0xbdd21e71bd794b6aU,
  0x3d85f3e2bdb0fa16U, 0x3c7529ea3d2783b5U, 0x3dfcbbc33d30b862U, 0x3e0765803dccb6aaU,
  0x3c0a76bbbe00b2dbU, 0x3bdb8330bd2f627fU, 0x3ce21b0ebdff609eU, 0xbd8232d0bcd86d92U,
  0xbda31721be07045dU, 0x3d9d5f4fbdcd6489U, 0x3dd8b0efbc757e0fU, 0x3d1445c73b3521f1U,
  0x3d42e5a1bde90e77U, 0xbe170ff3bdaa1058U, 0xbdf9eb6b3e128348U, 0x3e1967863d06e806U,
  0x3e2b56efbc0b15beU, 0x3d8c4fb63c1bd275U, 0xbdfc442cbe2f7c6dU, 0xbe0d3f2dbd69ce39U,
  0xbdc54f1fbded5e6aU, 0x3e1cb4153d631cfeU, 0xbccfa2e5be124266U, 0x3dc5b2703b2eb8bfU,
  0x3c7559a5bd3377ddU, 0x3d9670e4bde15d98U, 0x3e1d2485be16c1cdU, 0x3d1812cd3e143cdbU,
  0xbdf5d637bdcea82cU, 0xbe307aaebdeeb7d9U, 0xbd2d8d823d8cb2e4U, 0xbe31984bbdfadef0U,
  0x3d10bd3c3dbf6338U, 0xbbc0e6643e002095U, 0xbda4a50ebdb23865U, 0xbe12b38c3dd3899eU,
  0xbdae92333e1981e5U, 0xbdcbbe29be26c094U, 0xbdd00754be2267abU, 0xbdded256bbd47fabU,
  0x3dfdbf12bce1fcb1U, 0xbd82d03fbda91215U, 0x3e33322c3d196eadU, 0xbb8d389abd8cd971U,
  0x3dbc08ab3e25784bU, 0x3d87ab8fbd3942efU, 0xbda9fd573e2acc2bU, 0xbc685db6bd44b81fU,
  0xbe223cd2bd88a2cbU, 0x3e1140bf3d371857U, 0x3cf3cb03bc30dcaaU, 0xbc86452b3d4091c8U,
  0xbd12c5f43d2bb972U, 0xbdba17acbd33dfa8U, 0x3d6f7957bcaac935U, 0xbdaf86153df1ca56U,
  0x3df247f8bd3cfa53U, 0xbddbce63bd1fcabfU, 0x3d5fad873e0f1b17U, 0xbd41be2c3da98f68U,
  0x3e1c46d73da2916cU, 0xbe15d1f4bc360a67U, 0xbd956f513e2d74f2U, 0xbdc27ddd3dddf670U,
  0xbdb8679c3e24b976U, 0xbdfa48c4bdd9963cU, 0x3d82e756be106ff0U, 0x3e206d163d648c94U,
  0xbe32e6853d5b804bU, 0x3dc93a71bc8a4ab7U, 0xbdb4575b3d9026aaU, 0xbdd82f6f3e1b76eeU,
  0x3d978d59bd79c7b0U, 0xbb877155bcf76bd7U, 0x3d6b48483e1dcfc8U, 0xbd1fb862bd6bef7eU,
  0xbe1812393d4827e5U, 0xbe243eb93e1b7c33U, 0xbdb3fa9d3d985ec6U, 0x3d317d7dbdbc7a3fU,
  0x3e1a0c33bd5fad98U, 0x3d472fa83b96f637U, 0x3dc1b002bde625a3U, 0x3d80dd40be2c7bdbU,
  0xbd71dc59be2f49a4U, 0xbe0f4c533e33be84U, 0xbe2e66203cd01a7cU, 0x3e04218a3b38e7d9U,
  0xbe04be01bd92ea80U, 0x3e330de4be18a55cU, 0x3e1314cebc8a920bU, 0x3da897bebdbdea00U,
  0x3d31da573e19357dU, 0xbe2da987be1f73a8U, 0xbdb2608f3d18b75cU, 0x3db85ee7bc40d23dU,
  0x3dabafc2be34f07eU, 0xbd4aee133dc9b8a0U, 0xbe091e7dbd3c7864U, 0x3c431792be26e43fU,
  0x3d36dfc0bd3dc12dU, 0xbd9861d2bcb24d33U, 0xbc855329be317709U, 0xbc48a3cbbd5b8522U,
  0x3dacc8503cd961bfU, 0xbdb2e9a0be2b4c40U, 0x3d9da77a3df70ad5U, 0x3dc5968dbdc7f76dU,
  0x3e0a25bebe0b5dcdU, 0xbd17900ebd836213U, 0xbcd19b76be1f3a9eU, 0x3e2b895ebc2edf8cU,
  0xbd57c49e3df126d4U, 0xbdd7e560be34e717U, 0x3e09a4f8bccdab7bU, 0xbe0487853dd22b56U,
  0x3d80873c3cbb0907U, 0xbdfcd8b3be203e98U, 0x3e030aee3e16e259U, 0x3dc3298f3dab4510U,
  0xbd805075bdf6d0fcU, 0xbdc0b8aabe1fef7eU, 0x3d0cfbec3ddd5e25U, 0x3da03905be03bbe3U,
  0x3d51b8d43d7c6b5fU, 0x3cc1819abdad7635U, 0x3e1d60003dcad383U, 0xbd76eee73dac8789U,
  0xbd2745c43d64ee9fU, 0xbc8ee9edbdd40addU, 0x3d2ec72dbbb94e06U, 0xbd47b4d0bdf35f4aU,
  0x3e0d7fc73d88d51cU, 0xbe18a598be216849U, 0x3e1d38fabe205144U, 0x3e1310e63e0b09dcU,
  0x3d7ca34dbd7804eeU, 0x3dbd2dcfbe0f8a76U, 0x3d8b897d3d9ecc9eU, 0xbd238ba9bdbb0a52U,
  0xba59d2713e187f56U, 0xbe2d976c3dd3f595U, 0x3e244d4d3e2293b7U, 0x3dabcd14be168eedU,
  0x3e1d6946bdf8b962U, 0x3e0bf2663c911868U, 0xbcd482c3bd6a6405U, 0xbd04ee0b3dbe77aaU,
  0x3d0e56953dc364f1U, 0x3d90f1133e0dcec9U, 0xbe0d87fe3cbf50deU, 0xbe094d033d88232fU,
  0x3ca84a4bbe11a60aU, 0x3e25f021bcfa8b7dU, 0xbe0804c53d87760aU, 0x3dc8caf0bd9dd354U,
  0xbb4a10653e0ea270U, 0xbdcbf0743c787bc4U, 0xbe3366a4bdbda834U, 0xbc4575bd3e20f9b2U,
  0x3d03e2a03e2d398dU, 0xbd9585fabdadf264U, 0x3d2f090cbdf4c7bfU, 0x3da3f98cbd5f4d13U,
  0xbda644b13db9bb5aU, 0xbc5fa6ca3e2b0d5eU, 0x3e0d3a96be13320aU, 0x3dc2e4ef3dd10144U,
  0xbc4733203c7e8855U, 0xbc97688bbdd96f9cU, 0x3c546a313e105157U, 0xbdca8b503d6ba265U,
  0xbdaf755b3dc8838eU, 0x3c9def153d825d0eU, 0x3e219682bd89b5d6U, 0x3c9cb7293e1bcdb2U,
  0x3d9e959bbd6e5d4eU, 0x3e203396bdb0fbc1U, 0xbe00fbe63dc67709U, 0x3de428833dba2ffbU,
  0x3e28e53a3e1decb8U, 0xbe18e1ecbd696a9cU, 0xbde64392bdc3dba0U, 0x3d562e52bdcfbb42U,
  0x3ded676e3e1e54fbU, 0xbcef98903de74d0bU, 0xbd66509e3a62d232U, 0xbda047c2bd8baf9eU,
  0x3dc186933d4a7720U, 0x3e109f453e28c039U, 0xbc905b913e0fcc6eU, 0x3b391e4cbb6fad12U,
  0x3c425a3e3e1d4575U, 0x3df872e8bd915c2eU, 0xbd943dfdbe171173U, 0x3dab28b63ce4a5fdU,
  0xbd8c3252bbad7f52U, 0x3d818a043d441336U, 0x3e256dbf3d3892b0U, 0x3dd2939f3e179d06U,
  0x3df44d0dbdbdade2U, 0x3df1d050bda7dd99U, 0x3d1bba15bd8c5410U, 0x3df45c22be016dbfU,
  0x3d0d50063e21e347U, 0x3c863abd3db7593dU, 0x3d089e2a3ddfe465U, 0x3df77733bdebbc94U,
  0xbe2dddf43d8a5fa4U, 0x3cb86996be0f67e5U, 0x3dda81653dfaafdfU, 0xbc86d4ee3d8a6e12U,
  0xbe0a12ebbc75eccfU, 0x3d9fc3f6bd6bea74U, 0xbc4590c93e15345eU, 0xbe017ba83dd11ae1U,
  0xbdee1958bd39a489U, 0xbdd4fa3e3dcf5a2aU, 0x3d177913bbcaf114U, 0x3cbb0af93d9f2093U,
  0xbd0e2a033d2bc34dU, 0x3e117e6fbd4fb460U, 0xbdb967623dafbf1bU, 0x3e27d9c53df4a8b6U,
  0x3e2ef4cabe2d722bU, 0xbe1b02dcbe2b5064U, 0x3c451c1cbe32bf2bU, 0x3e2b1a18bd986b91U,
  0xbd9f05e53dd49b8eU, 0x3e2c22dc3e13a01fU, 0xbe2490e63dc51b02U, 0xbe3404553e08a046U,
  0xbdff470d3e254b68U, 0x3d79526b3c588521U, 0xbbedf2c6bdab0adeU, 0x3d2f6e623e0b3b9eU,
  0xbe318c86bdc4c72cU, 0x3db795993d46932aU, 0x3ca2a7f9be24bd99U, 0xbdecbb73bd7e4bb8U,
  0xbd9eb34ebe03a509U, 0x3d7d118b3e1ee892U, 0x3ce711c5be0e89f2U, 0x3d6930d93cf7a617U,
  0xbca1ebcb3d07062aU, 0x3e0bb368bd8637e6U, 0xbd56dcffbd43f0dfU, 0xbd01da7b3da21b88U,
  0xbe02b97b3e0e2610U, 0x3d4013a1bdd765ecU, 0xbe07d27c3ce28086U, 0x3e090c46bd82e2d4U,
  0xbd0a4e403c7f50b5U, 0x3d950ed1bc642b70U, 0xbde6c33f3da77410U, 0xbe175b27bd34fb23U,
  0xbd3b832e3da04c2bU, 0x3db32a4bbdcb8bd9U, 0xbdaaf7e6bbc43691U, 0xbd98eaab3da85d02U,
  0xbc55dce43d377aeaU, 0x3e17a9b7bcef9994U, 0x3a95c135bdaa69c8U, 0xbe15c5fb3ca921eaU,
  0xbe3400263de4597aU, 0xbd08a8babcb1630fU, 0xbe093d873dcf0da1U, 0x3e15176abe0326d4U,
  0x3ce39b033cb813acU, 0x3e2d5f793c84f6c0U, 0x3de694b63d693c02U, 0xbda4a563bd92dcc2U,
  0x3bbede51bdcef0f8U, 0xbd8e4dc7ba21fa28U, 0xbd9a66eabbe5242aU, 0xbda225583deb3bf9U,
  0x3e15fe66be12453bU, 0xbe2040103e0e5679U, 0x3e13e51f3d2e9405U, 0x3d82b30e3e02c9b7U,
  0x3e0bc35bbdafcd15U, 0xbde783fabdd64fbbU, 0xbe0f81b4bcb5e99cU, 0xbe069a6cbc3f7af0U,
  0xbd1ce5f6bd29b1d5U, 0xbdcaeed03d51ac2aU, 0x3e24d3e2be0dd8cbU, 0xbe00d391bdc5027dU,
  0x3caaac43be1fe1fbU, 0x3d33acf7bdf3dbf3U, 0x3e1cc8d0bcff3050U, 0xbdd6d2a5bdf813b6U,
  0xbdcb36e2bdd20baeU, 0x3d9a87f3bb7736c3U, 0xbc75ea56bdf63cd8U, 0x3d1577673d8bae2eU,
  0xbd30539ebc5380efU, 0xbd324d39bdbbeca1U, 0xbdbc2970bcb28c2dU, 0xbda65e583d527288U,
  0xbcfeb5b83dfcd6fcU, 0x3deeb93abd897a98U, 0xbdce22dcbb1adf1fU, 0x3d2bbbf2bcf807efU,
  0xbdc46161be33e584U, 0x3dc422a33db64f55U, 0x3dc693933dca1821U, 0x3d9158f1be2b4c3dU,
  0xbe2230523e338eefU, 0x3decf4cabe318a21U, 0x3e11ad0b3de7c2eeU, 0x3e1852d4bddc8a7fU,
  0xbd9f38ea3dd66ce6U, 0xbe21f5db3d26929bU, 0xbd955ab9bc8f3e12U, 0xbde104c9bda957cfU,
  0xbe15810abe0e7cddU, 0x3e33a8ecbdafbcc6U, 0x3db58c9dbe2264e9U, 0xbd9e50093d97a878U,
  0xbdb8fd9abd901d5dU, 0x3e2828253dbe69c1U, 0xbd9b9ee4bc4ff8fcU, 0xbd862a24bda11de4U,
  0x3e2e3e0d3d1eb9efU, 0x3d7a40abbd972fb6U, 0xbd813800bd506444U, 0x3e22d5a8be033fbbU,
  0xbdc440803ddd4015U, 0x3e0e979cbe051ad1U, 0x3d3b5eb83dea347aU, 0x3e1989af3db6a16dU,
  0x3e2506213d6a22d0U, 0xbe24fb663d466f91U, 0x3d2df1853d155390U, 0xbe12f4e33e30ca52U,
  0x3e1b7dc53a699805U, 0xbe31e3e03dfba3ecU, 0x3d9a9f73bde45054U, 0x3e1dd180bde5d844U,
  0x3d3ec230bdd8e195U, 0xbb0b24dbbdb54bc0U, 0xbc152687bd83fe7dU, 0x3dce93033c472e16U,
  0x3e02fe243dbb32aeU, 0xbe2fb2063c8420fcU, 0x3dada43f3b25d8d0U, 0x3e05ffca3d409fd6U,
  0xbca5c38e3c8ed40dU, 0x3e119fe0bdb192a8U, 0xbda75d123d254731U, 0xbdb2868e3d9ed6a4U,
  0xbd7a50bcbcf4a308U, 0xbdf30aca3d9ad709U, 0xbd76bc9cbc3ae9eaU, 0x3ce44c19bd175ccfU,
  0x3d16cdc1bcdc18e0U, 0xbe010488bda0f569U, 0xbcef31dbbe2926cbU, 0x3e29fdb7be224aeeU,
  0x3b635ff83cf5a7a5U, 0xbd65c9df3d986bccU, 0xbdc6c808bddb4d7eU, 0xbdfa94edbdb1576aU,
  0x3d9862cbbe201da2U, 0x3d52fed3bdf88956U, 0xbc84bbd73e2a4a03U, 0xbd82fcac3e244cf4U,
  0x3c34c8d8bdd17f9eU, 0x3db2526abde29c88U, 0x3dcaed3c3e18bb25U, 0x3e0593a13e11971fU,
  0x3df10bb2bdf980dbU, 0xbe2b3d8ebe0cad40U, 0xbe2851ef3e254abdU, 0x3e0eb28ebb01f231U,
  0xbe0081e13dacf0e2U, 0x3e06e6cc3d754de3U, 0xbd649a80be1551bcU, 0x3d5f7a5abe12a466U,
  0xbd2aaac8be2a8ef4U, 0x3e0cafc4be30de8dU, 0x3d42945b3e18e9daU, 0x3e22612d3d66ac47U,
  0x3c929bbabdae9920U, 0x3dfb6438bddd7cdfU, 0xbe0b6f5dbcf538b8U, 0x3e0156c4bddf5d24U,
  0xbd2e5cdebd2be1b5U, 0x3e06dba73e30c385U, 0x3e1c9cd4bde92b1dU, 0xbc2705b0be07ce75U,
  0xbd93461ebdedb53eU, 0x3c98d9203e26ae91U, 0x3c472eb53e14397eU, 0x3db81e0cbdbb9c78U,
  0x3dc90155bd60b345U, 0x3d90d7663dbf33aaU, 0xbdd09446bb982837U, 0x3e09461abdbc465dU,
  0xbe07bd40be064684U, 0xbe347a0b3cacecafU, 0xbe255977bc4c8ff9U, 0x3d169ddfbe1ebadaU,
  0x3e177748be2743edU, 0xbdb25fafbd6544b6U, 0x3d34be813e00b08cU, 0xbcf388fcbdb115b5U,
  0x3db103cfbe2d6167U, 0xbdd20d84bcb1f97fU, 0xbe19156a3cda882bU, 0x3d15cd133dc3c25fU,
  0xbdcdd7f93d4aa88eU, 0x3e13f4dd3e280cebU, 0xbc8e8fd03c92c983U, 0xbd147bfcbd2b9dc2U,
  0xbdc356e4bd4ebe7aU, 0x3e14ec3fbd08cc6fU, 0x3ce7b3633e1e42b7U, 0x3d9de3023da25244U,
  0x3d83d1e0bdaa2364U, 0x3dd4b9bd3d972c6eU, 0x3e0db3d33db0fa00U, 0x3e16acaf3da53befU,
  0xbde404073e1b62c1U, 0xbd5e914bbe14bcfbU, 0xbb3d56c13957a53dU, 0x3df0fcde3e2a7a6aU,
  0xbd2725e7be1c6e42U, 0x3e006febbdf9fc3fU, 0xbc913b19be248651U, 0x3c965d9cbe0ab4b0U,
  0x3e1ce3eb3dd320ecU, 0xbd94b8853d5f6bcaU, 0xbdf954b2bdafe098U, 0x3e0f9b47bce16576U,
  0x3e306afdbdae2ca9U, 0x3e0aa3cbbe131f97U, 0x3e1c672d3cc75afdU, 0xbd5441e33c7dc4e7U,
  0xbde24ce2bc76555fU, 0x3e27ed67bdd86393U, 0xbda187623c199a1eU, 0x3e344395be149824U,
  0xbdf043dfbdb562b8U, 0xbe0704513d1a92c1U, 0x3c6fb62cbc203cf1U, 0xbdb2e5653e2a1d57U,
  0x3dd6a3503d3d815cU, 0xbdf1fbfd3e1decd0U, 0x3d9940c2be344725U, 0xbdd4f57bbe03f94fU,
  0xbdd240f2be14a55cU, 0x3d04485c3e0faab0U, 0x3e01f981bdb831aeU, 0x3e1ae1d93e0755e1U,
  0xbce7adafb9c99a4fU, 0x3e2b3898bdcb15edU, 0x3be856763be82e28U, 0x3e0c18f0be1b07c7U,
  0x3deffa99be0c1abeU, 0x3ce89d21bc835bf7U, 0x3e0679ddbe056ef5U, 0xbe00c234bd14ff3dU,
  0xbd3c14bcbe201f58U, 0xbc5384a53dbb638fU, 0xbdcb46ea3d4028d2U, 0xbda1fdf2be2a8596U,
  0x3dc04df53d32d382U, 0x3e25ad16bca5fbc5U, 0xbd88b429bd6b5b3eU, 0x3ba63462bce4ae1fU,
  0x3e1ed854be284d04U, 0xbe04a3ddbce5c535U, 0x3d8aa5b6bd8c1601U, 0x3d78c932bdfe6ee6U,
  0xbe0be2f8bca85f6bU, 0xbdc67bad3e1e9597U, 0xbd2b17a13e045312U, 0xbdb665adbce25975U,
  0xbe0ab02ebd94e19bU, 0xb93b01f53da9f187U, 0xbd61cd24be1ddf1eU, 0x3c1d0404be2f9bcbU,
  0x3cc1e63bbdd08c6bU, 0x3e0f19c0bda8f3beU, 0xbc7f4d863e285f5dU, 0x3d9fe206bd8278e8U,
  0xbe28979dbe2836c8U, 0x3c8445003e1e5decU, 0x3db288033df08e21U, 0x3c656c603e3141a6U,
  0xbb61d074bdb9d619U, 0xbdb063bdbc21c13cU, 0xbe1fc6ae3cf4c855U, 0x3dcd99e73ddb2a45U,
  0x3e101da13ded5933U, 0x3db4bf1d3d2db1fdU, 0xbe12a0b2bdf23837U, 0xbdbf0e74be32cd46U,
  0xbe2604ebbc5e6c4eU, 0x3d121b73bdaf38c7U, 0x3dc35aa83db4c358U, 0xbe1e7643bdc4e8f5U,
  0x3dc3b8debe26b257U, 0xbdc2ddddbdcd5a65U, 0xbdcb44f63e0ad4edU, 0xbdfd25fbbbd2f4edU,
  0x3b87ef603d3c0facU, 0xbd4423a1bd61da88U, 0xbe1a1396bdb1f6efU, 0xbc0bd493bd254890U,
  0xbdc4184ebbafe1bbU, 0x3cc652c13c168e5bU, 0xbdc982d2bdccb770U, 0xbc13f45a3dcce2f0U,
  0xbdac972bbe1961ffU, 0xbe2d53a43c63bb73U, 0x3e1f4317bd001e7cU, 0xbd48bc033ddc5109U,
  0xbd518e343da0edcfU, 0xbe0e8abf3ce3e39fU, 0xbceff81cbd55a250U, 0xbda55d83bd91865aU,
  0xbce47e373ce81831U, 0xbe2037e13e1f23ccU, 0xbe2464883db00bfeU, 0x3e28cff53cb138cfU,
  0x3c66847b3d86ba4eU, 0xbd3865093e238623U, 0x3de2a759bdf44ea2U, 0x3bfd8023be119760U,
  0x3e28bd51be1ececeU, 0xbe118e95be1a855cU, 0xbdfd181ebda00118U, 0x3e1dd957bd5b4c9cU,
  0x3e0a3abe3dd91fe8U, 0xbc87e51f3dd932caU, 0xbde1f86d3df575d4U, 0xbd526cdabe01fb35U,
  0xbd93e8c33a939d33U, 0x3df415ca3dbffc4fU, 0xbdba2cf63dacff72U, 0xbd677934bde9a936U,
  0x3e2906763d1bcb24U, 0xbc17e4afbd180ca9U, 0x3d5fdf61bdaff9d4U, 0x3e21b1cfbdc05088U,
  0x3cc9d1c63c697d54U, 0xbcc217ff3db0b8dbU, 0x3ccd46b73c7e10a7U, 0x3cf29bedbdf6b08eU,
  0xbe33d348be248b33U, 0x3e0758cdbba738c6U, 0x3dc23e3fbe01d82dU, 0x3dd80486bc2d5f3cU,
  0x3df25f84bdc33052U, 0xbcb5f8e7bd816939U, 0x3e25f7e1bcaa1600U, 0xbdd290213d0a83f8U,
  0xbde3099d3e2df9c6U, 0xbe1615df3d8f9fa1U, 0xbe042152bd5f9725U, 0x3c9eca8d3e06ec32U,
  0x3d2b4817bdf544c8U, 0xbe2219543dda9120U, 0xbd81bb863e34fd8cU, 0xbdf32a58be22c882U,
  0xbe0a5288be32f693U, 0x3dcaac28bd2d6824U, 0xbe20e8b13c11b95dU, 0x3d9696f4bcbc6bb0U,
  0xbdea60c0bc7940c9U, 0xbd544f253e023903U, 0x3da018213e278a32U, 0xbb9364cf3dc85176U,
  0xbd1e8771be25c6c9U, 0xbe1f82eebdfa7a1cU, 0xbda807893e0d3015U, 0xbdc750d03defe910U,
  0x3d5c7d813e0886f1U, 0xbe33b8ffbdd82bcaU, 0xbe0bce0ebc881e22U, 0xbe0a5b0bbda8bf2fU,
  0x3d8cc8bf3e079730U, 0x3d93bc69bdf3426bU, 0x3d92b89bbd507d8cU, 0x3dab4be9be053b2fU,
  0x3d6ed019be218a52U, 0xbdd681db3cf1536fU, 0xbe01b9a83df58be7U, 0xbdee9a97bd25e0e1U,
  0x3dc6b8b2bdcadb67U, 0xbddbdcc5be026d77U, 0x3e10c6cbbd0bbdbfU, 0x3e1be7ff3e33a343U,
  0x3da33ac3be26aa71U, 0xbd6adbe0bd9d166cU, 0xbc2cb3963db63523U, 0x3dd3eda43c6bf975U,
  0x3e1a2011be115e09U, 0xbe25af5abe0dd675U, 0xbd073705bd578ee6U, 0x3d2b9b923e248eeeU,
  0x3db875ac3d6fa665U, 0x3d11e884bd4127a5U, 0xbe28de773de99f14U, 0x3cdb5dc23dc3dd29U,
  0x3dc866f03e0b45c2U, 0xbdf864993d788775U, 0x3e0dfa76bcd7f941U, 0xbbaedbbfbe2e779bU,
  0x3db33946bd87a3afU, 0xbd6dbb1c3e17b301U, 0x3e268239be2f9c49U, 0xbdc852853e0a550eU,
  0x3e2ffd303e19db1eU, 0x3dd767ab3d9c5e71U, 0xbd83c0243dc3d4b0U, 0xbccefcba3dec1029U,
  0xbd2983683d9bbf36U, 0x3c67d269bd05b567U, 0x3df24ca53c7ae89bU, 0x3d502db03d18bf1dU,
  0xbce89bb7bd29e941U, 0xbe0be8d9bd31ca19U, 0xbc7954c33dee1c4eU, 0xbe026baebda5e74fU,
  0x3db6f3d3be30e19bU, 0x3d8f9309bcfd3a72U, 0xbdf17df83e235896U, 0x3e2a59ca3ddd0e9eU,
  0x3e26e9a53dff2d6eU, 0xbd54f0743e0b5b32U, 0xbdedc09d3e2b33b0U, 0x3cae019bbd0bc044U,
  0x3cdb350e3cf2e2c5U, 0xbd38b4c33e228424U, 0x3d8d80103dc48fc3U, 0xbc2448db3d67c8ddU,
  0xbd3649d83e205d40U, 0x3df2fd4fbcf0de3bU, 0x3d45cb57be2c4a0eU, 0x3d0ac0de3e203f7fU,
  0x3d824fb2bcdf3930U, 0xbd3cacbd3e02b1caU, 0xbbca2815bca99801U, 0xbe0d93f23df0e2a0U,
  0xbe26b54cbd322682U, 0xbdffca463d9c0761U, 0xbcf5a2eb3d2ecad2U, 0xbca3e6cabda6e6e5U,
  0xbdb21c3fbe080302U, 0xba67a1f9bdef3816U, 0xbe1a91c43e3045feU, 0xbddcbf63bd3aa121U,
  0xbe1310a0be2bcd6fU, 0x3d59aac73dfe545cU, 0xbcbf440d3d852b1fU, 0xbe31016e3dd381a4U,
  0x3c7faec13da2fd69U, 0xbcb188fabc820921U, 0xbc5682cc3dd04c61U, 0x3de1ed12bd4164fdU,
  0xbd76ae9f3b44420fU, 0xbe17bab6bdb68116U, 0xbd8e5802be23a8d4U, 0xbb844c4b3e21c83dU,
  0x3df428f53e0c8ff1U, 0xbb476829bd45b637U, 0xbd7e01193d810163U, 0xbe0ea2c43e2cb123U,
  0x3dfcb79bbe00fd35U, 0x3e189fe9bdba7fa9U, 0xbb09cef93dd9eb77U, 0x3d9e6f8b3dc3e5d6U,
  0xbde8b8c9be1ef07eU, 0x3e2d62d8bb6a89daU, 0xbd453bcc3c85a738U, 0x3e2b928abdf1bf60U,
  0xbdb37f743d9e2048U, 0x3d4936ac3db01ed7U, 0x3e2791f13dd8a753U, 0x3d882458be06cd94U,
  0xbdf99cf1be0c67aeU, 0xbd201fddbd2ba031U, 0x3d847cf33de96bbaU, 0xbd220e9ebe2fb66dU,
  0xbd79a9fdbe2c87f9U, 0xbd47572b3da3b00bU, 0xbdfcbf3b3d342d31U, 0xbd97aec5bd94264dU,
  0x3b2aa185bc95c4beU, 0xbd93a7d7bdbeea0cU, 0x3c61e5c1bddb9842U, 0x3cb7bd463dfb3538U,
  0x3d4575eabd7a4396U, 0x3d8daab93da49018U, 0xbd98176c3ddb54f9U, 0xbe03016d3d71722bU,
  0x3da6a6263e1e2077U, 0x3dcfbf9f3d98eb69U, 0xbdcd16fd3d5bbf02U, 0xbdf5383e3dc5e58fU,
  0x3dc64b183c9cb093U, 0xbe17b4bd3e274945U, 0x3d73ae5abdcd9c44U, 0xbda4f525bdbab2ceU,
  0xbe34e1ba3de6d47eU, 0xbd88d47abdcbef51U, 0x3e1118863d083112U, 0x3e0d614b3d8b606eU,
  0xbcad5a3ebdc6099fU, 0x3ce03f4ebd5b36deU, 0xbdc509cebe072318U, 0x3d0a7a013e037a7eU,
  0xbdf2a9ea3e31224bU, 0xbdf3ed923e2bfcd3U, 0xbd8d5ac1bd952665U, 0x3de8b60bbe186d58U,
  0x3dbe1d33bda433e5U, 0xbdb842493da16b74U, 0x3d4fb42dbdce6428U, 0x3e2706c2be2cefefU,
  0x3dad12843dfc1071U, 0x3d400d2ebcd7f0b9U, 0x3e12f58d3dcc9a23U, 0x3deefa563ce19268U,
  0x3e1125d5be143f39U, 0x3dac3ae1bd2b9d62U, 0xbc844790bd8a420bU, 0x3df560103e046b49U,
  0x3dfb7b393df85437U, 0xbd57eb823e07499dU, 0x3de6d0a63e0d03d5U, 0xbe28264dbd84d7cbU,
  0xbd9b8c2abc237cf1U, 0xbda77067be2de8aeU, 0x3e29f8d3bdf51c39U, 0xbd9575e4bd016baaU,
  0xbcecf74fbe00e35aU, 0xbe111cc8bdd8c015U, 0x3ccf8f5dbd97014eU, 0x3d7b1bac3dd67ba6U,
  0xbdaed77e3dbd62f9U, 0x3b36b3eebdfc71d0U, 0xbe082e0b3d959632U, 0xbdc44b26be03cc08U,
  0xbddd98f53e0a4fc9U, 0xbe1b2d64bd9ca5afU, 0x3af4a19e3c0e1264U, 0xbe1bdf99bdbb4ec4U,
  0x3d9bfe27be1b7ea9U, 0xbd681b9e3dac9515U, 0xbe107dd4bd07e88cU, 0x3e20582b3e0212d0U,
  0x3ded10773d7b9db1U, 0xbe131463bdae6ce0U, 0x3dd3a84fbda54ae2U, 0xbdd825233e156abfU,
  0x3e2f2e723d8437ebU, 0xbe2165e6bda3a6c0U, 0xbd52b9e83df8902fU, 0x3e1068ef3d2e05b1U,
  0x3e317a513cfd77c9U, 0x3e270d743dbb0ac0U, 0xbb8a2d8c3de087c8U, 0xbe1b03d2bdb212e0U,
  0x3cb79faabdc708fdU, 0xbc58fc5d3dba88eeU, 0x3e0219ab3e0a89bbU, 0x3b55b3ca3d3d079aU,
  0xbe1a076cbde30dc2U, 0x3d9c5c19bde87d58U, 0x3d87c0f6bd924816U, 0xbd4dbac5bc497a7dU,
  0x3ddabd96bddbca0bU, 0xbd1bd494be2cd95bU, 0x3da292bc3dbf4ffeU, 0xbe145ccebdee0e08U,
  0x3dbf6bacbd6dc5daU, 0x3e2cf30bbdccf3beU, 0x3e0b46f13d96deb7U, 0x3cfbb5233e2910ecU,
  0xbe2a74a4bd03e793U, 0xbdc9c5823dad772bU, 0xbd410aa7bde710ddU, 0xbd7edca73e0889b2U,
  0x3d2f5fc7bd9e4828U, 0x3dc6d476bd8fad1cU, 0xbdccd71ebd7b6744U, 0xbddee0833dd75310U,
  0xbd4f557dbe228caeU, 0x3dd9ec37be1efef9U, 0x3c774542bcf1714fU, 0x3dfac4a2bdde04e3U,
  0xbd9032c6be196aaaU, 0xbdfcf2d7bd44da43U, 0x3d3b2f2bbe320728U, 0x3d899566be286f21U,
  0xbe0d3f2e3c40c5c7U, 0xbdd1ca9ebe17d774U, 0xbdd66d0a3db09315U, 0xbd67dbea3dbfd33aU,
  0x3d42635ebd1f0352U, 0xbde157243e05b6bcU, 0xbdd258203de32523U, 0xbd7ae9783de9e8ceU,
  0x3e34942d3e26d497U, 0xbe02fea63dc55ae1U, 0x3dac9002bcecf5e5U, 0x3c3f5b79bdbd3caeU,
  0xbe174aaa3be03025U, 0x3d159edebd5fbdfeU, 0x3bea69253e2c95acU, 0xbe25d3413e3151abU,
  0x3daa60fabe09557aU, 0x3d8acf98be17d001U, 0xbcb886453cd71cd0U, 0xbdd8b16f3d08af06U,
  0xbd22c22e3d99cccfU, 0x3dd64604be03424dU, 0x3ddfd07c3e27d4adU, 0x3de06e4538c1701aU,
  0xbe11598d3e1bfa46U, 0x3d81c4f33e28a660U, 0xbcc415a4bc48b7dcU, 0xbdbc5e21bcd29c18U,
  0x3e2d01d6bb07e7c6U, 0x3db9341e3e2ad95fU, 0x3dda387f3d021411U, 0x3d97e60bbdbdd658U,
  0x3d1fc1443d53f354U, 0x3e24a657bd4fe6c1U, 0xbdb22b703de6ca43U, 0xbde49f263ddfa3ebU,
  0x3da45a503e1769daU, 0x3ca70eca3dc1a23aU, 0xbdfc7f0fbd3bc8fcU, 0xbe05c4653c36c71cU,
  0xbd89cad43dff8dc3U, 0xbcbbaae9be265606U, 0xbe25f24dbda0d83bU, 0xbe22691fbd9fe27aU,
  0x3d0b2f82be065d91U, 0xbdd58fe8bc7dcaeaU, 0xbe233b67bdc5ea22U, 0xbcbc8d73bd003c40U,
  0xbe238e7abd5303b0U, 0xbd3f167cbdcb091cU, 0xbccc2fa1bda5271eU, 0x3db93db23c96f28cU,
  0x3e040af5bc310feeU, 0xbe0b6ee83daf5e4cU, 0xbc29766a3d70f45fU, 0xbe345f4bbd68841eU,
  0x3decae883e0823f5U, 0xbde4ac7f3d9bb5c1U, 0x3c9d71f8bdfa9c95U, 0xbe03672ebdeb5607U,
  0xbe2cd0813e339015U, 0xbde65e1c3d91f7a7U, 0xbde08902bd7a6751U, 0x3e1a7907bd40b381U,
  0x3dd6bee33de16f94U, 0x3c986ef8bd2d095eU, 0xbcfc8f75bd027c6eU, 0x3d0d078cbddda790U,
  0x3d9383e33cfbaff7U, 0xbe0a6b7bbd61eb36U, 0x3da2b0dd3e2caf29U, 0x3da412743da4b7e2U,
  0x3da7d1e33e2a0a44U, 0xbd2480eabc05fb5dU, 0x3cf3d87e3d320c64U, 0xbd0fd2b8bd925183U,
  0xbdda7a033e0770cbU, 0x3e0cc26c3cd3dbccU, 0xbd32c4b4bd414ba4U, 0xbe211c3d3dcd202bU,
  0x3d41ddbfbbbfd9b1U, 0x3dc9e5cbbd60aa19U, 0xbd9407a73ce9ec6eU, 0xbde3d4223e1f8755U,
  0xbdf6d68dbe121b12U, 0x3e1d2d943da318e0U, 0xbcc8bad2bd0bf30cU, 0x3e13681abe0a69b6U,
  0x3d93bb163e04b6b9U, 0xbe1e34423e2312efU, 0x3db289893ca2ffa7U, 0x3d0e3ea73c609a7aU,
  0x3e063ce6bda9bd91U, 0xbdcb35debcc63f9eU, 0x3e1eabbd3de80a35U, 0x3d8ff8073e292999U,
  0xbdd0f339be1c069cU, 0x3cf007b63da6a371U, 0x3d24b7403e1a7e9cU, 0x3da8e937be1c27f0U,
  0xbca973dabda75b03U, 0x3dc7f1e43ddf9d7cU, 0xbd6e6d0f3e0f7fecU, 0x3d59123d3c999dcaU,
  0x3c5724a2be15bbacU, 0xbe11b989be211140U, 0x3e07967b3e002316U, 0xbe00dae73d9d66f4U,
  0x3e27f50cbd1ed9b0U, 0xbbd867b2bb13fa2fU, 0xbdaf37983d0bd159U, 0xbdb58bb2be0d7aa9U,
  0x3e0cc97ebd6029d9U, 0x3e3013f53e0202bbU, 0xbe1cc8b9bdc2d8e4U, 0xbde1404bbe2dd6d7U,
  0x3e30db9cbd3e59b0U, 0x3df6a4723ded18d7U, 0xbe13a2d0bd951206U, 0xbd58610bbe15b444U,
  0x3e05cd84be0acc0aU, 0xbd050adc3e185965U, 0xbdf1bac83e15d443U, 0xbd8884fc3de564beU,
  0xbcf96da4bdded141U, 0x3de8c4ed3d92382dU, 0x3e0ba209bd66768fU, 0x3def560d3d7cf9b9U,
  0x3d972359bd1ee4fbU, 0xbd438ba03d28df1eU, 0xbdbf6a2b3b95c108U, 0xbbcbed573e08f94fU,
  0x3c33e4a03d8991acU, 0xba0745d93d90d938U, 0x3c00cacc3dc76ac1U, 0xbb9b2f8ebcf58215U,
  0xbe0439a3bd1e846aU, 0xbe014cab3ce2b5ddU, 0x3ccb2f653bb75609U, 0x3bf12403be181a06U,
  0x3de6912d3decec84U, 0x3c2519fbbc241c38U, 0x3e19f322bdaba07aU, 0xbc33fc673de71836U,
  0xbdba573fbdffc17eU, 0x3d6b149f3d6819f6U, 0xbdfdade9bda580f7U, 0x3dc12e243dbadb74U,
  0x3c9590983cad2563U, 0xbe1307cfbe16f848U, 0x3d60c86a3dc115bcU, 0x3de57af63d534293U,
  0xbd8c4ab13c4f6780U, 0xbdebeb5fbd8e55fcU, 0x3da934773e070a39U, 0x3e296909bd9a0e0aU,
  0xbe2e90593e22e9a2U, 0xbd87e2e73cd1e960U, 0xbc03e076bd3ed8caU, 0xbdd5c5f7bdca7b34U,
  0xbe25c64dbd8e6b85U, 0x3d6795773d615c39U, 0xbe02138b3d854ea4U, 0xbc814ea1bd5dcb4eU,
  0xbe189e833e2ab7f6U, 0x3cf910f73e02e182U, 0x3d3fe9e43d09297cU, 0x3c11e7973d7e4b74U,
  0xbddcab123d3d9ba7U, 0xbc028b75bc9e576dU, 0xbde7afe53e129494U, 0x3d35b88ebdafa13eU,
  0x3da1a2c03dc361a9U, 0x3b77fd1bbd4962c2U, 0x3dbd52d23e02ad41U, 0x3e1960203dd7edbbU,
  0x3d90d5993d8cf091U, 0xbe2980a9be21841eU, 0xbe26a42d3e2a0a04U, 0x3e1401e13bd46ceeU,
  0xbe26a4eebd1fb10cU, 0x3e02af06bd2cdf02U, 0x3d0706793dd67f89U, 0x3d9dbc8fbd288a8dU,
  0xbe33f563bdbd272bU, 0xbe16044bbd5459c0U, 0xbdcb523dbd8b3e89U, 0xbdc9ae79bdf48665U,
  0x3d16ae3e3da94920U, 0x3c87e07bbdb08c2aU, 0xbdeec43b3d1fcc5cU, 0xbd540a17bdfe45b2U,
  0x3e01d78b3dbca1eaU, 0xbe1f0e69be016383U, 0xbd3164eabd039992U, 0xbe31c2f23e345fc7U,
  0xbd56b615bca6a2e9U, 0x3dabded9bce44d3fU, 0x3e0e7793be0eb86bU, 0x3d9a5126bc9c67caU,
  0xbd0436f8bd6ebb15U, 0xbdf0762a3e04f335U, 0x3de338ec3d127448U, 0xbe22c636be107106U,
  0xbd23ec993d46738bU, 0xbd3aa3b13e11ba83U, 0xbe185661bc869fadU, 0xbd51e812bd3acc98U,
  0x3bb87b213d49a868U, 0xbe10d925bc6c728dU, 0xbd275ff9bd657504U, 0x3c7a0765be31e19bU,
  0x3deee7ddbe11f992U, 0xbd7aaea03e33719eU, 0x3d89c03bbe0caa13U, 0xbdf7f313be01ba56U,
  0x3d87c62d3e0460b2U, 0xbd1605c1be20d59dU, 0x3dce90163c8fe591U, 0xbdb715563ca6efa2U,
  0x3e0f83ee3de45230U, 0xbd35c8663e1e7a35U, 0x3e2d6a36bd786f6aU, 0x3dab04b13df491ffU,
  0xbcf4e1e03e320554U, 0xbdf82c103d3d8e60U, 0x3d0b1788bd48e48fU, 0xbe00eb1bbd781493U,
  0xbe14588a3d1a062cU, 0x3e2a52193d73d11cU, 0xbda718343cd1a6c6U, 0x3e0c3f57be2f7769U,
  0x3e30bd67bccde226U, 0x3c4b53313dec9461U, 0xbe08c1b6be215747U, 0x3df06c7f3c908f46U,
  0x3d311a1e3e32434cU, 0xbded05463dac5b90U, 0xbd0623b63e1831dfU, 0x3d46aa5ebdb00d95U,
  0xbe23e981bdf2b170U, 0xbdd75a7c3cfb57cdU, 0x3dfde541bd75852dU, 0xbcd701f13cd4ab99U,
  0xbe1d133f3df541f4U, 0xbd7cab96bde60314U, 0xbdc9fb86bc8acb96U, 0xbd434c183defd762U,
  0x3dcd19e7be291b11U, 0x3d004d7cbe16da33U, 0x3de3e1e1bd744037U, 0xbdfbcf9cbd6e7947U,
  0xbdbc1563bdb9bdc8U, 0xbde24655bd30ca53U, 0xbb1f73823de56ae8U, 0x3e020f13be318f8dU,
  0x3dee9472be106429U, 0xbe13b6683caa4774U, 0xbd133f3e3c197a63U, 0x3bf623b3bde8296bU,
  0xbe12b6ed3e1dd0a4U, 0x3d319237bdc5b6bcU, 0x3e021a82be14423dU, 0xbc5ec7c93cf8d285U,
  0x3d5699ddbe08e5b8U, 0x3d251574be22c888U, 0xbd2545e33ceffbf5U, 0x3e2d41bb3df979feU,
  0x3e1702e3be2dea4bU, 0x3e11a01cbe09e759U, 0xbe2f2174bde29ff5U, 0xbe2634903d85dc4bU,
  0xbd186df43e22ff92U, 0xbde5fa623da440caU, 0xbe0ec4033d25e8dbU, 0xbdef4679bd1f4f7dU,
  0x3daacffebe2379eaU, 0x3d02a5773e1cf631U, 0x3e1310563d7a75ecU, 0xbd4fa9973db2f02bU,
  0x3dcaf6eabda8f9daU, 0xbd0676e83dba426bU, 0x3d19258f3e22bc4bU, 0x3d805c58be1486caU,
  0x3d21521bbdb3d123U, 0x3e1e134a3d2471e4U, 0xbdac1ce2bc7b4d5fU, 0x3e27613dbe0f0029U,
  0x3e13f179bdf0efa7U, 0x3e06fc53bcbe4830U, 0x3e20b29c3e14e974U, 0x3dcbf7213d23a764U,
  0xbdcec091bd7db011U, 0x3e04b741be14ca73U, 0x3e152f76bd69cdc2U, 0xbd295b75badadae6U,
  0x3e34d5673be68bbaU, 0xbc41e603bcefd724U, 0x3e2a93213e2cd07eU, 0xbe1e67d9bdb199fbU,
  0x3dcfd85cbe2d2707U, 0x3e1ede3dbe05919fU, 0x3bc0904d3e2022e4U, 0xbe02c4e33bebfd15U,
  0xbd28bc1d3d85df28U, 0x3dd9491b3dba178aU, 0x3e17ef2c3d2dc772U, 0xbdd9fce63e0f6699U,
  0xbc920a5fbb871faaU, 0xbb0d96a6bc388d84U, 0xbd969373bd640a78U, 0x3db0a3ddbe07d445U,
  0xbad610c63cc3a68aU, 0xbe29bb7c3c87ff98U, 0x3dcae3123ca38688U, 0x3e122057bdbddaa7U,
  0xbe233a69bd5dc326U, 0xbdae55eb3d071e45U, 0xbe2a151e3df584a5U, 0x3dfb51043dc6f24eU,
  0xbe179097bdad9d81U, 0xbc9da16fbc5c6d54U, 0x3e2d528dbc5c0234U, 0xbe0f5b2cbdb29a9bU,
  0xbc5316403e19e744U, 0xbd9fbaa0be248d0dU, 0xbd4bda3fbdd23963U, 0xbc8ab65fbc561504U,
  0xbde5bdd6bc2a9c92U, 0x3bf29fbabd9f8f78U, 0xbdf6877d3d9dc766U, 0x3e2cfd513d20a0b6U,
  0xbd81a2253e3452bcU, 0xbe32bec9bdb2dd6bU, 0xbdc0ac99bdd6d7c5U, 0xbd838820bdc43d5dU,
  0x3d826a0f3d0b49a6U, 0xbdd426e73dacf044U, 0x3d89eeec3d12df14U, 0x3dc5b2f23c4ea894U,
  0xbe0fec5e3c08f720U, 0xbc666dad3d0c317eU, 0x3df6d60bbe0b5343U, 0xbda449cb3df40077U,
  0x3e18b9c4bde0127bU, 0xbe0b57703e3010c5U, 0x3e06dc31bda192c9U, 0xbdeabe3b3d2ad3b4U,
  0xbd7d71723d9f4139U, 0xbe04aa96be2a8268U, 0x3d48d6ba3d0bfa34U, 0x3cea8ddfbcb4dbb7U,
  0xbce64c7c3e11696eU, 0xbe1b47963e303cc7U, 0xbe13d2293c717acfU, 0x3bc5157bbda0fd1fU,
  0xbda4e263be30ce5eU, 0xbe17eb52bd1c9cbcU, 0x3c2af1b03ddfdb8eU, 0x3d3b4df83df0ace6U,
  0xbe1385d1be0074b1U, 0xbd9ce9393dfcd6beU, 0x3d30ae81bdd556e2U, 0xbe05cb5d3cfc9d55U,
  0x3e274a3f3dfecc50U, 0xbe0e0464bc3f15a5U, 0x3d27b3b93e11675fU, 0xbb230cde3df8e4a4U,
  0xbe09239d3da57514U, 0xbe0a49243e17276bU, 0x3e0b93043e07e599U, 0x3db31d5bbd4e0767U,
  0x3cb85f55bb5b7e98U, 0x3cf4fe343db505e1U, 0xbe27c9993d8d7d4dU, 0xbdcef15ebd489e9fU,
  0x3db8db443dab56acU, 0xbdb2cec73dec9fd1U, 0x3dfa219f3d274dbfU, 0x3e0ef62fbdf58e06U,
  0x3da2ebebbe008b10U, 0x3dd636c2be01de8cU, 0xbe0d4d273e119be1U, 0x3d298675bd60fc1aU,
  0x3d963ff5bd918a3bU, 0xbd9526f03df6a275U, 0xbd3bc9f53da0435dU, 0x3de023ef3e226a67U,
  0x3c34dbac3ca9a713U, 0x3d4c0852bdc59901U, 0x3cef3fdd3dd3aa39U, 0xbe14400a3cb9fa62U,
  0x3dff548d3e02f04cU, 0xbd3785adbe08ab21U, 0xbddc377ebe205518U, 0xbe2375b33e14c8a6U,
  0x3dec3e5b3e1bfbe2U, 0x3dea528abe0f93fcU, 0x3e0db0993e265b9bU, 0x3c93465cbd25be2aU,
  0x3cdda015be32778bU, 0x3da0215e3d2774c5U, 0xbd8e34063dcc483fU, 0x3e039f7e3cf0ed1fU,
  0x3da817aebe1f51f4U, 0x3e19d5053dc49e06U, 0x3d50d3bf3d9a6274U, 0xbe247d1f3dc18ad1U,
  0x3e0a74693db09279U, 0xbe1b3fd9bd7ad5e4U, 0x3d9340973db9b50bU, 0x3dc2e1173deb8a14U,
  0xbdf2e43bbe149bd6U, 0x3de4558bbdd8ea1cU, 0x3d7d480ebe310da5U, 0xbe1982d03de93525U,
  0x3deed16f3db1b568U, 0xbe1240d7bd9060deU, 0xbcc4c6603e2fbfbfU, 0xbe0999f4bd2053f2U,
  0xbe0adb65bde3bdf5U, 0x3db1a58abd5e871bU, 0xbc1cb8f9be06add6U, 0x3db455ee3ccbf496U,
  0xbd1020e03e15c767U, 0xbc82351abe190fd0U, 0x3d8d689e3dd5aee2U, 0x3d147d383d31a24dU,
  0x3d3e97d93e1dbd96U, 0xbdc3d82e3d803873U, 0xbcc39871be2c6a72U, 0xbcb9a9febdbca1fbU,
  0x3ca6932ebe19f96bU, 0x3df3ec99be2e6209U, 0xbdf4f6053d3dd165U, 0xbe13fecf3dd0c82bU,
  0x3e2b57a13d8f5ae3U, 0xbe14af6e3cdf9d60U, 0x3d2fea37be1ad84cU, 0xbd9dd420be29190cU,
  0xbc8ed8a5be28a384U, 0x3e10a4cabdcbb112U, 0xbc8484d1be22c09dU, 0x3e058b9d3d287a00U,
  0x3dfff9e2be17d977U, 0x3dcdd0f5be33980bU, 0xbddd2336bd9e6299U, 0x3d0edd00bdb7990bU,
  0x3d6a062c3da79ee3U, 0x3d7e18e5bdb809bbU, 0x3b2eb7553d01085cU, 0xbe26eb2b3ddc5f60U,
  0x3d69e6ee3e0dc393U, 0xbe2067e4be0a3638U, 0x3db37c19bdbb9859U, 0xbe07b6443d9cc3a5U,
  0x3cb254243dc406a9U, 0xbd8f684fbcdc5e59U, 0xbd737ecc3e0e67caU, 0x3e2d862abe3453e3U,
  0x3e26b37f3e0f5cc6U, 0x3dfa72adbde28b7cU, 0x3d075e5abd538fd4U, 0x3e15e493bc8bf377U,
  0x3e02f16d3e101c4cU, 0x3d1a15b03cbb5823U, 0xbe1da4e7be180d6fU, 0x3b974c4e3cc10c66U,
  0x3e03cfaf3d2f3d49U, 0x3d67db843e0ce0cfU, 0xbe23f4923d859ce6U, 0xbddfe7503e155794U,
  0x3d9f64bc3d55da59U, 0x3dc5e7323e34374fU, 0x3e3128c6bd8e9786U, 0x3dfa7028bd26136fU,
  0x3dab53b63dbbca5eU, 0xbe299f8e3cac8348U, 0x3db56b0cbe1dcde9U, 0xbcd170c5bc54beb0U,
  0x3ddfee5f3caae4dfU, 0x3c30d7b73e16f986U, 0xbbe5461b3e1fabaaU, 0x3e19cf5f3e0a96e6U,
  0xbd2d3f5a3dc8aa39U, 0x3d569d8e3d76fea9U, 0xbd6345143e1e7db4U, 0x3e15d0943e111a67U,
  0xbd0cc7993df3fa14U, 0x3e33b848bd02b7f6U, 0xbe15907abc678cacU, 0xbd471519bad2ca25U,
  0xbd8f4d51bd8093a2U, 0x3d511b6e3cacd198U, 0xbd66ee15bda47d01U, 0xbc6f18d73de91fe9U,
  0xbde48a583dd37ff3U, 0x3c1500c9bdca4970U, 0xbe1c1299be316f15U, 0x3d4fc4703e304bd6U,
  0xbdeb7deabe210875U, 0x3aab568abdc296b9U, 0x3e07f7b13ccae5cfU, 0xbde75226bd1320c5U,
  0xbddf23ddbe072018U, 0xbe141db2bcb6d23fU, 0xbde0c4403d43f447U, 0xbcf04baebdf0cf61U,
  0xbd811dc33d2ee6f3U, 0xbbd379553d5f259cU, 0x3e046339bdd971eeU, 0x3d3c1b633e1be8efU,
  0xbddd3de7be0003cfU, 0xbd4993e73d216e53U, 0x3ddf2be0be067338U, 0xbd200dc4be109025U,
  0x3de64cafbdd2af63U, 0xbddcccc4bcb593b2U, 0xbdb11f663e2c4c39U, 0x3b57dbb03ddd86bfU,
  0xbe1d98303e277a7cU, 0xbdbbf3ffbd71a9a2U, 0xbd9a17c63b83a598U, 0x3d44f807bdcd04f7U,
  0xbd076edcbe0afb01U, 0x3dfd6c0dbca85453U, 0x3ddcbb60bdbeba00U, 0xbde23239be160ad4U,
  0xbe1e90e9be1da8f3U, 0x3dfb4f94bc2bbb37U, 0xbadd4b46bdcb0889U, 0x3dde44983df27f36U,
  0xbd1a4757be2a5145U, 0x3dcbcf0bbe210082U, 0xbdc9b5b0be18b641U, 0x3e1728a23cc9a441U,
  0xbd9465033e2d86f2U, 0xbe2c9905bcf34bf4U, 0x3e1566d53dcf497eU, 0xbdae7485be06a772U,
  0x3d6824b33babcd55U, 0x3e1454d83e0ee257U, 0x3ccf85dcbbb044e7U, 0xbd991ef9bd12afa2U,
  0x3d037c9a3e34feaaU, 0xbb9a98f1be12d44aU, 0x3e091af5bd269bc1U, 0x3d9dc5e23bb36f9aU,
  0xbdc378d7be0680f3U, 0x3e1fd1943d9d0a4aU, 0xbdf743453d0a7984U, 0x3d8217533e20abe9U,
  0x3dfb664e3d9b95d5U, 0x3d1958b1be0384faU, 0xbdc607783e0aebadU, 0x3df983dcbcf2ebb3U,
  0xbc5fcd6abd548334U, 0xbd106d333d3afd9bU, 0x3e1422423c950a4aU, 0xbd77da2c3e0dbc17U,
  0xbdf7f8b63d9d2639U, 0x3e0fef8bbe207378U, 0xbe038c61be0bb9e4U, 0x3db229073e153b5bU,
  0xbe26cbee3daae299U, 0x3df76f363c14aef0U, 0x3e1cd06b3dba6585U, 0xbd2b76b73c763e37U,
  0xbdd07ababdd04996U, 0x3b43adebbe19d4a0U, 0x3dfa7fd53daec8aeU, 0x3e01fa97bd818e15U,
  0x3e2a3a443cad3bd6U, 0x3cc6ae803deda6c8U, 0x3df0c33a3d23d49aU, 0xbe2d9fcfbe24e4b7U,
  0x3df2cceebe321b76U, 0x3da77d553ddbb2c6U, 0x3ddadc773c1ab5abU, 0xbe15b7c7bd18a7c8U,
  0xbc8dd3313e19e060U, 0xbe26a5af3d2310b6U, 0xbe0b313abe1b2867U, 0x3d2838ae3e194428U,
  0xba30626dbdc33f85U, 0x3e1715923dff5715U, 0xbe2858953db3185aU, 0x3da01731be30f0b6U,
  0x3db9e2493c255f74U, 0x3d9df8ebbe29ff6cU, 0x3de5c9d33e1962b0U, 0xbd7f42e53e34d2f6U,
  0x3e086e12bdcef1a2U, 0xbe0a5d45bdfe4418U, 0xbd7e16223d876233U, 0xbe2cb0e03deefaf7U,
  0x3b69fd233b6fbca0U, 0xbe0741733de000d8U, 0xbdb4fee23d489c42U, 0xbdaf668a3be043f1U,
  0xbcfee9e9bcb67d87U, 0x3d8cfba33d545094U, 0x3ccdc2c53ba43032U, 0xbdfc2a3bbe15de09U,
  0xbd55cbd5bbfa5dedU, 0x3d3aed2a3e18001eU, 0x3d99e6ebbdf58f3dU, 0x3c8f7fe03c9086beU,
  0xbd9a5adc3d1a56acU, 0xbdb88976ba58138cU, 0x3d9bfd9fbe27dbfdU, 0x3de22765bd5d176fU,
  0xbdd00e443dfc5da1U, 0x3d740babbc986150U, 0x3d11d96dbd19a05fU, 0xbd7ef5183ded3d31U,
  0xbbeed046be072725U, 0xbdd330343c9f519cU, 0x3d51ad51bd06e5b9U, 0xbe19d05f3ca07d3fU,
  0x3b85ee8cbd73dcdeU, 0x3e19b2c63e27fd9fU, 0xbe08e269bd6330d6U, 0x3e2a962a3dcee2edU,
  0xbd20bc66bd32e699U, 0x3d432a383dde0368U, 0xbd8b4b9b3d50282fU, 0xbaa95fc93d68246aU,
  0x3e1524c43cae05ceU, 0xbd70a1a4bdd0c2b3U, 0xbdc8ebe33b493d53U, 0x3d11eb863e0c7b34U,
  0xbca1294b3df9f6ddU, 0xbda9e8f73c3cf351U, 0xbc0ec3b2bdefe861U, 0xbe1b36b9be02af7bU,
  0x3deddc993e294118U, 0x3dc30669bd476c2eU, 0x3dacc9f83d851339U, 0x3c1e4c613e151685U,
  0xbd3aea9abce4b8baU, 0xbd8fbf70bc926909U, 0x3c2877f23d436a80U, 0x3d81b18c3ce2ee9cU,
  0xbdf8f2383e046135U, 0xbdc3560a3d0cc87bU, 0xbe2efb683d72c0b8U, 0x3e27e95cbe289d9dU,
  0x3e0468763e214d3dU, 0xbd95260bba8bafceU, 0xbd9166c93df2a5eaU, 0xbdf4843bbdd27e44U,
  0xbce023983e2a7afaU, 0xbdd2c2f73e221373U, 0x3da0377fbdfd90a2U, 0xbe2279d1be122073U,
  0xbde14dfe3de9cd19U, 0x3c2a97e33d9dc90eU, 0xbd65b152bd8e330dU, 0x3d2e41e8bda024fdU,
  0xbde6f95a3d6cca90U, 0x3e0ae35abd0c24d4U, 0xbe0dece1bc5c76f7U, 0x3ddc76e3bdd3948bU,
  0xbd6c4e333e01ba57U, 0xbb630247bdcf3389U, 0xbe2775f7bcd3199bU, 0xbe2cc65ebd3db555U,
  0x3d88d031bbfdd859U, 0x3dbbdda8bcdb855bU, 0xbe1f546d3dbb2624U, 0xbdba14e93cf1c963U,
  0xbd8c318f3cdee37fU, 0xbcb2bd25bc9d0fbaU, 0xbd02a6763da17029U, 0x3ca879893e2a69e7U,
  0xbe1a1e5b3e0507b6U, 0xbe15d1f93ae81c4eU, 0xbdebc4013dec3b2aU, 0x3d4d26b8bba678f9U,
  0xbdcf215abcd39fd3U, 0x3d20d4f33d28a758U, 0xbdc4fb793d5ae866U, 0x3d648f0d3d300b46U,
  0x3e25fbea3e1cac44U, 0xbe2e22c6bdedc730U, 0x3db678153d8470c1U, 0x3d7805923dd3200aU,
  0xbe2c0c1fbd3e546eU, 0x3dd1bd91bd8a6d8aU, 0xbe17a948bcbb7559U, 0x3dc110b2bd0a3d64U,
  0xbd7ba8033dc62281U, 0x3e1f47a3bddaff78U, 0x3d4e2b6cbcf25cbbU, 0x3dec5dc4bc8d8c4eU,
  0xbdb9cd593e0b4814U, 0xbe0a0d16bce4f162U, 0xbe2970d0be0d4d14U, 0xbdaaadf3bdf761b8U,
  0x3e1a1c0a3e0bb3daU, 0x3dd9b9bfbe1b7ef2U, 0xbe16ef603dd78456U, 0x3d80434fbe1f77ebU,
  0xbe29c75dbcba42c6U, 0xbd4b176bbd3c808cU, 0x3e0ce41c3d0ad1f9U, 0x3d0da0d03c1f6612U,
  0xbe0c102d3d00edb6U, 0x3da9c2763cfc1285U, 0xbe2be25b3d8eea99U, 0xbc7b1bc9bb60dfafU,
  0x3d0d0452bdfd4792U, 0xbcfdf623be2d8b18U, 0xbdf72c1a3dfa94dfU, 0x3d416dbdbdad396bU,
  0x3d84c1cbbdc5aa38U, 0x3debbfdfbda51b9eU, 0xbe0f52c2bd3e4814U, 0xbdc120eb3e24d6b1U,
  0x3db271713e20a463U, 0xbdbfe2c03dd2bb43U, 0xbd77de3d3d9d12a5U, 0x3e22946cbe2a18d7U,
  0x3e30b292bdf1c130U, 0xbd1f7d68bc755457U, 0x3c032efabde306e0U, 0xbd8f2936be08851bU,
  0xbd624882bddd5077U, 0xbdedcbb53d7ea0bfU, 0xbd2324ddbde1d822U, 0x3e270be93e1cd348U,
  0xbde93f22bdea807bU, 0x3e011121bd83cdf4U, 0x3ce9b0aebca798b8U, 0xbd7e7ab83e299b44U,
  0xbdb4a7e63e209f5cU, 0xbe10bad63de80b85U, 0xbe02cc28bdbc0e86U, 0xbe01faeabe0b5e1eU,
  0xbdcb1620bd95a8b1U, 0xbcdf063b3d9315a2U, 0xba17ab3c3c54ab82U, 0xbe1f46753e316201U,
  0x3ddba80fbd85c05dU, 0xbda180363ddba198U, 0xbdc694dbbc991502U, 0x3d5dfd4f3e0fa39eU,
  0x3dc7bdff3df7ee56U, 0xbd4b8a7abe33e038U, 0x3c14ba41bdbe1d38U, 0x3e2bb436bc23bb6fU,
  0x3d1f14ffbde5ead1U, 0xbe0dcd363df79718U, 0xbdbca696bdcc6c00U, 0x3e1f8277bde6d69aU,
  0x3e24f53d3de624abU, 0xbe20f7903e233a94U, 0x3e0d23253c775969U, 0xbcb28718bdec49c5U,
  0xbe1309473d4581c2U, 0x3e0fc57b3e32bcf2U, 0xbdd724d5be159542U, 0xbe21e613be173587U,
  0xbe1f902abdb227faU, 0x3cc169b13dbac555U, 0x3db83bde3caf3231U, 0xbe1fb7d5bcf06fb3U,
  0xbd0a4d583db3c2b5U, 0xbc9eeababdc6d5a2U, 0xbc6e48ddbcbd4bedU, 0xbd7a2b143e1574c5U,
  0xbc4755113e30c6aeU, 0xbcb00e31be1fe466U, 0x3d8aaa40be18b178U, 0x3e262fd63db69de6U,
  0x3e2cca0ebe03e133U, 0x3dc86fe33b051f03U, 0x3d8df8d03e234fa1U, 0x3d835ffdbe30588cU,
  0xbe2d8aa43e215af9U, 0x3d87df6fbd8184f2U, 0xbd2d14bfbe2146f7U, 0xbd78d8bb3e11d9ccU,
  0xbe2734c13e23d28bU, 0xbd0b9812bd869c9bU, 0xbd6edaf83deb3178U, 0x3da5c0d03d37408fU,
  0xbe06b03abdf4e4b4U, 0xbd0142e53b5a8ee2U, 0x3e0dd4cebdab1059U, 0x3df0748a3d26883eU,
  0xbd42de5cbe304b92U, 0x3e067e1bbcd42ba8U, 0xbdc38c273e059191U, 0xbd0d17693e14c0dfU,
  0xbd56a336bd113fa1U, 0x3dce78823c1a05b0U, 0xbe1238c93d3e7856U, 0x3e1ad597bdc7c703U,
  0x3d3dfb28bdcb5602U, 0x3d8c84f1be337df9U, 0xbe1e99913e07e936U, 0x3dce31253ded4aa0U,
  0x3d4edcd73d1b8d0dU, 0x3c5dad90be2af2dbU, 0xbd95bde53dbd4029U, 0xbdaa2282bd641e8eU,
  0xbde253913dad50ccU, 0x3dc0e47bbd242fffU, 0x3dda0d763c55e10bU, 0x3d84d16ebde5de36U,
  0x3d977d4bbd54dc96U, 0xbdaa36e73d8b8f7aU, 0x3e20a6a2bc67ddd0U, 0x3bc9b7a7be2e210bU,
  0x3c12a22dbe1aeea8U, 0xbd42721b3d25d3c0U, 0x3df14f14bde736f2U, 0x3dc9ff48bb976de4U,
  0x3e06cc1d3d9af182U, 0xbc987122bde3b3f3U, 0xbceb12033c53b559U, 0xbe0b902c3e21235bU,
  0x3d95f013bda64949U, 0x3c981caebd75bdcfU, 0x3d5916dcbdc6d65dU, 0x3dfdead8be310134U,
  0x3e06ea39bc88d459U, 0xbe05a5e63d415431U, 0x3d14f9fb3cffc62dU, 0x3d93c6313e30b855U,
  0x3d6475ddbd867a41U, 0xbd4c2eb43d90a868U, 0xbe24f6983c06d116U, 0xbe1882f7bd18a860U,
  0x3babe5e83e0ffd07U, 0x3b7bd128bdc5b2e1U, 0x3dffe1adbda5b435U, 0xbd20489c3e26b956U,
  0x3d91e2e8bcc991deU, 0xbd9c3b1ebcd239a2U, 0xbe23f6a4be12d85bU, 0x3e205f96bd28be26U,
  0x3dc91a17bb338bb5U, 0xbe1365723d1ef16cU, 0x3da6b549be0c7178U, 0xbc36a0d73d8b655fU,
  0x3dbcd4023cea9c5eU, 0xbd8d30a83e075056U, 0x3c3d7bb3bca8f92bU, 0x3dcf16ca3e190186U,
  0xbdbf7c96be168b45U, 0xbd863adf3dbbafdcU, 0xbb157b8f3e16fd1eU, 0xbc7106d8bd9c6a0bU,
  0xbe327abebe0f3510U, 0x3c33044cbdf5e50eU, 0xbdaf79723e14bea9U, 0x3cfe4cc2bd334833U,
  0x3d437c553e1cf2ceU, 0x3d2a71593e059fceU, 0x3d4b47373d6e2840U, 0x3dc560e13df0e410U,
  0xbd3800a03da3df11U, 0x3dcad5153da4330eU, 0x3d1c0be3bdd18de7U, 0xbd601283bd1ff225U,
  0x3cd467243dfd6183U, 0xbd9493513de906a2U, 0xbaf9743abdba5be0U, 0xbd878818be0d670aU,
  0xbe02d2853e110d0bU, 0x3d2856ee3e1e4a65U, 0xbdf658fcbdd63cd6U, 0xbd1919013d8eae49U,
  0xbd1f86b53c094d92U, 0x3d57fbf9bd7a2c7eU, 0xbd91bcd8be16e43eU, 0x3d2195fdbe2489d6U,
  0xbbb2332cbda0fedbU, 0xbcb0f9703d1001adU, 0x3d9a4fa33deec83eU, 0x3e265d433e11ae8aU,
  0x3e0e9fdfbd488317U, 0xbe0ec1b5bd2f002aU, 0x3b827d7ebdef5fbbU, 0xbdfd7018be3289cfU,
  0xbdd0131ebdc81531U, 0x3da80f5cbc9c77c9U, 0xbd9476c23cca0838U, 0xbdecb7efbe230167U,
  0xbb0580973e32d697U, 0xbe147fb8be02eb0eU, 0x3ac4d3043ddaaa8aU, 0xbd2a7fa5bdd3e070U,
  0x3e26029fbc1e928fU, 0xbde21c583e209e34U, 0x3d2202933e16f2f0U, 0x3dc223d4be1251dbU,
  0xbcd915a4bd9b6141U, 0x3e2c4b26be151875U, 0xbd1d8ae0be2569aeU, 0x3dc28fd9bd2daab3U,
  0xbe2162b6bd5187f3U, 0x3de3424b3d695b6eU, 0x3d9f0330bce28b70U, 0xbdc4db203d1d4046U,
  0x3d431cc33b4c26f8U, 0xbd96326c3e15ea15U, 0xbe1fce9e3e2d4614U, 0xbddfaa37be147318U,
  0xbcd15383bdb7323aU, 0xbe2ee532bd45c88fU, 0xbd49a3f1bddef48eU, 0x3ddfbd023e2d594bU,
  0x3c80217dbd2c06e6U, 0x3e0b5d21bda3c9aaU, 0x3dd8e0803cc98c09U, 0xbc02933cbd5020dfU,
  0xbb5a1652bda97eecU, 0xbe1c5f0ebd02bc8eU, 0xbc9fc9493cd3014dU, 0xbc4133a5bc415525U,
  0xbe0041d7be1cf0faU, 0xbca047febd91c480U, 0x3debf95c3e131508U, 0xbdc961223c886bc8U,
  0x3cccde49be2a095fU, 0x3d0423153dca80b4U, 0x3d044cb13cccc852U, 0xbe060bbfbdc8c293U,
  0xbdbee90b3e0dc1a4U, 0xbe1194663d631c4fU, 0xbe20f4773e1a9657U, 0xbdfa5e42bc29e3d7U,
  0xbe00f26bbd32a61eU, 0xbde14426bc0b2f49U, 0xbe0626b2bcd6ab25U, 0xbcbccf093e0cf939U,
  0x3dfe77323c7fb73dU, 0x3d8b00553de3e96cU, 0x3d6bff56bc62a5bcU, 0xbe195ecf3dfdb353U,
  0xbdcfdf14bda676a4U, 0xbdcc4c693d773aadU, 0xbda89298bde4cb3fU, 0xbd146396bdc45584U,
  0xbd8310fdbd7888c8U, 0xbc4b7c343d90f918U, 0xbd82aeb43df87942U, 0x3e32bab13dff1d2dU,
  0x3dba0bf6bde1ad19U, 0x3d4ab3733df8e4a9U, 0xbdaff190bd06acfbU, 0x3e050dfebdb23bb6U,
  0xbe2a44e53dc365afU, 0xbce75efabd5c1f92U, 0x3def5daa3dc55213U, 0x3cdb09d5bb8a6678U,
  0x3e0625e2bd9b2085U, 0x3deb47cc3d91112eU, 0xbcc319b13e0b74f8U, 0xbe1f6a98bdc09861U,
  0xbc6d2764bbbaa9ecU, 0xbcd7a75cbe11b9c3U, 0x3e0e64c7bb99a41bU, 0x3d5660e03e132879U,
  0x3e2fe1ad3dc4151aU, 0xbaa282a0bd18d624U, 0xbe063250bdfdf363U, 0xbe18e5bebc8f5c41U,
  0xbd9453723dd76268U, 0x3adf0f1d3ccc4b90U, 0xbd4b3b64be068df9U, 0x3de962fdbe0e9f25U,
  0xbe328930be07499fU, 0x3cabbb7bbe2d41f9U, 0x3dfa3d9f3e1b7809U, 0x3e161963bdb3188fU,
  0x3e11d2e73ddcf2f6U, 0xbc1876e13cdf524aU, 0xbbacf2c9be2bbd82U, 0xbd2920043e1095cfU,
  0x3ddcc97cbe0ac9dbU, 0x3cc89339be2e1585U, 0xbd88e52fbde98f48U, 0xbd5334c93e050accU,
  0x3dd2cbbdbdb19188U, 0xbe14ce96bcb80a4eU, 0x3e006b8b3e30c048U, 0x3dbc67413da7eb49U,
  0x3cd233aabce99ad9U, 0xbd7b5e9bbdaa4cbcU, 0x3d833017bd4dcab4U, 0x3dbab5b6bda03d98U,
  0xbdf0b94b3db2dac1U, 0x3e001153bd462163U, 0xbdfa5612bc696df2U, 0x3df005a5bd63c86cU,
  0x3dfe585ebd335fbcU, 0x3e272447bdadb2c3U, 0xbe23fa8ebe225e2cU, 0x3e2be1fdbba95ee7U,
  0x3dd2dfc5bddbff88U, 0xbdbde9c43d8006f6U, 0xbc39a4e9bde2ca98U, 0x3db3eb743d4f9028U,
  0xbbb25d6b3dfa4486U, 0xbdf011bb3c27e522U, 0xbe184aa0bd8cd426U, 0x3a9740763dc6413bU,
  0x3d97904f3e0818d6U, 0x3d4b90f4bc026327U, 0x3dfbf3febe1ed1b6U, 0xbe0d5835bd8573cfU,
  0x3e0d2f7fbdff21afU, 0x3e0fdb41bdcb9195U, 0xbd1e1dee3e1df248U, 0x3da091c3bd85e4a8U,
  0xbe2e370d3d4f2173U, 0x3e2c2c20bd393cc4U, 0x3e2051debd94dae9U, 0xbd1f7310bd088cb5U,
  0xbe035360bc3df1b3U, 0x3d25b5b9bdf25b51U, 0x3d9a2d493d54fe70U, 0x3d30efc73df7ef81U,
  0x3e0663d5be17bb48U, 0x3dcec1f23d95443dU, 0xbd1828db3d9ee6fbU, 0xbd91991dbdb199f9U,
  0x3e1422bdbda5c982U, 0xbe05a42139dfa231U, 0xbe21e48a3e277a3eU, 0xbdcdbc623e04dfc9U,
  0xbe0406793de79517U, 0xbd8b8528bd2d653fU, 0xbde3e2f0bac96a3aU, 0xbe185011be0734baU,
  0x3c0d1be03c706cb2U, 0x3d75e86fbda74d80U, 0x3d2343343e02046bU, 0xbd5262a5be046024U,
  0x3de8f20fbe1d6237U, 0x3d1215a43e205825U, 0x3e2da39bbe340ed2U, 0x3ce67b993e0d4c23U,
  0xbcb439bfbe1f93faU, 0xbde61eb03df171fbU, 0xbd92c8493d3e1d35U, 0xbdf40520bba39146U,
  0x3e07653cbe10c17eU, 0xbcfb9913bc70d1b9U, 0xbd9653343ddb152eU, 0xbde95560bc800f5fU,
  0xbd80e9f4be1ef77aU, 0xbd76f6d0bcba0c8cU, 0x3e0979e63d444165U, 0x3e1aa35ebdaa7028U,
  0xbcc4a80f3dc976e9U, 0xbc3d33503dc58241U, 0x3b5a51b8be231122U, 0x3e249c2d3aa3171fU,
  0xbe0b0b013dc82e45U, 0x3d751f65be0616a7U, 0xbdafe3063cef7617U, 0xbd48a9a6bdfa6b2fU,
  0x3e0355823d9b29aeU, 0x3e146ac2be2a9870U, 0x3e090fdf3af289a2U, 0x3e0af9b2be1d0582U,
  0x3e1a0c6dbe1a0154U, 0x3cba5f1a3d7ae556U, 0x3dae28c9bd20cf0dU, 0x3d71437abd815f17U,
  0xbcd596c1bdd0501aU, 0xbd74685dbe34bbc1U, 0xbd6704ccbd96525dU, 0x3da8f4ba3dad840fU,
  0x3e111bcb3e2bb7c0U, 0x3d6b2adf3de0b958U, 0xbe2a56f1bdf5ec6cU, 0x3cdcac873df0b06cU,
  0x3b869de93d794293U, 0xbdef8992bd37e2e7U, 0x3c92bfeb3e231f4eU, 0xbc994111bd9a511eU,
  0xbe00344b3c692fe6U, 0xbd59c561bd5e3adfU, 0xbe23819b3e301faeU, 0x3db3e3963d322c6eU,
  0x3d9e05ef3e010496U, 0x3e1821043dec83ffU, 0x3e15c6503dac4065U, 0xbde473b23cccd956U,
  0xbdf800adbc84a300U, 0xbdca337fbd0f0f8eU, 0xbdd2cee8bc403c11U, 0x3dbcfc6c3d6a367aU,
  0xbbf443ed3e18a4ebU, 0x3cbcbbfdba72d496U, 0xbd3aece03d36af56U, 0x3c753852be0349ddU,
  0x3d135497be037e88U, 0x3dc5c9fbbdd5f4efU, 0x3e2fe8ffbe2f9fb9U, 0x3df8f58e3de94faaU,
  0xbc922c663dae4f0eU, 0xbe1b7916be29f809U, 0x3d5cc23abddf3e7eU, 0xbdbeb1783dfbcd0cU,
  0x3d91cdcd3cc19698U, 0xbdf54bdd3d991132U, 0x3dc56198bbedcda6U, 0xbd2aca6c3cfeb5a1U,
  0x3d57674d3e1cb33dU, 0x3dfbba00bde60ce1U, 0xbe0833293d2a8137U, 0xbc482f903d137d23U,
  0x3dd5e7e53d1a903dU, 0x3e09d798be1283f4U, 0x3cde40dcbd712f0fU, 0x3ddc41c7be0f7c2aU,
  0xbcdce1a6be1f0c4dU, 0xbe20c5c5bc80a076U, 0x3e22dc60bd21614aU, 0x3cff2f623ac1a960U,
  0xbddede78bdc0a452U, 0xbddc0765bb93de9bU, 0xbe2b5513bd830b28U, 0x3d347d353e10b1adU,
  0xbdaa678a3e265f7dU, 0x3d5ef0bb3dcec0b3U, 0x3ccee4ba3caf7f17U, 0xbd3a29cebcda4bc1U,
  0x3db27f7e3e010b25U, 0xbddef184be211e70U, 0x3e1a461abde03351U, 0xbc34af203dd39c80U,
  0x0U, 0x0U, 0x0U, 0x0U,
  0x0U, 0x0U, 0x0U, 0x0U,
  0x0U, 0x0U, 0x0U, 0x0U,
  0x0U, 0x0U, 0x0U, 0x0U,
  0x3dd92bd1ffffffffU, 0xbc9709703cc01c83U, 0xbdab7199be010be5U, 0x3e17228a3df65c9fU,
  0xbd666005bd5a598bU, 0x3dd5abe4bd37daafU, 0x3dbad8343e17d871U, 0xbe1b7ccc3d224cc1U,
  0xbe288ac3bd11fff6U, 0x3bd4dc7a3dc4fb66U, 0x3c709eb93e094b5aU, 0x3e0ac1debd95151eU,
  0x3dbbb4ecbcd53ba0U, 0x3d9a6ff1bdd66da9U, 0xbdc612e13e0d1b0aU, 0xbdff9ad23d55cceaU,
  0x3d5109283e2789e3U,
};


